i n 3636324
e n</w> 2981064
e r 2833884
e r</w> 2803577
c h 2141845
t h 2040373
a n 1903401
s t 1789092
u n 1769229
e n 1544628
o n</w> 1526951
i n</w> 1486842
a u 1485633
th e</w> 1432498
a r 1310256
e in 1247514
i t 1241552
e s</w> 1177400
a l 1112943
in g</w> 1106819
r e 1069902
a t 1037065
r o 1005943
s ch 991421
e l 911664
o r 895415
d i 836967
d er</w> 784710
i l 772730
r a 745932
o f</w> 730639
o n 729156
un d</w> 726930
l i 691483
e m</w> 688157
s i 648722
c h</w> 645239
u r 636277
e i 629412
g e 612859
l a 609418
an d</w> 602534
b e 569031
l o 552035
s t</w> 540506
m i 538099
a n</w> 535457
s p 530397
di e</w> 519765
o r</w> 516166
h o 515185
e d</w> 494769
t i 492059
p er 489874
au f</w> 486048
r i 464880
c k 447932
a s</w> 434260
s e 420578
d en</w> 416447
s on</w> 404655
a t</w> 404089
t o</w> 400852
mi t</w> 399707
o l 398477
per son</w> 381519
l u 380715
i s</w> 379876
w it 368440
t e</w> 363964
wit h</w> 362582
f u 359435
l e 358826
a m 353422
a h 352935
t er 346028
l e</w> 343723
d e 339595
e in</w> 334911
o m 330916
g e</w> 330315
t en</w> 325113
b a 315077
o u 310353
a l</w> 309153
d e</w> 300565
ein em</w> 298754
i r 290809
s e</w> 290056
t e 289983
t a 287968
v er 286284
g en</w> 285500
at i 283175
m a 275614
n e 269670
t o 268444
ein e</w> 267895
t er</w> 264601
c k</w> 261710
s s 254163
i m</w> 253588
b o 245349
m o 245230
i e 242752
r u 237082
al l</w> 233794
ein er</w> 231446
un g</w> 227028
w h 225972
i el 224529
w e 221439
t ra 217219
d as</w> 216088
d es</w> 215113
s s</w> 213472
c t 211293
d em</w> 210704
g ro 210060
a m</w> 210000
an d 208085
b u 204199
a f 201149
f or</w> 198133
i s 196554
f o 193494
c o 192308
v on</w> 191855
a b 190768
w a 189564
ati on</w> 188938
al l 188164
g r 186917
st r 186244
ah r 180320
s h 179763
p o 178320
e t 177841
ch en</w> 175094
m an 174376
c e</w> 172333
p a 172138
f e 170605
d a 170182
sp iel 169787
f ro 167541
en t 166943
d ur 166181
h t</w> 165155
n a 163642
i m 162220
w ei 160704
a d 160201
h in 158290
s u 157395
v e</w> 157064
fu r</w> 155706
en d</w> 155540
p p 155174
m e</w> 154243
z u</w> 153286
ein es</w> 151771
it e</w> 151700
i st</w> 151385
ch t</w> 150016
au s</w> 149406
i g 147427
p la 147238
i h 146980
er t</w> 145691
er s</w> 145345
m e 145061
a r</w> 143677
m u 143216
s k 142531
u b 142251
ein en</w> 141255
d o 140940
p ar 138865
u m</w> 138260
w ar 133551
b y</w> 131871
i c 131139
w i 130765
en t</w> 127319
t s</w> 127095
k e</w> 126890
au f 126666
ba ck 125527
er e</w> 125118
si e</w> 124572
h a 124299
f or 123692
s ho 123364
l an 121681
g ra 121602
d er 121123
gro und</w> 120637
i t</w> 120235
il lu 119684
n o 119387
v e 119137
th is</w> 118971
b all</w> 118950
w in 118855
d s</w> 116437
illu str 115743
f f 114920
ct or</w> 114790
e t</w> 114373
fro m</w> 114243
hin ter 113554
m en</w> 112981
b r 112379
k ing</w> 112276
dur ing</w> 111376
gr und</w> 111222
back ground</w> 109481
y o 108828
f a 108621
illustr ation</w> 108547
o p 107900
b au 107029
m an</w> 106837
a g 106577
v er</w> 105780
k l 105104
g en 104172
p re 103971
b lu 103754
hinter grund</w> 103657
wh ite</w> 103196
t r 102442
u p</w> 102204
p ro 100594
si ch</w> 100025
st i 99804
g an 99252
sch en</w> 99066
d ing</w> 98949
h e 98910
pla y 98826
da y</w> 98748
w ahr 98621
z u 97231
u m 96195
s on 96117
s it 96115
sch af 95058
t re 94508
spiel er</w> 93993
el l 93720
wei ß 93592
el e 93316
wahr end</w> 92365
au s 91870
b all 91265
g t</w> 90960
ch e</w> 90738
s in 90620
b l 90491
lo o 90277
p i 90258
g i 90218
ti on</w> 90016
on e</w> 89794
fo o 89609
al s</w> 89478
c on 89004
di e 88706
o m</w> 88588
b er 88369
c om 88243
st ra 88021
m er</w> 87732
z ei 87555
f il 87513
q u 87068
b il 86610
b en</w> 86576
m en 86136
li e 85626
z e 84921
n ah 84534
w or 84461
sch e</w> 84196
t ing</w> 83528
re d</w> 83199
i ch</w> 83183
w o 83039
v i 82546
st e 82294
w n</w> 81865
v ie 81694
k un 81527
c a 81149
it y</w> 80907
l in 80729
h en</w> 80536
b e</w> 80127
p or 79632
st u 79541
ih r 78936
b li 78428
p e 78149
si g 78022
h al 77865
j un 77295
b i 76180
ar ti 75579
u l 75496
er n</w> 75177
ar e</w> 75133
h is</w> 74882
w al 74452
be i</w> 74384
ho u 74327
st a 74012
h er 73294
f ra 73226
w as</w> 73086
er en</w> 72866
' s</w> 72575
h er</w> 72563
n e</w> 72267
c ar 72143
f lo 71807
k t 71580
ub er</w> 71575
d en 71284
v or</w> 71028
w om 70424
l y</w> 70189
f re 70073
c lo 70029
ou t</w> 69998
m ar 69380
f t</w> 69240
ur e</w> 68420
m on 68180
u r</w> 68174
w at 68020
th e 68008
ou r</w> 67960
l er</w> 67818
n en</w> 67632
vie w</w> 67432
at e</w> 67391
at ed</w> 67197
st er</w> 67072
n i 66875
g s</w> 66838
th er</w> 66707
p f 66186
a d</w> 66181
d u 66093
foo t 66035
g o 65713
w er 65642
st ad 65625
z en</w> 65223
fu ß 65200
sch au 64612
a ctor</w> 64488
t y</w> 64373
f la 63955
st en</w> 63921
t en 63727
te am</w> 63655
ho l 63366
g ht</w> 63364
g re 62542
g el 62224
die s 62028
it i 61476
a c 61358
play er</w> 61325
w ir 61209
f in 60607
a ch</w> 60518
k s</w> 60448
s c 60424
f i 60272
g er</w> 60225
n en 60066
z e</w> 60040
man n</w> 59836
na ch</w> 59684
s un 59470
st re 59410
w ur 59375
ol d</w> 58964
b en 58578
arti st</w> 58574
d re 58437
z i 58326
p h 57904
kun st 57865
am er 57726
e x 57640
fra u</w> 57599
r an 57575
k u 57561
man n 57492
s a 57465
si de</w> 57256
na ch 57162
un ter 57146
wom an</w> 57076
b la 56846
f lu 56284
s o 56209
th at</w> 56056
n t</w> 56053
s si 55824
o ff 55609
p ho 55606
sp or 55436
c i 55416
s m 55407
ß e</w> 55008
foot ball</w> 54965
stad t</w> 54548
am e</w> 54444
g ar 54429
por tra 54266
f ahr 54228
k e 53986
ro om</w> 53914
fu l</w> 53830
schaf t</w> 53773
k on 53731
v ing</w> 53440
h r 53375
m or 53303
n ing</w> 53214
f ar 53043
g la 52964
sp e 52772
c ity</w> 52704
t h</w> 52544
p u 52536
fuß ball 52534
j e 52523
b ri 52157
s om 52062
c u 51692
g u 51527
st e</w> 51406
ar t</w> 51302
z t</w> 50659
yo ung</w> 50572
weiß em</w> 50509
r au 50281
bli ck</w> 50184
bo o 49993
s en</w> 49942
g ir 49664
yo u</w> 49664
wi e</w> 49620
ss en</w> 49287
k en</w> 49006
se t</w> 48974
m al 48852
ro u 48355
o ver</w> 48324
f am 48239
h and 47937
er i 47813
k om 47782
ati on 47466
f el 47383
wa ss 47076
h and</w> 46954
it t 46622
dur ch</w> 46291
li ch 46075
m at 46074
h i 46053
h an 45848
. . 45839
w el 45765
v es</w> 45558
bu il 45539
v or 45533
f ri 45508
w en 45459
ß en</w> 45369
ag a 45252
im mer</w> 45221
ta g</w> 45110
b le</w> 45010
th ei 44864
de sig 44838
sch war 44823
bla ck</w> 44610
w il 44560
v ol 44495
ma d 44355
r in 44248
fam il 43844
p e</w> 43833
k an 43520
af ter</w> 43461
k in 43422
t ur 43371
g h 43192
p le</w> 42945
g h</w> 42917
l and 42742
in st</w> 42725
aga inst</w> 42665
c ol 42504
ck e</w> 42327
p ol 42268
flo w 42243
ge sch 42074
l at 41939
s ch</w> 41938
wir d</w> 41900
t es</w> 41582
pe op 41451
g s 41403
f f</w> 41376
tre e</w> 41276
peop le</w> 41274
h u 41198
t ro 41195
k t</w> 41180
gir l</w> 41159
son nen 41122
sp a 41019
c e 40923
thei r</w> 40914
to ur 40834
au t 40809
s il 40733
st or 40729
gr un 40623
d ra 40607
ar d</w> 40566
e v 40554
i r</w> 40458
s o</w> 40453
fil m</w> 40403
ve ctor</w> 40244
be ach</w> 40189
f ir 40153
y ing</w> 40011
ei t</w> 39987
kunst ler</w> 39975
.. .</w> 39801
l d</w> 39742
z um</w> 39639
wa y</w> 39615
s es</w> 39520
blu e</w> 39517
h at</w> 39293
h or 39185
m s</w> 39099
w ing</w> 38917
li chen</w> 38885
on g</w> 38790
wur de</w> 38757
st y 38691
gan g</w> 38688
an s</w> 38408
li ch</w> 38358
au ti 38354
t s 38281
n er</w> 38278
g ame</w> 38274
l ei 38238
f er 38162
y our</w> 37931
ne u 37913
stra ße</w> 37859
le a 37619
p s</w> 37599
wat er</w> 37567
st ell 37468
sh i 37397
ge gen</w> 37158
h aus</w> 37135
ve kt 37114
h e</w> 37089
ter n</w> 37037
il e</w> 37031
c tion</w> 36942
sin d</w> 36931
hou se</w> 36923
h au 36894
j u 36874
m t</w> 36814
bil d</w> 36737
el n</w> 36681
m in 36435
t ed</w> 36374
schau spieler</w> 36331
ig ht</w> 36249
p at 36103
loo king</w> 36039
it en</w> 36031
m y</w> 35928
d ar 35849
lo w</w> 35830
s am 35825
rou gh</w> 35763
c t</w> 35697
y s</w> 35638
st o 35611
c ou 35607
mad chen</w> 35502
par k</w> 35486
pre mi 35460
y m 35454
i e</w> 35397
sp ie 35360
w s</w> 35236
z immer</w> 35199
g ol 35174
k er</w> 35172
ou t 35151
str and</w> 34951
k o 34846
r un 34826
sch u 34671
pho to</w> 34630
p lan 34606
or s</w> 34379
kl ei 34372
in to</w> 34348
ho me</w> 34257
to p</w> 34072
li ke</w> 33834
ck en</w> 33822
ic al</w> 33762
premi ere</w> 33741
g a 33633
m ent</w> 33586
le t 33566
o li 33468
bl au 33411
in s</w> 33351
o lo 33341
m er 33036
no w</w> 33015
f en 32969
b ei 32967
it s</w> 32964
wo o 32953
h el 32934
se hen</w> 32926
g er 32913
ne w</w> 32844
th rough</w> 32750
ub er 32736
s h</w> 32514
ihr e</w> 32468
jun ge</w> 32435
lin e</w> 32275
te t</w> 32265
et te</w> 32215
der n</w> 32117
c ro 31992
te x 31969
ch e 31910
al e</w> 31885
s en 31879
ti me</w> 31865
h ab 31856
is ol 31768
st and 31742
l en</w> 31715
ent s</w> 31696
in ter 31661
ge b 31639
be auti 31588
f ru 31583
on s</w> 31502
isol ated</w> 31478
f en</w> 31447
- -</w> 31445
mu si 31415
c ar</w> 31362
fro nt</w> 31337
c re 31310
st ri 31209
t u 31149
beauti ful</w> 31107
re i 31097
ck t</w> 31080
b re 31062
bi olo 30935
d in 30913
c ele 30851
wo h 30818
per for 30781
n ight</w> 30705
t ri 30643
cele br 30578
g es</w> 30550
sin e 30544
bu sine 30540
li che</w> 30285
f ei 30031
l es</w> 29987
w ol 29919
k ar 29860
st ru 29786
t ung</w> 29766
m il 29711
c or 29511
do wn</w> 29438
un ter</w> 29436
ha ve</w> 29417
clo se</w> 29380
s ur 29368
sch ne 29331
ma de</w> 29253
pa in 29216
auf nah 29206
st at 29195
an t</w> 29138
at tra 29107
fir st</w> 29101
un ta 29083
sk y</w> 28848
co lo 28840
gre en</w> 28774
sit ting</w> 28763
t ei 28722
sch la 28718
s er 28695
m et 28688
h im 28544
ch es</w> 28512
vekt or 28510
me l</w> 28487
portra it</w> 28476
e ar 28415
is oli 28346
ho ch 28255
i ma 28253
m it 28175
to gra 28170
ju st</w> 28156
h as</w> 28143
o l</w> 28051
wer den</w> 28048
li ght</w> 27967
a k 27914
sho w</w> 27914
d r 27849
b t</w> 27807
ch ar 27738
l and</w> 27714
s ol 27698
i l</w> 27686
si cht</w> 27659
wass er</w> 27614
p in 27570
b er</w> 27544
b an 27530
spie l</w> 27513
un gen</w> 27388
b ro 27349
men schen</w> 27332
b ar 27315
ch ri 27303
co un 27266
r en 27139
k i 27100
ba ck</w> 27025
f e</w> 26999
be t 26956
wa r</w> 26953
dre ss</w> 26856
er e 26837
j o 26829
sty le</w> 26824
fo to</w> 26816
desig n</w> 26815
d el 26777
h r</w> 26773
pi ct 26771
pa ar</w> 26768
ss es</w> 26763
i c</w> 26680
mo de 26663
o der</w> 26581
ta ge</w> 26505
v al</w> 26432
u e</w> 26424
aufnah me</w> 26381
sil hou 26376
ro ad</w> 26373
st er 26319
ou s</w> 26281
ge l</w> 26214
bau m</w> 26147
p lat 26114
mo unta 26103
d ed</w> 26027
we d 25999
som e</w> 25974
sch on 25946
fe sti 25903
st ar 25792
ch il 25785
loo k</w> 25773
buil ding</w> 25758
te l</w> 25691
l ar 25640
amer a</w> 25612
sch er</w> 25551
fil m 25540
wen n</w> 25509
ze u 25502
g ru 25459
at ur 25445
ze it 25421
tra in 25364
woh n 25363
gro ß 25327
d un 25316
f t 25308
v in 25293
flow ers</w> 25269
p ri 25210
l au 25123
f iel 25111
ba sk 25051
l itt 24993
s ed</w> 24953
c an</w> 24952
d iti 24948
el t</w> 24915
v om</w> 24902
stre et</w> 24864
o ther</w> 24858
ar ch 24836
him mel</w> 24829
ta ble</w> 24760
spor t 24752
mann schaft</w> 24742
litt le</w> 24720
sch i 24704
or gan 24697
i ce</w> 24666
da ss</w> 24652
ge bau 24651
b ru 24624
o ff</w> 24551
h ig 24506
zei t</w> 24504
portra t</w> 24500
mat ch</w> 24316
schwar z 24298
at ing</w> 24225
sm all</w> 24218
a th 24207
f ig 24126
si e 24126
fo re 24108
k at 24044
ck s</w> 24012
de t</w> 24007
zu r</w> 23982
ch ten</w> 23965
s el 23951
r e</w> 23891
ch en 23848
p er</w> 23813
al i 23791
j ahr 23732
d y</w> 23714
fußball spieler</w> 23712
se in</w> 23652
e m 23606
fu hr 23420
s se</w> 23382
k es</w> 23380
hal t</w> 23365
pp y</w> 23247
sho t</w> 23232
d ge</w> 23192
z en 23171
k or 23082
ri ver</w> 23008
b ir 22939
ar y</w> 22898
ste ht</w> 22869
chri st 22851
sit zt</w> 22843
ro ck</w> 22733
a pp 22725
h aus 22695
wil l</w> 22694
die se</w> 22665
spiel s</w> 22647
re st 22609
ihr en</w> 22599
ima ge</w> 22590
coun tr 22558
sonnen unter 22469
ch er</w> 22459
hol z 22438
in e</w> 22423
c al</w> 22417
tour i 22360
ho w</w> 22328
an im 22320
win ter</w> 22314
isoli ert</w> 22294
sch n 22286
zei ch 22223
b un 22149
s ing</w> 22134
st en 22093
a ge</w> 22087
ic i 22073
bo y</w> 22060
l auf 22037
do g</w> 22029
ch te</w> 21970
sun set</w> 21917
wed ding</w> 21913
t t 21775
tre es</w> 21720
f all 21654
famil y</w> 21631
se a</w> 21611
fiel d</w> 21603
h ne</w> 21479
ev ent</w> 21478
ti sch</w> 21445
tei l</w> 21444
se e</w> 21395
ar be 21386
on al</w> 21357
par ty</w> 21321
all y</w> 21320
w all</w> 21289
g lu 21269
b al 21263
lo ve</w> 21253
f un 21250
fu l 21242
sch w 21234
ih r</w> 21229
k re 21201
b ur 21097
un der</w> 21091
pp e</w> 21085
wh ile</w> 21060
silhou ette</w> 21031
w e</w> 20944
k op 20931
re m</w> 20921
f is 20889
la p 20860
ih rem</w> 20858
zei gt</w> 20849
f lie 20800
l s</w> 20743
t y 20713
bu t</w> 20704
p an 20675
g o</w> 20648
su m 20624
mode l</w> 20613
spa zi 20607
spor ts</w> 20586
ba se 20574
a war 20572
st al 20572
ge schaf 20554
wi r</w> 20549
it t</w> 20538
be for 20499
wal king</w> 20491
b lo 20486
h un 20458
en de</w> 20457
bask et 20454
s now</w> 20451
hab en</w> 20412
f l 20315
ic an</w> 20306
we g</w> 20257
befor e</w> 20241
d ri 20197
l ed</w> 20194
te m 20178
e l</w> 20152
d an 20137
sonnenunter gang</w> 20131
h ei 20101
s ym 20087
busine ss</w> 20076
sch ie 20066
v o 20024
la ch 19999
win do 19982
p t 19940
ss en 19935
l ing</w> 19910
wor ld</w> 19902
il ing</w> 19884
p ra 19879
f ol 19862
n s</w> 19825
for m</w> 19822
amer ican</w> 19821
ma ke</w> 19785
festi val</w> 19767
to s</w> 19766
c la 19741
f er</w> 19708
sta ge</w> 19688
clo u 19621
or t</w> 19609
fel d</w> 19608
hol ding</w> 19597
the y</w> 19586
bei m</w> 19571
se en</w> 19567
car to 19561
c li 19560
tra diti 19558
cou ple</w> 19491
ne h 19444
mu ster</w> 19428
al ong</w> 19394
z ie 19349
f all</w> 19342
no t</w> 19333
ar o 19325
in du 19288
pat tern</w> 19230
t an 19221
g ing</w> 19129
b el 19086
dies es</w> 19086
st s</w> 19003
be su 18994
k ti 18986
r ing</w> 18978
er te</w> 18975
m as</w> 18907
spe ci 18902
t ru 18880
aro und</w> 18849
k a 18814
wh ich</w> 18778
woo den</w> 18774
au to</w> 18674
ath le 18652
ba by</w> 18643
at es</w> 18606
a ir 18568
se l</w> 18523
i z 18498
c er</w> 18424
sh e</w> 18391
ni cht</w> 18382
t ter</w> 18342
ha ppy</w> 18293
le ss</w> 18280
k it 18258
pol it 18237
t at 18216
w and 18197
o d</w> 18190
christ mas</w> 18188
fore st</w> 18157
se ite</w> 18150
tr an 18140
stand ing</w> 18138
li gh 18128
t z 18101
at s</w> 18074
the se</w> 18033
ab er</w> 18032
t or 17982
f ans</w> 17975
f an 17934
ph one</w> 17933
u s</w> 17931
c ti 17899
gar den</w> 17893
en ing</w> 17846
lan g</w> 17846
pro du 17816
countr y</w> 17814
la r</w> 17796
e y 17785
wh at</w> 17658
gar ten</w> 17640
aut om 17633
de ta 17621
wei h 17616
ar ing</w> 17611
dies er</w> 17595
jun gen</w> 17571
po li 17566
a st</w> 17551
at t 17545
or an 17517
lar ge</w> 17503
le u 17500
ch t 17481
f le 17478
weiß en</w> 17475
et s</w> 17472
cu te</w> 17448
g ical</w> 17420
k tion</w> 17340
gla ss</w> 17321
fa ce</w> 17307
ab stra 17272
br au 17248
h eit</w> 17244
at ten 17209
weih nach 17206
w ie 17194
n ation 17185
e ar</w> 17184
organ is 17184
w er</w> 17120
mor e</w> 17095
rest au 17086
dies em</w> 17083
sig n</w> 17072
i de 17057
st ro 17050
n ed</w> 16994
b ra 16959
ver an 16950
si on</w> 16944
ver y</w> 16922
s er</w> 16900
v ed</w> 16886
sh a 16853
hand s</w> 16849
en d 16806
al ten</w> 16775
it e 16772
wh o</w> 16750
c ri 16709
her b 16701
nah e</w> 16700
el s</w> 16690
pol iti 16689
k auf 16682
er sten</w> 16680
k am 16633
n y</w> 16610
s eine</w> 16604
il l</w> 16541
char ac 16539
wal d</w> 16524
d ro 16510
wh en</w> 16490
sch es</w> 16481
k ur 16442
n u 16437
stat ue</w> 16431
mal e</w> 16429
sch il 16414
na cht</w> 16414
ab out</w> 16383
loo ks</w> 16368
h ar 16364
sto ck</w> 16362
sti l</w> 16339
sta g</w> 16326
play ing</w> 16325
fa shi 16305
k en 16303
autom o 16289
i ge</w> 16272
k ed</w> 16269
lich er</w> 16254
wass er 16253
shi p</w> 16187
b ah 16167
at en</w> 16166
boo k</w> 16109
d ung</w> 16080
nah aufnahme</w> 16074
glu ck 16013
j a 15987
er ten</w> 15969
r it 15941
polit ici 15929
ihr er</w> 15906
bo at</w> 15887
p al 15846
kan n</w> 15831
ck et</w> 15802
restau ran 15801
ne t</w> 15790
t ting</w> 15750
bl at 15742
pho togra 15728
un der 15691
s einem</w> 15686
k la 15674
rau m</w> 15656
ar ri 15647
h und</w> 15616
hig h</w> 15610
v il 15602
al en</w> 15601
ent lang</w> 15589
bo ard</w> 15583
bo den</w> 15577
kl einen</w> 15575
un i 15574
c es</w> 15571
ge t</w> 15512
zu g</w> 15473
biolo gical</w> 15454
pin k</w> 15396
ell en</w> 15389
do or</w> 15373
it et</w> 15349
blu men</w> 15319
ssi on</w> 15319
la ge</w> 15295
kar te</w> 15291
wel t</w> 15288
sum mer</w> 15277
politici an</w> 15266
veran stal 15257
im m 15246
flu ss</w> 15242
a ct 15238
biolo gi 15222
out side</w> 15220
w ere</w> 15212
y el 15199
me er</w> 15174
re ad 15166
ter s</w> 15155
so c 15145
po p</w> 15132
ru ck 15096
n am 15064
ba r</w> 15063
yel low</w> 15002
per son 14998
fe u 14992
sch o 14991
n or 14977
mor ning</w> 14976
i or</w> 14968
th ing</w> 14961
stu d 14957
er in</w> 14950
po p 14950
ne ar</w> 14938
pp ing</w> 14935
p ing</w> 14878
en den</w> 14856
bri dge</w> 14850
c ra 14824
ere mon 14808
mo st</w> 14800
charac ter</w> 14793
co ver 14780
ha ir</w> 14760
windo w</w> 14744
in gs</w> 14700
t em</w> 14698
ra l</w> 14696
er n 14676
be g 14651
w an 14640
se a 14615
vi de 14602
l ong</w> 14599
b or 14596
i en</w> 14588
f fe 14534
st ern</w> 14523
mounta in</w> 14516
m es</w> 14505
1 9 14502
at er</w> 14490
y ear</w> 14459
ch ing</w> 14451
w and</w> 14385
ro l 14377
ma cht</w> 14351
fashi on</w> 14334
su n</w> 14329
hi stor 14312
v iel 14287
t v</w> 14285
pf er 14281
at e 14270
fre un 14269
al le</w> 14266
plat z</w> 14264
te il 14251
be we 14222
z ah 14218
to wn</w> 14218
pain ting</w> 14210
el le</w> 14207
fahr t</w> 14203
foo d</w> 14202
for m 14177
th ere</w> 14136
geschaf ts 14121
win d</w> 14116
li cht</w> 14113
n is</w> 14104
schne e</w> 14098
un gs 14084
ar e 14074
r y</w> 14066
gro ßen</w> 14062
c lu 14036
colo r</w> 14036
fen ster</w> 14027
lo c 14015
tex t</w> 13990
e p</w> 13968
p t</w> 13947
he ad</w> 13947
mar k 13945
eri al</w> 13939
wor k</w> 13908
kit chen</w> 13874
pf lan 13859
bru cke</w> 13853
a de</w> 13822
spiel t</w> 13810
bu ch 13804
a ir</w> 13803
g old</w> 13792
vektor illustration</w> 13785
po si 13783
p ub 13752
pla ce</w> 13743
com p 13728
c ent 13725
l t</w> 13706
la ke</w> 13683
veranstal tung</w> 13676
fig ur</w> 13674
in side</w> 13667
i ert</w> 13659
d d 13650
il s</w> 13645
ge ht</w> 13642
we e 13630
s einer</w> 13612
pub li 13602
ro ten</w> 13596
kom men</w> 13595
ß en 13551
hal ten</w> 13531
vin tage</w> 13530
c ur 13526
li ving</w> 13525
gro up</w> 13523
dar k</w> 13498
ein g</w> 13496
c am 13493
mil it 13486
c at</w> 13471
fru h 13468
ri e 13446
mo der 13446
bu hne</w> 13441
automo bil 13431
i sche</w> 13412
im mt</w> 13410
boo t</w> 13398
s at 13397
b and</w> 13394
i en 13364
lu ft 13338
flow er</w> 13336
pict ure</w> 13331
h of</w> 13320
soc cer</w> 13316
wal k</w> 13297
klei d</w> 13275
ir t</w> 13243
be de 13229
ati ve</w> 13229
t al 13227
s st</w> 13217
gebau de</w> 13202
c amera</w> 13193
carto on</w> 13179
n ung</w> 13177
v en 13177
gra ss</w> 13174
j ah 13169
tr itt</w> 13158
s ca 13141
fre e</w> 13141
g it 13136
n at 13115
st an 13114
p it 13108
clou ds</w> 13089
s and</w> 13087
bi g</w> 13081
i f</w> 13076
sp la 13071
v el 13060
ho li 13059
col le 13058
st ur 13047
wol ken</w> 13029
n o</w> 13026
ß t</w> 13020
ch ter</w> 13019
we aring</w> 13011
par t</w> 12996
ca ke</w> 12996
mann es</w> 12982
kin d</w> 12950
z we 12939
qu ar 12886
fe l</w> 12869
gro ße</w> 12838
athle te</w> 12838
en ds</w> 12779
chil dr 12776
t lo 12764
tour ist</w> 12754
s and 12736
se am 12729
t zt</w> 12716
sp i 12705
childr en</w> 12682
ss ing</w> 12671
sch one</w> 12667
h ere</w> 12646
o b 12633
st and</w> 12624
ab le</w> 12622
x t</w> 12617
z o 12613
arch ite 12612
d au 12607
famil ie</w> 12604
be hin 12602
me di 12600
c an 12570
seam less</w> 12557
sk y 12550
er ung</w> 12549
ge d</w> 12539
cro w 12533
f rau 12523
c le</w> 12521
it er</w> 12521
de cor 12507
p rin 12488
ch tet</w> 12484
d o</w> 12479
hau se</w> 12466
nah tlo 12456
tra gt</w> 12453
be en</w> 12425
speci es</w> 12408
restauran t</w> 12390
sym bo 12375
le ben</w> 12348
k no 12342
he art</w> 12334
k amera</w> 12314
kl eine</w> 12299
ful l</w> 12293
lap top</w> 12293
sti c</w> 12292
flo or</w> 12273
son ne</w> 12259
ol ym 12255
c le 12238
re g 12226
anim al</w> 12226
weihnach ts 12217
com pu 12214
se con 12206
ff er 12206
sie ht</w> 12205
man y</w> 12194
flu g 12193
kin der</w> 12188
att end</w> 12184
di re 12167
o ver 12166
z ur 12132
gru ppe</w> 12121
l ate</w> 12118
let z 12117
schon en</w> 12111
tr au 12097
e y</w> 12086
ma chen</w> 12086
olym pi 12078
hoch zeit 12070
ku che</w> 12051
h at 12048
s le 12043
v en</w> 12032
sch ri 12030
to o</w> 12022
o w</w> 12015
ne xt</w> 12012
sch a 12001
col or 11998
be d</w> 11995
sm iling</w> 11984
kat ze</w> 11975
ou ld</w> 11957
mark et</w> 11938
a erial</w> 11937
sp ar 11924
s mar 11909
en g 11901
re fle 11901
stu ck</w> 11893
sch en 11888
w ould</w> 11882
nach dem</w> 11880
wa ch 11875
mo dern</w> 11873
m itt 11858
v is 11858
ge m 11854
are a</w> 11847
i d</w> 11839
mo del 11838
ro ck 11836
s qu 11810
pre s 11808
schne e 11805
perfor ms</w> 11799
s einen</w> 11787
- kunstler</w> 11785
zur u 11781
zeu g</w> 11763
i es</w> 11691
g lo 11650
secon d</w> 11570
lea ves</w> 11566
ta ke</w> 11556
d am 11552
sca pe</w> 11544
s au 11541
ge hen</w> 11525
atten ds</w> 11522
fla g</w> 11488
ha d</w> 11483
behin d</w> 11479
h af 11475
biologi sche</w> 11471
lie be</w> 11455
g le</w> 11452
politi ker</w> 11444
pp en</w> 11439
re li 11429
le t</w> 11422
sch ul 11417
re gi 11413
a bo 11406
ch ti 11398
wur den</w> 11392
s eri 11365
s ite</w> 11362
g ung</w> 11355
p en 11340
op en</w> 11340
pp ed</w> 11338
spiel en</w> 11330
i gen</w> 11316
run ning</w> 11309
ch an 11306
or y</w> 11299
d rin 11288
ss ed</w> 11280
kon nen</w> 11278
br an 11255
kom mt</w> 11255
in n 11252
n ie 11237
ri ght</w> 11236
t ou 11234
neu en</w> 11218
fer n 11207
abo ve</w> 11206
stu di 11186
le ben 11182
play ers</w> 11175
po ol</w> 11171
neh men</w> 11167
wh ere</w> 11166
t or</w> 11125
b eing</w> 11107
t in 11080
cover ed</w> 11069
ne ben</w> 11047
c ing</w> 11036
reli gi 11028
wat er 11010
en e</w> 11008
ste hen</w> 11008
color ful</w> 11002
basket ball</w> 10990
gra ph 10985
schil d</w> 10967
train ing</w> 10960
be d 10947
t ur</w> 10943
chil d</w> 10930
je ans</w> 10893
aut um 10891
wom en</w> 10887
ation s</w> 10886
land schaft</w> 10886
weiß e</w> 10883
indu stri 10883
gra s</w> 10872
far be</w> 10869
spe zi 10859
holi day</w> 10854
fo togra 10834
le ft</w> 10774
haus es</w> 10765
sc re 10745
la st</w> 10743
ct ed</w> 10742
mu tter</w> 10739
sam m 10735
s w 10730
i schen</w> 10727
s al 10724
base ball</w> 10715
spa ce</w> 10711
blau en</w> 10711
symbo l</w> 10680
ge sehen</w> 10672
far ben 10644
c en 10642
o ben</w> 10635
touri sten 10632
d - 10629
u red</w> 10616
par t 10615
grun en</w> 10615
ma p</w> 10608
jun ger</w> 10604
zu sam 10581
d ru 10574
ver lei 10564
di ffer 10559
ro s 10554
sh irt</w> 10527
re gen 10514
ge ben</w> 10481
an other</w> 10458
o ber 10454
al ter 10452
re ih 10451
attra ction</w> 10412
lo go</w> 10408
den en</w> 10405
s ou 10398
awar ds</w> 10395
0 0 10390
w all 10383
ct ure</w> 10383
vide o</w> 10383
autum n</w> 10351
s an 10342
n immt</w> 10328
mounta ins</w> 10328
stell t</w> 10324
per fe 10318
off ice</w> 10288
ta b 10279
sh or 10279
he ad 10277
di en 10270
fe st 10269
sho wing</w> 10259
m ei 10245
di spla 10241
herb st 10240
p on 10238
b is</w> 10218
bau me</w> 10214
blau em</w> 10214
k te</w> 10196
kop f</w> 10170
e ach</w> 10157
z er</w> 10146
hau pt 10117
gr au 10115
k ir 10105
li fe</w> 10100
u sing</w> 10093
celebr ates</w> 10088
s k</w> 10082
al te</w> 10072
som e 10068
c ir 10058
d ol 10057
ro ss</w> 10055
neu e</w> 10051
ro und</w> 10041
stell ung</w> 10029
z er 9994
s day</w> 9985
on en</w> 9984
ch o 9980
sp it 9980
bri de</w> 9977
b in 9976
en jo 9973
kt ur</w> 9964
be l</w> 9960
hel d</w> 9950
ro y 9945
br in 9944
sit zen</w> 9942
compu ter</w> 9940
ber u 9938
aus ge 9934
ein fa 9932
p ed</w> 9929
win ter 9916
ku ste</w> 9912
to ge 9903
wh e 9899
k el 9889
po in 9884
fei ert</w> 9883
s no 9869
gi bt</w> 9855
bu ch</w> 9852
toge ther</w> 9851
ac ross</w> 9844
mar kt</w> 9843
sea son</w> 9835
ro w</w> 9824
land scape</w> 9820
schla f 9811
mo ther</w> 9781
t ter 9776
ber e 9772
d u</w> 9770
k ten</w> 9764
ban k</w> 9741
ro man 9734
touristen attra 9734
ligh ts</w> 9721
p ur 9717
sky line</w> 9711
c ed</w> 9707
k ra 9699
en s</w> 9679
mo tor 9678
k ran 9674
an sicht</w> 9659
sp o 9659
we en</w> 9656
k af 9638
lauf t</w> 9634
a k</w> 9630
pro te 9619
spezi es</w> 9618
al so</w> 9615
schwar zen</w> 9615
ig er</w> 9611
el l</w> 9593
w under 9559
gla sses</w> 9551
stu h 9543
ch ed</w> 9539
t ele 9528
th ou 9523
n um 9521
kun st</w> 9520
au tos</w> 9504
ho tel</w> 9497
un s</w> 9482
hor se</w> 9481
schwarz em</w> 9481
sun ny</w> 9480
sno w 9467
lich es</w> 9465
z ent 9459
pa per</w> 9451
sch lu 9440
an ti 9417
ell er</w> 9414
blu ten</w> 9408
3 d</w> 9404
st ab 9403
hal f</w> 9397
fla g 9352
oran ge</w> 9343
touristenattra ktion</w> 9341
al li 9333
kl eines</w> 9330
st ar</w> 9322
c y 9315
u p 9313
fri ends</w> 9299
traditi on 9288
i kan 9280
differ ent</w> 9272
scho ol</w> 9267
il le</w> 9264
bl es</w> 9257
fl ying</w> 9248
ur y</w> 9240
ta ge 9228
bo x 9226
bed room</w> 9219
hin ter</w> 9194
ha ving</w> 9187
s li 9184
w ah 9176
ro te</w> 9168
h ub 9163
som mer 9161
ver su 9159
sp ring</w> 9157
bri ght</w> 9151
pri v 9149
fl or 9146
un g 9140
st ing</w> 9130
base ball 9125
w rit 9123
an ge 9119
dra m 9116
brau t</w> 9116
we it 9100
fi re 9096
or ig 9095
k eit</w> 9092
w o</w> 9083
al le 9063
busine ss 9061
tra in</w> 9045
din gs</w> 9044
l a</w> 9038
foot ball 9037
e d 9035
traditi onal</w> 9033
st ei 9032
p ul 9018
sch ir 9016
se h 9013
bli ckt</w> 9009
fußball mannschaft</w> 9003
woo d</w> 8985
awar d</w> 8981
st ein 8977
pre t 8976
o se</w> 8967
ck ed</w> 8960
kl einer</w> 8957
basket ball 8949
fe atur 8948
co ffe 8930
go al</w> 8926
pre is 8913
z wi 8911
p es</w> 8906
sc or 8895
ch am 8894
ein ige</w> 8893
s ag 8882
str y</w> 8874
au ch</w> 8868
gel n</w> 8867
i v 8862
ri c</w> 8827
sch lie 8822
amer ikan 8821
th an</w> 8817
coffe e</w> 8816
ra d</w> 8797
u te</w> 8791
far ben</w> 8788
hat te</w> 8774
gen ie 8764
it ing</w> 8759
car s</w> 8754
and eren</w> 8738
nation al</w> 8732
posi ert</w> 8726
c au 8723
sch rei 8723
ver schie 8711
jah r</w> 8698
el n 8690
s y</w> 8684
de kor 8676
m b 8674
to war 8657
t ure</w> 8653
chen s</w> 8635
st ed</w> 8620
musi k 8615
fe male</w> 8611
abstra ct</w> 8603
st am 8600
m al</w> 8595
m au 8588
th em</w> 8588
ear ly</w> 8588
te am 8578
w u 8567
bu s</w> 8562
men ge</w> 8552
tro p 8550
orig in 8537
st one</w> 8535
wor king</w> 8526
h ing</w> 8512
stra ßen 8509
be st</w> 8505
stud ents</w> 8502
su per 8494
zwi schen</w> 8494
u sed</w> 8491
g al 8491
wei ß</w> 8491
p un 8484
tra gen</w> 8483
el y</w> 8479
sho ws</w> 8461
mor gen</w> 8461
schau t</w> 8453
ver la 8436
s y 8435
m eine</w> 8424
e a 8417
c eremon 8412
in spi 8388
crow d</w> 8376
al ty</w> 8375
ta king</w> 8373
han de</w> 8372
go od</w> 8371
z z 8357
geb ur 8352
fis h</w> 8349
ma in</w> 8348
bau m 8343
f te</w> 8340
is land</w> 8340
hab e</w> 8326
ten nis</w> 8323
po ster</w> 8322
se ssion</w> 8319
p il 8315
s or 8315
m un 8307
s we 8301
ad ow</w> 8301
f li 8300
te en 8299
mo tion</w> 8285
fir e</w> 8272
ba de 8271
fel sen</w> 8262
kunst l 8261
ar ch</w> 8240
pat h</w> 8235
indu stry</w> 8221
kre u 8220
ev ening</w> 8216
s mo 8203
bet t</w> 8190
fin al</w> 8186
co o 8184
reih e</w> 8176
read y</w> 8174
m ed</w> 8173
wa gen</w> 8171
ver wen 8169
st ag 8157
co ast</w> 8156
a way</w> 8155
buil dings</w> 8155
fla che</w> 8154
com e</w> 8152
z iel 8148
son ni 8143
e g 8134
fuhr t</w> 8120
frau en</w> 8120
ri se</w> 8112
photogra p 8110
pret ty</w> 8102
se hr</w> 8094
ct s</w> 8093
st il 8090
fahr en</w> 8074
sch at 8069
smar t 8068
st ation</w> 8060
sta di 8056
ra in</w> 8051
ti c</w> 8048
b ou 8047
cla ssi 8039
sp an 8038
pi er</w> 8038
ab end</w> 8032
em p 8010
bet ween</w> 8005
is h</w> 8003
vil lage</w> 7993
si t</w> 7988
u se</w> 7985
fei er 7979
p ie 7957
ge mu 7957
ihr es</w> 7954
vekt or</w> 7948
kaf fe 7945
w ed</w> 7935
on ly</w> 7932
sp rin 7932
g lei 7925
ne t 7925
au ß 7924
er ste</w> 7921
bah n 7917
mi c</w> 7915
sit i 7900
in ning</w> 7895
to o 7895
pain ted</w> 7893
ceremon y</w> 7883
organis ation</w> 7882
en en</w> 7872
bau men</w> 7859
m ein</w> 7852
ff en</w> 7848
loc ation</w> 7848
wee k</w> 7841
un ser 7839
l ung</w> 7837
st ate</w> 7829
fa st</w> 7829
h il 7828
mi ch</w> 7827
st art</w> 7823
fotogra fi 7823
cou ld</w> 7822
bir th 7821
mo bil 7819
ba th 7816
sho ul 7815
po ses</w> 7812
d ert</w> 7810
verlei h 7802
j um 7794
le ad 7794
ge sicht</w> 7792
cri ck 7788
n it 7778
at h</w> 7777
k er 7774
fu n</w> 7772
h men</w> 7770
sonni gen</w> 7768
p f</w> 7765
f ah 7761
e st</w> 7759
p et</w> 7746
in nen 7728
f it</w> 7723
no ch</w> 7719
o ce 7713
arch iv 7710
sport mannschaft</w> 7710
pa ir</w> 7702
et was</w> 7700
musi c</w> 7681
schau spiel 7676
n atur 7671
pe l</w> 7657
pla y</w> 7653
ein z 7650
n te</w> 7648
qu e</w> 7643
wal ks</w> 7640
ru g 7634
bo tt 7633
gre at</w> 7633
a v 7632
birth day</w> 7623
photogra ph 7616
ve ge 7612
blu men 7606
wer k</w> 7599
pop kunstler</w> 7599
co ur 7597
lan ge</w> 7590
ic on</w> 7589
n er 7586
ma king</w> 7586
in sel</w> 7581
k ro 7580
mu ch</w> 7574
wohn zimmer</w> 7573
gol den</w> 7571
st ill</w> 7567
de ck</w> 7562
bo x</w> 7548
dun kl 7545
fre sh</w> 7532
h y 7530
di es</w> 7529
ch ur 7526
bah n</w> 7526
lan gs 7523
zuru ck</w> 7518
s low</w> 7516
ar en</w> 7515
er er</w> 7513
wa ys</w> 7484
ro un 7468
dd le</w> 7458
deta il</w> 7448
t au 7443
poli ce</w> 7439
spazi eren</w> 7430
l te</w> 7427
ch ts</w> 7414
et ing</w> 7406
an y</w> 7394
t zen</w> 7392
dies en</w> 7387
preis verleih 7387
co ver</w> 7384
stre i 7380
hu t</w> 7379
h ard</w> 7378
dra wn</w> 7374
automobil e</w> 7372
den ten</w> 7362
lach eln 7357
w ant</w> 7352
gebur t 7342
oce an</w> 7339
ki ds</w> 7336
met al</w> 7332
go ing</w> 7331
lu x 7320
at or</w> 7313
gra m 7311
car d</w> 7304
b b 7302
stre ets</w> 7302
schlaf zimmer</w> 7296
f ic 7288
dau gh 7283
te pp 7282
hoch zeit</w> 7279
dra wing</w> 7265
j et 7258
ear s</w> 7248
roy alty</w> 7241
schwarz - 7240
vi er 7237
o ba 7234
0 s</w> 7224
sch ein 7223
wi th 7215
gesch en 7212
hal b</w> 7199
af e</w> 7195
feu er 7183
zei chen</w> 7179
li ve</w> 7169
on es</w> 7166
buch stab 7165
ho ck 7163
om et 7157
om s</w> 7152
se e 7149
ba u</w> 7149
sel f</w> 7141
sh ed</w> 7138
studi o</w> 7137
d on 7136
pa ss</w> 7131
we b 7122
l it 7119
ra in 7108
z wei 7107
men sch</w> 7100
ke l</w> 7094
stra ßen</w> 7093
g te</w> 7087
e ssen</w> 7074
k ers</w> 7068
si m 7067
stru cture</w> 7066
di git 7063
er es</w> 7061
ra ce</w> 7058
publi c</w> 7049
far b 7038
ti ve</w> 7036
pf en</w> 7036
gen d 7032
r at 7026
be oba 7024
stell en</w> 7008
chur ch</w> 7007
k ol 6998
gen er 6997
l ying</w> 6979
smart phone</w> 6978
pre par 6976
ta ken</w> 6965
fi sch 6963
m om 6955
ca se</w> 6954
po se</w> 6950
zeich nung</w> 6948
ch air</w> 6947
po siti 6947
al ter</w> 6946
mann er</w> 6943
wo che</w> 6939
gen en</w> 6932
ei g 6930
cti ve</w> 6925
model l</w> 6913
col ors</w> 6912
buil t</w> 6905
s ale</w> 6900
n ur</w> 6896
ation en</w> 6893
l il 6891
pro je 6882
kla ssi 6875
u ral</w> 6871
iti on</w> 6869
go t</w> 6862
sh ing</w> 6860
ber gen</w> 6855
pflan zen</w> 6852
do ors</w> 6840
ar s</w> 6839
stru ktur</w> 6835
archiv bild</w> 6830
milit ary</w> 6825
b s</w> 6822
qu e 6816
ey es</w> 6812
a b</w> 6811
ta in 6808
spazi ert</w> 6808
tr in 6806
act ors</w> 6806
ch a 6800
ta kes</w> 6794
geschafts mann</w> 6791
beru h 6791
in gs 6784
s sel</w> 6771
tre ten</w> 6768
p en</w> 6763
op ening</w> 6762
d or 6754
jun ges</w> 6748
m ber</w> 6743
f ur 6738
su it</w> 6736
e very</w> 6732
classi c</w> 6723
f on 6718
ar i 6713
stand s</w> 6713
fer en 6709
ck ing</w> 6708
fis hing</w> 6700
film ing</w> 6697
ver ke 6675
ul pt 6670
men schen 6667
por t</w> 6660
st un 6656
lo t</w> 6655
hi er</w> 6655
luft aufnahme</w> 6644
on - 6641
displa y</w> 6640
dur ch 6639
lin ie</w> 6636
sch ei 6629
an der</w> 6620
crick et 6619
g ers</w> 6617
mo on</w> 6613
lea der</w> 6603
plan ts</w> 6603
au gen</w> 6601
ri cht</w> 6597
plan t</w> 6590
celebr ity</w> 6590
c up</w> 6589
mad chens</w> 6589
zwe iten</w> 6587
kir che</w> 6587
jahr en</w> 6584
grun d 6573
th in 6569
towar ds</w> 6569
tat o 6567
sit s</w> 6563
film figur</w> 6559
schi ff</w> 6556
re si 6555
c at 6545
ch tung</w> 6541
stor e</w> 6540
bewe gung</w> 6534
ch i 6527
bo ats</w> 6520
in nen</w> 6516
sh e 6508
at ure</w> 6504
ra hmen</w> 6502
lap se</w> 6497
h ic 6490
bu l 6485
ve hic 6485
hor iz 6481
er nen</w> 6478
lan gen</w> 6476
wa ves</w> 6474
ben u 6474
n ei 6473
stu denten</w> 6465
dram ati 6460
gem ein 6458
schir m</w> 6451
gla s 6443
celebr ate</w> 6443
la m 6439
sp ra 6429
cen ter</w> 6420
sch mu 6417
3 d- 6416
k al 6406
b ol 6402
gir ls</w> 6401
b ele 6396
ma kes</w> 6396
ve l</w> 6395
daugh ter</w> 6391
to chter</w> 6390
musi cal</w> 6389
z eremon 6386
lau b</w> 6383
ev en</w> 6377
k li 6375
sle e 6374
ru m</w> 6370
min i 6369
pa st</w> 6364
ber ei 6364
f an</w> 6359
fei ern</w> 6356
in clu 6350
ge schaft</w> 6344
letz ten</w> 6344
so f 6341
st ers</w> 6340
gla s</w> 6338
plan e</w> 6332
tepp ich</w> 6331
au to 6324
sho p</w> 6320
fin den</w> 6313
and ere</w> 6312
fußball er</w> 6308
industri e</w> 6294
den e</w> 6291
fri end</w> 6290
sonnen auf 6289
kop f 6282
an g 6280
m el 6279
ke y</w> 6279
ge win 6277
din ing</w> 6277
a part 6276
vol l 6276
con c 6274
beruh m 6274
blu e 6273
p fel</w> 6269
un s 6267
blu es</w> 6267
vo gel</w> 6265
sa i 6255
pfer d</w> 6255
ge zeich 6253
wel l</w> 6251
sho pping</w> 6245
besu cht</w> 6243
war e</w> 6241
business man</w> 6239
ro of</w> 6238
b y 6237
con stru 6234
er y</w> 6221
br ille</w> 6221
ere i</w> 6217
n is 6213
wil d</w> 6212
war en</w> 6210
let ter</w> 6208
sun rise</w> 6201
pict ured</w> 6200
i er 6197
cu t</w> 6184
com e 6178
all es</w> 6167
hig h 6165
den ti 6163
ein kauf 6158
fla t</w> 6154
wall s</w> 6150
me hr</w> 6148
wat ch</w> 6146
i g</w> 6141
viel e</w> 6137
p ati 6136
perfor man 6132
zusam men</w> 6132
gra y</w> 6130
ho t</w> 6129
g y</w> 6127
cra ft</w> 6127
gol d 6125
mu se 6124
h len</w> 6120
sur roun 6119
pp er</w> 6115
photograp h</w> 6113
it at</w> 6112
s zen 6110
ne ed</w> 6104
ge mal 6103
ga z 6100
si ch 6095
lie gt</w> 6095
o hne</w> 6092
schwar ze</w> 6089
fahr er</w> 6084
st um 6081
gesch i 6081
st ie 6076
ur s</w> 6071
ge h 6071
s ure</w> 6069
nahtlo ses</w> 6067
c afe</w> 6066
w n 6064
da ch</w> 6063
u fer</w> 6059
sch on</w> 6058
sk i 6058
0 er</w> 6056
ar b 6055
he m 6055
colo red</w> 6052
mo ving</w> 6050
t un 6048
ag er</w> 6048
han ging</w> 6047
spazi er 6039
bath room</w> 6038
t it 6037
t om 6036
arbe iten</w> 6034
ck ten</w> 6032
ent ran 6030
ho le</w> 6027
fern seh 6025
stuh l</w> 6024
com ing</w> 6023
re c 6019
m ents</w> 6016
olympi c</w> 6014
star s</w> 6008
gu t</w> 6006
som mer</w> 6001
ros a</w> 6000
sho es</w> 5998
co ach</w> 5995
wor ks</w> 5987
car pet</w> 5979
spor t</w> 5976
de mon 5975
w l</w> 5974
i se</w> 5964
ele ct 5964
cri cket</w> 5963
sc ene</w> 5960
mo vi 5957
on ed</w> 5955
win e</w> 5955
stad t 5952
is ch</w> 5940
zeremon ie</w> 5937
bro wn</w> 5932
di am 5931
train er</w> 5928
ta bles</w> 5922
g eri 5919
fall en</w> 5919
ge o 5918
arb eit</w> 5917
an zug</w> 5916
pur ple</w> 5916
e ver</w> 5902
m ou 5898
son n 5898
sch e 5897
far m</w> 5895
jahr hun 5895
mit g 5892
an ci 5889
mau er</w> 5887
er off 5884
hor t</w> 5876
war m</w> 5868
or nam 5865
su b 5864
tou ch 5864
ti e 5861
ti ert</w> 5858
d ou 5857
ty pe</w> 5854
schat ten</w> 5852
sch t</w> 5847
o ze 5846
bo w</w> 5843
un ch</w> 5836
flug zeug</w> 5835
in ed</w> 5825
ber g 5813
gra fi 5811
tab let</w> 5804
w un 5802
comp le 5800
s ame</w> 5792
ku chen</w> 5791
inter e 5790
mu l 5789
wil d 5783
regi on</w> 5782
ta sse</w> 5781
f ten</w> 5776
we st 5775
sof a</w> 5775
famil ien 5774
sp re 5773
de l</w> 5769
ben ch</w> 5758
kl ein 5756
bir d</w> 5755
ge tting</w> 5750
l en 5749
f ly</w> 5744
leben sm 5744
hock ey</w> 5744
bl ei 5742
fo tos</w> 5740
mi ddle</w> 5739
hou ses</w> 5739
y ed</w> 5736
inter ior</w> 5733
ac tion</w> 5728
re gen</w> 5726
vol ler</w> 5723
d ers</w> 5721
c ul 5719
m ing</w> 5715
entran ce</w> 5714
i eren</w> 5711
performan ce</w> 5705
e ver 5703
off ent 5701
ba g</w> 5698
sonnenauf gang</w> 5695
si ve</w> 5694
jet zt</w> 5693
b is 5690
we stern</w> 5690
shor e</w> 5686
fil e</w> 5678
tato wi 5678
ne w 5675
herb st</w> 5673
4 k</w> 5671
arbe itet</w> 5671
tra ff 5667
ri es</w> 5660
th er 5658
traff ic</w> 5658
y ard</w> 5655
weiß er</w> 5651
ber g</w> 5651
su pp 5649
fo und</w> 5645
hochzeit s 5644
e ating</w> 5641
tr en 5639
flor al</w> 5634
schri ft</w> 5633
c al 5628
ti onal</w> 5626
haf en</w> 5617
t al</w> 5616
af ter 5616
ma gaz 5614
lach elt</w> 5607
schu ss</w> 5605
bur o</w> 5604
emp ty</w> 5598
tru ck</w> 5594
her z</w> 5589
flag ge</w> 5585
auß er 5583
kin der 5574
brin gen</w> 5574
wa iting</w> 5571
sol d 5569
nation al 5569
cent ury</w> 5567
ex p 5563
bran ch</w> 5560
bra un 5552
loo ked</w> 5549
tal king</w> 5548
f al 5544
ta il</w> 5542
sh in 5541
be mal 5540
t t</w> 5539
fa ther</w> 5536
au th 5535
ex am 5535
neh mer</w> 5533
ih n</w> 5531
p late</w> 5530
bo th</w> 5526
schau en</w> 5523
sta ir 5521
bil d 5514
bau ern 5513
ma g</w> 5509
gre y</w> 5509
ver kauf 5508
mitt el 5506
et ten</w> 5501
dri ving</w> 5498
muse um</w> 5498
ri ding</w> 5496
th ro 5492
wel t 5490
ide a</w> 5490
deta ils</w> 5489
ur es</w> 5486
gro om</w> 5484
en th 5480
read ing</w> 5479
g ele 5476
fre ien</w> 5474
ne te</w> 5473
squ are</w> 5473
conc ert</w> 5473
de cke</w> 5472
met alli 5469
sim ple</w> 5469
ar m</w> 5463
touri sten</w> 5462
pa ss 5461
ey e</w> 5459
nat ural</w> 5456
c ab 5447
h im</w> 5444
desig ner</w> 5437
o per 5433
co ck 5429
tur m</w> 5425
str au 5424
ele gan 5423
milit ar 5415
bade zimmer</w> 5407
colle ction</w> 5402
sty li 5400
stor m</w> 5394
s na 5391
sol di 5388
a ks</w> 5383
num ber</w> 5381
k auf</w> 5380
ein ander</w> 5377
lin es</w> 5377
haus er</w> 5371
z au 5367
baseball spieler</w> 5367
pro per 5363
sha pe</w> 5359
g lan 5357
demon str 5350
bal lo 5348
to day</w> 5347
de s 5342
fe st</w> 5341
kti on 5340
sk un 5338
ck te</w> 5336
sch ran 5335
fra me</w> 5331
il es</w> 5330
sit z 5329
cou ch</w> 5324
klei der</w> 5322
hu gel</w> 5316
sho o 5313
ko mi 5312
ab ge 5311
da ys</w> 5311
be kan 5306
c and 5304
touri sts</w> 5299
schaf t 5298
out door</w> 5298
b ic 5293
sw imm 5293
sh ar 5290
sp richt</w> 5287
blu te</w> 5284
ro cks</w> 5283
genie ßen</w> 5282
pie ce</w> 5282
s atur 5281
arri ves</w> 5278
pu t</w> 5277
scha u</w> 5270
zie hen</w> 5267
al ity</w> 5260
par ti 5260
sel b 5258
t our</w> 5249
lach eln</w> 5249
ran ge</w> 5246
hem d</w> 5246
weihnachts baum</w> 5245
movi e</w> 5241
fa d</w> 5239
vin tage 5237
pu s</w> 5233
trop ical</w> 5232
e th 5220
sur face</w> 5220
par ade</w> 5217
dre ssed</w> 5216
tat too</w> 5215
carto on- 5213
kreu z 5211
sp ir 5209
h n</w> 5207
in g 5204
fe w</w> 5201
su al</w> 5200
do gs</w> 5200
hol z</w> 5198
0 0</w> 5192
schu he</w> 5192
gro wing</w> 5191
groß er</w> 5191
berei ch</w> 5190
en te</w> 5188
s co 5187
gu it 5184
bic y 5182
th ir 5180
stro n 5174
me hr 5173
mon d</w> 5171
v ater</w> 5170
m einem</w> 5166
r t</w> 5165
bo ys</w> 5164
comp et 5164
constru ction</w> 5164
ck er</w> 5158
t - 5157
fen ce</w> 5153
vor der 5150
vol ker</w> 5150
sym bol 5150
an ten</w> 5148
lo cal</w> 5148
he ute</w> 5148
w ein 5145
featur ing</w> 5144
z ing</w> 5140
h ell 5137
seri es</w> 5134
blat tern</w> 5133
cham pi 5133
fahr rad</w> 5126
s lo 5125
fa ss 5125
mit te</w> 5123
pon d</w> 5123
tro pi 5121
dar auf</w> 5119
mil li 5119
met all 5117
ma y</w> 5114
p um 5103
cau se</w> 5102
be au 5101
to wer</w> 5101
blat ter</w> 5097
ab end 5093
ber eit</w> 5090
hei m 5089
ro ter</w> 5087
ne ver</w> 5087
o wn</w> 5080
lea ther</w> 5080
sen ior</w> 5079
st elle</w> 5078
br auti 5073
z ed</w> 5071
besu chen</w> 5062
e he 5061
run s</w> 5058
wie der 5058
bott le</w> 5058
fin d</w> 5056
satur day</w> 5055
pla k 5054
ever y 5054
brauti g 5039
mi r</w> 5038
be son 5037
fah ne</w> 5037
be tra 5036
skun st 5036
con ce 5026
bu tter 5015
h on 5012
pro fe 5010
sch we 5009
ta sche</w> 5001
la ssen</w> 4994
ba si 4994
c ru 4993
grun e</w> 4993
kon nte</w> 4992
be ar</w> 4984
gebau des</w> 4980
too k</w> 4980
wei se</w> 4971
swimm ing</w> 4967
1 8 4962
be vor</w> 4962
ver sch 4961
re la 4959
buchstab en</w> 4952
g ri 4948
fol lo 4942
flug zeu 4941
c y</w> 4937
apart ment</w> 4936
ele kt 4935
ge omet 4933
cle ar</w> 4933
beau ty</w> 4930
w on 4929
iti es</w> 4929
com pan 4928
mb ers</w> 4928
b ie 4926
th en</w> 4924
ih nen</w> 4923
wi de</w> 4921
p - 4917
ig es</w> 4911
co ol</w> 4907
tro ck 4904
perfor m</w> 4900
ti eren</w> 4897
tra il</w> 4897
ge gen 4896
freun d 4896
windo ws</w> 4894
p fad</w> 4892
m einer</w> 4890
ru n</w> 4890
qu i 4889
desig ned</w> 4884
v als</w> 4880
r o</w> 4876
zei gen</w> 4876
boo te</w> 4874
ta g 4872
außer halb</w> 4872
lu ft</w> 4871
- spieler</w> 4862
se it 4862
se tzt</w> 4862
ad d</w> 4857
flie gen</w> 4856
wir k 4854
flu g</w> 4853
spa ß</w> 4849
ein heit</w> 4847
il ed</w> 4847
all en</w> 4847
he ar 4847
bir ds</w> 4844
pres ent 4843
mom ent</w> 4838
kon ig 4836
arbe iter</w> 4833
bel ie 4826
some thing</w> 4825
v a 4823
mat ches</w> 4820
ra ff 4818
ent al</w> 4809
om men</w> 4808
amerikan ische</w> 4805
ti er</w> 4803
sp en 4801
dire ctor</w> 4798
schri ft 4796
in e 4794
bo ar 4790
m ah 4780
war tet</w> 4774
af ar 4771
schi ff 4770
zah l</w> 4769
hin unter</w> 4767
be sten</w> 4763
co p 4763
leu te</w> 4763
per s</w> 4761
football er</w> 4759
hr en</w> 4755
per i 4752
g a</w> 4744
countr y 4744
fri day</w> 4743
fun ny</w> 4743
d om 4742
spit ze</w> 4742
grun em</w> 4741
feu er</w> 4741
inn eren</w> 4741
wi fe</w> 4739
me ss 4734
lauf en</w> 4733
kaffe e</w> 4733
un ten</w> 4732
pa ssen 4731
sai son</w> 4730
her zen</w> 4727
geo graph 4726
fla sche</w> 4725
co at</w> 4724
freun de</w> 4719
schwarz er</w> 4717
hy th 4717
ge ts</w> 4716
lo s</w> 4714
la dy</w> 4712
r hyth 4711
dun kel 4710
schu le</w> 4709
ein gang</w> 4706
ell ing</w> 4701
di a 4698
ni ce</w> 4696
r ying</w> 4694
ver and 4694
run de</w> 4690
ti sche</w> 4689
me mbers</w> 4687
origin al</w> 4685
touch down</w> 4685
ac ce 4684
sat z</w> 4682
w ellen</w> 4675
zent rum</w> 4675
fru it</w> 4674
fro h 4672
ser vi 4669
di sh</w> 4663
proper ty</w> 4663
fa vor 4660
box er</w> 4659
p tion</w> 4657
hal fte</w> 4656
te st</w> 4655
lin ks</w> 4654
sun day</w> 4646
tur n</w> 4646
schrei b 4644
wi ck 4638
scor ing</w> 4638
horiz on 4636
li t</w> 4635
ja cke</w> 4635
positi on</w> 4632
ate g 4629
organis ation 4626
anim als</w> 4623
sin gle</w> 4620
wie se</w> 4619
loc ated</w> 4613
ja cket</w> 4609
ent span 4608
a quar 4606
y a 4604
ha ar</w> 4599
han gen</w> 4596
en ten</w> 4595
ur en</w> 4592
uber qu 4588
sh el 4587
thir d</w> 4587
fe ature</w> 4585
re s 4580
sport team</w> 4575
uni ver 4573
it u 4561
priv ate</w> 4559
ti v 4558
brautig am</w> 4555
pro gram 4552
en der</w> 4547
han g</w> 4545
o s</w> 4540
w in</w> 4539
ex ter 4537
ch s</w> 4536
fre it 4536
ho ch</w> 4535
mitg lie 4535
k eine</w> 4534
ti ere</w> 4533
ver kauf</w> 4530
fuhr ung</w> 4528
cent re</w> 4526
air craft</w> 4523
kran ken 4519
ti gen</w> 4518
ho od</w> 4515
rug by</w> 4514
um geben</w> 4512
vi ol 4511
kor b</w> 4507
re ally</w> 4505
gol fer</w> 4502
di g 4501
with out</w> 4498
tri p</w> 4494
scre en</w> 4491
ver ti 4489
ho he</w> 4487
oze an</w> 4485
an gle</w> 4484
ke iten</w> 4484
in di 4478
me adow</w> 4476
do wn 4476
ah n 4472
fin det</w> 4470
war ten</w> 4469
her z 4467
tr y</w> 4465
kunstl ers</w> 4465
schn ei 4463
pal m</w> 4461
sh es</w> 4460
play s</w> 4458
s car 4457
ben en</w> 4455
dru ck</w> 4455
gen s</w> 4454
aus sehen</w> 4453
uns ere</w> 4450
be ss 4449
zusam men 4449
we ar</w> 4448
l on 4447
train ings 4446
gi ving</w> 4445
sh ort</w> 4444
han den</w> 4444
h ill</w> 4438
par k 4437
religi ous</w> 4434
h l 4431
an ce</w> 4429
br and</w> 4421
organ iz 4421
u hr</w> 4420
sch em</w> 4419
weiß es</w> 4419
ba d</w> 4418
tru g</w> 4418
st em</w> 4417
neu es</w> 4417
chri sti 4416
christi an</w> 4414
cricket spieler</w> 4408
rie si 4407
szen e</w> 4403
ro t</w> 4401
schon er</w> 4400
au ßen 4395
k now</w> 4388
fisch er 4388
te ch 4387
dr y</w> 4385
sa h</w> 4384
n ar 4381
fotografi ert</w> 4380
poin t</w> 4378
auth or</w> 4378
k le 4377
wir ft</w> 4377
bo gen</w> 4376
pho tos</w> 4375
fre i 4374
l or 4372
vie ws</w> 4371
hel p</w> 4366
gen ommen</w> 4364
je des</w> 4361
l l</w> 4360
gla ser</w> 4359
speci al</w> 4357
' re</w> 4356
vis it 4352
fei er</w> 4351
cir cle</w> 4351
n ers</w> 4350
am ong</w> 4350
' m</w> 4349
wat ching</w> 4349
ro tem</w> 4346
out fit</w> 4341
har b 4338
einz el 4336
ur laub</w> 4335
on i 4333
tex ture</w> 4333
bro n 4331
cam pus</w> 4330
we st</w> 4329
sin ger</w> 4322
ah e 4321
we sen</w> 4321
he av 4318
se m 4316
schlie ßen</w> 4315
c er 4314
hol ds</w> 4311
bo wl</w> 4309
c ateg 4307
v ent 4303
ell s</w> 4301
bun ten</w> 4301
b lan 4298
wol ken 4298
be cause</w> 4296
z imm 4295
jun g 4293
d ent</w> 4291
g ab 4291
sp ei 4291
th ings</w> 4290
in st 4288
se tting</w> 4288
ahe ad</w> 4288
te te</w> 4286
blat t</w> 4286
schw im 4285
f light</w> 4281
nei gh 4281
bre l 4279
k ein</w> 4278
al ways</w> 4278
perfe ct</w> 4278
ei s 4276
pf an 4276
sk et 4274
zi ert</w> 4273
n ten</w> 4272
u al</w> 4272
ge stellt</w> 4270
um brel 4270
ck er 4266
stan ce</w> 4261
f on</w> 4260
ta ges</w> 4260
fil ms</w> 4260
lie ben</w> 4260
bask et</w> 4255
ke e 4251
ci al</w> 4250
sat z 4249
ni e</w> 4245
f ab 4243
ti er 4243
th ose</w> 4241
ge st</w> 4239
mon arch</w> 4233
kin dern</w> 4233
rol l 4233
win d 4232
sie g</w> 4230
inspi ri 4230
man tel</w> 4226
no ble</w> 4226
bri ck</w> 4226
um ar 4225
langs am 4224
la den</w> 4223
categ ory</w> 4221
ber ge</w> 4219
leu cht 4219
bl on 4218
je den</w> 4217
pra cti 4217
thin k</w> 4217
ma sk 4216
schauspiel erin</w> 4212
cro ss</w> 4210
v - 4209
ne l</w> 4209
anci ent</w> 4209
exam ple</w> 4207
sa id</w> 4205
sil ver</w> 4205
ze pt</w> 4203
jahrhun dert</w> 4201
lu sti 4195
schn itt</w> 4195
t eller</w> 4194
tran spar 4194
ct ing</w> 4193
cti ons</w> 4193
i scher</w> 4192
char ak 4191
bou qu 4190
vi sit</w> 4187
aus sicht</w> 4184
vege tables</w> 4182
guit ar</w> 4182
pa g 4178
flie gt</w> 4178
heav y</w> 4176
re a 4175
moder nen</w> 4173
the m 4172
den k 4171
din ner</w> 4171
te e</w> 4170
do pp 4169
war d</w> 4168
gra m</w> 4168
drin king</w> 4168
b in</w> 4163
ie t</w> 4161
pflan ze</w> 4160
di s 4159
br aut 4159
alle y</w> 4159
quar ter</w> 4157
st es</w> 4156
geschi chte</w> 4155
pain t</w> 4153
preisverleih ung</w> 4147
f ern</w> 4146
bo dy</w> 4145
kno wn</w> 4145
so ft</w> 4143
kun ft</w> 4142
re ci 4138
dou ble</w> 4137
kol le 4135
prin t</w> 4134
gan zen</w> 4133
ros afar 4131
plak at</w> 4131
p lu 4130
c all 4127
ro o 4123
luft ball 4122
is se 4120
nat ure</w> 4120
he al 4118
bil der</w> 4115
arri ve</w> 4114
ha are</w> 4113
on to</w> 4112
mo g 4110
gluck liche</w> 4110
reg isse 4109
vi sion</w> 4106
pa pier</w> 4105
ko sten 4105
k ul 4103
stadi um</w> 4101
e dge</w> 4098
me ere 4098
go wn</w> 4094
festi vals</w> 4094
st le</w> 4091
git ar 4091
cre ate</w> 4089
wirk lich</w> 4088
gi ft</w> 4082
skunst ler</w> 4082
sch met 4081
sag t</w> 4080
qu ad 4079
in dem</w> 4077
decor ated</w> 4076
y ears</w> 4075
boo ks</w> 4073
after no 4073
schmet ter 4072
bo t 4066
ra d 4062
viel en</w> 4059
d ate</w> 4055
fam ous</w> 4055
ban ner</w> 4052
nach mit 4050
afterno on</w> 4050
strau ß</w> 4049
wie der</w> 4045
team s</w> 4045
po sed</w> 4044
a ged</w> 4041
g am 4041
zuru ck 4041
al es</w> 4038
le g 4038
beg in 4038
mon ey</w> 4033
benu tzt</w> 4033
vol l</w> 4032
bei spiel</w> 4031
wohn ung</w> 4031
la ce</w> 4026
win ner</w> 4025
com es</w> 4024
pre ss</w> 4018
bre tt</w> 4017
ro t 4014
sk u 4013
vol k</w> 4011
ate il 4008
olympi ateil 4008
r und</w> 4004
lan g 4003
boo ts</w> 4003
bicy cle</w> 3997
in en</w> 3996
enjo ying</w> 3996
tur en</w> 3994
t ze</w> 3991
si cht 3988
fin ger</w> 3987
pin e</w> 3983
co a 3982
fall s</w> 3982
zie ht</w> 3982
verschie denen</w> 3982
menschen menge</w> 3982
t te</w> 3981
gel b 3979
pit ch</w> 3979
for mi 3978
go t 3974
ar ms</w> 3972
geburt stag 3971
arbe it 3969
d lichen</w> 3968
lea f</w> 3968
bun te</w> 3968
re is 3962
tu red</w> 3960
k ie 3959
ak tion</w> 3958
re al</w> 3957
hor ses</w> 3956
it ten</w> 3954
win ning</w> 3954
ober flache</w> 3953
t v- 3951
rec ei 3949
je der</w> 3945
d one</w> 3943
co t 3942
wor e</w> 3941
sk iz 3939
st y</w> 3938
gesch nit 3937
it tel</w> 3933
ct ory</w> 3927
compan y</w> 3919
ke ep</w> 3918
me eting</w> 3917
spie gel 3917
fre und</w> 3916
d rau 3914
x i 3914
dan ce</w> 3914
sp er 3913
eng li 3908
gr en 3906
t el 3904
frau en 3903
gi pfel</w> 3900
di an</w> 3897
unter stu 3897
fahr zeu 3893
bouqu et</w> 3890
rela x 3888
bede ckt</w> 3886
blau er</w> 3879
bil dung</w> 3876
at o 3875
nahtlo se</w> 3875
sch le 3870
lie st</w> 3870
kom p 3867
thei t</w> 3865
nor th</w> 3865
ti ge</w> 3864
ar es</w> 3862
ex per 3861
selb st</w> 3861
se ver 3858
histor ic</w> 3857
ver s</w> 3855
conce pt</w> 3852
di gen</w> 3851
aut or</w> 3846
ver sion</w> 3845
profe ssi 3844
br en 3841
fruh lin 3841
mi r 3840
aus stellung</w> 3839
che f</w> 3839
the ater</w> 3838
tem ple</w> 3837
schaf ten</w> 3834
vehic le</w> 3833
gemu se</w> 3832
te ten</w> 3831
ein ge 3830
go es</w> 3830
wei bli 3829
kt or</w> 3828
ti schen</w> 3827
er d 3826
mei ster 3826
sh adow</w> 3825
ea sy</w> 3823
al t 3821
ma ke 3820
ho h 3818
e u 3816
pan or 3816
schnee bede 3815
stair s</w> 3813
tre ffen</w> 3812
b it</w> 3809
le der 3805
der ing</w> 3805
tri e 3804
surroun ded</w> 3804
ro sen</w> 3801
w ra 3800
ar ten</w> 3800
attra kti 3800
follo wing</w> 3800
gre i 3799
gra ff 3797
po pu 3796
des ert</w> 3796
geb ir 3793
o w 3791
ru cken</w> 3791
exter ior</w> 3790
d a</w> 3787
hu ge</w> 3785
fig h 3783
hand gezeich 3781
cla ss</w> 3781
2 0 3780
mal erei</w> 3780
ch air 3777
ho hen</w> 3777
automobil - 3777
cu st 3776
t all</w> 3774
verwen det</w> 3773
di stance</w> 3772
bet ter</w> 3769
mi x 3768
v ari 3767
sm ile</w> 3767
hel i 3767
seit en 3763
zau n</w> 3757
ren nen</w> 3755
lil a</w> 3755
popu lar</w> 3754
ta ck 3749
ste h 3747
de sk</w> 3745
kre is</w> 3745
featur es</w> 3743
min im 3742
lei cht</w> 3739
spazier gang</w> 3739
drau ßen</w> 3738
or n 3736
we a 3736
organiz ation</w> 3736
drin k</w> 3734
grau en</w> 3734
ide e</w> 3733
tz ung</w> 3731
sold aten</w> 3729
li ert</w> 3728
fu h 3726
gen den</w> 3726
enjo y</w> 3722
bere itet</w> 3721
shoul d</w> 3718
ver samm 3717
vie l</w> 3717
tu n</w> 3716
m on</w> 3715
pun kt</w> 3715
ca p 3713
c old</w> 3712
ag ue</w> 3711
klei dung</w> 3709
sport ler</w> 3709
vel y</w> 3708
rock -kunstler</w> 3703
ro oms</w> 3701
te a</w> 3701
wan den</w> 3699
ti g</w> 3697
fin ale</w> 3697
ro r</w> 3694
gitar re</w> 3693
v al 3692
gener al</w> 3692
pu ppy</w> 3691
dunkl en</w> 3691
all er</w> 3687
en ter 3685
pla n</w> 3685
fan gen</w> 3685
trainings einheit</w> 3684
fall t</w> 3680
ra il 3679
digit al</w> 3678
app ear 3677
sou th</w> 3677
pp en 3674
da ch 3667
ro n 3665
lead ing</w> 3665
gu e 3663
o c 3661
ca pit 3661
fuhr en</w> 3661
che er 3660
the at 3656
mobil e</w> 3654
clou dy</w> 3653
cu p 3650
ti mes</w> 3649
gebau t</w> 3647
bau en</w> 3646
posi eren</w> 3639
e f 3637
stud ent</w> 3637
tex tur</w> 3635
verke hr</w> 3634
bre ak 3633
kar i 3633
clo ck</w> 3631
nach t 3631
bar en</w> 3630
do ing</w> 3629
t on 3628
un ser</w> 3626
h am 3624
bele u 3622
t ly</w> 3620
c ame</w> 3620
im mer 3618
sam stag</w> 3618
hal b 3613
un e</w> 3612
bran ches</w> 3612
pict ures</w> 3611
pe te</w> 3610
con tain 3609
th an 3608
he il 3607
ca de</w> 3607
sc ulpt 3606
re ag 3604
e ss 3601
re st</w> 3599
la y 3597
fli es</w> 3596
m and</w> 3595
zu hause</w> 3593
zeich net</w> 3593
gi ve</w> 3588
fire place</w> 3587
inspi red</w> 3586
er inn 3585
ce iling</w> 3585
unser em</w> 3584
so hn</w> 3581
di d</w> 3580
flu sses</w> 3577
s ei 3575
tr o</w> 3575
stre t 3573
kon z 3572
re ali 3571
su ß 3571
con tin 3571
' ve</w> 3568
stu me</w> 3566
dor f</w> 3566
de fen 3564
ge sun 3558
mo ve</w> 3557
cro ssing</w> 3556
wach sen</w> 3552
k n 3550
ir gend 3544
je de</w> 3543
c les</w> 3540
gen re</w> 3539
al tes</w> 3538
hun de</w> 3536
lich ter</w> 3534
ear th</w> 3533
re tro</w> 3531
se ction</w> 3528
vol k 3527
le ar 3525
wo chen 3525
sc en 3525
gol den 3525
stur m</w> 3525
c a</w> 3523
favor ite</w> 3521
r and</w> 3520
gu ard</w> 3519
regisse ur</w> 3519
ent fer 3517
ssi ve</w> 3515
jahr e</w> 3513
k y</w> 3512
le ague</w> 3512
tre ppe</w> 3512
ko st 3512
a g</w> 3511
f au 3511
feier tag</w> 3511
p el 3507
ca sual</w> 3507
ver fu 3506
jo ur 3505
fla chen</w> 3503
lo k 3502
on ce</w> 3501
sha ped</w> 3501
univer sit 3500
re l 3498
app ro 3498
ma sch 3497
st ein</w> 3496
ele ph 3496
we tt 3495
trin kt</w> 3495
n ame</w> 3494
blue skunstler</w> 3494
sig ns</w> 3487
d al</w> 3486
it ed</w> 3486
be er</w> 3486
versu cht</w> 3486
w af 3484
ri chti 3482
ab en 3482
ban an 3481
fall ing</w> 3481
ri de</w> 3480
mon day</w> 3478
u t</w> 3476
m m 3474
vide o 3474
ge stal 3470
mu ss</w> 3468
ni c</w> 3468
dun gs 3468
dopp el 3468
olympiateil nehmer</w> 3467
ma ß 3464
schw an 3463
wh y</w> 3462
off ici 3462
z es</w> 3461
sprin gt</w> 3461
beson der 3461
off ic 3459
mat es</w> 3458
ar ran 3456
dol lar</w> 3453
cor ner</w> 3450
sur fer</w> 3448
graff it 3448
sti k 3444
bor n</w> 3444
er ziel 3443
ch er 3439
i ss 3436
musi k</w> 3435
or en</w> 3431
a den</w> 3430
man ager</w> 3430
sc ra 3430
sch rau 3429
glo be</w> 3427
z un 3426
str an 3425
schwar z</w> 3425
nach ts</w> 3423
schein t</w> 3421
ra is 3420
abstra kte</w> 3419
chair s</w> 3419
sever al</w> 3416
st au 3415
cu s</w> 3415
mu s 3414
sculpt ure</w> 3414
gr an 3411
attra ctive</w> 3410
an ing</w> 3407
do ck</w> 3402
ta in</w> 3401
ri chtung</w> 3400
gol denen</w> 3398
gen o 3397
gesch lo 3397
feren ce</w> 3395
on d</w> 3394
b an</w> 3393
par ked</w> 3392
tu e 3391
wach sen 3387
schu ssel</w> 3386
beoba chtet</w> 3385
hu man</w> 3384
magaz ine</w> 3383
silhou et 3382
tro l 3380
schon es</w> 3380
tue sday</w> 3378
ti ger</w> 3377
mo d 3375
lie bl 3374
si ze</w> 3371
tem por 3371
k end</w> 3370
ren o 3368
ch ro 3367
ss y</w> 3366
ha ir 3366
s af 3364
com mun 3364
ca kes</w> 3364
sc ri 3364
clu b</w> 3363
pi zz 3361
ne ss</w> 3359
ter ra 3358
umbrel la</w> 3357
wed ne 3355
brin gt</w> 3355
ful ly</w> 3354
sun glasses</w> 3352
swe et</w> 3352
h it</w> 3351
dre sses</w> 3350
fass ade</w> 3349
gel ben</w> 3348
de ssen</w> 3347
qu o 3347
i si 3346
wa ve</w> 3345
be eren</w> 3341
me t</w> 3339
wedne sday</w> 3338
nach bar 3336
wer k 3335
re ar</w> 3333
g lit 3329
ste ps</w> 3329
s - 3328
bl y</w> 3328
web site</w> 3328
g at 3327
sch re 3326
pat ter 3326
sket ch</w> 3324
capit al</w> 3324
sc u 3323
ben e</w> 3319
th y</w> 3316
be kommen</w> 3316
bal con 3315
t els</w> 3314
de fin 3313
er de</w> 3312
ty p 3311
k um 3310
sk ul 3309
flo ating</w> 3305
wah l</w> 3305
ro ses</w> 3301
dre h 3298
blo ck</w> 3298
ver wand 3297
mitt wo 3297
ssen en</w> 3295
come dian</w> 3294
ide as</w> 3292
foo t</w> 3291
ca st</w> 3291
th ur 3289
desig ns</w> 3289
che e 3289
pra sen 3287
gam es</w> 3287
do es</w> 3283
ca stle</w> 3283
wu ste</w> 3283
gel d</w> 3282
car rying</w> 3281
r en</w> 3279
h ed</w> 3278
bi ke</w> 3275
verschie dene</w> 3275
konz ert</w> 3275
y si 3272
ri ed</w> 3272
schn itt 3271
k rat 3265
thur sday</w> 3265
sonn tag</w> 3264
don ner 3263
3d- illustration</w> 3263
schreib tisch</w> 3263
te a 3261
ob je 3261
ih m</w> 3259
vil la</w> 3259
champi on 3258
ze iten</w> 3257
eri e</w> 3256
jum ping</w> 3256
sch lo 3255
ra sen</w> 3251
lin ien</w> 3251
einkauf s 3251
zimm ers</w> 3251
de er</w> 3248
er eig 3247
gar ten 3246
sm iles</w> 3243
kre is 3243
san ger</w> 3241
fer ne</w> 3240
mitglie der</w> 3240
preisverleih ungen</w> 3239
auf ge 3236
roman tic</w> 3231
t ted</w> 3230
de ep</w> 3229
groß es</w> 3227
be am 3223
geburt stag</w> 3223
al ist</w> 3222
vo gel 3222
f ts</w> 3216
samm lung</w> 3214
co w 3213
ga ste</w> 3211
m y 3209
gar age</w> 3209
ver s 3208
co mic</w> 3208
u t 3207
nat ur</w> 3207
cot tage</w> 3207
ri bb 3206
ent ly</w> 3204
ha aren</w> 3203
letz te</w> 3202
fe et</w> 3201
wall paper</w> 3201
den s</w> 3200
slee ping</w> 3199
mi sch 3197
tra l</w> 3197
lo ch</w> 3195
mi schen</w> 3195
ad s</w> 3194
g ei 3193
sur f 3192
pp t</w> 3191
soldi ers</w> 3191
ge si 3189
fil led</w> 3189
clo th 3189
ge ment</w> 3187
fin is 3186
bu sy</w> 3185
del i 3184
ge macht</w> 3183
bel ow</w> 3182
for mer</w> 3181
wor fen</w> 3181
app le</w> 3180
writ er</w> 3178
unser er</w> 3177
mit ten</w> 3173
automobil- modell</w> 3171
ra di 3169
gru n</w> 3168
basketball spieler</w> 3168
gu y</w> 3167
sto p</w> 3166
str and 3165
sy stem</w> 3165
w ein</w> 3161
b le 3160
tem pel</w> 3160
bahn hof</w> 3160
e ffe 3159
schaf fen</w> 3159
me mor 3158
su che</w> 3157
00 0</w> 3157
v alley</w> 3154
ab and 3153
break fast</w> 3152
wi chti 3150
groß arti 3150
fun den</w> 3150
di stri 3148
fri end 3147
tin y</w> 3147
elect ric</w> 3147
l ten</w> 3146
u es</w> 3146
pro min 3146
teen ag 3146
klei dern</w> 3144
geb ung</w> 3144
g or 3142
por t 3142
p y 3141
ex hi 3141
il t</w> 3140
su d 3140
on g 3135
blau e</w> 3135
gol f</w> 3132
con ference</w> 3130
schlu ss 3130
vis ual</w> 3127
fla gs</w> 3125
po st</w> 3124
pum p 3122
ei gen 3121
ze i</w> 3121
bre ak</w> 3121
zo o</w> 3121
football -spieler</w> 3121
re chts</w> 3120
vi l</w> 3119
i al</w> 3118
ber ries</w> 3118
ce ss</w> 3115
tei ch</w> 3115
e cke</w> 3113
pizz a</w> 3113
lu gt</w> 3112
sol lte</w> 3111
vel op 3111
writ ten</w> 3111
neigh bor 3111
gh af 3110
en ga 3109
mul ti 3109
water fall</w> 3107
la sst</w> 3106
win gs</w> 3105
aband oned</w> 3104
v an 3102
blu me</w> 3102
all en 3098
fon t</w> 3098
m ent 3097
nachmit tag</w> 3097
bl em</w> 3094
ballo ons</w> 3094
pla stic</w> 3092
pa ssing</w> 3091
fro n 3091
i um</w> 3090
st ol 3090
trau ri 3090
zi ge</w> 3087
run way</w> 3087
g ie 3085
kur z 3085
dre hort</w> 3084
m ers</w> 3083
se gel 3083
flu ghaf 3082
ff t</w> 3080
ar m 3079
tre i 3078
hr t</w> 3077
bau mes</w> 3074
be findet</w> 3073
lich keit</w> 3073
z chen</w> 3072
stre am</w> 3071
whe el</w> 3070
na v 3069
fis ch</w> 3069
inclu ding</w> 3069
nie dri 3068
cloth es</w> 3068
he bt</w> 3067
tropi schen</w> 3067
gue sts</w> 3067
tran s 3066
su c 3064
ulpt ur</w> 3064
ei s</w> 3062
ho spit 3062
g end</w> 3061
sc ien 3059
nit ure</w> 3057
fur niture</w> 3057
s eines</w> 3055
cre am</w> 3054
mo chte</w> 3053
fo to 3052
s ele 3051
fruh ling</w> 3051
in stru 3050
mer k 3050
tro ph 3049
fa cade</w> 3048
pi ck 3048
kun den</w> 3047
all gem 3046
ic s</w> 3046
br un 3044
b te</w> 3042
wee kend</w> 3040
er ter</w> 3039
wea ther</w> 3039
ma ch 3038
o il</w> 3036
be side</w> 3033
e ten</w> 3032
han gt</w> 3032
ne bel</w> 3030
gan gs</w> 3027
woo ds</w> 3027
li ed</w> 3026
off er</w> 3026
schon heit</w> 3026
e s 3025
dam mer 3025
compet ition</w> 3025
schie d 3023
b are</w> 3021
sag te</w> 3020
bauern hof</w> 3020
ehe mal 3020
lo ver</w> 3019
ol s</w> 3019
snow y</w> 3019
ba y</w> 3018
che ck</w> 3018
ph ones</w> 3015
k lu 3014
ren dering</w> 3014
cli pping</w> 3014
hol d</w> 3013
ser v 3012
be wol 3009
no ti 3009
po wer</w> 3006
kon feren 3005
el tern</w> 3004
air port</w> 3004
uni form</w> 3002
mo sp 3001
er fol 3000
ge par 3000
tele fon</w> 3000
va se</w> 3000
ig ar 2998
eroff n 2998
freit ag</w> 2998
fe el</w> 2997
tempor ary</w> 2997
cho col 2995
wei l</w> 2994
c el 2992
pro fi 2991
lie be 2990
gemal de</w> 2989
luftball ons</w> 2989
at mosp 2988
rin gs</w> 2987
tur ned</w> 2987
m and 2986
su cht</w> 2986
sa ys</w> 2986
archite ktur</w> 2986
dan cing</w> 2985
kaffe e 2983
st ah 2981
land karte</w> 2980
le gt</w> 2978
cy cle</w> 2978
pe de 2977
e f</w> 2976
pro vi 2975
form ation</w> 2975
un ds</w> 2972
sk ulptur</w> 2972
wat ers</w> 2972
farben fro 2971
gen de</w> 2970
at ta 2969
on stage</w> 2969
flag gen</w> 2969
verke hr 2966
be wer 2964
bu ro 2964
gen u 2963
moder ne</w> 2962
e ds</w> 2961
ba b 2961
sil ber 2961
cham pag 2961
fig ure</w> 2960
su per</w> 2959
stadi on</w> 2957
a x 2956
ic ons</w> 2956
b by</w> 2954
fu ß</w> 2954
bal k 2954
land s</w> 2953
men sch 2951
fuhr er</w> 2948
fo unta 2946
lo se</w> 2941
chan ge</w> 2939
com po 2937
teil en</w> 2937
hear ts</w> 2937
heli cop 2937
bekan nt</w> 2936
stor y</w> 2935
bro ken</w> 2935
seri en</w> 2935
sch r 2933
dammer ung</w> 2932
we gs</w> 2931
cre ated</w> 2931
j ub 2930
fuß gan 2930
lebensm ittel</w> 2929
mo de</w> 2928
poli zei</w> 2928
out doors</w> 2927
denti al</w> 2927
ver n 2926
vor bei</w> 2926
back stage</w> 2924
lux ury</w> 2922
vier tel</w> 2922
par ents</w> 2920
besu cher</w> 2919
kam pf</w> 2919
re tro 2918
f et 2917
w re 2917
ali si 2916
tun nel</w> 2914
peri od</w> 2913
er ungen</w> 2911
wer fen</w> 2911
ma g 2910
pass ag 2908
clo sed</w> 2907
gab e</w> 2907
coa st 2907
au ge</w> 2906
r y 2905
ste p</w> 2905
fo g</w> 2904
she ep</w> 2904
balcon y</w> 2904
in a</w> 2903
medi a</w> 2902
kam pf 2901
pa ge</w> 2900
schaf ts 2899
gra du 2898
en er 2897
mo di 2895
photograph ed</w> 2895
to m</w> 2894
ul lt</w> 2894
her um</w> 2891
hil ls</w> 2888
zwei g</w> 2888
m einen</w> 2887
ab bildung</w> 2887
1 0 2885
th o 2885
ge off 2885
let ter 2884
le it 2883
athle t</w> 2882
co stume</w> 2881
gel an 2881
p l 2880
perfor ming</w> 2878
archite cture</w> 2878
z in 2876
ss o 2876
me mber</w> 2875
x i</w> 2874
th ers</w> 2873
ar t 2873
gen us</w> 2873
act s</w> 2873
be ste</w> 2872
fußball spiels</w> 2872
z it 2870
p ha 2868
pri or</w> 2867
glan zen 2864
we b</w> 2863
smar t</w> 2861
ag es</w> 2859
ste g</w> 2859
le gen</w> 2858
ein igen</w> 2857
ma ssen</w> 2856
n es</w> 2855
' ll</w> 2854
ch ic</w> 2852
z a 2851
neighbor hood</w> 2850
call ed</w> 2849
ph ysi 2848
ha ar 2846
so ft 2845
qu ali 2844
desig n 2843
a king</w> 2842
d y 2840
de ad</w> 2840
tr un 2840
i ous</w> 2839
li br 2837
decor ative</w> 2837
gu i 2835
rain bow</w> 2835
for t</w> 2834
ak ti 2834
mo ti 2833
a ce</w> 2830
yo ga</w> 2830
scha ch 2828
regen schirm</w> 2828
unter wegs</w> 2827
gi ves</w> 2826
sti ck</w> 2822
bab ys</w> 2822
retro - 2821
wunder schonen</w> 2820
ur ing</w> 2819
gi ant</w> 2819
fiel ds</w> 2818
dro p</w> 2818
far bi 2817
s ad</w> 2816
pa ares</w> 2816
schla g</w> 2813
tradition ellen</w> 2813
b at 2811
a mi 2811
sonnen brille</w> 2810
lebensm itt 2810
stam m</w> 2809
sti sche</w> 2808
spe aks</w> 2808
schwim men</w> 2808
mon th</w> 2807
schlie ß 2807
ver ste 2806
ty pi 2805
jahr es</w> 2803
off en 2802
su ch</w> 2801
din ge</w> 2801
rest ing</w> 2801
com man 2799
bewe gt</w> 2799
diti on</w> 2798
zo gen</w> 2797
gr and 2796
z el 2794
fic tion</w> 2794
rock y</w> 2792
comman der</w> 2790
ge funden</w> 2788
pal men</w> 2787
quad r 2785
sti ft</w> 2784
zi gen</w> 2782
cu lar</w> 2781
hand y</w> 2781
ne ten</w> 2780
ele ments</w> 2780
res ort</w> 2780
pfer de</w> 2779
fire works</w> 2779
mal en</w> 2778
butter fly</w> 2777
v ar 2774
practi ce</w> 2773
flie ßt</w> 2772
st isch</w> 2771
ba se</w> 2771
histor y</w> 2769
vol len</w> 2768
styli sh</w> 2768
je dem</w> 2767
ste el</w> 2766
la gen</w> 2765
her aus 2765
masch ine</w> 2765
her d</w> 2762
beoba chten</w> 2762
typ ical</w> 2762
au str 2761
ho p</w> 2761
k rei 2760
balk on</w> 2760
ho mes</w> 2759
de pict 2759
sho wn</w> 2759
dr itten</w> 2759
colle ge</w> 2759
g ur 2758
tri es</w> 2757
lau gh 2757
ak te 2756
w on</w> 2754
le gs</w> 2754
proje ct</w> 2754
am a 2752
gesch o 2752
tem p 2752
t ten</w> 2751
an y 2751
ge wohn 2751
st all</w> 2749
foo tage</w> 2749
ku chen 2749
po sing</w> 2748
shoul der</w> 2748
gat tung</w> 2748
kam in</w> 2747
an nu 2746
pa st 2746
er tes</w> 2745
for ward</w> 2745
reci pe</w> 2744
ent de 2743
i k 2742
par king</w> 2742
chocol ate</w> 2741
la unch</w> 2740
weihnach t 2740
ab sol 2739
crow ds</w> 2739
w ent</w> 2738
ff s</w> 2738
plan et</w> 2738
country side</w> 2736
hat ten</w> 2735
der ly</w> 2734
dan n</w> 2734
pede stri 2733
inst all 2732
champion ship</w> 2732
relax ing</w> 2731
blon de</w> 2730
hospit al</w> 2730
g all 2729
bi bli 2729
h ellen</w> 2728
gu est</w> 2728
flu ss 2725
mo o 2724
eg gs</w> 2723
le sen</w> 2721
schran k</w> 2721
histor ischen</w> 2719
s band</w> 2718
off enen</w> 2718
tour nam 2717
geograph ical</w> 2717
ma ster</w> 2714
air plane</w> 2713
fahr zeug</w> 2712
feuer we 2712
ro tes</w> 2710
con ne 2710
dol lar 2710
exp lo 2710
ti e</w> 2709
sk irt</w> 2709
religi o 2709
dekor ation</w> 2709
metalli c</w> 2707
te ile</w> 2706
wa ving</w> 2706
di g</w> 2705
vie wed</w> 2705
z y</w> 2704
vol le</w> 2704
di ch</w> 2703
fu gen</w> 2703
de te</w> 2703
colo ur</w> 2703
il en</w> 2702
kom bin 2700
poli zei 2700
austr ali 2700
ti ps</w> 2699
freun den</w> 2699
verand a</w> 2699
geb iet</w> 2697
po st 2695
einfa ch</w> 2694
gan g 2691
wor d</w> 2691
heal thy</w> 2691
aus sieht</w> 2689
tur n 2689
att le</w> 2689
ele men 2687
mo gen</w> 2686
professi onal</w> 2686
gru ß 2683
anti que</w> 2682
troph y</w> 2681
fre i</w> 2680
ce ption</w> 2680
at em 2679
de ss 2678
tab let 2678
g ten</w> 2677
pa sses</w> 2677
schu hen</w> 2677
ein sam 2676
to il 2676
kat zchen</w> 2676
eng th</w> 2676
ex er 2675
ru ht</w> 2674
prote st</w> 2673
mu st</w> 2672
ber au 2672
person en</w> 2670
mir ror</w> 2670
tournam ent</w> 2670
ru hi 2669
bu cht</w> 2669
rin ge</w> 2668
we tter</w> 2667
fru hen</w> 2667
grau em</w> 2667
sh aring</w> 2665
skiz ze</w> 2665
pul lover</w> 2662
reag iert</w> 2660
a ch 2659
gre eting</w> 2659
harb our</w> 2659
wan de</w> 2658
th re 2657
water color</w> 2657
rail way</w> 2657
ent wick 2656
grun er</w> 2655
sommer tag</w> 2655
dram a</w> 2654
go vern 2653
geomet ri 2653
dro ps</w> 2650
hi p</w> 2649
brun nen</w> 2649
j ag 2648
th r 2648
clou d</w> 2648
wasser fall</w> 2648
wat ches</w> 2646
helicop ter</w> 2645
y er</w> 2644
st ati 2644
annu al</w> 2644
over looking</w> 2642
sa w</w> 2641
b ers</w> 2640
h nt</w> 2640
sho wer</w> 2639
kt es</w> 2639
trop ha 2639
gr at 2638
den schau</w> 2636
gol dene</w> 2635
le vel</w> 2634
b art</w> 2632
ribb on</w> 2632
ren n 2630
k - 2629
lin ed</w> 2629
wan n</w> 2629
thou se</w> 2629
nachbar schaft</w> 2626
ol d 2623
restauran ts</w> 2622
vari ous</w> 2622
e - 2621
on line</w> 2621
sp on 2621
ne ck 2621
tra v 2621
wochen ende</w> 2621
gluck lichen</w> 2620
el derly</w> 2618
spie gel</w> 2618
lo sen</w> 2617
mu tze</w> 2617
e ding</w> 2615
d river</w> 2614
w hole</w> 2614
vehic les</w> 2612
gi e</w> 2611
ge farben 2609
l auf</w> 2607
a stron 2606
mu ssen</w> 2606
men ade</w> 2606
friend ly</w> 2606
atem berau 2606
g ate</w> 2604
ver bin 2604
pro menade</w> 2604
pi an 2604
lo st</w> 2603
1 5 2602
in es</w> 2602
de c 2602
sch na 2600
se ts</w> 2599
da bei</w> 2598
high way</w> 2598
sch lei 2597
k le</w> 2596
au dien 2595
ru ral</w> 2595
an ni 2590
hin zu 2589
pu tting</w> 2589
schla ft</w> 2588
ru ins</w> 2587
sun light</w> 2585
thou gh</w> 2585
e ast</w> 2584
hu h 2583
elekt ri 2582
ta pete</w> 2581
gluck licher</w> 2581
o the 2579
b ten</w> 2577
co ol 2577
pro gram</w> 2576
gesch mu 2576
bal d</w> 2576
donner stag</w> 2576
n ative</w> 2574
k am</w> 2574
th ern</w> 2573
verwen den</w> 2573
mehr ere</w> 2571
z immer 2568
la un 2568
ta fel</w> 2568
v ac 2567
graph ic</w> 2567
in spir 2566
fu ture</w> 2566
stell er</w> 2564
komi ker</w> 2564
ie ty</w> 2563
o d 2562
g y 2562
bar n</w> 2562
old ti 2562
re ve 2561
po t</w> 2561
op en 2561
rei chen</w> 2561
bu cher</w> 2560
bild schirm</w> 2560
lux ur 2559
si cher</w> 2557
ge d 2557
auf genommen</w> 2557
gr ill</w> 2556
mou th</w> 2555
a - 2554
wei t</w> 2553
founta in</w> 2553
squ e</w> 2551
bibli othe 2551
a il 2550
f s</w> 2550
s old</w> 2548
pa ck 2548
a s 2547
distri ct</w> 2547
for men</w> 2546
celebr ation</w> 2546
er ing</w> 2545
t ent</w> 2543
hub schrau 2543
a mic</w> 2540
da mit</w> 2540
lo ts</w> 2537
flughaf en</w> 2537
t ation</w> 2536
organisation sle 2535
fin ish</w> 2531
bot tom</w> 2531
k et 2530
cock tail</w> 2530
libr ary</w> 2530
l unch</w> 2529
o b</w> 2529
bil det</w> 2529
ten nis 2529
g on</w> 2527
reg al</w> 2527
l ernen</w> 2526
t wo</w> 2525
l k 2525
illu min 2525
sol l</w> 2525
schw imm 2525
e mer 2524
ge - 2524
ti re</w> 2523
den ken</w> 2523
la wn</w> 2522
pre si 2522
genie ßt</w> 2522
pa ck</w> 2521
verla ssen</w> 2520
pi er 2518
al er</w> 2517
g n 2515
fla m 2515
vorder grund</w> 2515
gluck liches</w> 2514
c s</w> 2511
he iten</w> 2511
p r 2510
g ern</w> 2510
f ar</w> 2509
tra vel 2509
re acts</w> 2505
pre is</w> 2505
to ps</w> 2504
auf tritt</w> 2503
e at</w> 2502
tex tured</w> 2502
aufnah men</w> 2501
fan ta 2501
er ed</w> 2500
ne st</w> 2500
g ar</w> 2499
bor der</w> 2498
visit ors</w> 2498
c all</w> 2497
re public</w> 2497
sh ine</w> 2497
mo denschau</w> 2493
verkauf t</w> 2492
fi sche</w> 2491
dire kt</w> 2491
smo ke</w> 2491
tr ying</w> 2490
per spe 2488
buil d</w> 2488
hinter grund 2486
sh al 2485
k il 2484
ge tran 2484
con temporary</w> 2483
lea ving</w> 2483
hel fen</w> 2483
cre te</w> 2483
pro vin 2482
gan ze</w> 2482
di ent</w> 2481
le g</w> 2481
klei det</w> 2481
h ir 2479
con crete</w> 2479
b old</w> 2478
r es</w> 2477
mon o 2477
lo vely</w> 2476
h all</w> 2475
an zu 2475
il li 2475
flow ing</w> 2475
jour n 2475
hu sband</w> 2474
re publi 2473
si de 2473
fore ground</w> 2473
beg le 2471
feuerwe hr 2471
sen i 2470
ni chts</w> 2469
z ir 2468
av ail 2468
de ity</w> 2467
geschen k</w> 2467
oran gefarben 2466
ig arti 2465
einz igarti 2465
klei dungs 2462
tou ch</w> 2461
m p 2460
teen age</w> 2459
z ent</w> 2458
ba ch</w> 2458
cli p</w> 2458
ornam ent</w> 2457
p -kunstler</w> 2456
er ne</w> 2456
person lich</w> 2456
lich keiten</w> 2454
anti ken</w> 2454
tatowi erung</w> 2454
bede u 2451
stun ning</w> 2450
e ti 2448
h it 2448
ho st</w> 2448
ch ten 2446
geri cht</w> 2446
ele fan 2445
ci l</w> 2445
fic tional</w> 2445
lie gen</w> 2443
holz tisch</w> 2443
se es</w> 2441
kauf en</w> 2439
schr itt</w> 2439
ei sen 2438
alle in</w> 2438
un d 2437
in v 2436
fo cus</w> 2436
ad ed</w> 2436
no thing</w> 2436
pra si 2436
ide en</w> 2436
avail able</w> 2436
kom o 2435
hal le</w> 2433
gluck lich</w> 2433
de velop 2432
cli mb 2432
ven tion</w> 2432
b loo 2431
is st</w> 2431
zie gel 2430
tradition elle</w> 2430
pie ces</w> 2430
war men</w> 2429
sa gen</w> 2429
mittwo ch</w> 2428
en ce</w> 2427
iz iel 2426
off iziel 2425
riesi gen</w> 2425
tra ck</w> 2424
gu te</w> 2424
st itu 2423
sp ac 2423
ste ad</w> 2423
bi er</w> 2423
come dy</w> 2423
republi k</w> 2423
br ing</w> 2422
wunder schone</w> 2422
eig ent 2422
erziel t</w> 2422
aga in</w> 2421
gal ax 2421
cour se</w> 2421
elegan t</w> 2421
musik kunstler</w> 2419
refle ction</w> 2418
mah l 2417
fru its</w> 2416
tele fon 2416
some one</w> 2413
el i 2409
hol en</w> 2409
ation al</w> 2409
rhyth m</w> 2408
de st</w> 2407
inter national</w> 2407
ben e 2406
sa iling</w> 2406
pres ent</w> 2405
whe at</w> 2404
ig h 2403
we ht</w> 2402
cu tting</w> 2402
schla gt</w> 2402
1 6 2401
le hr 2401
spiel ers</w> 2401
wel le</w> 2400
tex t 2400
ruck seite</w> 2400
bron ze</w> 2400
p lo 2399
f lat 2399
film regisseur</w> 2399
stei gen</w> 2399
be sit 2398
der ed</w> 2396
gel be</w> 2396
u ally</w> 2395
me al</w> 2395
tri fft</w> 2395
se tzen</w> 2394
groß buchstaben</w> 2394
lusti ge</w> 2393
vi si 2392
graffit i</w> 2392
cartoon- illustration</w> 2390
ti es</w> 2389
1 7 2388
jo b</w> 2388
e ch</w> 2387
inter net</w> 2387
st imm 2386
ru stic</w> 2386
por ch</w> 2386
mon tag</w> 2386
oran gen</w> 2386
exhi b 2386
heim at</w> 2385
ell es</w> 2384
vi a</w> 2384
pp s</w> 2383
al most</w> 2382
ei genen</w> 2382
han ger</w> 2382
dri ve</w> 2382
eroffn ungs 2381
ne bli 2380
g ging</w> 2378
ri ck 2378
play ed</w> 2377
con si 2377
be cken</w> 2376
se iten</w> 2376
sand y</w> 2376
feier tage</w> 2376
lo ck 2375
meere s 2375
uni que</w> 2374
cle an</w> 2374
wor k 2373
kt u 2373
d dy</w> 2372
ma j 2372
ru inen</w> 2372
nor d 2372
l er 2370
tropha e</w> 2370
s am</w> 2368
win kel</w> 2368
trin ken</w> 2367
fi ed</w> 2366
w ers</w> 2365
eleph ant</w> 2365
du sk</w> 2364
sta un 2363
shoo ting</w> 2363
tra vel</w> 2362
bibliothe k</w> 2362
li sten 2360
mi sche</w> 2360
fla schen</w> 2357
with in</w> 2357
sch lange</w> 2354
p et 2352
hu tte</w> 2352
ex tre 2351
bur ning</w> 2351
kit ten</w> 2351
d it 2348
unter nehmen</w> 2348
c ats</w> 2346
al one</w> 2346
au se</w> 2345
an t 2344
de ten</w> 2344
sk ate 2343
ation s 2343
ker zen</w> 2343
elekt ro 2343
shor ts</w> 2342
bie tet</w> 2342
b on 2341
nar row</w> 2340
z itat</w> 2339
s ly</w> 2338
vektor kunst</w> 2338
stro m 2338
li es</w> 2337
vi ctory</w> 2337
f it 2336
al lo 2335
te sten</w> 2335
sonnen licht</w> 2335
zeit geno 2335
n ur 2334
bau ten</w> 2334
cy c 2334
en - 2333
sich er 2332
supp or 2332
gy m</w> 2332
sk lei 2331
kl aren</w> 2331
shin y</w> 2331
gar ment</w> 2330
i erte</w> 2328
con tro 2328
schw immt</w> 2328
m ate</w> 2327
ex pe 2327
do or 2326
wil l 2326
ge wi 2324
b and 2323
k ter</w> 2323
fru chte</w> 2323
wett bewer 2323
organisationsle iter</w> 2322
geb ra 2321
le ad</w> 2320
ho o 2319
the med</w> 2319
model s</w> 2319
gall ery</w> 2319
f lei 2318
k ne 2318
fin e</w> 2318
mix ed</w> 2318
bla ck 2317
ge spra 2316
le ere</w> 2316
no vel 2316
je mand</w> 2316
le eren</w> 2315
ul t</w> 2314
fer ti 2314
gol f 2314
y e 2313
om ing</w> 2312
kla ssen 2312
sch wen 2309
verla sst</w> 2309
d k 2308
refle kti 2308
il y</w> 2307
zeitgeno ssi 2307
blu h 2306
igar ette</w> 2305
ya cht</w> 2304
ig em</w> 2303
sin ce</w> 2303
ag o</w> 2302
konferen z</w> 2302
st op 2301
it es</w> 2301
te u 2301
liebl ings 2299
in gre 2296
in stead</w> 2296
musi ci 2296
s elling</w> 2295
la ger 2295
fo ur 2295
ab bild</w> 2295
bil den 2295
g lau 2292
ir ts</w> 2292
k rie 2290
sp lat 2290
cab in 2290
sky scra 2289
st et</w> 2287
schneebede ckten</w> 2287
re lea 2286
tur ni 2285
su spen 2284
servi ce</w> 2284
or d 2283
mor gend 2283
aben dessen</w> 2283
klassi schen</w> 2282
novel ist</w> 2282
k eln</w> 2281
it ali 2281
lu st 2281
tr a</w> 2279
fruhlin g 2279
schul er</w> 2278
ba sed</w> 2277
s ent 2276
we sten</w> 2276
eri schen</w> 2276
o de</w> 2275
poin ting</w> 2275
p ile</w> 2274
m arti 2274
hor en</w> 2274
an ten 2272
kunstl erin</w> 2272
i red</w> 2271
sa y</w> 2271
h nen</w> 2270
re mo 2269
writ ing</w> 2268
: )</w> 2267
sp run 2265
we ars</w> 2265
wor n</w> 2264
sch wer 2263
strei fen</w> 2263
four th</w> 2262
th i 2261
li ps</w> 2261
stra ight</w> 2261
ci vil</w> 2261
hei ß 2261
astron au 2261
re ch 2259
perfe kt</w> 2259
dunkl em</w> 2259
l ength</w> 2258
cand les</w> 2258
hor n 2257
rug by 2256
betra chtet</w> 2256
bewol kten</w> 2256
pit cher</w> 2255
militar kom 2254
quadr ati 2254
wor ds</w> 2252
blo wing</w> 2252
schei be</w> 2251
me chan 2250
el ing</w> 2249
ser ved</w> 2249
r ein 2248
t on</w> 2248
o st 2248
shi ps</w> 2248
cor n</w> 2248
tan z 2248
sti schen</w> 2247
sta ined</w> 2247
cla ss 2246
cru ise</w> 2246
re l</w> 2245
pla ces</w> 2245
schwarz es</w> 2245
weihnach ten</w> 2245
geschafts frau</w> 2245
groß te</w> 2243
ga ther 2241
scor es</w> 2241
cust om 2240
ven ue</w> 2239
ballo on</w> 2239
que en</w> 2238
stron g</w> 2237
t ar 2236
uber ra 2236
sa is 2235
sa al</w> 2234
dar stellung</w> 2234
teil t</w> 2234
ball s</w> 2231
her de</w> 2230
we g 2229
tur ns</w> 2229
colo ur 2229
ver lie 2228
i sches</w> 2227
dre ht</w> 2227
b ig 2226
spo tted</w> 2226
alt stadt</w> 2226
b bles</w> 2225
schmetter lin 2223
sand strand</w> 2222
blan k</w> 2222
rou ght</w> 2221
biologi scher</w> 2221
bott les</w> 2221
de ci 2220
blo g</w> 2220
automo tive</w> 2220
lead s</w> 2220
1 2 2218
wor kers</w> 2218
lich em</w> 2218
cat ch</w> 2218
ce ss 2217
wel pe</w> 2216
pa ssi 2215
thr il 2214
a pfel</w> 2213
st af 2213
fu tter 2213
g in 2212
kla sse</w> 2212
p ft</w> 2211
al t</w> 2211
ti pps</w> 2211
e ter</w> 2210
k in</w> 2210
dien stag</w> 2210
feuer werk</w> 2210
fro zen</w> 2209
pro mi 2209
al bu 2208
tur es</w> 2208
produ ct</w> 2208
weiß - 2207
bl it 2206
ad or 2205
kon zept</w> 2205
il ity</w> 2204
ei l</w> 2204
mi ght</w> 2203
fa ces</w> 2203
stu dy</w> 2203
wolken krat 2202
a di 2200
el te</w> 2200
ligh ting</w> 2200
min i</w> 2199
illustr ations</w> 2197
chi cken</w> 2196
soldi er</w> 2195
colour ful</w> 2195
der te</w> 2194
car ri 2194
tz te</w> 2194
sho w 2193
no lo 2193
cur r 2189
rou te</w> 2188
er fin 2187
wa it</w> 2187
me er 2187
ter min 2186
po ssi 2186
su ße</w> 2186
milli onen</w> 2186
for ce</w> 2185
mar ch</w> 2185
kat eg 2185
s wing</w> 2184
whe el 2184
her r 2183
glu h 2183
kosten los</w> 2183
fel s 2182
kat ur</w> 2179
waf f 2179
ro r 2178
stri ped</w> 2178
th ic</w> 2176
it y 2176
thro ws</w> 2176
fi ktion 2175
commun ity</w> 2175
re su 2173
sa ve</w> 2173
cam p</w> 2173
motor cycle</w> 2173
p end 2172
wi ssen</w> 2172
nah m</w> 2171
kon trol 2170
var iety</w> 2168
hubschrau ber</w> 2168
con stitu 2167
bewe gen</w> 2166
zah len</w> 2166
dramati c</w> 2166
kari katur</w> 2166
am a</w> 2165
wa sch 2165
head s</w> 2165
exp lor 2165
teenag er 2164
k au 2163
fo ku 2163
can al</w> 2163
st in 2162
we iter</w> 2162
co stum 2162
p ro</w> 2160
eth ni 2160
patter ns</w> 2160
y et</w> 2158
l ein 2157
re cor 2157
p ic 2155
gr and</w> 2155
wor den</w> 2155
c um 2154
wand ern</w> 2154
offici al</w> 2154
da r</w> 2153
fre e 2152
celebr ating</w> 2152
ch al 2151
spo t</w> 2151
supp ort</w> 2150
en des</w> 2149
si des</w> 2148
gi raff 2148
trun k</w> 2147
ama zing</w> 2147
ne u</w> 2146
fel d 2145
t i</w> 2144
th s</w> 2144
pres ents</w> 2144
be t</w> 2143
got theit</w> 2143
cour t</w> 2142
herbst lichen</w> 2141
tech nolo 2141
re ception</w> 2140
anim ation</w> 2140
geomet ric</w> 2140
umar mt</w> 2140
n ahr 2138
ligh thouse</w> 2138
parti ci 2138
sto ff</w> 2137
wach st</w> 2137
pati o</w> 2137
audien ce</w> 2137
kor per</w> 2136
s op 2135
entfer nt</w> 2135
schließ lich</w> 2135
kateg or 2135
ur ban</w> 2134
engli sh</w> 2134
t ol 2133
um gebung</w> 2133
comple te</w> 2133
hin auf</w> 2130
lk w</w> 2130
de ck 2129
ver gan 2127
pian o</w> 2127
uberqu ert</w> 2126
h its</w> 2125
kat zen</w> 2125
l y 2123
war um</w> 2122
tra ctor</w> 2121
ge fuh 2120
rosafar benen</w> 2119
am s</w> 2117
ba by 2117
e p 2116
new spa 2115
er staun 2114
gr y</w> 2114
lo go 2110
mi ssion</w> 2110
fri sch</w> 2109
bre ad</w> 2109
mei sten</w> 2109
fan g</w> 2108
wal d 2107
go thic</w> 2107
zi eren</w> 2107
stei gt</w> 2107
sty les</w> 2105
g em</w> 2104
en vi 2104
he it 2104
be a 2103
1 0</w> 2102
re ss</w> 2102
ex tra</w> 2102
sa ck</w> 2102
rei se</w> 2102
menschen massen</w> 2102
spei se 2102
ou sly</w> 2101
p- ho 2101
wel che</w> 2099
gar dens</w> 2098
i erten</w> 2097
m m</w> 2097
kom men 2097
gen e</w> 2096
stu r</w> 2096
passen gers</w> 2096
sch ur 2095
ent worfen</w> 2095
milli on</w> 2095
bl ur 2094
se arch</w> 2093
l ers</w> 2092
mar ke</w> 2090
re ad</w> 2089
hinter hof</w> 2089
person ality</w> 2089
ic es</w> 2088
stand ort</w> 2088
rei cht</w> 2086
pres se 2086
resi dential</w> 2086
bess er</w> 2086
spiel e</w> 2085
stu cke</w> 2085
n d</w> 2084
ati ven</w> 2083
ig t</w> 2083
gel ber</w> 2083
towar d</w> 2083
laugh ing</w> 2083
ar ly</w> 2082
nie der 2082
art work</w> 2081
p an</w> 2079
ge sich 2079
vor bei 2079
rau m 2078
ze p 2077
refle cted</w> 2077
vers ary</w> 2077
anni versary</w> 2077
in cre 2076
transpar ent</w> 2075
ch lich</w> 2074
ri sing</w> 2074
da von</w> 2074
blo ss 2074
akte ur</w> 2074
mor gens</w> 2072
fri sche</w> 2071
cli ff</w> 2070
an ts</w> 2067
ba gs</w> 2067
cup cakes</w> 2067
bu y</w> 2066
ruck ansicht</w> 2066
stor te</w> 2065
besu ch</w> 2065
wre ath</w> 2065
li er</w> 2064
fa ir 2064
gepar kt</w> 2064
he a 2063
st ung</w> 2062
haus ern</w> 2062
teen ager</w> 2062
abend dammerung</w> 2062
ver tei 2061
govern ment</w> 2061
z uber 2060
li on</w> 2060
im mel</w> 2058
program m</w> 2057
nam ed</w> 2056
h in</w> 2055
h are</w> 2055
hun des</w> 2055
kolle ktion</w> 2055
er tem</w> 2054
z te</w> 2052
f eri 2051
fuß e</w> 2050
ar men</w> 2049
im port 2049
t le</w> 2048
par ts</w> 2047
import ant</w> 2047
la s</w> 2046
wel pen</w> 2046
ima ges</w> 2045
ei sho 2044
we t</w> 2044
einfa chen</w> 2044
hi p-ho 2043
schwe ster</w> 2042
s ne 2041
them a</w> 2041
einfa che</w> 2040
auto bahn</w> 2040
blu ten 2039
tri bu 2039
mono chro 2039
il er</w> 2038
w en</w> 2037
finis hed</w> 2037
um ge 2036
ga ther</w> 2036
fruh stuck</w> 2036
versch wom 2036
medi cal</w> 2034
bro ad 2032
ca p</w> 2031
o par 2030
ver schne 2030
ga b</w> 2030
fun ktion 2030
sum mit</w> 2030
langsam er</w> 2030
h um 2029
to pf</w> 2029
gui de</w> 2029
er innen</w> 2027
sur pri 2027
arti sts</w> 2026
br and 2025
symbol e</w> 2025
n ungen</w> 2024
lar gest</w> 2024
ex ten 2023
p ause</w> 2022
bau t</w> 2021
fo li 2020
do ctor</w> 2020
wol len</w> 2020
in vention</w> 2018
ta gen</w> 2017
ex pre 2017
uberqu eren</w> 2017
rei fen</w> 2016
, 000</w> 2015
ge strei 2015
pro mo 2015
ki ssen</w> 2015
dia gram 2015
sais on 2015
wahr schein 2014
c ent</w> 2012
form al</w> 2012
depict ing</w> 2012
or ch 2011
industri al</w> 2011
m und</w> 2010
kan al</w> 2010
t ul 2009
g gy</w> 2009
su bur 2009
nam en</w> 2009
the me</w> 2008
bere it 2008
p li 2006
ear lier</w> 2006
versu chen</w> 2006
lear n</w> 2006
n ic 2005
flie sen</w> 2005
prasen tiert</w> 2005
is omet 2004
zwe i</w> 2004
gebra cht</w> 2004
fuß ball</w> 2003
ge fro 2002
mon at</w> 2002
an hanger</w> 2001
ir on</w> 2001
regen bogen</w> 2001
park platz</w> 2001
ha pp 2000
hochzeit sklei 2000
di men 1999
ss a 1999
spe ech</w> 1999
tem per 1998
ge zeigt</w> 1996
se par 1996
envi ron 1995
ve ment</w> 1994
t z</w> 1992
fen ster 1991
begin nt</w> 1991
land straße</w> 1990
tan k</w> 1990
p lau 1989
ra mi 1989
sig n 1989
su chen</w> 1988
ki ss</w> 1988
ex c 1987
lacheln den</w> 1987
d ly</w> 1986
k ette</w> 1984
k offer</w> 1984
ri ce</w> 1984
silhouet tes</w> 1984
schlei fe</w> 1984
zuber e 1983
geb or 1981
prepar ing</w> 1980
con tra 1979
charak ter</w> 1978
ro bo 1977
be cher</w> 1977
ti l</w> 1977
tur ning</w> 1976
kar ten</w> 1975
pre i 1974
fab ri 1974
fo under</w> 1973
sh aus</w> 1973
mittel alter 1973
exhib ition</w> 1973
sho wed</w> 1972
swe ater</w> 1972
z elt</w> 1971
wit ter 1971
ki es</w> 1971
u - 1970
ma y 1970
prei stra 1970
we ch 1969
neu er</w> 1969
glei ch 1969
py rami 1969
jum p</w> 1968
fahrzeu ge</w> 1968
ri des</w> 1967
enter tain 1967
photograp her</w> 1966
di ge</w> 1965
sp at 1965
ho me 1965
gel b</w> 1965
schil dk 1965
resi den 1965
brau chen</w> 1964
person al</w> 1964
zwe ite</w> 1964
sp ru 1963
silhou etten</w> 1963
eisho ck 1963
aus wahl</w> 1961
e du 1960
isoli erten</w> 1959
bou ght</w> 1957
meister schaft</w> 1957
class room</w> 1957
me die 1956
pro file</w> 1956
car t</w> 1955
fen stern</w> 1955
tat too 1955
photograph y</w> 1955
medie val</w> 1955
li st</w> 1954
kon zer 1954
hau p 1954
t ile</w> 1953
prin ted</w> 1953
fest es</w> 1953
stah l 1952
weit ere</w> 1951
bl in 1950
blei ben</w> 1950
wer ke</w> 1949
in ing</w> 1947
aus schnitt 1946
lea ve</w> 1946
fel si 1945
schu tt 1945
sa il 1944
mus -</w> 1943
kost um</w> 1940
rais ed</w> 1940
in ten 1939
gren ze</w> 1939
bo dies</w> 1938
lebensmitt eln</w> 1937
roy al</w> 1936
rhyth mus-</w> 1936
u ses</w> 1935
5 0 1935
ri pe</w> 1935
mit tage 1935
lo bby</w> 1934
lat er</w> 1934
illustr ationen</w> 1933
spiel zeug</w> 1932
ra der</w> 1931
min u 1931
t ings</w> 1930
ar ds</w> 1930
le opar 1930
wor t</w> 1930
rock kunstler</w> 1930
ct ly</w> 1929
and eli 1928
every thing</w> 1928
ste u 1927
er halten</w> 1926
wel come</w> 1926
che mi 1926
trau m</w> 1926
h iel 1925
hou r</w> 1925
wir t 1925
politi kers</w> 1924
bor d</w> 1924
m a</w> 1923
k ni 1923
pfer de 1923
sch lan 1922
kom pon 1921
luxur i 1921
be waff 1920
me da 1920
pre gn 1920
dra w</w> 1920
net z</w> 1920
u en</w> 1918
ch ern</w> 1918
at ors</w> 1918
pa pier 1918
zent r 1917
schwarz- weiß- 1917
dan cer</w> 1916
har ve 1916
bis schen</w> 1916
neck lace</w> 1916
e k</w> 1915
ta xi</w> 1914
back yard</w> 1914
sta y</w> 1914
car e 1914
mil k</w> 1914
pla ced</w> 1913
ren nt</w> 1913
fa c 1912
schmu ck</w> 1912
net tes</w> 1911
e hr 1910
ge s 1910
mi kro 1910
vi erten</w> 1910
sha de</w> 1910
thou ght</w> 1910
k lo 1908
drin ks</w> 1908
ku sten 1907
mode woche</w> 1907
fe eding</w> 1906
wand er 1906
im pre 1905
pf lu 1905
act ress</w> 1905
dunkel heit</w> 1905
ad o 1904
pro gre 1904
hub sche</w> 1904
cow boy</w> 1903
ki d</w> 1902
kranken haus</w> 1902
skul l</w> 1902
e ment</w> 1901
offent lichen</w> 1901
cal m</w> 1901
g as</w> 1900
den im</w> 1900
nach th 1900
ka pu 1900
lam p</w> 1900
sche une</w> 1899
mu ral</w> 1898
lau b 1898
begin n</w> 1898
pump kin</w> 1898
r ung</w> 1897
pen sive</w> 1897
priv at 1897
open ed</w> 1897
re itet</w> 1896
se p 1896
sal at</w> 1896
g ent 1895
rain y</w> 1895
ereig nis</w> 1894
be dro 1893
mat erial</w> 1893
displa yed</w> 1893
verkehr s 1893
t aus 1892
ke pt</w> 1892
tan zer</w> 1892
ele ment</w> 1891
pen cil</w> 1891
c ran 1889
schn ur 1889
fis her 1889
ge won 1888
bur ger 1888
geschafts leute</w> 1888
cent ly</w> 1887
po uring</w> 1886
fa cing</w> 1886
zei gte</w> 1886
climb ing</w> 1886
sprin gen</w> 1885
schie ßt</w> 1884
li c</w> 1883
plan eten</w> 1883
ein la 1882
ge ous</w> 1882
ri ff</w> 1882
gru ßt</w> 1882
leucht turm</w> 1882
sk ette</w> 1881
fel n</w> 1881
re cently</w> 1879
her vor 1879
gal erie</w> 1879
verschwom men 1879
v s</w> 1877
an gel 1877
ra bb 1877
diam ond</w> 1877
telefon iert</w> 1877
por tr 1876
bet on 1876
la ying</w> 1875
ser ve</w> 1875
intere ss 1875
g on 1874
th in</w> 1874
fahr e</w> 1874
stra w 1873
bi o 1873
itt ed</w> 1873
mess age</w> 1872
edu c 1872
f ying</w> 1871
wi ssen 1870
kunst werk</w> 1870
archite ct</w> 1870
kreu z</w> 1869
riesi ge</w> 1869
fahr t 1868
thin king</w> 1868
sch ar 1867
intere sting</w> 1867
flugzeu g 1867
an no 1866
de in</w> 1866
schu tz 1866
in mitten</w> 1865
sep tem 1865
a ktu 1864
so lar</w> 1863
holz ernen</w> 1863
schlo ss</w> 1863
mach ine</w> 1863
tu ral</w> 1862
amerikan ischer</w> 1862
charak ter 1862
to dd 1861
lich tern</w> 1861
le aning</w> 1860
pal ette</w> 1860
cen tral</w> 1860
coast al</w> 1860
gro unds</w> 1859
po wer 1859
rau ch</w> 1859
com mon</w> 1858
gre en 1858
produ ction</w> 1858
wra pped</w> 1858
di gt</w> 1857
mi cro 1857
ck -kunstler</w> 1857
gruß karte</w> 1857
war ts</w> 1856
tat en</w> 1856
tran spor 1856
que sti 1856
gan z</w> 1855
cher ry</w> 1854
listen ing</w> 1854
elefan ten</w> 1853
zu satz 1852
schnei den</w> 1852
st off 1851
di scu 1851
clo thing</w> 1851
shel f</w> 1851
f es</w> 1850
ou gh</w> 1850
e qui 1849
par ish</w> 1849
gu e</w> 1849
star ted</w> 1849
gelb em</w> 1849
e ag 1848
be come</w> 1848
schiff es</w> 1848
en ough</w> 1847
la ck 1847
sh are</w> 1847
sprun g 1847
gra s 1846
presse konferenz</w> 1846
sun shine</w> 1844
enga gement</w> 1844
scar f</w> 1843
mittage ssen</w> 1843
ei en</w> 1842
religi on</w> 1842
vor ne</w> 1841
app ears</w> 1841
hei ßen</w> 1841
entspan nt</w> 1841
er wachsen 1840
ar med</w> 1840
ta ins</w> 1840
wahrschein lich</w> 1840
al pha 1839
fe at 1839
ho tels</w> 1838
ke ys</w> 1837
t sche</w> 1836
- illustration</w> 1836
he ben</w> 1836
vac ation</w> 1836
gro w</w> 1835
pa sst</w> 1835
da zu</w> 1835
zen s</w> 1835
scre ening</w> 1835
ge tragen</w> 1834
aus zu 1834
voll stan 1834
bla sen</w> 1833
sk in</w> 1832
an lage</w> 1831
ster nen</w> 1831
mu sch 1830
shin ing</w> 1830
decor ations</w> 1829
coo kies</w> 1829
il o 1828
ge sam 1828
ati c</w> 1828
eng ine</w> 1828
stie fel</w> 1828
tran sport</w> 1827
horiz on</w> 1827
num bers</w> 1826
we ge</w> 1825
maj or</w> 1825
1 4 1824
li ste</w> 1824
buil der</w> 1824
oran gen 1823
ur ban 1822
fun ction</w> 1822
ne y</w> 1821
motor rad</w> 1821
baum stamm</w> 1821
re ma 1820
b om 1819
flu gel</w> 1819
bun ch</w> 1818
ste am</w> 1816
k ru 1815
bere iten</w> 1815
theat re</w> 1815
me et</w> 1813
an kunft</w> 1812
h ung</w> 1811
sitz end</w> 1811
' d</w> 1810
19 5 1809
au gu 1808
gemal t</w> 1808
in se 1807
blau es</w> 1807
dri ves</w> 1807
gor geous</w> 1807
ch el 1806
car ved</w> 1806
sle ep</w> 1806
an zahl</w> 1805
st im 1805
bur g</w> 1805
ma chte</w> 1804
mo tor</w> 1803
weibli che</w> 1803
pro blem</w> 1802
vi du 1802
tan zen</w> 1802
rol ling</w> 1802
indi vidu 1802
spiel ern</w> 1801
cre ative</w> 1801
star ting</w> 1801
schach tel</w> 1801
be ard</w> 1800
albu m</w> 1799
to y</w> 1798
fer ry</w> 1798
se at</w> 1797
neu e 1797
cli ffs</w> 1797
ausge stellt</w> 1797
gefuh l</w> 1797
di ger</w> 1796
ne ck</w> 1796
mor gen 1796
klassen zimmer</w> 1796
ca the 1795
arri ved</w> 1795
tal k</w> 1795
nach sten</w> 1794
che ss</w> 1794
haupt stadt</w> 1794
la ven 1793
fe der 1793
mon um 1793
mahl zeit</w> 1793
leben s 1792
ar te</w> 1791
arri ving</w> 1791
or der</w> 1789
ke hr 1789
s eln</w> 1788
ma sk</w> 1788
atemberau ben 1788
medi zin 1787
stuh le</w> 1787
ta r</w> 1786
19 6 1786
spar kl 1786
mitt l 1786
newspa per</w> 1786
gefro ren 1786
so li 1785
se eing</w> 1784
kli ppe</w> 1784
sam en</w> 1783
cau ght</w> 1781
erfin dung</w> 1781
cor al</w> 1780
leucht end</w> 1780
blur red</w> 1780
lich t 1779
pan ts</w> 1778
hau sti 1775
val ent 1775
sch ein</w> 1774
sk el 1774
fol gt</w> 1774
shar ed</w> 1774
m als</w> 1773
handgezeich nete</w> 1773
u tion</w> 1772
ct ors</w> 1772
dar uber</w> 1772
perfor mer</w> 1772
sig ni 1771
versamm eln</w> 1771
bu tt 1770
ro ws</w> 1769
bo y 1769
zeit raff 1769
zeitraff er</w> 1769
produ cts</w> 1768
nav y</w> 1768
o p</w> 1767
ver g 1767
hand some</w> 1767
kin des</w> 1767
schi ed</w> 1767
smo o 1767
ri ch</w> 1766
bron ze 1766
ku h 1765
m p</w> 1764
pop ul 1764
hoh le</w> 1764
c in 1763
fi x 1763
groß ten</w> 1763
archite kt 1763
lo s 1762
vent ure</w> 1762
be kommt</w> 1761
sp rit 1761
sto ck 1761
hel m</w> 1760
spe ed</w> 1759
colo ured</w> 1759
scre en 1759
seiten ansicht</w> 1759
p pers</w> 1758
ein zige</w> 1758
sch op 1758
dra l</w> 1758
a pf 1757
se cre 1757
fa ir</w> 1757
brau cht</w> 1757
har d 1757
besit zer</w> 1757
kategor ie</w> 1757
a pri 1756
el e</w> 1756
hel met</w> 1756
n a</w> 1755
it or</w> 1755
cre w</w> 1755
cy cli 1754
down town</w> 1754
bu d 1753
.. ...</w> 1753
lauf steg</w> 1753
organisation s 1753
p fe 1752
cathe dral</w> 1752
bo gen 1751
sand s</w> 1751
fire figh 1751
ent schei 1750
plu s</w> 1750
su r</w> 1749
alter en</w> 1749
th um 1748
grun es</w> 1748
schmetter ling</w> 1748
l one</w> 1747
sp in 1747
fel l</w> 1747
blan k 1747
st ones</w> 1746
j e</w> 1745
ig n</w> 1745
unter schied 1745
act ually</w> 1745
moder nes</w> 1745
u k</w> 1744
la ger</w> 1744
far mer</w> 1744
zeich ent 1744
tan sicht</w> 1744
sk i</w> 1743
qu ite</w> 1743
un be 1742
ri o 1742
pati ent</w> 1742
se i</w> 1741
blo ck 1741
produ cer</w> 1740
fri e 1739
giraff e</w> 1739
sch al</w> 1738
lan gu 1738
h auf 1737
wei zen 1737
horizon t</w> 1737
nie dlichen</w> 1735
grau e</w> 1734
surroun ding</w> 1734
zu taten</w> 1733
pregn ant</w> 1733
ele ss</w> 1732
feat ured</w> 1732
w ell 1731
sonnenunter gangs</w> 1731
lan ger</w> 1729
tradition eller</w> 1729
e del 1728
op ti 1728
ess zimmer</w> 1728
b eln</w> 1726
stra hlen</w> 1726
hou t</w> 1726
ac tiv 1726
fol k</w> 1726
mask e</w> 1726
universit y</w> 1726
ra ther</w> 1725
m ol 1724
wor ker</w> 1724
w ish</w> 1723
mar kt 1723
organis men</w> 1723
spre chen</w> 1723
present ed</w> 1723
an u 1722
smo king</w> 1722
tit el</w> 1722
si mil 1721
schn it 1721
nachth immel</w> 1720
ter race</w> 1719
make up</w> 1719
tack le</w> 1719
ro ads</w> 1718
cand le</w> 1718
son s</w> 1717
lie f</w> 1717
cover ing</w> 1717
in ve 1716
er ungs 1716
ad ded</w> 1716
ca si 1716
zeichent rick 1715
mal er</w> 1714
la bel</w> 1713
ger in</w> 1713
dom in 1713
ver mi 1712
musi ker</w> 1711
hub schen</w> 1711
te e 1708
thi ck</w> 1708
at en 1707
cour ty 1707
eishock ey 1707
bla u</w> 1706
dess ert</w> 1706
gi fts</w> 1705
com bin 1705
a sp 1704
mat eri 1704
bewe g 1704
holi days</w> 1704
gra zing</w> 1703
for der 1702
du sche</w> 1702
farben en</w> 1702
cir ca</w> 1702
bil den</w> 1701
bun gs 1701
demonstr anten</w> 1701
vol le 1700
f and</w> 1699
tele vision</w> 1699
inspir ation</w> 1699
nebli gen</w> 1699
pf la 1698
ein schließlich</w> 1697
ter ed</w> 1697
tre ppen</w> 1697
prepar es</w> 1697
tom aten</w> 1697
septem ber</w> 1697
mo bel</w> 1696
gemein sam</w> 1696
every one</w> 1696
kee per</w> 1696
abstra kter</w> 1695
publi k 1695
sal ad</w> 1695
moo red</w> 1695
illumin ated</w> 1695
qu ality</w> 1694
mar ried</w> 1693
re chten</w> 1692
inspiri ert</w> 1692
d den</w> 1691
the dr 1691
inter view</w> 1691
ka thedr 1691
k a</w> 1690
lacheln de</w> 1690
ei ch 1689
stat ement</w> 1688
t lich</w> 1687
k alten</w> 1687
un t</w> 1687
ti de</w> 1687
p sy 1686
ei er</w> 1686
pa ssen</w> 1686
me eres</w> 1685
nor den</w> 1685
braun en</w> 1685
ne eds</w> 1683
symbol s</w> 1682
promin ente</w> 1682
fan gt</w> 1681
pick ni 1681
b ath</w> 1680
kti ve</w> 1680
klei der 1679
bur ger</w> 1679
flugzeu gs</w> 1679
lo un 1678
ver langsam 1678
su s</w> 1678
o ft</w> 1677
stre ckt</w> 1677
ed le</w> 1677
uns eren</w> 1677
hip-ho p-kunstler</w> 1677
d ents</w> 1676
schlu ssel</w> 1676
d ent 1675
war t</w> 1675
entspan nen</w> 1675
fab ric</w> 1673
b eine</w> 1672
komp let 1672
c are</w> 1671
langs am</w> 1671
harb or</w> 1671
an gry</w> 1670
to ys</w> 1670
we ges</w> 1670
ow ner</w> 1670
o sau 1669
al ong 1669
to p- 1669
mu g</w> 1669
kran z</w> 1669
o ak</w> 1668
o ften</w> 1668
sk in 1668
along side</w> 1668
christ liche</w> 1667
n igh 1666
tra cks</w> 1666
di ents</w> 1664
lu pe</w> 1664
hal lo 1664
head ing</w> 1664
kreuz fahrt 1664
din osau 1663
f ight</w> 1662
re zept</w> 1662
man u 1662
ex o 1662
i kon 1660
er stes</w> 1660
tra ktor</w> 1660
ado ws</w> 1660
wen iger</w> 1659
lon ely</w> 1659
beleu chtung</w> 1659
boo ten</w> 1658
ti red</w> 1657
su gar</w> 1657
dra h 1657
turn halle</w> 1657
wir e</w> 1656
won der 1656
ro pe</w> 1655
be trie 1655
pic nic</w> 1655
o hr 1654
bro t</w> 1654
hei m</w> 1654
buch figur</w> 1654
schlu ss</w> 1654
ruhi gen</w> 1654
sho ps</w> 1653
hau t</w> 1653
kli ppen</w> 1652
gewin n</w> 1651
anno un 1651
courty ard</w> 1651
mar ki 1650
beg innen</w> 1650
stei g</w> 1650
sem ble</w> 1650
appro a 1650
ch allen 1649
an nt</w> 1649
m ern</w> 1647
schaf e</w> 1647
ele v 1647
spe ziel 1647
pop -kunstler</w> 1647
man de 1646
wat te</w> 1645
bri dal</w> 1645
hi p 1645
famil ien</w> 1645
woh ner</w> 1645
ki ck</w> 1645
demonstr ation</w> 1645
ho se</w> 1644
f loo 1643
har dro 1643
gebir gs 1642
verfu gt</w> 1642
k letter 1641
ti sch 1641
pa d 1641
mon key</w> 1641
reis en</w> 1641
preistra ger</w> 1641
u pper</w> 1640
ss or 1640
auf zu 1639
squ ir 1639
t- shirt</w> 1639
ke y 1638
suc cess 1638
re vi 1637
si chti 1636
bar o 1636
todd ler</w> 1636
ma gi 1635
colo urs</w> 1635
ffe l</w> 1635
tea cher</w> 1635
di sku 1634
pi ck</w> 1634
suspen sion</w> 1634
re de</w> 1633
lo tu 1633
stun de</w> 1633
quali fi 1633
la st 1631
v as</w> 1630
un til</w> 1630
wa gens</w> 1630
compu ter 1630
fußball - 1629
can vas</w> 1629
musici an</w> 1629
hallo ween</w> 1629
sch einen</w> 1628
be zir 1628
app ar 1628
geschafts mannes</w> 1628
web seite</w> 1628
b ung</w> 1627
rou g 1627
ban ks</w> 1627
p it</w> 1626
k r 1626
be e</w> 1626
win kt</w> 1626
her aus</w> 1626
t iles</w> 1625
i denti 1625
na ils</w> 1625
orn ate</w> 1625
lat est</w> 1624
exper ien 1623
coo king</w> 1622
and erer</w> 1621
cro wn</w> 1621
schla gen</w> 1621
isoli erte</w> 1621
bul l 1621
genu g</w> 1621
r are</w> 1620
off net</w> 1620
a sk 1619
ver lo 1619
black board</w> 1619
simil ar</w> 1619
flo ck</w> 1618
ci er</w> 1618
schn ell</w> 1618
schrei ben</w> 1618
kathedr ale</w> 1618
leu chten</w> 1617
s eit</w> 1616
co ins</w> 1616
geb ru 1616
kir sch 1616
dro ne</w> 1615
p ru 1614
u sual</w> 1614
ran de</w> 1614
s coo 1613
b ein 1613
tren dy</w> 1613
ingre dients</w> 1613
feri en 1613
th roug 1612
door - 1612
publik um</w> 1612
throug hout</w> 1612
pil o 1611
ne tz 1610
gen heit</w> 1610
car ds</w> 1610
gu lar</w> 1610
wei de</w> 1609
com mer 1609
dre ie 1608
ger u 1608
o pp 1607
am ing</w> 1607
stre cke</w> 1607
run den</w> 1607
glas ern</w> 1607
minim ali 1607
bei ge</w> 1606
pain tings</w> 1606
beruhm theit</w> 1606
west liche</w> 1606
fol gen</w> 1605
si zed</w> 1604
1 3 1603
5 0</w> 1603
su it 1603
clo se 1603
rol ler</w> 1603
boo tes</w> 1602
hau stur</w> 1602
h ul 1601
jah res 1601
kra ft 1601
a ssi 1600
chee se</w> 1600
mo ves</w> 1598
kan in 1598
volle y 1598
tro pfen</w> 1597
schi en</w> 1597
reno v 1597
ra t</w> 1596
gebau den</w> 1596
histor ical</w> 1596
proje kt</w> 1596
herz form</w> 1596
w ns</w> 1595
di vision</w> 1595
fin al 1595
s th 1594
2 nd</w> 1594
sp ro 1594
fri sst</w> 1594
leu chten 1594
inn ere</w> 1594
visi ble</w> 1594
wer de</w> 1593
gel a 1593
present ation</w> 1593
ber ges</w> 1592
ac com 1592
fel der</w> 1592
wass ers</w> 1592
schauspiel erinnen</w> 1592
co ws</w> 1591
ent in</w> 1591
lie fer 1591
em pfan 1591
sk ies</w> 1590
ku sst</w> 1589
eroff nung</w> 1587
n om 1586
travel ing</w> 1586
e state</w> 1585
em bra 1585
alter er</w> 1585
offic ers</w> 1585
im mobil 1584
schrei bt</w> 1584
zu kunft</w> 1583
verla ssenen</w> 1583
cul tural</w> 1583
diagram m</w> 1583
v ir 1582
per ched</w> 1582
su den</w> 1582
woh l</w> 1582
cop y</w> 1582
gesich ts 1582
wol f</w> 1581
ken nen</w> 1581
cock ta 1581
appear ed</w> 1581
play ground</w> 1580
innen raum</w> 1580
compo ser</w> 1580
a p 1579
langs ame</w> 1579
i erung</w> 1578
li eren</w> 1578
zi sten</w> 1578
inter est</w> 1578
rol l</w> 1578
abge bildet</w> 1578
um s</w> 1577
wer be 1577
kra watte</w> 1577
rol le</w> 1576
schnee flo 1576
eg g</w> 1576
d ruck 1575
le ts</w> 1575
mil es</w> 1574
bren nen 1574
p ment</w> 1572
lin ken</w> 1572
medi um</w> 1572
super market</w> 1572
ri ses</w> 1571
ra dern</w> 1570
to ber</w> 1570
ma ssive</w> 1569
a u</w> 1568
sit z</w> 1567
schwarz- weiße</w> 1567
flei sch</w> 1567
d ges</w> 1566
vege tation</w> 1566
be se 1565
mar k</w> 1565
bri gh 1565
c ities</w> 1564
k s 1564
k amer 1564
sp rung</w> 1564
hu geln</w> 1564
poin ts</w> 1564
un ted</w> 1562
sel ten 1562
spar ty</w> 1562
el ten</w> 1561
ent y</w> 1561
hel l</w> 1561
ki ssing</w> 1561
ob st</w> 1560
commer cial</w> 1560
d um 1559
j ul 1559
di rt</w> 1559
ge form 1559
lo ws</w> 1559
ck ter</w> 1559
19 7 1559
ob st 1559
ph ilo 1558
wah len</w> 1558
gemu se 1558
glit z 1558
philo sop 1558
j et</w> 1557
gro ß</w> 1557
wor ship</w> 1557
fi schen</w> 1557
super model</w> 1557
es stisch</w> 1557
ko chen</w> 1556
mo m</w> 1555
ci se</w> 1555
fri sur</w> 1555
glo wing</w> 1555
sold at</w> 1555
no te</w> 1554
fußball spiel</w> 1554
grun ge</w> 1554
jo ined</w> 1554
beruhm ten</w> 1554
skel et 1554
le bt</w> 1553
bo w 1553
bri cht</w> 1552
butter flies</w> 1552
v an</w> 1551
be hand 1551
gi ven</w> 1551
p h</w> 1550
st ant</w> 1550
d at 1549
col um 1549
p les</w> 1548
bli ch</w> 1548
servi ert</w> 1548
tattoo s</w> 1548
do cum 1547
eth nic 1547
pro bi 1546
ster n 1546
sal on</w> 1546
amerikan ischen</w> 1546
fra ge</w> 1545
hun de 1545
astronau t</w> 1545
di r</w> 1544
fa ctory</w> 1544
contain er</w> 1544
t rou 1542
neu gebor 1542
sat ell 1542
gespra ch</w> 1542
reali stic</w> 1541
verla ssen 1540
passag i 1540
cabin ets</w> 1540
pla in</w> 1538
dar an</w> 1538
kur bis</w> 1538
tom ato 1538
tie f</w> 1538
tomato es</w> 1538
m eines</w> 1537
wei ght</w> 1537
par ks</w> 1537
ima ge 1537
th row</w> 1536
ge wann</w> 1536
soc cer 1536
lo ad</w> 1535
ac ry 1535
tal ks</w> 1535
mun zen</w> 1535
r ally</w> 1534
freund in</w> 1534
gebru cke</w> 1534
hin unter 1533
han gebrucke</w> 1533
pra sent 1533
prepar e</w> 1533
fischer boot</w> 1533
in form 1532
aus gabe</w> 1532
tr end</w> 1531
ethnic ity</w> 1531
mat te</w> 1530
grun der</w> 1530
ik one</w> 1530
a sten</w> 1529
shoo t</w> 1529
eag le</w> 1529
le hnt</w> 1528
go al 1528
scho ko 1528
in tro 1527
air line</w> 1526
ligh t 1526
au gen 1525
re tail</w> 1525
ur sprung 1525
mar ina</w> 1525
hi king</w> 1525
er - 1524
kon nten</w> 1524
schoko la 1524
a vo 1523
g g 1523
fo ggy</w> 1522
ku pp 1522
foo ds</w> 1521
foku s</w> 1521
sch auf 1520
schw er</w> 1520
schul tern</w> 1519
roll stuhl</w> 1519
pro ba 1518
plat form</w> 1518
journ alist</w> 1518
back drop</w> 1517
pi c</w> 1517
hand ge 1517
einkaufs zentrum</w> 1517
re por 1516
sch te</w> 1516
ver offent 1516
or te</w> 1515
sta at 1515
weit erer</w> 1515
basi c</w> 1515
elemen te</w> 1515
g ly</w> 1514
rie ben</w> 1514
spra che</w> 1514
golden er</w> 1514
wolkenkrat zer</w> 1514
eich horn 1514
lacheln d</w> 1513
staf f</w> 1513
aus es</w> 1512
hau ch</w> 1512
tau cht</w> 1512
be u 1511
snow fla 1511
komp le 1511
c ub 1510
decor ation</w> 1510
schlie ßt</w> 1510
jahrhun der 1510
z ten</w> 1509
or ing</w> 1509
be gan 1509
gr il 1509
blu m 1509
schil der</w> 1509
mi d 1508
horizon tal</w> 1508
t lichen</w> 1506
re fer 1506
ab schluss 1506
cor por 1506
ak ers</w> 1506
hil ft</w> 1506
a sso 1505
d sch 1505
gesch ma 1504
bra chte</w> 1504
s ar 1503
c ers</w> 1503
photograph s</w> 1503
be fest 1502
no ve 1502
kopf hor 1502
presi dent</w> 1502
wheel chair</w> 1502
intro du 1502
mi st</w> 1501
atten ded</w> 1501
tech ni 1501
champag ne</w> 1501
ge wasser</w> 1500
tru e</w> 1500
sp ite</w> 1499
ber ry</w> 1499
fi scher</w> 1499
comple x</w> 1499
proba bly</w> 1499
gu ten</w> 1498
viel leicht</w> 1498
sco pe</w> 1498
or in</w> 1497
new ly</w> 1497
z ung</w> 1496
ho her</w> 1496
zer stor 1496
up per 1496
z eln</w> 1495
f ert</w> 1495
er o 1495
ir e</w> 1495
zu ge</w> 1495
19 .</w> 1495
prin ts</w> 1495
grafi sche</w> 1495
schei ben</w> 1494
bemal ung</w> 1494
re turn</w> 1493
w ly</w> 1492
pp ies</w> 1492
are as</w> 1492
z one</w> 1491
j anu 1491
si chten</w> 1491
sta pel</w> 1491
wohn ungen</w> 1491
pl enty</w> 1491
attrakti ve</w> 1490
sch ale</w> 1489
jahr lichen</w> 1489
betra chten</w> 1489
exer cise</w> 1489
may be</w> 1489
da fur</w> 1488
do kum 1487
hol t</w> 1487
appear ance</w> 1487
la y</w> 1486
sh irts</w> 1486
bau ms</w> 1486
leu chtet</w> 1486
resi dents</w> 1486
alisi ert</w> 1486
f ted</w> 1485
he at</w> 1485
sli de</w> 1485
rabb it</w> 1485
g - 1484
ad mini 1484
re al 1483
blank et</w> 1483
besonder heit</w> 1482
dre ssing</w> 1481
so cial</w> 1480
ma ple</w> 1479
gra u</w> 1479
sh iel 1478
wan ted</w> 1478
dec or</w> 1478
un bekan 1477
ol der</w> 1477
t ale</w> 1476
f alli 1476
produ kte</w> 1476
passen ger</w> 1476
langu age</w> 1476
si ster</w> 1475
to ten</w> 1475
ste m 1475
zeich nungen</w> 1475
thou sands</w> 1475
lehr er</w> 1475
verschne iten</w> 1473
it aten</w> 1472
leopar d</w> 1472
bli ck 1471
no se</w> 1470
verste ckt</w> 1470
ra cing</w> 1469
tit le</w> 1468
enth ullt</w> 1468
ru stik 1467
qu al 1467
ster nen 1467
zit ro 1466
h d</w> 1465
u de</w> 1465
ar chen</w> 1465
t one</w> 1464
kanin chen</w> 1464
st einen</w> 1463
no tes</w> 1463
la dies</w> 1462
ko h 1462
samm elt</w> 1462
komi sche</w> 1462
freit ag 1462
ad ing</w> 1461
tat sa 1461
pal ace</w> 1461
aquar ium</w> 1461
wal dern</w> 1460
mon archen</w> 1460
lo wer</w> 1459
gh ts</w> 1459
cheer ful</w> 1459
ar me</w> 1458
spiel platz</w> 1458
mann licher</w> 1458
pul ling</w> 1458
scor e</w> 1458
stie g</w> 1458
geschen ke</w> 1457
universit at</w> 1457
australi an</w> 1457
m ber 1456
ev ents</w> 1455
ger e 1455
nen s</w> 1454
ge ho 1453
blo cks</w> 1453
e moti 1452
ge gend</w> 1452
for t 1452
kon tra 1452
tur k 1452
diam anten</w> 1452
gather ed</w> 1452
equi pment</w> 1452
den ke</w> 1450
cla im 1450
wand erung</w> 1450
schul ter</w> 1450
emp lo 1450
star rt</w> 1449
colle ge- 1449
schnei det</w> 1449
volk ern</w> 1449
ex pensive</w> 1448
rad fahrer</w> 1448
flam men</w> 1448
re min 1447
ba l</w> 1446
squir rel</w> 1446
admini str 1446
mei ster</w> 1445
rec ent</w> 1445
ausschnitt pfad</w> 1445
ra ys</w> 1444
bo und</w> 1444
kleidungs stuck</w> 1444
fra med</w> 1443
fotogra fen</w> 1443
geschen k 1442
profi l</w> 1442
anti ke</w> 1441
cust om</w> 1440
a p</w> 1439
au ßen</w> 1439
or i 1439
grat ul 1439
upper case</w> 1439
da vor</w> 1438
lan des</w> 1438
sau len</w> 1438
ver age</w> 1437
gro wn</w> 1437
wa shing</w> 1437
ig keiten</w> 1437
vis iting</w> 1437
gan gs 1436
wen ig</w> 1436
wand bild</w> 1436
dia gram</w> 1436
dimen si 1435
hel le</w> 1434
aquar ell 1434
me sse</w> 1433
ac t</w> 1433
kam pfen</w> 1432
grafi k</w> 1432
d eln</w> 1431
ful lt</w> 1431
gezeich net</w> 1431
gelan de</w> 1431
sand wi 1429
r d</w> 1428
s sig 1428
wer ing</w> 1428
ten der</w> 1428
produ zent</w> 1428
mi x</w> 1427
mil ch</w> 1427
organ ic</w> 1427
abstra kten</w> 1427
belie b 1427
den er</w> 1426
ke k 1426
pu ts</w> 1426
mat ching</w> 1426
tu tor 1426
plat te</w> 1426
nation alen</w> 1426
wah lt</w> 1426
slo wly</w> 1426
ali en</w> 1425
klein kind</w> 1425
accom mod 1425
stra hl 1424
seri ous</w> 1424
apri l</w> 1424
u s 1423
versu ch</w> 1423
re cyc 1422
fotografi eren</w> 1422
pu zz 1421
k rau 1420
ss er</w> 1420
sit u 1420
car ries</w> 1420
head phones</w> 1420
bud get</w> 1420
o thers</w> 1419
on ic</w> 1419
so on</w> 1419
dsch un 1419
b be</w> 1418
com position</w> 1418
rou s</w> 1418
poli zisten</w> 1418
klassi sche</w> 1418
hiel t</w> 1418
fu gt</w> 1417
ah n</w> 1417
ty pes</w> 1417
un it</w> 1416
sti sches</w> 1416
be in</w> 1415
con gratul 1415
bri ef 1415
po sters</w> 1414
promi s</w> 1414
al ed</w> 1413
kee ping</w> 1413
n den</w> 1412
me a 1412
s at</w> 1411
h lt</w> 1411
al ready</w> 1411
be ein 1411
bu dd 1411
schla g 1410
new born</w> 1410
kreuz ung</w> 1410
sp aten</w> 1409
refle xi 1409
e bene</w> 1408
b attle</w> 1408
de spite</w> 1408
rie sig 1408
geschlo ssen</w> 1408
soft ware</w> 1408
li ft</w> 1407
nor thern</w> 1407
farbi ge</w> 1406
2 0</w> 1405
lie b 1405
ger ade</w> 1405
ga ve</w> 1404
alter e</w> 1404
kro ne</w> 1404
tribu te</w> 1404
di ble</w> 1403
win s</w> 1403
fri schen</w> 1403
cho ose</w> 1403
glei chen</w> 1403
o fen</w> 1402
ati ves</w> 1402
hil fe</w> 1402
carri age</w> 1402
fotogra f</w> 1401
misch ung</w> 1401
h n 1400
na gel</w> 1400
mu sh 1400
tu b</w> 1400
ne ben 1399
bl ing</w> 1399
ban kno 1399
zie l</w> 1399
augu st</w> 1399
1 st</w> 1398
sin k</w> 1398
dau men</w> 1398
le er 1397
kur zen</w> 1397
b rought</w> 1396
mo sque</w> 1396
terra sse</w> 1396
militarkom mande 1396
resu lt</w> 1396
automobil industrie</w> 1395
ct ural</w> 1394
fe eling</w> 1394
vor stellung</w> 1394
ser ving</w> 1394
symbo li 1394
inclu des</w> 1394
geschnit ten 1394
h es</w> 1393
lo ved</w> 1393
glu ck</w> 1393
h ur 1392
an s 1392
qu iet</w> 1392
blo oming</w> 1392
grund stuck</w> 1392
farbi gen</w> 1392
sta ck</w> 1391
fig uren</w> 1391
zen den</w> 1391
sym met 1391
co w</w> 1390
kon stru 1390
cover s</w> 1390
schnee fall</w> 1389
aquar ell</w> 1389
offic er</w> 1389
ie ur</w> 1388
com for 1388
bli cke</w> 1388
dre am</w> 1388
out door- 1388
see brucke</w> 1388
luxuri o 1388
fac ility</w> 1388
verg nu 1388
f ran 1387
mit arbeiter</w> 1387
schw ang 1386
eu ro 1386
le b 1385
bru sh</w> 1385
chan ce</w> 1385
d ungen</w> 1384
war ning</w> 1384
kl ar 1384
she et</w> 1384
unterstu tzung</w> 1384
sou l</w> 1383
ker ze</w> 1383
cre ating</w> 1382
allgem eine</w> 1382
ma c 1381
tra t</w> 1381
son g</w> 1381
whe els</w> 1381
verwand eln</w> 1381
famil ies</w> 1380
up on</w> 1380
vier tel 1380
bemal t</w> 1380
perspe ktive</w> 1380
ff y</w> 1379
yo ur 1379
wass ern</w> 1379
box es</w> 1379
trock en 1379
fußgan ger</w> 1379
felsi gen</w> 1379
auf fuhrung</w> 1378
zeu gen</w> 1378
f ting</w> 1377
re ef</w> 1377
ti sches</w> 1377
ad ler</w> 1377
festi ve</w> 1377
dollar s</w> 1376
na il</w> 1375
sig ned</w> 1375
tu ch</w> 1375
sol lten</w> 1375
cam pa 1375
thro wing</w> 1375
- rock-kunstler</w> 1374
star ts</w> 1374
tz ent 1374
a stro 1373
ku gel</w> 1373
mann lichen</w> 1373
fabri k</w> 1373
oli ve</w> 1372
moder ner</w> 1372
denk mal</w> 1372
marti al</w> 1372
e ve</w> 1371
- up</w> 1371
sch rit 1371
be satz 1371
sp ater</w> 1371
wa cht</w> 1371
stad tzent 1371
ka se</w> 1371
f its</w> 1370
gra b</w> 1370
him self</w> 1370
histor ische</w> 1370
ga st</w> 1369
k ern</w> 1368
per len</w> 1368
winter tag</w> 1368
ge fa 1367
we t 1367
fe ath 1367
br a</w> 1367
lin er</w> 1367
zeich nen</w> 1367
tran sport 1367
atmosp hare</w> 1367
wa its</w> 1366
du e</w> 1366
sam stag 1366
dam aged</w> 1366
pfan ne</w> 1366
schildk rote</w> 1366
pre ss 1365
halb zeit</w> 1365
z y 1364
part ner</w> 1364
n al</w> 1363
a sse</w> 1363
sha des</w> 1363
gal a</w> 1363
innen hof</w> 1363
ent ry</w> 1362
zi er 1362
cat ching</w> 1362
bie ten</w> 1362
no t 1361
br il 1361
can y 1361
k ri 1360
ver bun 1360
for ms</w> 1360
uni on</w> 1360
scien ti 1360
t wi 1359
ge fahr 1359
po di 1359
par a 1359
bro ther</w> 1359
trau ben</w> 1359
ck ets</w> 1358
con fet 1358
dre hen</w> 1358
tan zt</w> 1358
teil nehmer</w> 1358
lit er 1358
con ver 1357
lusti gen</w> 1357
ro le</w> 1356
fuß boden</w> 1356
reg n 1356
ein zu 1355
fru chten</w> 1355
gewin nen</w> 1355
ge stern</w> 1354
sp ent</w> 1354
mitg lied</w> 1354
app lau 1353
person en 1353
religi ose</w> 1353
accommod ation</w> 1353
ti al</w> 1352
gra ben</w> 1352
so zi 1352
ko s 1352
polit ical</w> 1352
cir cular</w> 1352
spazier gan 1352
wh is 1351
wissen schaft 1351
alpha bet</w> 1351
re den</w> 1350
cir cles</w> 1350
panor amic</w> 1350
oldti mer</w> 1350
di sa 1349
fe dern</w> 1349
ve ter 1349
nis se</w> 1349
verkauf en</w> 1349
atmosp here</w> 1349
be scha 1348
lin k</w> 1348
har d- 1348
is le</w> 1347
slo pe</w> 1347
basi s</w> 1347
gen e 1346
far m 1346
verlei ht</w> 1346
eisen bahn 1346
d ort</w> 1345
en ter</w> 1345
pedestri ans</w> 1345
geschaf te</w> 1344
strei ch 1344
in iti 1343
nu n</w> 1343
snow man</w> 1343
confet ti</w> 1343
s ri 1342
mann schaft 1342
min e</w> 1342
eichhorn chen</w> 1342
d ah 1341
ein satz</w> 1340
bre aking</w> 1340
jah re 1340
sy n 1340
cab in</w> 1340
lin ien 1339
christ lichen</w> 1339
schwarz- weiß</w> 1339
effe ct</w> 1339
wettbewer b</w> 1339
ge fangen</w> 1338
off nen</w> 1338
bei den</w> 1338
wand ert</w> 1338
national park</w> 1338
your self</w> 1338
um ri 1337
blo use</w> 1337
back stein 1336
verlei hen</w> 1336
weit eres</w> 1336
t an</w> 1335
19 3 1335
jun gle</w> 1334
bul l</w> 1334
lo wen 1333
ab zu 1333
fra gen</w> 1333
dra chen</w> 1333
charac ters</w> 1333
bene ath</w> 1333
broad ca 1333
gescho ss</w> 1332
thre e</w> 1332
ti ed</w> 1331
leg g 1331
kar to 1330
bilden den</w> 1330
ks giving</w> 1330
li ga</w> 1329
bu bbles</w> 1329
hu gging</w> 1329
ep is 1329
su ite</w> 1328
dun en</w> 1328
religio ser</w> 1328
en tire</w> 1327
gesch lagen</w> 1327
en semble</w> 1326
at ory</w> 1326
bu ying</w> 1326
manu fa 1326
revi val</w> 1326
be wohner</w> 1325
ho urs</w> 1325
se arch 1325
gel t</w> 1325
fan cy</w> 1325
pop kunstlerin</w> 1325
cap tured</w> 1325
einsam er</w> 1325
col lage</w> 1324
geb ro 1324
a ste</w> 1323
er halt</w> 1323
an wesen</w> 1323
ung lau 1323
than ksgiving</w> 1323
pedestri an</w> 1323
side walk</w> 1323
sh adows</w> 1322
farbenfro he</w> 1321
ru b 1320
win dig 1320
dun kle</w> 1320
hei ght</w> 1320
voll mond</w> 1320
ho ff 1319
fu tter</w> 1319
com b 1319
tro ffen</w> 1319
gewin ner</w> 1319
cro sses</w> 1318
exper im 1318
monum ent</w> 1318
bel l</w> 1317
- team</w> 1316
mo sa 1316
ad ding</w> 1316
samm eln</w> 1316
mu s</w> 1315
let ters</w> 1315
schauf en 1315
ic onic</w> 1314
hun den</w> 1313
form ed</w> 1313
da d</w> 1312
pla stik 1312
fi f 1311
buch er 1311
selb st 1311
inv it 1311
ac cor 1310
fin an 1310
tie f 1310
speise saal</w> 1310
m te</w> 1309
ful len</w> 1309
tan z</w> 1309
asso ci 1309
nove mber</w> 1309
sin ging</w> 1308
kur z</w> 1308
ka p 1307
zer bro 1307
ker ami 1307
r and 1306
hal skette</w> 1306
quar ters</w> 1306
un gewohn 1305
b am 1304
lo g</w> 1304
tz ten</w> 1304
loun ge</w> 1304
kon tin 1303
super markt</w> 1303
ver trau 1302
ad op 1302
g let 1301
biologi schen</w> 1301
bewaff nete</w> 1301
st ig 1300
la d 1300
de cken</w> 1300
19 th</w> 1300
wei st</w> 1299
zo g</w> 1299
pla yo 1298
off ers</w> 1298
schwim men 1298
hintergrund vektor</w> 1298
o tt 1297
blumen strauß</w> 1297
ig keit</w> 1296
hub sches</w> 1296
stair case</w> 1296
ir s</w> 1295
sel ts 1295
archite kten</w> 1294
konig in</w> 1294
dschun gel</w> 1294
is ing</w> 1293
plan s</w> 1293
hochzeit stag</w> 1293
leben s</w> 1293
ein hei 1292
pro ble 1292
spa ar</w> 1292
legg ings</w> 1292
na gel 1291
op s</w> 1291
natur liche</w> 1291
v ul 1290
geb ie 1290
lacheln der</w> 1290
ver bringen</w> 1289
mit einander</w> 1289
dru ckt</w> 1289
jum ps</w> 1289
ein s</w> 1288
ah orn 1288
me dit 1288
sk op</w> 1288
wah l 1288
success ful</w> 1288
se ag 1287
ad verti 1287
he u 1287
straßen rand</w> 1287
kne e</w> 1287
pu b</w> 1286
kor per 1286
program me</w> 1286
wol lte</w> 1285
pur cha 1285
la id</w> 1284
ca ve</w> 1284
gu ter</w> 1284
kin s</w> 1284
deta il 1284
komplet t</w> 1284
me dal</w> 1283
fri sur 1283
geschmu ckt</w> 1283
gir l 1282
jah ri 1282
seag ul 1282
p tu 1281
1 .</w> 1281
st eine</w> 1281
sch win 1281
be at</w> 1281
de scri 1281
hin ten</w> 1281
min ute</w> 1281
cau casi 1281
caucasi an</w> 1281
hin zu</w> 1280
bli cken</w> 1280
fri ed</w> 1280
gesch u 1280
mil l</w> 1279
hardro ck-kunstler</w> 1279
aus flug</w> 1278
mann liche</w> 1278
schu h</w> 1278
ka si 1278
begle itet</w> 1278
te en</w> 1277
fern se 1277
kau kasi 1277
sho e</w> 1276
sc ale</w> 1276
sha pes</w> 1276
m eless</w> 1275
mo sai 1275
co con 1275
ak ro 1274
frisur en</w> 1274
c attle</w> 1272
ri chtet</w> 1272
su ßen</w> 1272
sk arte</w> 1272
stor my</w> 1272
stat ur</w> 1272
sel ves</w> 1272
iss ue</w> 1272
ma ss</w> 1271
vor bereit 1271
che st</w> 1271
zent ri 1271
d ere</w> 1270
restau ri 1270
kor allen 1269
ul ti 1267
fel des</w> 1267
li ves</w> 1266
ge wal 1266
me ter</w> 1266
wal ked</w> 1266
din nen</w> 1266
sw im</w> 1266
regen wald</w> 1266
gan gen</w> 1265
sc ul 1265
under water</w> 1265
enth ul 1265
mal ers</w> 1264
sil ber</w> 1264
ko stum 1264
chan ging</w> 1264
br ings</w> 1263
bun del</w> 1263
stan den</w> 1263
bloo m</w> 1263
ge heim 1262
gra pes</w> 1262
the iten</w> 1262
bla zer</w> 1262
ener gy</w> 1261
sch em 1260
op ens</w> 1260
ver se</w> 1259
we gen</w> 1259
gen der</w> 1259
gesch windig 1259
wol ke</w> 1259
kauf t</w> 1259
mi d</w> 1258
ri chten</w> 1258
fe bru 1258
sau ber 1258
ch ine 1257
em blem</w> 1257
dom e 1257
allgem einer</w> 1257
ehemal ige</w> 1257
big gest</w> 1257
gewon nen</w> 1257
at ers</w> 1256
li fe 1256
hand made</w> 1256
firefigh ters</w> 1256
ar row</w> 1255
fin ally</w> 1255
schneeflo cken</w> 1255
se cur 1254
de al</w> 1254
pe ace</w> 1254
shal low</w> 1254
tit led</w> 1253
gesi chtet</w> 1253
ket t</w> 1253
au togra 1252
tur quo 1252
kur bis 1252
dru cken</w> 1252
panor ama</w> 1252
wonder ful</w> 1252
turquo ise</w> 1252
in te 1251
re par 1251
mi e 1251
spe c 1251
mil ch 1251
ster ne</w> 1250
buchstab e</w> 1250
ati v</w> 1249
wal des</w> 1249
weibli chen</w> 1249
interess an 1249
o wl</w> 1248
ge wassern</w> 1247
zu cker 1247
arti kel</w> 1247
e ssen 1246
se ch 1246
wh i 1246
some times</w> 1246
s ers</w> 1245
me at</w> 1245
pi cking</w> 1245
großarti ge</w> 1245
f ou 1244
re t 1244
wal k 1244
neu tr 1244
medi en</w> 1244
ador able</w> 1244
passagi ere</w> 1244
ro ad 1243
ju ice</w> 1243
ea ster</w> 1243
verti cal</w> 1243
reno vi 1243
campa ign</w> 1243
f y</w> 1242
ste ckt</w> 1242
ex i 1242
logo s</w> 1242
t ungen</w> 1241
be grußt</w> 1241
ru les</w> 1241
je wel 1241
rau me</w> 1241
zah n 1241
lan e</w> 1240
c ally</w> 1239
g lat 1239
me ter 1239
bl ed</w> 1239
je man 1239
hi ke</w> 1239
bru ch</w> 1239
erinn ert</w> 1239
ati ver</w> 1238
nah men</w> 1238
mar schi 1238
ear rings</w> 1238
can o 1238
cha in</w> 1238
au m</w> 1237
auf merk 1237
men s</w> 1237
land ing</w> 1237
dan cers</w> 1237
regi erungs 1237
tradition elles</w> 1237
sco red</w> 1237
reflekti ert</w> 1237
rugby -spieler</w> 1237
tru cks</w> 1236
nu ts</w> 1236
akti en 1236
develop ment</w> 1236
r ental</w> 1235
bre chen</w> 1235
be came</w> 1234
ak tiv 1234
ka pit 1234
la chen</w> 1233
fu tur 1233
co unter</w> 1233
her ren 1233
mann schaften</w> 1233
app les</w> 1233
m all</w> 1232
sch lit 1232
shoul ders</w> 1232
ornam ents</w> 1232
bezir k</w> 1232
e sc 1231
pu ck</w> 1231
atten tion</w> 1231
ch tete</w> 1230
bet t 1230
atten ding</w> 1230
ato p</w> 1230
zeit ung</w> 1229
deta iled</w> 1229
bau er</w> 1228
abstra ktes</w> 1228
verwen dung</w> 1228
formi gen</w> 1228
fruhlin gs 1228
fernse her</w> 1228
re lief</w> 1227
pro ce 1227
pul l</w> 1227
vege table</w> 1226
jub elt</w> 1226
roo ts</w> 1225
bedro oms</w> 1225
schla fen</w> 1224
dun es</w> 1224
feuerwehr leute</w> 1224
ag en 1223
ku hl 1223
leder jacke</w> 1223
b chen</w> 1222
in k</w> 1222
sch mer 1222
jet ty</w> 1221
install ation</w> 1221
secre t</w> 1221
d ated</w> 1220
ku he</w> 1220
ern ahr 1220
quar ter 1220
quo te</w> 1220
anten ne</w> 1220
rei se 1219
- symbol</w> 1218
ri dge</w> 1218
wur zeln</w> 1218
ym na 1218
graph ics</w> 1218
di ert</w> 1217
ck y</w> 1217
ste l</w> 1217
fla mes</w> 1217
ge farb 1216
te ste</w> 1216
out line</w> 1216
schied sri 1216
ch em</w> 1215
pul led</w> 1215
possi ble</w> 1215
- pop-kunstler</w> 1214
or din 1214
vi er</w> 1214
kopf es</w> 1214
musch eln</w> 1214
g um 1213
elect ri 1213
welt premiere</w> 1213
custom ers</w> 1213
ell ed</w> 1212
lam pe</w> 1212
organisations grunder</w> 1212
be ds</w> 1211
pf eil</w> 1211
gemein de</w> 1211
got te 1211
erd beeren</w> 1211
scoo ter</w> 1211
scul p 1211
g ymna 1210
de pre 1210
iti g</w> 1210
stri pes</w> 1210
er weise</w> 1209
flo ors</w> 1209
ac tive</w> 1209
stri ck 1209
skin ny</w> 1208
b end</w> 1207
ge wach 1207
pump kins</w> 1207
ge spielt</w> 1206
so il</w> 1206
geb oren</w> 1206
stran des</w> 1206
geschma ck</w> 1206
ge zogen</w> 1205
go at</w> 1205
vor fuhrung</w> 1205
ba st 1204
bli che</w> 1204
boo k 1204
bru der</w> 1204
bra in</w> 1204
tur tle</w> 1203
meda ille</w> 1203
began n</w> 1203
re co 1202
neu tral</w> 1202
lauf er</w> 1202
pan els</w> 1202
gestal tung</w> 1202
erfol grei 1202
fußgan ger 1202
f lan 1201
er stellen</w> 1201
mi sty</w> 1201
fel dern</w> 1201
beg inning</w> 1201
perfe kte</w> 1201
p ale</w> 1200
man sion</w> 1200
so wie</w> 1200
ce ment</w> 1200
qui ck</w> 1200
radi o</w> 1200
kompon ist</w> 1200
close up</w> 1200
ne ws</w> 1199
perfor mt</w> 1199
jo g 1199
star k 1199
kur ze</w> 1199
stun den</w> 1198
boar der</w> 1198
e qu 1197
spiel feld</w> 1197
ruck sack</w> 1197
boar ds</w> 1197
ru hen</w> 1196
read s</w> 1196
lok alen</w> 1196
podi um</w> 1196
pa p 1195
nah ert</w> 1195
pf ar 1195
spi ri 1195
geh ir 1195
mo ss</w> 1194
co in</w> 1194
aus sicht 1194
pen gu 1194
skyscra pers</w> 1194
mac ro</w> 1194
go o 1193
organis m</w> 1193
f ant</w> 1192
lo ck</w> 1192
ren der</w> 1192
cri me</w> 1192
glo ssy</w> 1192
schna pp 1192
snowfla kes</w> 1192
ing - 1191
kolle gen</w> 1191
t end</w> 1190
f alle</w> 1190
ma je 1190
stor age</w> 1190
ga ste 1190
sou ven 1190
sne akers</w> 1190
p in</w> 1189
d or</w> 1189
1 6</w> 1189
ch tes</w> 1189
bi es</w> 1189
cer amic</w> 1189
theat er 1189
richti g</w> 1189
th aus</w> 1188
et h</w> 1188
aus seh 1188
stu fen</w> 1188
spi der</w> 1188
ob wohl</w> 1188
o k</w> 1187
ma st</w> 1187
pan zer</w> 1187
kti onen</w> 1187
produ kt</w> 1187
alter native</w> 1187
li ppen</w> 1186
la cht</w> 1186
ite ms</w> 1186
pfer des</w> 1186
glanzen den</w> 1186
stadtzent rum</w> 1186
manufa ct 1186
d ran 1185
po ten 1185
wand erer</w> 1185
zah lt</w> 1185
key board</w> 1185
na se</w> 1184
bil dern</w> 1184
han del</w> 1184
schiff e</w> 1184
ye ster 1184
feath ers</w> 1184
karto ff 1184
c ity 1183
decor ating</w> 1183
stil l 1183
foto - 1183
i ds</w> 1182
in seln</w> 1182
an sichten</w> 1182
li p</w> 1182
ali sche</w> 1182
stimm ung</w> 1182
glitz ern 1182
de fe 1181
hi dden</w> 1181
lu gen</w> 1180
sicher heit</w> 1180
la b 1179
par chen</w> 1179
chi ps</w> 1179
skate board</w> 1179
foli age</w> 1179
p ir 1178
bu cket</w> 1178
du cks</w> 1178
de stro 1177
ad ds</w> 1177
del ic 1177
enjo yed</w> 1177
zau ber 1177
vorder seite</w> 1177
tra ils</w> 1176
archite ctural</w> 1176
relea sed</w> 1176
e hren</w> 1175
car ry</w> 1175
ku h</w> 1175
freun dinnen</w> 1175
spiegel t</w> 1175
han gs</w> 1174
pal me</w> 1174
apart ments</w> 1174
tatowi erungen</w> 1174
saf t</w> 1174
ra h 1173
sp end</w> 1173
stri king</w> 1173
gemein schaft</w> 1173
expe cted</w> 1173
en dar</w> 1172
al ing</w> 1172
li m 1172
li sted</w> 1172
to te</w> 1172
ste te</w> 1172
sta at</w> 1172
atur en</w> 1172
ehemal igen</w> 1172
kom m 1171
ger au 1171
shiel d</w> 1171
h als</w> 1170
po ols</w> 1170
geograph ische</w> 1170
light ning</w> 1170
m ental</w> 1169
tra y</w> 1169
bla st</w> 1169
elemen ten</w> 1169
passi ert</w> 1169
jahrhunder ts</w> 1169
s al</w> 1168
v y</w> 1168
ge hort</w> 1168
ta ste</w> 1168
ne ar 1168
den kt</w> 1168
go tische</w> 1168
coun tries</w> 1168
fron tansicht</w> 1168
1 5</w> 1167
fa vo 1167
loo se</w> 1167
eri sche</w> 1167
kro n 1167
beruhm theiten</w> 1167
diam on 1167
morgend lichen</w> 1167
spiri t</w> 1167
le der</w> 1166
war m 1166
dan k 1166
teil ung</w> 1166
sou thern</w> 1166
dom e</w> 1166
froh liche</w> 1166
recor d</w> 1166
portr ats</w> 1166
wil den</w> 1165
dar stellt</w> 1165
jo ck 1165
ster y</w> 1165
costum es</w> 1165
getran k</w> 1164
itali an</w> 1164
constitu tional</w> 1164
cli m 1163
a isle</w> 1162
en ge</w> 1162
re hear 1162
ab ends</w> 1162
head ed</w> 1162
stein ernen</w> 1162
gradu ation</w> 1162
blum chen</w> 1162
re pe 1161
be steht</w> 1161
wal der</w> 1161
stell te</w> 1161
intere sse</w> 1161
patter ned</w> 1161
futter t</w> 1161
mosa ic</w> 1161
yester day</w> 1161
w ert</w> 1160
gra sen</w> 1160
natur lichen</w> 1160
gie ßen</w> 1160
roman tischen</w> 1159
tage s 1159
hair style</w> 1159
gesi chter</w> 1159
ges ell 1159
diamon ds</w> 1159
t win</w> 1158
lo ffel</w> 1158
bo den 1158
spiel erin</w> 1158
stand ard</w> 1158
er se 1157
re d 1157
mo ck</w> 1157
su ß</w> 1157
stat t</w> 1157
dau er 1157
haf te</w> 1157
heil ig 1157
ti erte</w> 1156
wi cket</w> 1156
han ge 1156
pol e</w> 1156
exer c 1156
c igarette</w> 1155
gel ie 1154
oli ven 1154
past ure</w> 1154
re ality</w> 1153
lo aded</w> 1153
ck ens</w> 1153
ent wur 1153
qu ilt</w> 1153
ty p</w> 1153
glei ch</w> 1153
scen es</w> 1153
konzer ts</w> 1153
s end</w> 1152
ze ss 1152
nach ste</w> 1152
sau ce</w> 1152
ober teil</w> 1152
m aus</w> 1151
er ster</w> 1151
tre at</w> 1151
schen kt</w> 1151
vier tels</w> 1151
ow ned</w> 1151
z igarette</w> 1150
g keit</w> 1150
mar ks</w> 1150
mann ern</w> 1150
pan e 1150
present ing</w> 1149
1 00</w> 1148
sh ell</w> 1148
fro g</w> 1148
fin gers</w> 1148
ka sten</w> 1148
pan el</w> 1147
bra cel 1147
fischer boote</w> 1147
richti ge</w> 1146
mensch lichen</w> 1146
nu tzen</w> 1145
spre ch 1145
in scri 1144
er enden</w> 1144
er reichen</w> 1144
stat uen</w> 1144
18 .</w> 1144
contro l</w> 1144
thril ler</w> 1144
cycli st</w> 1144
en gra 1143
ei scre 1143
gel s</w> 1142
will kommen</w> 1142
rema ins</w> 1142
prasent ation</w> 1142
t tern</w> 1141
j en 1141
x is</w> 1141
ic y</w> 1141
kon kur 1141
cra zy</w> 1141
refle cting</w> 1141
volk s 1141
kletter t</w> 1141
e e</w> 1140
a we 1140
ub ung</w> 1140
war me</w> 1140
ze bra</w> 1140
vol les</w> 1140
stie feln</w> 1140
g an</w> 1139
so ur 1139
sto red</w> 1139
ken n 1139
hochzeit storte</w> 1139
verwand elt</w> 1139
stem pel</w> 1139
be zie 1138
ho sted</w> 1138
da ily</w> 1138
dri ed</w> 1138
stam p</w> 1138
monochro me</w> 1138
zerbro chen 1138
un ve 1137
re spon 1137
speci ally</w> 1137
prin zess 1137
nie d 1137
sele ction</w> 1137
hinzu fugen</w> 1137
di y</w> 1136
woo d 1136
e ben 1135
it te</w> 1135
wa che</w> 1135
mar sch</w> 1135
team mates</w> 1135
arran gement</w> 1135
er a</w> 1134
bo tan 1134
spiel te</w> 1134
for dert</w> 1134
christ licher</w> 1134
cur ly</w> 1134
rosafar ben 1134
roo f 1134
unterstu tz 1134
pa cked</w> 1133
her zens</w> 1133
make -up</w> 1133
un usual</w> 1132
sin gt</w> 1132
braun e</w> 1132
c ell</w> 1131
o k 1131
sta in 1131
dien stag 1131
18 th</w> 1131
steh end</w> 1131
eleph ants</w> 1131
regn erischen</w> 1131
t ell</w> 1130
em bro 1130
ide al</w> 1130
lu sh</w> 1129
ku tsche</w> 1129
rin gen</w> 1129
arri val</w> 1129
cany on</w> 1129
awe some</w> 1129
sp uren</w> 1128
back pack</w> 1128
train ings</w> 1128
gemu ster 1128
chal k</w> 1128
fil l</w> 1127
einfa ches</w> 1127
feld weg</w> 1127
nigh t 1127
near by</w> 1127
ch teten</w> 1126
an gel</w> 1126
b elt</w> 1125
si ert</w> 1125
ir es</w> 1125
pro ze 1125
zu schau 1125
bli chen</w> 1125
mar ble</w> 1125
business woman</w> 1125
i ri 1124
fre ssen</w> 1123
form at</w> 1123
cal endar</w> 1123
weizen feld</w> 1123
volley ball</w> 1123
re pli 1122
win zigen</w> 1122
micro phone</w> 1122
b unter</w> 1121
p ig 1120
sor gen</w> 1120
con fli 1119
del t</w> 1119
schauspiel ers</w> 1119
compet es</w> 1119
am u 1118
her self</w> 1118
elektro ni 1118
ten s</w> 1117
uber all</w> 1117
hun dre 1117
professi on 1117
scien ce</w> 1117
0 th</w> 1116
fre sh 1116
land er 1115
luftball on</w> 1115
embro i 1115
ster - 1114
tau chen</w> 1114
psy che 1114
hundre ds</w> 1114
p ets</w> 1113
ti scher</w> 1113
and eres</w> 1113
coun ty</w> 1113
hell em</w> 1113
secur ity</w> 1113
st eri 1112
spla sh</w> 1112
ne ter</w> 1111
me ets</w> 1111
busine s 1111
film premiere</w> 1111
vir tu 1111
t ch</w> 1110
na h</w> 1110
w rest 1109
al o 1109
is lands</w> 1109
mad els</w> 1109
west licher</w> 1109
silhouet ted</w> 1109
memor ial</w> 1109
mikro fon</w> 1109
re iten</w> 1108
sch ung</w> 1108
sun flower</w> 1108
buch ern</w> 1108
prin cess</w> 1108
over head</w> 1108
di ag 1107
et ed</w> 1107
hard- rock-kunstler</w> 1107
se ment</w> 1106
dar in</w> 1106
p ou 1105
ste ep</w> 1105
pin gu 1105
basketball spiels</w> 1105
li shed</w> 1104
ge troffen</w> 1104
ta gs</w> 1104
ca ge</w> 1104
flow s</w> 1104
wie sen</w> 1104
mehr eren</w> 1104
t ungs 1103
dra gon</w> 1103
kam pft</w> 1103
geburtstag sparty</w> 1103
toil et</w> 1103
screen shot</w> 1103
s ah 1102
dre i 1102
tablet - 1102
walk way</w> 1102
in door</w> 1101
te eth</w> 1101
aus druck</w> 1101
mon d 1101
schwe bt</w> 1101
t old</w> 1100
ch at 1100
re spe 1099
min d</w> 1099
laun dry</w> 1099
kreuzfahrt schiff</w> 1099
at ely</w> 1098
schn ell 1098
vo geln</w> 1098
klassi scher</w> 1098
curr ent</w> 1098
vergan genen</w> 1098
confli ct</w> 1098
s ent</w> 1097
schie bt</w> 1097
ver letz 1096
su ally</w> 1096
ub e</w> 1096
turni er</w> 1096
fair y</w> 1096
straw berries</w> 1096
ren ch</w> 1095
acce ss</w> 1095
ged range</w> 1095
eti kett</w> 1095
clo set</w> 1094
eng ine 1094
stil isi 1094
schwimm becken</w> 1094
skyscra per</w> 1094
kek se</w> 1094
l on</w> 1093
kun d 1093
vor bereitet</w> 1093
a da 1092
u ps</w> 1092
li e</w> 1092
men u</w> 1092
termin al</w> 1092
p fo 1091
ti on 1091
af fen</w> 1091
po ol 1091
spiel zeu 1091
schaf ft</w> 1091
stu die</w> 1091
pa ired</w> 1090
no te 1090
spie geln</w> 1090
inter ieur</w> 1090
comp let 1090
tie fe</w> 1090
se tt 1089
ver han 1089
bau stelle</w> 1089
mun ze</w> 1089
comple ted</w> 1089
schwan z</w> 1089
soccer spieler</w> 1089
c ated</w> 1088
lo ser</w> 1088
lan de 1088
schu tzen</w> 1088
star ke</w> 1088
cur tains</w> 1088
complet ely</w> 1088
o ster 1087
ge stur 1087
wit ter</w> 1087
am o 1087
do m</w> 1087
he st</w> 1087
con su 1087
pr al 1087
h all 1086
mar ine</w> 1086
stad te</w> 1086
flu geln</w> 1086
zeit lupe</w> 1086
athle ten</w> 1086
extre me</w> 1086
b ist</w> 1085
to pf 1085
war e 1085
pre vi 1085
aus schnitt</w> 1085
an fang</w> 1084
st in</w> 1084
ver kleidet</w> 1084
aut ors</w> 1084
atta ched</w> 1084
fre ih 1083
hi bis 1083
fri ed 1083
ty ping</w> 1083
form ing</w> 1083
kie fern</w> 1083
experien ce</w> 1083
in j 1082
st a</w> 1082
ge misch 1082
he x 1082
gesch rieben</w> 1082
rol len</w> 1082
spo on</w> 1082
eigent um 1082
ma ssi 1081
fuß en</w> 1081
stud entin</w> 1081
gebir ge</w> 1081
trou sers</w> 1081
spit zen 1080
ang les</w> 1080
gewin nt</w> 1080
multi ple</w> 1080
te ddy</w> 1079
app li 1079
app ear</w> 1079
goal keeper</w> 1079
s afe</w> 1078
5 th</w> 1078
di cht</w> 1078
tra g</w> 1078
kon fli 1078
him m 1078
unser es</w> 1078
suc cess</w> 1078
n auti 1077
po sted</w> 1077
her unter 1077
ga sse</w> 1077
pfer den</w> 1077
mini ature</w> 1077
burger steig</w> 1077
favo ur 1077
ha ired</w> 1076
rei ch 1076
tem plate</w> 1076
dan ger 1076
welt karte</w> 1076
ma id</w> 1075
to ten 1075
mann chen</w> 1075
celebr ations</w> 1075
stat ues</w> 1075
viel zahl</w> 1075
eu le</w> 1075
fo x</w> 1074
schau kel</w> 1074
run d 1074
bar s</w> 1074
stol z</w> 1074
nav ig 1074
spac e 1074
pa ct</w> 1073
ju gend 1073
einkauf en</w> 1073
mog lich</w> 1073
passag ier 1073
qualifi k 1073
mo ved</w> 1072
fri scher</w> 1072
ver ein 1071
zu g 1071
pe ak</w> 1071
kupp el</w> 1071
zi erte</w> 1070
wu s 1070
for mt</w> 1069
vol un 1069
schiedsri chter</w> 1069
f lau 1068
ri er</w> 1068
ru ckt</w> 1068
her um 1068
wur fel</w> 1068
them selves</w> 1068
bedeu tet</w> 1068
g ert</w> 1067
mu d</w> 1067
schnee mann</w> 1067
mess er</w> 1067
5 00 1066
ca ct 1066
deta illi 1066
at o</w> 1065
fu hlen</w> 1065
unter neh 1065
bri des 1065
le mon</w> 1064
stu cken</w> 1064
the ke</w> 1064
19 8 1064
hair styles</w> 1064
galax y</w> 1064
fri se 1063
pati enten</w> 1063
cup cake</w> 1063
accor ding</w> 1063
g li 1062
la bor 1062
bri ef</w> 1062
geschaf t 1062
hub sch</w> 1062
ru sty</w> 1061
fel t</w> 1061
itali en 1061
apf el 1061
c af 1060
fol ge</w> 1060
sonn tag 1060
geoff net</w> 1060
di shes</w> 1059
ge geben</w> 1059
de stin 1059
cro p</w> 1059
e i</w> 1058
ver fass 1058
ff er</w> 1058
rea ching</w> 1058
ter asse</w> 1057
is ed</w> 1057
cam el</w> 1057
rie sen 1057
pit ches</w> 1057
head quarters</w> 1057
entertain er</w> 1057
g in</w> 1056
ho pe</w> 1056
we l</w> 1056
kl in 1056
teil te</w> 1056
stuh len</w> 1056
tropi sche</w> 1056
b ble</w> 1055
re member</w> 1055
wel traum</w> 1055
dekor ative</w> 1055
cand y</w> 1055
oni al</w> 1055
hit ting</w> 1055
emplo ye 1055
war mt</w> 1054
slee ve</w> 1054
braut jung 1054
epis ode</w> 1054
k nu 1053
al a</w> 1053
wei bchen</w> 1053
jun gs</w> 1053
fra mes</w> 1053
rei fe</w> 1053
winter lichen</w> 1053
see ds</w> 1053
c o</w> 1052
ten den</w> 1052
cht em</w> 1051
beruhm te</w> 1051
blei stift</w> 1051
graffit is</w> 1051
gluh bir 1051
educ ational</w> 1051
im pro 1050
cro ssed</w> 1050
che f 1050
sel ben</w> 1050
symmet ri 1050
ein richtung</w> 1049
ur laub 1049
ge fan 1049
ge kleidet</w> 1049
all em</w> 1049
do od 1049
ber i 1049
ke hrt</w> 1049
star ken</w> 1049
wild blumen</w> 1049
mi ssing</w> 1048
wa chen</w> 1048
car ried</w> 1048
t w 1047
ck el</w> 1047
li g</w> 1046
lo com 1046
om e 1046
pf le 1046
schul ter 1046
dekor ationen</w> 1046
crick eter</w> 1046
schran ke</w> 1046
noti z 1046
locom o 1046
ge se 1045
mon ths</w> 1045
schrift zug</w> 1045
coast line</w> 1045
futur i 1045
it self</w> 1044
off ene</w> 1044
wan ts</w> 1044
feier lichkeiten</w> 1044
fisher man</w> 1044
j ar</w> 1043
in de 1043
an i 1043
po lar</w> 1043
da y 1043
hinter grun 1043
bot schaft</w> 1043
grei ft</w> 1043
hel ping</w> 1042
suppor ters</w> 1042
zo om</w> 1041
sor g 1041
glas fenster</w> 1041
blei sti 1041
wolken verhan 1041
ch andeli 1040
ne ath</w> 1040
mo unted</w> 1040
gewi cht</w> 1040
lager feuer</w> 1040
fif th</w> 1040
lo wer 1039
se ated</w> 1039
priv aten</w> 1039
sper son</w> 1039
pend ant</w> 1039
taus ende</w> 1039
1 2</w> 1038
re i</w> 1038
ad ult</w> 1038
arbeit splat 1038
lotu s</w> 1038
refer ee</w> 1038
under neath</w> 1037
glan z 1037
shel ves</w> 1037
umar men</w> 1037
gelb es</w> 1037
expre ssion</w> 1037
jul y</w> 1037
ei che</w> 1036
huh ner</w> 1036
cocon ut</w> 1036
ho tel 1035
mo vement</w> 1035
ru t 1035
sho ppers</w> 1035
son dern</w> 1035
vektor kunst 1035
net work</w> 1035
acce sso 1035
lust iger</w> 1035
fig ures</w> 1034
ahn lich</w> 1034
tatsa chlich</w> 1034
volun te 1034
li ved</w> 1033
win ger</w> 1033
gesch la 1033
cho o 1033
natur lich</w> 1033
f our</w> 1032
w is 1032
lo ving</w> 1032
foo d 1032
ke hr</w> 1032
sty p</w> 1032
hig hest</w> 1032
schnee sturm</w> 1032
aben teu 1032
ran ch</w> 1031
schrift steller</w> 1031
ho l</w> 1030
sli ding</w> 1030
spre ad</w> 1030
kee ps</w> 1030
ta statur</w> 1029
plau dert</w> 1029
wil de</w> 1028
glo ves</w> 1028
mau ern</w> 1028
schokola de</w> 1028
z z</w> 1027
sch wi 1027
cho ice</w> 1027
bicy cles</w> 1027
than k</w> 1027
stret ching</w> 1027
girl friend</w> 1027
an ker</w> 1026
benu tzen</w> 1026
ol dest</w> 1025
to ast</w> 1025
sk at 1025
sig ht</w> 1025
cur ring</w> 1025
refle ctions</w> 1025
ange bo 1025
suß es</w> 1025
smoo th</w> 1025
kron leu 1025
b es</w> 1024
k na 1024
turni ers</w> 1024
wit ch</w> 1023
pa th 1023
con vers 1023
flu ffy</w> 1023
curr ently</w> 1023
ge setzt</w> 1022
sm aller</w> 1022
golden es</w> 1022
corpor ate</w> 1022
ein zigen</w> 1021
to tal</w> 1021
mu stern</w> 1021
por tion</w> 1021
spe aking</w> 1021
pin k 1021
champag ner</w> 1021
isomet ric</w> 1021
y ond</w> 1020
u pp 1020
be yond</w> 1020
su ch 1020
weit er 1020
b at</w> 1019
g sten</w> 1019
de ser 1019
de ut 1019
sun flowers</w> 1019
isoli ertem</w> 1019
zen de</w> 1019
champi on</w> 1019
nur se</w> 1019
f ie 1018
pro u 1018
dro hne</w> 1018
ung sm 1018
oper ation</w> 1018
ger aten</w> 1017
sli ce</w> 1017
h ats</w> 1016
tex tur 1016
star k</w> 1016
zie ge</w> 1016
z ub 1015
c ell 1015
2 .</w> 1015
col onial</w> 1015
ski er</w> 1015
eiscre me</w> 1015
re ach</w> 1014
them ati 1014
ter i 1013
um welt 1013
fußball spielers</w> 1013
char ity</w> 1013
deli vers</w> 1013
ho sen</w> 1012
ho meless</w> 1012
mal kunstler</w> 1012
dunkl er</w> 1012
schran ken</w> 1012
letter ing</w> 1012
sparkl ing</w> 1012
en s 1011
li ge</w> 1011
stre et 1011
tour ne 1011
kol oni 1011
install ed</w> 1011
1 4</w> 1010
ne on</w> 1010
wa sche</w> 1010
hu tten</w> 1010
geschaf fen</w> 1010
pra ying</w> 1010
schrit te</w> 1010
re tri 1009
gele gt</w> 1009
m mer</w> 1008
lo ses</w> 1008
mi gr 1008
trei ben</w> 1008
architekt on 1008
en z</w> 1007
diti ons</w> 1007
ligh tly</w> 1007
19 2 1007
hil l 1007
magaz in</w> 1007
an la 1006
lo kal 1006
ver bo 1006
vi ce</w> 1006
pf er</w> 1006
li p 1005
tra iler</w> 1005
pal ast</w> 1005
provin ce</w> 1005
ge sti 1004
er hal 1003
ru g</w> 1003
mu cke</w> 1003
wan ne</w> 1003
mar ath 1002
anim ated</w> 1002
flor alen</w> 1002
peri ode</w> 1002
schluss el 1002
instru ment</w> 1002
any one</w> 1002
explo sion</w> 1002
a qu 1001
co unter 1001
pol y 1001
neu jahr 1001
dar unter</w> 1001
che cking</w> 1001
pil low</w> 1001
schwe ben</w> 1001
end lich</w> 1000
shoo ts</w> 1000
li gen</w> 999
fin anci 999
pri ce</w> 999
farben e</w> 999
provi de</w> 999
en es</w> 998
mu sc 998
lar ger</w> 998
schie ßen</w> 998
prepar ed</w> 998
colum ns</w> 998
il la</w> 997
ho bby</w> 997
classi cal</w> 997
kinder zimmer</w> 997
entfer nen</w> 997
ti ght</w> 996
wa shed</w> 996
fiktion ale</w> 996
vertei diger</w> 996
environ ment</w> 996
al em</w> 995
sch ub 995
de ath</w> 995
stra h 995
m ung</w> 994
. 00 994
win kel 994
grau er</w> 994
mobil telefon</w> 994
heal th</w> 994
offiziel len</w> 994
associ ation</w> 994
t a</w> 993
m ten</w> 993
in spe 993
ha st</w> 993
fru her</w> 993
gluck wun 993
g one</w> 992
st ir 992
da chte</w> 992
ele fant</w> 992
qu il 992
flu r</w> 992
haf ten</w> 992
k m</w> 991
le iter</w> 991
ste ms</w> 991
con du 990
land wirt 990
posi erte</w> 990
favour ite</w> 990
ga - 989
git arri 989
fotografi en</w> 989
mini - 989
trock enen</w> 989
konig lichen</w> 989
tourne e</w> 989
re tt 988
gan se 988
schi cken</w> 988
te dd 987
pa dd 987
met ro 987
hun der 987
dau er</w> 987
sub je 987
braun em</w> 987
e stab 986
ne tter</w> 986
sk ates</w> 986
bi ssen</w> 986
provin z</w> 986
bea ches</w> 986
e dition</w> 985
ch ts 985
il ls</w> 985
enth alt</w> 985
custom er</w> 984
administr ative</w> 984
o ven</w> 983
ki cks</w> 983
see ms</w> 983
militar ischen</w> 983
polizei beam 983
trav elling</w> 983
lust iges</w> 983
isomet ri 983
hochzeitsklei der</w> 983
feder al</w> 983
suit case</w> 983
s win 982
1 00 982
am ph 982
bi ene</w> 982
sa ß</w> 982
tu lips</w> 982
ka y 982
ite te</w> 982
dekor iert</w> 982
richti gen</w> 982
a board</w> 981
mo rous</w> 981
sk or 981
dun e</w> 981
haf t</w> 981
schwang ere</w> 981
el se</w> 980
stell ten</w> 980
bre aks</w> 980
ob dach 980
sli m</w> 980
rain forest</w> 980
stret ch</w> 980
rel ation 980
re curring</w> 979
de part 979
war ds</w> 979
sta chel 979
sto od</w> 979
fall enden</w> 979
pan ning</w> 979
belie ve</w> 979
erfol g</w> 979
green house</w> 979
amph i 979
de but</w> 978
fre ude</w> 978
sa ge</w> 978
hei rat 978
fle cken</w> 978
enjo ys</w> 978
viol et 978
sandwi ch</w> 978
verbun den</w> 978
financi al</w> 978
b att 977
f ein 977
gar t 977
fun ded</w> 977
schmu cken</w> 977
blei bt</w> 977
tedd y 977
e ps</w> 976
ma in 976
sti scher</w> 976
religio sen</w> 976
k nie 975
ge wur 975
lo cks</w> 975
clo wn</w> 975
ger ah 975
tatowi eren</w> 975
hochzeits zeremonie</w> 975
wra p</w> 975
jour ney</w> 975
invit ation</w> 975
cact us</w> 975
k etten</w> 974
brau n</w> 974
cra sh</w> 974
teil weise</w> 974
wieder bele 974
befest igt</w> 974
kom position</w> 973
flugzeu ge</w> 973
gei st</w> 973
ver bess 972
ic e 972
rau men</w> 972
pat rio 972
pun kte</w> 972
lon ger</w> 972
ck en 971
wh ale</w> 971
sicht bar</w> 971
formi ge</w> 971
cockta ils</w> 971
v end 970
ne tes</w> 970
me ans</w> 970
zi erten</w> 970
far mers</w> 970
pen alty</w> 970
tom ato</w> 970
styli zed</w> 970
gie ßt</w> 970
locomo tive</w> 970
ge st 969
fol k- 969
mou se</w> 969
golden em</w> 969
gent le 969
los ung</w> 969
re ich</w> 968
ei ther</w> 968
to wers</w> 968
schu t 968
hel ps</w> 968
figh ting</w> 968
prinzess in</w> 968
verfass ungs 968
at temp 967
se ating</w> 967
ha y</w> 967
hu man 967
ren nens</w> 967
s wer 966
i ed</w> 966
3 rd</w> 966
se af 966
ad van 966
ff ed</w> 966
stri ch</w> 966
net te</w> 966
enter ing</w> 966
zun ge</w> 966
exc ited</w> 966
u fer 965
gi ert</w> 965
hal ter</w> 965
bi ker</w> 965
clo ser</w> 965
pat ro 965
fol low</w> 965
beg ins</w> 965
blu hen</w> 964
wer bung</w> 964
hoch wer 964
bro w 964
sha ke</w> 964
win ds</w> 963
vi br 963
fashi on 963
lead ers</w> 963
contra st</w> 963
er ho 962
at ur</w> 962
ma sco 962
bo se 962
sin gen</w> 962
ro t- 961
gra de</w> 961
sam keit</w> 961
wasser tropfen</w> 961
dam pf 961
einfa cher</w> 961
geh weg</w> 961
bose wi 961
m ile</w> 960
en a</w> 960
it s 960
we hen</w> 960
sty led</w> 960
schu ppen</w> 960
boar d 960
typi sche</w> 960
vektorkunst -illustration</w> 960
er wartet</w> 959
kon zep 959
erinn ern</w> 959
teenager madchen</w> 959
dome stic</w> 959
k ab 958
com par 958
sc ent</w> 958
produ ce</w> 958
tin te</w> 958
geschnit ten</w> 958
skul p 958
farbenfro hen</w> 958
residen ce</w> 958
gefroren en</w> 958
n em</w> 957
t form</w> 957
g ul 957
li ppen 957
be il 957
le s 957
da pper</w> 957
do ts</w> 957
sol ution</w> 957
mask ott 957
suß er</w> 957
in ch</w> 956
bir th</w> 956
win dy</w> 955
ra sen 954
bi er 954
gesch wi 954
lei stung</w> 954
dru cke</w> 954
segel boot</w> 954
quarter back</w> 954
n de</w> 953
t onen</w> 953
vor her</w> 953
probi eren</w> 953
in formation</w> 952
to t 952
con test</w> 952
wor th</w> 952
gru sel 952
bloo d</w> 952
c aus 951
ch im 951
wa schen</w> 951
po cket</w> 951
pa vil 951
unter halten</w> 951
ger ne</w> 951
garten s</w> 951
lin e- 950
rei che</w> 950
any thing</w> 950
incre dible</w> 950
stark em</w> 950
er scheint</w> 949
ku ss</w> 949
tepp i 949
wild life</w> 949
gewach shaus</w> 949
to ols</w> 948
el en</w> 947
ter t</w> 947
ru hig 947
geri chtet</w> 947
kranken schwester</w> 947
reve aled</w> 947
di plo 946
be sch 946
technolo gy</w> 946
fa ce 945
ball er 945
pi pe</w> 945
kan te</w> 945
s wa 944
he els</w> 944
ti ons</w> 943
bu tter</w> 943
vektor bild</w> 943
schlu cht</w> 943
cat ches</w> 943
besatz ung</w> 943
g le 942
er geb 942
li qu 942
am ong 942
stro l 942
sor gt</w> 942
gesun d 942
zun e 942
himm els</w> 942
ch ers</w> 941
st it 941
ste tho 941
sto pped</w> 941
olo gi 941
snow fall</w> 941
musik video 941
arran ged</w> 941
inscri ption</w> 941
r ty</w> 940
an mu 940
and a</w> 940
sna ke</w> 940
sun gen</w> 939
bemal te</w> 939
wieder kehr 939
ethni zitat</w> 939
e ded</w> 938
be vor 938
out fits</w> 938
sur vi 938
ssen e</w> 938
19 4 938
gab en</w> 938
zubere iten</w> 938
in ner</w> 937
is la 937
ag ing</w> 937
lie ge 937
holz boden</w> 937
pflan zt</w> 937
among st</w> 937
a ku 936
scen ic</w> 936
kran k 935
approa ching</w> 935
pilo t</w> 935
spec ta 935
ck ly</w> 934
ja zz</w> 934
geh ullt</w> 934
symbol en</w> 934
einzel handel</w> 934
rea son</w> 934
tablet t</w> 934
an we 933
re stored</w> 933
aus zeichnung</w> 933
ku hlen</w> 933
gla mou 933
leu ten</w> 933
herbst tag</w> 933
inspiri erte</w> 933
atta ck</w> 933
jub il 933
subur b</w> 933
transport ation</w> 933
j erse 932
mat ten</w> 932
sur f</w> 932
tie fen</w> 932
constitu ent</w> 932
reflexi on</w> 932
u re 931
be wal 931
ru f</w> 931
ste cken</w> 931
bre ed</w> 931
moder ator</w> 931
dire ction</w> 931
alter n 931
coo k</w> 931
be er 930
ati v 930
stur ms</w> 930
af fe</w> 929
ag ri 929
costum er</w> 929
p se</w> 928
do ktor</w> 928
sti cks</w> 928
acce ssor 928
accessor ies</w> 928
e tage</w> 927
el ed</w> 927
di t</w> 927
kam en</w> 927
s la 926
bluh enden</w> 926
cran e</w> 926
jewel ry</w> 926
co st</w> 925
stra w</w> 925
sub way</w> 925
cartoon- stil</w> 925
heraus forder 925
pfla ster 925
b einen</w> 924
qu elle</w> 924
vor han 924
hel ped</w> 924
inter section</w> 924
vin ey 924
nu sse</w> 924
studi o 924
dramati st</w> 924
r ent</w> 923
st all 923
ge ko 923
ic ally</w> 923
hei r 923
soli d</w> 923
kurbis se</w> 923
e specially</w> 922
t um 922
re move</w> 922
di sea 922
ra w</w> 922
si s</w> 922
gel en 922
graph y</w> 922
pul ls</w> 922
cock pit</w> 922
than ks</w> 922
convers ation</w> 922
ern te</w> 921
sau men</w> 921
sitz ung</w> 921
pfar rei</w> 921
er ende</w> 920
ma chten</w> 920
fra g 920
hand elt</w> 920
jo in</w> 920
fuh lt</w> 920
leit ung</w> 920
schutt elt</w> 920
ir gen 919
bade wanne</w> 919
recei ves</w> 919
banan a</w> 919
partici p 919
aktien vektor</w> 919
bil des</w> 918
vol can 918
cre ek</w> 918
reih en</w> 918
prote cted</w> 918
innen stadt</w> 918
irgend wo</w> 918
chemi cal</w> 918
3 0</w> 917
fro st</w> 917
dol ly</w> 917
ferti g 917
opp or 917
jock ey</w> 917
ar ded</w> 916
be her 916
be wun 916
bun tes</w> 916
lear ning</w> 916
remo te</w> 916
immobil ie</w> 916
un known</w> 915
ge halten</w> 915
ru der 915
hon or</w> 915
s wee 914
- stil</w> 914
it age</w> 914
hinter en</w> 914
sonnen blumen</w> 914
ruck kehr</w> 914
kaf er</w> 914
thum bs</w> 914
clim b</w> 914
o sten</w> 913
ex po 913
cu ps</w> 913
kra ft</w> 913
eroff net</w> 913
umbrel las</w> 913
sku chen</w> 913
farm house</w> 913
le cker 912
fro sch</w> 912
sho re 912
zu stellen</w> 912
fri sches</w> 912
land ung</w> 912
rot ating</w> 912
mannschaft sk 912
ani mi 912
s se 911
mittelalter lichen</w> 911
er st</w> 910
her itage</w> 910
blumen muster</w> 910
k let 909
ro man</w> 909
pa ar 909
gre ets</w> 909
vol u 909
lat ernen</w> 909
dar steller</w> 909
blo g 909
questi on</w> 909
kronleu chter</w> 909
nahtlo s</w> 908
verlie bt</w> 908
hip ster</w> 908
c lin 907
pro be</w> 907
ben ef 907
sommer lichen</w> 907
recei ved</w> 907
surpri sed</w> 907
g ig 906
sen se</w> 906
bahn - 906
kie fern 906
195 0s</w> 906
d einen</w> 905
g low</w> 905
ra ke 905
flo w</w> 905
fuhr ung 905
organis ms</w> 905
bauern haus</w> 904
claim ed</w> 904
re fu 903
ge witter 903
uber pru 903
ober en</w> 903
gebir g 903
boy friend</w> 903
vibr ant</w> 903
p fu 902
ver ruckt</w> 902
sh ells</w> 902
produ ktion</w> 902
water ing</w> 902
chef trainer</w> 902
ti gt</w> 901
sho ts</w> 901
mann er 901
gru ppen</w> 901
regi erung</w> 901
contin u 901
oppor tun 901
de p 900
mu tter 900
lat erne</w> 900
bet ten</w> 900
offent liche</w> 900
psyche del 900
di schen</w> 899
om y</w> 899
tra m</w> 899
fa s 899
spe ak</w> 899
displa ys</w> 899
co mi 898
fuhr te</w> 898
rais ing</w> 898
tul pen</w> 898
li ber 897
portra its</w> 897
spra y</w> 897
verti k 897
dess er 897
w ling</w> 896
bau ern</w> 896
mounta in 896
sor ten</w> 896
west lichen</w> 896
unterschied licher</w> 896
f ung</w> 895
u fern</w> 895
ch or</w> 895
land lichen</w> 895
charakter e</w> 895
laven der</w> 895
agen cy</w> 895
reco g 895
u sually</w> 894
gen cy</w> 894
ed ler</w> 894
verbin det</w> 894
emer gency</w> 894
o o 893
ti ges</w> 893
pu tzt</w> 893
vektor muster</w> 893
flie ge</w> 893
schrift stell 893
gene h 893
mannschaftsk amer 893
o wn 892
st or</w> 892
fi c</w> 892
geb un 892
strahl end</w> 892
de mo 891
win zige</w> 891
wil lin 891
daugh ters</w> 891
kombin ation</w> 891
ar ena</w> 890
be wahr 890
de sk 890
stat t 890
stro m</w> 890
busines sperson</w> 890
f itted</w> 889
fe ss 889
fe sten</w> 889
bru st</w> 889
air liner</w> 889
a sk</w> 888
d andeli 888
lin ke</w> 888
national mannschaft</w> 888
butt on</w> 888
8 0</w> 887
ver si 887
tr ends</w> 887
kra fte</w> 887
appro ach</w> 887
kurz lich</w> 887
staat s 887
gefa ß</w> 887
in vol 886
re it 886
ge ssen</w> 886
wor ked</w> 886
cle aning</w> 886
fau x</w> 886
comfor table</w> 886
p c</w> 885
sc rat 885
grun dri 885
stat te</w> 885
geschen ken</w> 885
entde ckt</w> 885
le v 884
pa ste</w> 884
sti eren</w> 884
den n</w> 884
du ck</w> 884
hi ding</w> 884
land sca 884
mer in</w> 884
sport wagen</w> 884
cha pel</w> 884
aufmerk samkeit</w> 884
e bbe</w> 883
ge worfen</w> 883
plat es</w> 883
pop corn</w> 883
komo tive</w> 883
remo ved</w> 883
own ers</w> 883
z wie 882
be finden</w> 882
lo ft</w> 882
le eres</w> 882
wei sen</w> 882
ohr ringe</w> 882
konstru ktion</w> 882
kap elle</w> 882
d aten</w> 881
c ad 881
gen au</w> 881
che er</w> 881
perfe ctly</w> 881
elect ro 881
materi als</w> 881
ge formt</w> 880
be sie 880
kl art</w> 880
lin e 880
ap p</w> 880
mush rooms</w> 880
pou red</w> 880
maskott chen</w> 880
en gel</w> 879
ar my</w> 879
de ce 879
co m</w> 879
po site</w> 879
po tato 879
nach denk 879
dri ve 879
pra cht 879
roman ce</w> 879
spin ne</w> 879
potato es</w> 879
wei chen</w> 878
tan k 878
schri ften</w> 878
herbst blatter</w> 878
defen sive</w> 878
expo sure</w> 878
ge fallt</w> 877
win ding</w> 877
op posite</w> 877
ber n</w> 877
so cks</w> 877
spo ts</w> 877
cheer leader</w> 877
past a</w> 877
gen annt</w> 876
dre ams</w> 876
tri ko 876
z willin 875
p lea 875
we ite</w> 875
star ry</w> 875
industri e 875
perfe kten</w> 875
lil y</w> 875
galax ie</w> 875
p ly</w> 874
ge sau 874
auf kle 874
spe k 874
sonnen schein</w> 874
cen sus</w> 874
schwarz- weißes</w> 874
komi schen</w> 874
shel ter</w> 874
inst itu 874
steh enden</w> 874
blit z</w> 874
lower case</w> 874
w ron 873
it em</w> 873
pre season</w> 873
sta cked</w> 873
ban ners</w> 873
bal an 873
sha king</w> 873
verschie dener</w> 873
straßen bahn</w> 873
eth nic</w> 873
u ts</w> 872
en det</w> 872
ge trock 872
mo wen</w> 872
pi ert</w> 872
stud ying</w> 872
scha del</w> 872
verfu gung</w> 872
minu tes</w> 872
ei sk 871
handgezeich neten</w> 871
dy na 871
urban en</w> 871
city scape</w> 871
masco t</w> 871
le erer</w> 870
fre ie</w> 870
dar k 870
musi kin 870
stro h 870
oc tober</w> 870
bloss oms</w> 870
schutt eln</w> 870
drive way</w> 870
h eller</w> 869
1 1</w> 869
et ry</w> 869
fa sst</w> 869
kt em</w> 869
ici al</w> 869
cam ping</w> 869
a de 868
com mu 868
pe a 868
pe ar 868
accesso ires</w> 868
in t</w> 867
li am 867
ri pped</w> 867
traditi on</w> 867
differ ence</w> 867
rosafar bene</w> 867
incre a 867
d le</w> 866
re gular</w> 866
ne eded</w> 866
fo cu 866
bi enen</w> 866
met all</w> 866
smart phones</w> 866
liebl ing 866
u- bahn- 866
w r 865
m am 865
le st</w> 865
ig ung</w> 865
kunst werke</w> 865
pu shing</w> 865
zwe ites</w> 865
baum stum 865
mini atur 865
ra st</w> 864
par liam 864
con fi 864
desig ners</w> 864
kn itted</w> 864
quadrati schen</w> 864
al co 863
re ser 863
lan ges</w> 863
wol l 863
schla mm</w> 863
schmu ck 863
lebensmitt el 863
kni fe</w> 863
z ard</w> 862
t il 862
al pine</w> 862
sp un 862
tro ops</w> 862
run den 862
ster ling</w> 862
tor wart</w> 862
k ts</w> 861
k off 861
an blick</w> 861
ra ce 861
ma xi</w> 861
et y</w> 861
fri sch 861
kop ier 861
my steri 861
seni or 861
vergan genheit</w> 861
r s</w> 860
lo wen</w> 860
ta pe 860
ca sin 860
olympi sche</w> 860
water front</w> 860
lok ale</w> 860
196 0s</w> 860
lab or</w> 860
en gen</w> 859
al though</w> 859
ru sti 859
ex ce 859
bre iten</w> 859
besonder heiten</w> 859
merk male</w> 859
rusti kal 859
jag d</w> 858
einzigarti ge</w> 858
militarkom mand 858
bo un 857
ag ent 857
ze pt 857
besu chs</w> 857
ham mer</w> 857
chandeli er</w> 857
folk- rock-kunstler</w> 857
d ating</w> 856
st ly</w> 856
sta p 856
pf ei 856
dra wings</w> 856
cli ck</w> 856
san gerin</w> 856
gener ation</w> 856
mod ells</w> 856
schre it</w> 856
kreis en</w> 856
schaufen ster</w> 856
bu g</w> 855
ab gele 855
pla kat 855
pi cked</w> 855
wunder schones</w> 855
positi ve</w> 855
puzz le</w> 855
com fort</w> 854
wen ige</w> 854
app e 854
beleu chtet</w> 854
u hr 853
en dem</w> 853
sch atten 853
om en</w> 853
bu ses</w> 853
is es</w> 853
beg in</w> 853
ausge stat 853
bemal ten</w> 853
glanzen de</w> 853
kartoff eln</w> 853
di vi 852
on y</w> 852
ba bies</w> 852
and er 852
war n 852
kunst galerie</w> 852
unter schie 852
uber flu 852
cre ator</w> 852
visit ed</w> 852
fron t 852
ter rit 851
zu gang</w> 851
beg an</w> 851
ier ter</w> 851
schmetterlin ge</w> 851
gentle man</w> 851
h nen 850
er scheinen</w> 850
ge e 850
illustr ator</w> 850
hu g</w> 850
kli cken</w> 850
pickni ck</w> 850
p ure</w> 849
fa den</w> 849
den ce</w> 849
cur tain</w> 849
champi ons</w> 849
rela x</w> 849
retri ever</w> 849
er gan 848
ch mal</w> 848
ma is 848
ma kro 848
man chmal</w> 848
pen c 848
stein erne</w> 848
mannschaftskamer aden</w> 848
a po 847
bu ches</w> 847
jun e</w> 847
slo pes</w> 847
frei wil 847
toil ette</w> 847
kontrol liert</w> 847
cin em 847
li mit 846
si zes</w> 846
war ms</w> 846
vektor nahtloses</w> 846
vin e</w> 846
arch i 846
g ungen</w> 845
re turns</w> 845
yo un 845
contro ls</w> 845
ri ere</w> 844
af fe 844
her o</w> 844
tri ck</w> 844
beru hr 844
frei er</w> 844
serv ices</w> 844
mensch liche</w> 844
gra ph</w> 843
bel on 843
zwei gen</w> 843
turk is 843
rub ber</w> 843
o f 842
an zei 842
stum p</w> 842
glan z</w> 842
ahn elt</w> 842
pel z 842
fisher men</w> 842
wron g</w> 842
sh af 841
bel i 841
baseball spiels</w> 841
ton gue</w> 841
eigen e</w> 841
ener gie</w> 841
asp halt</w> 841
bracel et</w> 841
musikin stru 841
o hren</w> 840
re ste</w> 840
ve t</w> 840
schwar m</w> 840
hor ror</w> 840
pin sel</w> 840
viol etten</w> 840
schwen ken</w> 840
0 .</w> 839
be mer 839
ab han 839
ent ed</w> 839
ze l</w> 839
gesch ir 839
fer tig</w> 839
pat rou 839
crow ded</w> 839
chan ged</w> 839
banan as</w> 839
entwick lung</w> 839
ver ruck 838
sa ying</w> 838
ea stern</w> 838
froh lich</w> 838
perspe ctive</w> 838
betrie b</w> 838
be din 837
fa ke</w> 837
sti gen</w> 837
bere its</w> 837
zwei ge</w> 837
dimensi on 837
in tel 836
er weit 836
gla cier</w> 836
cul ture</w> 836
after party</w> 836
mus ste</w> 836
conne cted</w> 836
questi ons</w> 836
tutor ial</w> 836
press ure</w> 836
tot ally</w> 836
car go</w> 835
ex clu 835
bede ckte</w> 835
sor ts</w> 835
stand ar 834
haupt straße</w> 834
bezie hung</w> 834
tor e</w> 833
glei che</w> 833
d ates</w> 832
de di 832
so ci 832
kon zentri 832
kur s</w> 832
digit ale</w> 832
kie fer</w> 832
brigh tly</w> 832
d ati 831
in y</w> 831
rei ß 831
reih en 831
shin es</w> 831
dis ab 831
contin ent</w> 831
offici als</w> 831
exo tic</w> 831
war dro 830
organ isi 830
fig ur 830
fun kel 830
dam en</w> 830
fest gemacht</w> 830
deli ver 830
b arti 829
4 th</w> 829
si x 829
la ssi 829
wa sh</w> 829
gu n</w> 829
nom in 829
kund gebung</w> 829
s lightly</w> 828
er war 828
ar ts</w> 828
re du 828
pa s 828
fin alen</w> 828
lat in</w> 828
celebr ated</w> 828
seiten linie</w> 828
kleider schrank</w> 828
v it 827
sch er 827
bu sh</w> 827
sand dunen</w> 827
grafi ken</w> 827
deci ded</w> 827
separ ate</w> 827
inform ationen</w> 827
akro sse</w> 827
spek ta 827
wr ite</w> 827
d eine</w> 826
ma xi 826
mon tag 826
inclu ded</w> 826
constru cted</w> 826
elegan ten</w> 826
gri ff</w> 826
militarkommande ur</w> 826
klet tern</w> 826
ga st 825
oper a</w> 825
stah l</w> 825
si ck</w> 824
fe der</w> 824
gra iny</w> 824
nah me</w> 824
mon des</w> 824
rau cht</w> 824
stat es</w> 824
atur es</w> 824
trau m 824
transpar ent 824
promo tional</w> 824
m ur 823
ent ary</w> 823
politi sche</w> 823
glau ben</w> 823
erwachsen e</w> 823
be ans</w> 822
tra ins</w> 822
sen s</w> 822
ab schnitt</w> 821
ste pped</w> 821
ka ja 821
challen ge</w> 821
baro que</w> 821
stain less</w> 821
choo sing</w> 821
z ern</w> 820
stre ssed</w> 820
dar gestellt</w> 820
reci pes</w> 820
ereig ni 820
prasi denten</w> 820
lein wanden</w> 820
goo ds</w> 820
ganse blumchen</w> 820
f rench</w> 819
hi ker</w> 819
schlaf zimmer 819
magaz ins</w> 819
spiegel ung</w> 819
195 0er</w> 819
f at</w> 818
f icial</w> 818
li sten</w> 818
ge spen 818
mi ss</w> 818
ma ge</w> 818
wahr zeichen</w> 818
gla morous</w> 818
sil y</w> 818
bre ite</w> 818
vektor silhouette</w> 818
cht ungen</w> 818
tou ches</w> 818
ehe frau</w> 818
effe kt</w> 818
atemberau bend</w> 818
5 .</w> 817
in ches</w> 817
ba sil 817
mon a 817
decor ate</w> 817
prote sters</w> 817
finis hing</w> 817
di ges</w> 816
plat ziert</w> 816
stro ll</w> 816
under ground</w> 816
hon ey</w> 816
einzel ne</w> 816
zentr alen</w> 816
n ter</w> 815
l un 815
1 8</w> 815
le y</w> 815
bi e</w> 815
mar ri 815
je mals</w> 815
kom mer 815
sto pp 815
schla fen 815
pra kti 815
kla vier</w> 815
beson dere</w> 815
hit ze</w> 815
rustik alen</w> 815
al ko 814
be ars</w> 814
bo hnen</w> 814
ul en</w> 814
neue sten</w> 814
board walk</w> 814
g les</w> 813
sch lau 813
bau ch</w> 813
lau gh</w> 813
magi c</w> 813
gela ssen</w> 813
fresh ly</w> 813
gewitter wolken</w> 813
1 . 812
kon zept 812
vol ution</w> 812
bede cken</w> 812
stur zt</w> 812
floo ded</w> 812
vorbereit ung</w> 812
limit ed</w> 812
for k</w> 811
um in 811
ci dent</w> 811
ko kos 811
vektor grafik</w> 811
zie gel</w> 811
obje ct</w> 811
reser vo 811
gi pf 810
ex posed</w> 810
unter en</w> 810
hor se 810
schla ger</w> 810
stan de</w> 810
presi dential</w> 810
liqu id</w> 810
kommer ziel 810
se il 809
po w 809
do kt 809
sel l</w> 809
weihnachts baums</w> 809
ornam ental</w> 809
schneebede ckte</w> 809
note book</w> 809
e sel</w> 808
en ded</w> 808
re zep 808
gra ss 808
gel o 808
gru ppen 808
sea side</w> 808
up coming</w> 808
down load</w> 808
thril ler 808
amo unt</w> 808
b auf 807
re is</w> 807
be wachsen 807
auf bau</w> 807
car d 807
bri cks</w> 807
tri ed</w> 807
ob serv 807
qui ckly</w> 807
lay ers</w> 807
banan en</w> 807
elektri sche</w> 807
c rying</w> 806
di ed</w> 806
be treten</w> 806
pi ge 806
con tain</w> 806
vi ert</w> 806
stu ffed</w> 806
flo wering</w> 806
fi ve</w> 806
lay er</w> 806
schop fer</w> 806
komple x</w> 806
delic ate</w> 806
er reicht</w> 805
ti ppt</w> 805
wor ten</w> 805
high lights</w> 805
krei de</w> 805
empfan g</w> 805
s .</w> 804
be sti 804
jo y</w> 804
dire ctly</w> 804
ea sily</w> 804
minim alist</w> 804
k erin</w> 803
- party</w> 803
er kunden</w> 803
re sc 803
lan det</w> 803
zu ges</w> 803
ex e 803
so cken</w> 803
schi chten</w> 803
cur ved</w> 803
lacheln des</w> 803
deser ted</w> 803
card board</w> 803
großarti g</w> 802
space craft</w> 802
ein same</w> 801
di rty</w> 801
ur lau 801
lan der</w> 801
perfor med</w> 801
prasen tieren</w> 801
sk irts</w> 800
mad chen 800
cre ation</w> 800
ham mock</w> 800
lok alisiert</w> 800
h art</w> 799
m our</w> 799
in stal 799
ge back 799
ter ns</w> 799
pro cess</w> 799
sol ar 799
dire cted</w> 799
wunder schoner</w> 799
satell ite</w> 799
astro no 799
k nei 798
al arm</w> 798
tre at 798
ser y</w> 798
whe ther</w> 798
verlo bungs 798
gesell schaft</w> 798
destin ation</w> 798
an ato 797
ge denk 797
qu a 797
boo ts 797
vor lage</w> 797
brau che</w> 797
mel one</w> 797
buro gebaude</w> 797
do cks</w> 796
gen er</w> 796
fil men</w> 796
fuß weg</w> 796
unter wasser 796
tur bin 796
viel fal 796
sei l</w> 796
quali fying</w> 796
bat ter 796
temp els</w> 796
se its</w> 795
pro posed</w> 795
flo oring</w> 795
flu ssig 795
bal ance</w> 795
reg ent 795
en ti 794
it ely</w> 794
ne bel 794
wa ist</w> 794
kon ig</w> 794
shar p</w> 794
e ats</w> 793
hal tung</w> 793
go ats</w> 793
plan ted</w> 793
film aufnahmen</w> 793
relea se</w> 793
janu ary</w> 793
broadca sting</w> 793
dece mber</w> 793
a ker</w> 792
re ly</w> 792
gla mour</w> 792
rin e</w> 792
rei chlich</w> 792
ligh ted</w> 792
uni denti 792
dien en</w> 792
dol l</w> 792
fernseh programm</w> 792
entwick elt</w> 792
care er</w> 792
gebro chen 792
k ah 791
v aters</w> 791
ge we 791
be verage</w> 791
le af 791
veranstal tungen</w> 791
zah l 791
sou p</w> 791
resc ue</w> 791
li fting</w> 790
ta schen 790
ent gegen</w> 790
zei chen 790
fre ies</w> 790
ga bel</w> 790
zeit schrift</w> 790
nor mal</w> 790
color ing</w> 790
san ft</w> 790
dor fes</w> 790
reservo ir</w> 790
er richtet</w> 789
ru ms</w> 789
hun derte</w> 789
dau ert</w> 789
sal t</w> 789
pun kten</w> 789
k einen</w> 788
ge wol 788
sti k</w> 788
her vor</w> 788
so und</w> 788
pu ppies</w> 788
inter nationalen</w> 788
bun t 788
hall way</w> 788
h en 787
ro pfen</w> 787
be arded</w> 787
sp lit</w> 787
se qu 787
hand tasche</w> 787
pin e 787
ali schen</w> 787
tal lest</w> 787
up - 787
saf ety</w> 787
disku tieren</w> 787
kontra st</w> 787
dark ness</w> 787
k rit 786
lo us</w> 786
kun de</w> 786
fin als</w> 786
unter schied</w> 786
pict ure 786
recei ving</w> 786
wardro be</w> 786
an an 785
ta schen</w> 785
ne arly</w> 785
we ath 785
ste ak</w> 785
stu cks</w> 785
schla ge</w> 785
oze ans</w> 785
national flagge</w> 785
kombin iert</w> 785
situ ated</w> 785
glet scher</w> 785
pa stel</w> 784
tur me</w> 784
schla m 784
nu ss</w> 784
glei se</w> 784
bul b</w> 784
disea se</w> 784
f j 783
be sichti 783
ta gs 783
co de</w> 783
zu ge 783
ssi ert</w> 783
ger ei 783
char ming</w> 783
heil igen</w> 783
za pfen</w> 783
heit s 783
hange matte</w> 783
hill side</w> 783
bosewi cht</w> 783
marri age</w> 783
s p</w> 782
ru stung</w> 782
ub en</w> 782
fahr rader</w> 782
sonnen strahlen</w> 782
ger at</w> 782
ima g 782
ehe mann</w> 782
froh liches</w> 782
arm band</w> 782
zusatz liche</w> 782
d einem</w> 781
de ze 781
tra g 781
tren nt</w> 781
quo tes</w> 781
la p</w> 780
lan terns</w> 780
stu ff</w> 780
the men 780
pf und</w> 780
gu tes</w> 780
engli sche</w> 780
k te 779
1 7</w> 779
di stant</w> 779
per ha 779
tri um 779
fruhling stag</w> 779
picture sque</w> 779
a chten</w> 778
er kennen</w> 778
mo beln</w> 778
me ga 778
wo bei</w> 778
ski ern</w> 778
niedri gen</w> 778
uberra sch 778
i zi 777
sp inning</w> 777
ver pack 777
we il 777
con ditions</w> 777
sand als</w> 777
sail boat</w> 777
or tlichen</w> 776
po ts</w> 776
wer ken</w> 776
klassi sches</w> 776
enth alten</w> 776
schnei de 776
trav els</w> 776
straw berry</w> 776
in genie 775
ra ise</w> 775
ge fuhrt</w> 775
su its</w> 775
bil l</w> 775
ste pp 775
arti ficial</w> 775
fern sehen</w> 775
wick elt</w> 775
individu al</w> 775
lad der</w> 775
unidenti fied</w> 775
be es</w> 774
ku ssen</w> 774
so ap</w> 774
pri mar 774
box ing</w> 774
dekor ativen</w> 774
20 th</w> 774
deli very</w> 774
tennis spieler</w> 774
marschi eren</w> 774
ju red</w> 773
stur mer</w> 773
shar es</w> 773
nahr ung</w> 773
flau schi 773
shore line</w> 773
be ere</w> 772
sto ß</w> 772
lauf e</w> 772
schw eren</w> 772
ed len</w> 772
eg al</w> 772
hochzeitsklei d</w> 772
cano e</w> 772
teddy bar</w> 772
wel cher</w> 771
ger ate</w> 771
tu te</w> 771
em ed</w> 771
roman cier</w> 771
don key</w> 771
mel on</w> 771
komm uni 771
relation ship</w> 771
fashion able</w> 771
ra ge</w> 770
be ute</w> 770
he ck</w> 770
wat ched</w> 770
wohn zimmer 770
ful l 770
geschlo ssenen</w> 770
geschwindig keit</w> 770
fj or 770
me ilen</w> 769
farb iger</w> 769
slee ves</w> 769
sna ck</w> 769
nur sery</w> 769
be zeichnet</w> 768
ver witter 768
fo der 768
sa van 768
stor es</w> 768
sto ve</w> 768
ko stu 768
defin ition</w> 768
gewal t</w> 768
perha ps</w> 768
i sten</w> 767
in jured</w> 767
ge go 767
auf gestellt</w> 767
sa che</w> 767
provi des</w> 767
leuchten den</w> 767
exe cu 767
v a</w> 766
4 0</w> 766
di ff 766
di eren</w> 766
ze bra 766
iz ed</w> 766
obje cts</w> 766
mag ni 766
veroffent licht</w> 766
min er 765
snow boarder</w> 765
electro nic</w> 765
regent ropfen</w> 765
ch tern</w> 764
ein gang 764
te stelle</w> 764
gan ge</w> 764
lin ing</w> 764
gel ander</w> 764
stri ke</w> 764
geburtstag skuchen</w> 764
relax ed</w> 764
zeitgenossi sche</w> 764
er mog 763
tra ger</w> 763
ca pped</w> 763
du ty</w> 763
sol o</w> 763
pri me</w> 763
ty po 763
scar y</w> 763
lande bahn</w> 763
ein mal</w> 762
wh il 762
ph in</w> 762
tri cks</w> 762
restauran t 762
schir m 762
stil volle</w> 762
tack led</w> 762
conver ted</w> 762
c r 761
fu chs</w> 761
sig ning</w> 761
gri zz 761
spen ding</w> 761
sem pfan 761
gur tel</w> 761
lip stick</w> 761
a iss 760
w a</w> 760
in schrift</w> 760
er baut</w> 760
un ge 760
com memor 760
qu arti 760
ren aiss 760
tab by</w> 760
auß ere</w> 760
beson ders</w> 760
verfu g 760
defin itely</w> 760
huh n 760
kapu zen 760
tw ist</w> 760
com pete</w> 759
bi kes</w> 759
tri angle</w> 759
dun nen</w> 759
bel a 759
liebe spaar</w> 759
fluss ufer</w> 759
whil st</w> 759
p anda</w> 758
er st 758
famil i 758
erhal tlich</w> 758
la ck</w> 757
ger et 757
can op 757
seri e</w> 757
elektri schen</w> 757
wiederbele bungs 757
h aut 756
i on</w> 756
bo rough</w> 756
ca ses</w> 756
ten de</w> 756
mann schafts 756
cre me</w> 756
durch qu 756
won der</w> 756
dokum ent 756
ro rt</w> 755
li ve 755
ad dition</w> 755
gra ssy</w> 755
je cted</w> 755
ey e 755
nation ale</w> 755
bou ti 755
shar k</w> 755
exhi bit</w> 755
kopfhor ern</w> 755
intel li 755
on s 754
co al</w> 754
behin der 754
instru ctions</w> 754
genu tzt</w> 754
komo dien 754
gather ing</w> 754
specta cular</w> 754
benef its</w> 754
transparent em</w> 754
su ppe</w> 753
tru ppen</w> 753
ja cht</w> 753
shor es</w> 753
fah r</w> 753
country -kunstler</w> 753
ri pp 752
am y</w> 752
star ing</w> 752
zen ten</w> 752
rest s</w> 752
einsam en</w> 752
possi bly</w> 752
volks fest</w> 752
baller ina</w> 752
p le 751
ei ern</w> 751
mi e</w> 751
ah l</w> 751
der zeit</w> 751
gru ßen</w> 751
sonn iger</w> 751
17 .</w> 751
weg wei 751
consu mer</w> 751
ou ting</w> 750
ne ts</w> 750
win digen</w> 750
lea st</w> 750
tri m</w> 750
gebur t</w> 750
lang em</w> 750
hausti er</w> 750
bril len</w> 750
amu sement</w> 750
tem pt</w> 749
sche un 749
diff ic 749
i phone</w> 748
an a</w> 748
ge wand</w> 748
lie fert</w> 748
rau ch 748
mona stery</w> 748
f tigen</w> 747
m lich</w> 747
se ats</w> 747
ad ul 747
br it 747
sit com</w> 747
zah ne</w> 747
atemberauben den</w> 747
e mo 746
ur auffuhrung</w> 746
ent ur 746
plat ze</w> 746
pflan z 746
sou th 746
geo grafische</w> 746
sna p</w> 746
sna cks</w> 746
provi ded</w> 746
spac es</w> 746
butt ons</w> 746
geform te</w> 746
institu tion</w> 746
in tri 745
ch ter 745
re cht</w> 745
ter ing</w> 745
mo chten</w> 745
fin ding</w> 745
nie mand</w> 745
video spiel 745
huh ner 745
schnur sen 745
hard ware</w> 745
197 0s</w> 745
b o</w> 744
ri g</w> 744
zu stand</w> 744
ex klu 744
unter geh 744
histor ischer</w> 744
bedeu tung</w> 744
neue ste</w> 744
hauf en</w> 744
l ens</w> 743
g ates</w> 743
sh u 743
win ters</w> 743
fil ling</w> 743
stu ck 743
pe aks</w> 743
spi ral</w> 743
univer se</w> 743
elev ated</w> 743
budd h 743
st ert</w> 742
on ne</w> 742
li kel 742
se g 742
fla ches</w> 742
fin ales</w> 742
sie ger 742
letz ter</w> 742
coo k 742
notiz buch</w> 742
rake te</w> 742
v ent</w> 741
ar zt</w> 741
di gung</w> 741
la bel 741
te ment</w> 741
stru gg 741
pra yer</w> 741
milit ari 741
kra n</w> 741
niedri ger</w> 741
noti zen</w> 741
bloss om</w> 741
harve st</w> 741
ask ed</w> 741
veroffent lich 741
zune hmen</w> 741
el f</w> 740
se ssel</w> 740
lu cky</w> 740
sh inter 740
zie mlich</w> 740
besonder en</w> 740
quadrati sche</w> 740
zuschau er</w> 740
chat ting</w> 740
likel y</w> 740
ro st 739
sig h 739
gu ys</w> 739
bro ke</w> 739
bar er</w> 739
wohn zimmers</w> 739
pon y</w> 739
work shop</w> 739
estab li 739
baumstum pf</w> 739
adul ts</w> 739
ro ts</w> 738
mi ssi 738
te es</w> 738
ver schmu 738
pt ure</w> 738
gele gen 738
erstaun liche</w> 738
philosop her</w> 738
c ate</w> 737
h ahn</w> 737
be stimm 737
pa stell 737
fahr enden</w> 737
ser ves</w> 737
schi enen</w> 737
boar ding</w> 737
quad rat</w> 737
bren nt</w> 737
20 .</w> 737
vogel perspektive</w> 737
verbin dung</w> 737
eishockey spieler</w> 737
s aus 736
an ces</w> 736
or n</w> 736
de ckt</w> 736
ta ssen</w> 736
pa y</w> 736
pa go 736
ber flache</w> 736
spe ct 736
fußball trainer</w> 736
mat ter</w> 736
nu t</w> 736
by rin 736
zimm ern</w> 736
er hebt</w> 735
an kle</w> 735
is m</w> 735
me d 735
bau arbeiter</w> 735
pu g</w> 735
tri o</w> 735
prote sts</w> 735
ed itor</w> 735
mitglie dern</w> 735
geometri sche</w> 735
fit ness</w> 735
valent in 735
combin ation</w> 735
materi alien</w> 735
acry lic</w> 735
wiederbelebungs struktur</w> 735
p x</w> 734
er hell 734
la byrin 734
cu ts</w> 734
vor hang</w> 734
fashi oned</w> 734
typi schen</w> 734
at tered</w> 733
ru sh</w> 733
et wa</w> 733
zu gen</w> 733
lie ß</w> 733
grun de</w> 733
char man 733
sprin g 733
ski fahrer</w> 733
mi scher</w> 732
fu hr</w> 732
mon ster</w> 732
dra ht</w> 732
him mel 732
plat zes</w> 732
star t 732
baum stam 732
explor e</w> 732
geschwi ster</w> 732
ba c 731
wi der</w> 731
hoch ste</w> 731
lux u 731
leg al</w> 731
design erin</w> 731
und ated</w> 731
wech sel 731
destro yed</w> 731
m ama</w> 730
er b 730
ch se</w> 730
en er</w> 730
sin e</w> 730
ben den</w> 730
prasi dent</w> 730
big ger</w> 730
einhei mische</w> 730
sour ce</w> 730
jerse y</w> 730
o hr</w> 729
j am</w> 729
al tar</w> 729
at tempt</w> 729
ge fal 729
cti onal</w> 729
dramati schen</w> 729
klein buchstaben</w> 729
finan z 729
f ed</w> 728
c m</w> 728
be ten</w> 728
ru ft</w> 728
wh ite 728
wo chen</w> 728
che l</w> 728
origin ale</w> 728
fur ther</w> 728
chi ckens</w> 728
bull do 728
p per 727
- kunstlers</w> 727
er klart</w> 727
wa vy</w> 727
ad mi 727
ad venture</w> 727
lie genden</w> 727
wor te</w> 727
let zt</w> 727
stri ert</w> 727
spei sen</w> 727
schnur r 727
500 px</w> 727
ge brau 726
la den 726
to pped</w> 726
par ty 726
ball on</w> 726
mon itor</w> 726
sen s 726
arch a 726
chen den</w> 726
geschaf ten</w> 726
kie sel 726
klu b</w> 726
allo wed</w> 726
well en 726
mea sur 726
x im 725
er ship</w> 725
di stin 725
loc als</w> 725
reg ale</w> 725
wichti g</w> 725
w ri 724
ei ser 724
op tion</w> 724
schu tz</w> 724
spar en</w> 724
eig net</w> 724
wind mill</w> 724
liefer wagen</w> 724
au ction</w> 723
ar mel</w> 723
ge sp 723
ge fugt</w> 723
be qu 723
ma gical</w> 723
bu ste</w> 723
co di 723
film kostum 723
sie ger</w> 723
dan ken</w> 723
bele bten</w> 723
kerami k 723
schlit ten</w> 723
ufer promenade</w> 723
. .</w> 722
la bra 722
clo sing</w> 722
erd geschoss</w> 722
gesi chts</w> 722
home made</w> 722
agri cultural</w> 722
y ou 721
f s 721
on line- 721
nach richt</w> 721
trau me</w> 721
dien st</w> 721
contin ues</w> 721
maß ige</w> 721
ziegel wand</w> 721
technolo gie</w> 721
gum mi 721
mo t 720
jun i</w> 720
plan en</w> 720
inclu de</w> 720
every day</w> 720
dis covered</w> 720
panor am 720
eigent um</w> 720
adverti sing</w> 720
ein fuhrung</w> 719
al ters</w> 719
ei sen</w> 719
ta ille</w> 719
mo ose</w> 719
nach richten</w> 719
off ering</w> 719
ko sten</w> 719
plan ting</w> 719
renov ated</w> 719
lowen zah 719
si eren</w> 718
se itig</w> 718
co tt 718
schi cht</w> 718
sand alen</w> 718
bed ruck 718
gei ge</w> 718
trei bt</w> 718
lein wand</w> 718
tablet- computer</w> 718
emo tional</w> 718
en or 717
auf tr 717
rau ms</w> 717
sport ver 717
anti qu 717
oper ating</w> 717
gesun de</w> 717
tennis spielerin</w> 717
seni oren</w> 717
riesig er</w> 717
a sted</w> 716
gro c 716
pa ckt</w> 716
son g 716
ste adi 716
neu gi 716
flat s</w> 716
mittelalter liche</w> 716
luxurio sen</w> 716
recog ni 716
ch at</w> 715
sch ab 715
be it 715
hochzeit sempfan 715
kurz em</w> 715
meda il 715
heilig en 715
ein iger</w> 714
ur er</w> 714
do cked</w> 714
for dern</w> 714
fil mt</w> 714
vie wing</w> 714
sport anlage</w> 714
box en</w> 714
ed it 714
ferien haus</w> 714
m mt</w> 713
ch ir 713
sch orn 713
ver ur 713
hou sing</w> 713
vor teile</w> 713
sto ßen</w> 713
anim e</w> 713
vil la 713
prote ct</w> 713
digit ales</w> 713
rein deer</w> 713
cell phone</w> 713
p hin 712
gel aden</w> 712
cre ates</w> 712
kat zen 712
besu chte</w> 712
weit eren</w> 712
offent lichkeit</w> 712
kopfhor er</w> 712
wrest ler</w> 712
face book</w> 712
s ma 711
and ers</w> 711
celebr ities</w> 711
ban der</w> 711
ki ckt</w> 711
movi es</w> 711
maß ig</w> 711
defin iti 711
mittl eren</w> 711
in no 710
re presenting</w> 710
sa il</w> 710
hoch sten</w> 710
tran siti 710
schwimm bad</w> 710
neugebor enes</w> 710
lippen stift</w> 710
an wei 709
wa ke</w> 709
pi g</w> 709
fußball team</w> 709
mal erischen</w> 709
hand ler</w> 709
athle tes</w> 709
acce p 709
unterstutz er</w> 709
skulp turen</w> 709
canop y</w> 709
tra f</w> 708
zu falli 708
brin ging</w> 708
smoo th 708
announ ced</w> 708
pow der</w> 708
er schaffen</w> 707
sh ru 707
car ni 707
schu h 707
char ge</w> 707
sol len</w> 707
schon sten</w> 707
blo wn</w> 707
spo t 707
sor te</w> 707
mom ents</w> 707
park bank</w> 707
spun kt</w> 707
st immt</w> 706
ra ces</w> 706
ca pture</w> 706
fla me</w> 706
tur ms</w> 706
vo rort</w> 706
ruck en 706
einkaufs wagen</w> 706
retro- stil</w> 706
wissenschaft ler</w> 706
febru ary</w> 706
be tet</w> 705
wun schte</w> 705
gluhbir ne</w> 705
er fahr 704
di chten</w> 704
ri der</w> 704
football - 704
lay out</w> 704
an gular</w> 703
ma ids</w> 703
ub ungen</w> 703
do se</w> 703
sa ils</w> 703
land kunstler</w> 703
bar k</w> 703
sche me</w> 703
passen den</w> 703
gest ure</w> 703
mi eten</w> 702
ti p</w> 702
kan u</w> 702
sty ling</w> 702
tei g</w> 702
kur ve</w> 702
vis u 702
chan ges</w> 702
stein mauer</w> 702
pil lows</w> 702
archiv foto</w> 702
viol in</w> 702
geometri schen</w> 702
sculp tures</w> 702
embroi dered</w> 702
po ppy</w> 701
fil me</w> 701
ko di 701
regi ster</w> 701
ang st</w> 701
angel es</w> 701
ma i</w> 700
po ppies</w> 700
cro codi 700
kno chen</w> 700
jag t</w> 700
orangefarben e</w> 700
ok tober</w> 700
erhell t</w> 700
ti k</w> 699
ba ked</w> 699
ver mei 699
lan den</w> 699
win dra 699
sin n</w> 699
ze ile</w> 699
ja zz 699
conce ptu 699
bren n 699
oc ca 699
entde cken</w> 699
grundri ss</w> 699
n ation</w> 698
kun gen</w> 698
cha o 698
ier tes</w> 698
gitarri st</w> 698
pfu tze</w> 698
occa sion</w> 698
u f 697
sch ad 697
ent re 697
pe di 697
pol lu 697
beein druck 697
l li 696
ge horen</w> 696
su g 696
mu sk 696
dre sser</w> 696
bet on</w> 696
train iert</w> 696
sten s</w> 696
bal ken</w> 696
schie ß 696
uni versu 696
coo ked</w> 696
spir itu 696
versamm elten</w> 696
flam me</w> 696
17 th</w> 696
conceptu al</w> 696
4 .</w> 695
9 9</w> 695
ar a</w> 695
hor n</w> 695
buro s</w> 695
196 0er</w> 695
bese tzung</w> 695
anan as</w> 695
mo ther 694
bu m 694
son gs</w> 694
kar riere</w> 694
kti ven</w> 694
bede ckten</w> 694
verkehrs schild</w> 694
rett ungs 694
gelegen heiten</w> 694
pi e</w> 693
her stellung</w> 693
sa x 693
nam es</w> 693
sea son 693
kro kodi 693
beam s</w> 693
teenag ers</w> 693
g ged</w> 692
ver wir 692
tra m 692
pro f 692
dr itte</w> 692
fahrzeu gen</w> 692
pl un 692
robo t</w> 692
y ards</w> 691
c able</w> 691
un ded</w> 691
re scu 691
ge ar</w> 691
bu sch</w> 691
pa ssed</w> 691
ig sten</w> 691
bil ls</w> 691
tri bun 691
zie gen</w> 691
rol lt</w> 691
oldti mer 691
residen z</w> 691
gli mp 691
e ur 690
s em</w> 690
t oned</w> 690
6 0</w> 690
ge g 690
lo cken</w> 690
ver folgt</w> 690
ru tsche</w> 690
pa irs</w> 690
wei den 690
mar mor 690
.. ..</w> 690
run ners</w> 690
nu tz 690
ier tem</w> 690
elegan te</w> 690
scen ery</w> 690
profi - 690
golf platz</w> 690
bluh ende</w> 690
ma themati 689
sh ak 689
bri dges</w> 689
isoli erter</w> 689
tou ching</w> 689
grand mother</w> 689
gestrei ften</w> 689
turbin es</w> 689
di gte</w> 688
se emed</w> 688
et ten 688
br illi 688
zu kun 688
cou ples</w> 688
schon em</w> 688
sw im 688
surf brett</w> 688
au ssa 687
ar ed</w> 687
ge wesen</w> 687
ver klei 687
ma is</w> 687
pre sen 687
pu ddle</w> 687
fol ded</w> 687
kla mm 687
geburtstag storte</w> 687
pet als</w> 687
search ing</w> 687
casin o</w> 687
p al</w> 686
el be</w> 686
ra thaus</w> 686
si del 686
wi se</w> 686
fre ig 686
unter kun 686
cre dit</w> 686
nor dlichen</w> 686
cra cked</w> 686
over lay</w> 686
displa ying</w> 686
dramati ker</w> 686
thro nt</w> 686
donner stag 686
marki ert</w> 686
aufkle ber</w> 686
gego ssen</w> 686
chir ur 686
b it 685
ru he</w> 685
bil dungs 685
eri g</w> 685
vol kes</w> 685
run ner</w> 685
nahtlo ser</w> 685
benu tzte</w> 685
ktion s 685
anwei sungen</w> 685
t wil 684
auf s</w> 684
wohn haus</w> 684
dun ne</w> 684
bru cken</w> 684
cra shing</w> 684
fernseh figur</w> 684
stret ched</w> 684
trauri g</w> 684
gestur es</w> 684
beher ber 684
desser ts</w> 684
po or</w> 683
hor ror 683
pat ch</w> 683
wohn bereich</w> 683
roman tische</w> 683
stadt park</w> 683
berg stei 683
cyc ling</w> 683
t liche</w> 682
o ko 682
car ving</w> 682
ten ni 682
produ ced</w> 682
rol ls</w> 682
raff in 682
reve al</w> 682
t witter</w> 681
g ently</w> 681
ro cket</w> 681
lie bt</w> 681
flo at</w> 681
gel d 681
stru kt 681
cam p 681
scha den</w> 681
cap tain</w> 681
einla dung</w> 681
seagul ls</w> 681
sp ur 680
to d</w> 680
hy bri 680
grei fen</w> 680
weath ered</w> 680
9 0s</w> 679
in f 679
en velop 679
ba ss</w> 679
sk ra 679
fin ster 679
ran g</w> 679
sil k</w> 679
plan ning</w> 679
wee ks</w> 679
wu ch 679
mog lichkeiten</w> 679
surf ers</w> 679
penc ils</w> 679
imag ine</w> 679
k ell 678
ar mel 678
mi gen</w> 678
mo hn</w> 678
mo hn 678
for ces</w> 678
fa ch 678
tre ss</w> 678
plan tage</w> 678
bar es</w> 678
ful lten</w> 678
flie ß 678
verlangsam t</w> 678
jahres zeit</w> 678
1 3</w> 677
se wing</w> 677
mo od</w> 677
stu ten</w> 677
stad ten</w> 677
far bt</w> 677
hi kers</w> 677
dri ven</w> 677
steu er</w> 677
di sche</w> 676
clo th</w> 676
pf ing 676
cro ss 676
coun t</w> 676
gru pp 676
glo bal</w> 676
journ ali 676
impre ssion</w> 676
jeman den</w> 676
danger ous</w> 676
st ic 675
lo vers</w> 675
ma chti 675
her zo 675
tur t 675
politi kern</w> 675
form ationen</w> 675
commun ic 675
gin gen</w> 675
race car</w> 675
wegwei ser</w> 675
pfing stro 675
ab schluss</w> 674
kan ne</w> 674
colle cting</w> 674
wander weg</w> 674
volunte ers</w> 674
ro wing</w> 673
ra p</w> 673
se al</w> 673
ko stume</w> 673
schw immer</w> 673
kre ative</w> 673
farb tu 673
rea sons</w> 673
zeitgenossi schen</w> 673
6 0 672
2 00 672
er en 672
aus blicke</w> 672
ex tra 672
zah nar 672
bahn ho 672
shar ing- 672
ingre dient</w> 672
anten nen 672
marath on</w> 672
g l 671
mo we</w> 671
co zy</w> 671
op ted</w> 671
kar o 671
plak ate</w> 671
pflu ckt</w> 671
exclu sive</w> 671
bo ss</w> 670
du o</w> 670
ph ra 670
ex pan 670
grun ge- 670
groß em</w> 670
haupt quarti 670
dor f 670
gegen seitig</w> 670
fruhling shaf 670
explor ing</w> 670
jen igen</w> 670
subje ct</w> 670
eur o</w> 670
3 .</w> 669
na ge</w> 669
go als</w> 669
sonnen blume</w> 669
ger y</w> 669
hei ße</w> 669
poin ted</w> 669
kaffee tasse</w> 669
pickni ck 669
patro l</w> 669
schriftstell ers</w> 669
treat ment</w> 669
ti on- 668
ck ers</w> 668
ver wal 668
pf ir 668
ku li 668
boo t 668
mal er 668
farben er</w> 668
bath rooms</w> 668
guit ar 668
gras bewachsen 668
re tten</w> 667
be ads</w> 667
land schaften</w> 667
plan es</w> 667
regen schir 667
blon den</w> 667
prasi dent 667
guitar ist</w> 667
y - 666
gro ws</w> 666
bu st</w> 666
me mber 666
dar y</w> 666
fore ver</w> 666
contin ue</w> 666
stran ge</w> 666
begle iten</w> 666
chine se</w> 666
schmer zen</w> 666
disab led</w> 666
z ar 665
i k</w> 665
g ste</w> 665
2 5</w> 665
in en 665
er schien</w> 665
pa are</w> 665
lat te</w> 665
bro cken</w> 665
wand elt</w> 665
orangefarben er</w> 665
musici ans</w> 665
schwarz-weiß- foto</w> 665
stim men</w> 665
previ ous</w> 665
detailli erte</w> 665
twil ight</w> 665
in flu 664
mo ps</w> 664
fi x</w> 664
schi ck 664
nahtlo sen</w> 664
haupt schlafzimmer</w> 664
some where</w> 664
west kuste</w> 664
glit ter</w> 664
dreh arbeiten</w> 664
c ation</w> 663
er lau 663
li ck</w> 663
ver lor 663
sh i</w> 663
vie h</w> 663
ac ou 663
ac cent</w> 663
geb er</w> 663
zeu ge</w> 663
pil ze</w> 663
vorder en</w> 663
avo cad 663
foto- sharing- 663
caf es</w> 663
e benen</w> 662
de termin 662
im pact</w> 662
nam ens</w> 662
straßen szene</w> 662
sim ply</w> 662
bio - 662
bogen brucke</w> 662
psychedel ic</w> 662
fu ttern</w> 661
ma ps</w> 661
pa pers</w> 661
her ausge 661
chen de</w> 661
surpri se</w> 661
impre ssive</w> 661
phin s</w> 661
t ine</w> 660
ra il</w> 660
pa in</w> 660
je ep</w> 660
fri schem</w> 660
lei den 660
resu l 660
power ful</w> 660
unterschie dlichen</w> 660
to pus</w> 659
team kollegen</w> 659
mini ster</w> 659
fran zo 659
t ube</w> 658
th ol 658
re gel 658
be et</w> 658
lo we</w> 658
ri ss</w> 658
ri dor</w> 658
ent schied</w> 658
ell em</w> 658
star ker</w> 658
politici ans</w> 658
still leben</w> 658
e cli 657
li mou 657
ta pe</w> 657
ac y</w> 657
cro pped</w> 657
schw ere</w> 657
cti c</w> 657
attrakti ven</w> 657
krei se</w> 657
schur ken</w> 657
embra cing</w> 657
shinter grund</w> 657
w th</w> 656
mi ss 656
fe ed</w> 656
dol phins</w> 656
gesun des</w> 656
congratul ated</w> 656
e pic</w> 655
flu t</w> 655
vekt ors</w> 655
dam age</w> 655
cho se</w> 655
fic tion- 655
rot wein</w> 655
recei ver</w> 655
e ss</w> 654
c amer 654
m men</w> 654
ra y</w> 654
ta kt</w> 654
ent lich</w> 654
wi der 654
bun tem</w> 654
schie den</w> 654
stag es</w> 654
profe ss 654
eigen es</w> 654
spaziergan ger</w> 654
geheim nis 654
- fiction- 653
in flat 653
te al</w> 653
im por 653
wer ks</w> 653
hau be</w> 653
fest tag</w> 653
origin alen</w> 653
geri ssen</w> 653
komple x 653
dedi cated</w> 653
be dur 652
bo o</w> 652
pa vement</w> 652
su shi</w> 652
um schlag</w> 652
den se</w> 652
pol ka</w> 652
interessan te</w> 652
hin wei 651
der en</w> 651
ste ilen</w> 651
kon zi 651
sty le 651
bal anci 651
kam el</w> 651
rol led</w> 651
schri f 651
she p 651
tropi scher</w> 651
kari k 651
es man</w> 651
offiziel le</w> 651
gesam te</w> 651
vergnu g 651
y ers</w> 650
sit es</w> 650
mal t</w> 650
kin ds</w> 650
fol ding</w> 650
kul tur 650
trauri ger</w> 650
korallen riff</w> 650
lowenzah n</w> 650
t was</w> 649
an geln</w> 649
re ct 649
ra n</w> 649
po ps</w> 649
ad ju 649
vie w 649
lin k 649
cu shi 649
fir ma</w> 649
wol le</w> 649
groß mutter</w> 649
stam ps</w> 649
szen erie</w> 649
wet tei 649
tank stelle</w> 649
cook ie</w> 649
acou stic</w> 649
ra ck</w> 648
sta u</w> 648
cu e</w> 648
pol len</w> 648
stop s</w> 648
schmetterlin gen</w> 648
c ents</w> 647
st able</w> 647
at ched</w> 647
ra gen</w> 647
gra v 647
pro zent</w> 647
vol lig</w> 647
cur ren 647
beru hrt</w> 647
num mer</w> 647
iv y</w> 647
high - 647
my self</w> 647
identi fi 647
gra p 646
unter halb</w> 646
ssi ver</w> 646
schne cke</w> 646
beg ei 646
horizon tale</w> 646
neigh bo 646
practi cing</w> 646
schnapp schuss</w> 646
e ze</w> 645
m med</w> 645
j ac 645
ho sts</w> 645
play ful</w> 645
steh ende</w> 645
promin enz</w> 645
kru g</w> 645
zitro ne</w> 645
e chte</w> 644
s in</w> 644
ar rows</w> 644
ne g 644
olo gical</w> 644
tri bal</w> 644
renovi erung</w> 644
t at</w> 643
a verage</w> 643
h ym 643
in su 643
wel ches</w> 643
kor allen</w> 643
pop - 643
water falls</w> 643
kle in</w> 643
irgend wann</w> 643
leit ungen</w> 643
an on 642
ge worden</w> 642
be kleidung</w> 642
te st 642
fe els</w> 642
mon arch 642
wil der</w> 642
kosten lose</w> 642
reali stische</w> 642
rech te 642
pyrami d</w> 642
frie den 642
viney ard</w> 642
er kun 641
ch eln</w> 641
di cken</w> 641
ad y</w> 641
aus rustung</w> 641
tau ben</w> 641
metalli schen</w> 641
rail road</w> 641
flugzeug modell</w> 641
unve iled</w> 641
landwirt schaft 641
franzo si 641
a ther</w> 640
an al 640
re sorts</w> 640
mu de</w> 640
fahr er 640
plat tform</w> 640
bir ch</w> 640
country -pop-kunstler</w> 640
ppen haus</w> 640
recyc led</w> 640
po sen</w> 639
mu m</w> 639
sta che</w> 639
ga sten</w> 639
holz erne</w> 639
kit tens</w> 639
gran ite</w> 639
pha se</w> 639
markt stand</w> 639
skelet on</w> 639
freitag abend</w> 639
rezep te</w> 639
bauf un 639
b ell 638
c alli 638
l eine</w> 638
i an</w> 638
il ien</w> 638
da cher</w> 638
zi vil 638
ex pla 638
flu gel 638
haus ge 638
wasser oberflache</w> 638
fruh morgend 638
luxur ious</w> 638
verlassen es</w> 638
pengu ins</w> 638
heirat et</w> 638
a spe 637
m ert</w> 637
. 000</w> 637
or ium</w> 637
per gol 637
ne o</w> 637
cu b</w> 637
fore sts</w> 637
stan ge</w> 637
don ned</w> 637
lam ps</w> 637
cot tages</w> 637
klar em</w> 637
soci al 637
s wir 636
di verse</w> 636
me aning</w> 636
gan z 636
dun kel</w> 636
carto ons</w> 636
geschafts leuten</w> 636
vis its</w> 636
origin al 636
mun dung</w> 636
tit el 636
servi eren</w> 636
ord nung</w> 636
cran es</w> 636
pfla ster</w> 636
esc al 636
wolkenverhan genen</w> 636
six th</w> 636
n erin</w> 635
k nie</w> 635
ge fullt</w> 635
se as</w> 635
ir y</w> 635
auf stieg</w> 635
pro to 635
zu vor</w> 635
fla chen 635
sto re 635
ty pe 635
water melon</w> 635
spo ke</w> 635
auß er</w> 635
auto fahrer</w> 635
work out</w> 635
partici pants</w> 635
behand lung</w> 635
kuhl schrank</w> 635
sorg fal 635
swin ging</w> 635
ou ter</w> 634
po etry</w> 634
kno ws</w> 634
umar mung</w> 634
modi schen</w> 634
gehir n</w> 634
d on</w> 633
4 0 633
fa bu 633
sin gs</w> 633
pu ppen</w> 633
che cken</w> 633
fun ften</w> 633
ausge zeichnet</w> 633
appar tement</w> 633
kostu men</w> 633
panoram ab 633
ver brachte</w> 632
mo tiv 632
ent gegen 632
pla id</w> 632
flo ats</w> 632
film standort</w> 632
einzigarti gen</w> 632
metro polit 632
entur m</w> 632
a sleep</w> 631
w al</w> 631
v eil</w> 631
an them</w> 631
ge fallen</w> 631
ie - 631
sel y</w> 631
stil vollen</w> 631
contain ing</w> 631
gesun den</w> 631
kontrol le</w> 631
gewon nen 631
finster nis</w> 631
k elt</w> 630
ein fahrt</w> 630
al itat</w> 630
al umin 630
we ste</w> 630
fla min 630
wir st</w> 630
star ten</w> 630
sau le</w> 630
haf en 630
drin nen</w> 630
ahn liches</w> 630
scar ed</w> 630
fahrzeu gs</w> 630
ziegel mauer</w> 630
beil auf 630
spekta kul 630
blu ht</w> 629
wen igen</w> 629
land schaft 629
che cks</w> 629
tou gh</w> 629
glei s</w> 629
as sem 629
w hose</w> 628
arti stic</w> 628
pho to 628
hand le</w> 628
flor ist</w> 628
unbekan nten</w> 628
lieb hab 628
dood le</w> 628
anzei ge</w> 628
de gre 627
str ing</w> 627
wen det</w> 627
sw an</w> 627
hock er</w> 627
sna il</w> 627
call s</w> 627
bilden der</w> 627
plau dern</w> 627
glimp se</w> 627
t in</w> 626
ta xis</w> 626
sig nage</w> 626
bi gen</w> 626
zi g</w> 626
pu sh</w> 626
tu t</w> 626
ster ed</w> 626
mei ste</w> 626
straßen schild</w> 626
liebe s 626
pap a</w> 626
c am</w> 625
5 00</w> 625
< 3</w> 625
re chte</w> 625
ge sto 625
ge ton 625
ck tes</w> 625
mo os</w> 625
gra sses</w> 625
illustr ations 625
stre ss</w> 625
nach ster</w> 625
ce man</w> 625
sie d 625
vent h</w> 625
attemp ts</w> 625
pine apple</w> 625
hochzeitsempfan g</w> 625
inflat able</w> 625
hym ne</w> 625
s ad 624
ver folgen</w> 624
gro wth</w> 624
win z 624
win ners</w> 624
con verti 624
ca des</w> 624
flu cht</w> 624
che fs</w> 624
spla shing</w> 624
part ner 624
gezeich nete</w> 624
compo site</w> 624
ssa al</w> 624
robo ter</w> 624
ursprung lich</w> 624
cinem a</w> 624
diffic ult</w> 624
ge sagt</w> 623
se em</w> 623
de ter</w> 623
war mer</w> 623
war nt</w> 623
unter sucht</w> 623
plan tation</w> 623
woh l 623
suß igkeiten</w> 623
surf ing</w> 623
shak es</w> 623
converti ble</w> 623
s quar 622
t ell 622
un abhan 622
ken nt</w> 622
kro nen</w> 622
außen seite</w> 622
cool e</w> 622
er streckt</w> 621
li zard</w> 621
ge fahren</w> 621
lo ss</w> 621
fo yer</w> 621
gi g</w> 621
fußball ball</w> 621
ari an</w> 621
verkauf s 621
abend kleid</w> 621
rea ches</w> 621
beam te</w> 621
vogel s</w> 621
su ffer 620
gra in</w> 620
bil li 620
vor her 620
land mark</w> 620
premi eren 620
woh nen</w> 620
sur fen</w> 620
fah nen 620
gegen uber</w> 620
klo ster</w> 620
educ ation</w> 620
koloni al 620
swa ying</w> 620
ecli pse</w> 620
konzi piert</w> 620
panoramab lick</w> 620
er kli 619
fe min 619
par alle 619
auf fahrt</w> 619
fra gt</w> 619
ku geln</w> 619
dri vers</w> 619
sea sons</w> 619
nahr ungsm 619
geschenk box</w> 619
beherber gt</w> 619
paralle l</w> 619
in ti 618
ge di 618
mi cal</w> 618
da cht</w> 618
ren e 618
cla sh</w> 618
swe at 618
arbeit s 618
unterstu tzen</w> 618
surf board</w> 618
heiß luftballon</w> 618
power ed</w> 618
dep th</w> 618
ereigni sses</w> 618
farbtu pfer</w> 618
se mi 617
te ter</w> 617
all er 617
par adi 617
war ming</w> 617
ha sen</w> 617
publi shed</w> 617
schauspiel ern</w> 617
ang riff</w> 617
193 0er</w> 617
knei pe</w> 617
schnurr bart</w> 617
st ation 616
al low</w> 616
to wel</w> 616
lan ce</w> 616
ven ten</w> 616
kno ten</w> 616
program ms</w> 616
laun ched</w> 616
eroffnungs zeremonie</w> 616
deck el</w> 616
activ ity</w> 616
zwie beln</w> 616
an ce 615
fu sed</w> 615
ta iled</w> 615
fa ct</w> 615
subur ban</w> 615
atemberauben de</w> 615
syn th 615
ve ctors</w> 614
ger ung</w> 614
film plakat</w> 614
geschi ckt</w> 614
mensch licher</w> 614
stati c</w> 614
carni val</w> 614
u hren</w> 613
an e</w> 613
lo ading</w> 613
ti erten</w> 613
tra kt 613
pi ste</w> 613
hi span 613
kar ten 613
bal let</w> 613
wall ed</w> 613
froh licher</w> 613
cheer leaders</w> 613
reag ieren</w> 613
schwen kt</w> 613
m in</w> 612
sp ices</w> 612
de twas</w> 612
sh rine</w> 612
fe hl 612
dire ctions</w> 612
chan nel</w> 612
cal f</w> 612
stran de</w> 612
meer blick</w> 612
hausti ere</w> 612
inj ury</w> 612
hotel zimmer</w> 612
irgen detwas</w> 612
an chor</w> 611
lo cked</w> 611
me an</w> 611
arti cle</w> 611
ke hren</w> 611
che ckt</w> 611
tri angles</w> 611
berg landschaft</w> 611
trie ben</w> 611
roof top</w> 611
labyrin th</w> 611
3 0 610
ur ies</w> 610
se tzung</w> 610
me sh</w> 610
gra t</w> 610
illustr ated</w> 610
pi x 610
vi es</w> 610
cu pi 610
schw ert</w> 610
form ations</w> 610
fit ting</w> 610
kirsch bluten</w> 610
cockta il 610
bam boo</w> 610
kontin ent</w> 610
brides maids</w> 610
da iry</w> 609
fa ced</w> 609
fi r</w> 609
pol ar 609
ima gin 609
pri e 609
she er</w> 609
viol ette</w> 609
musk eln</w> 609
c one</w> 608
m - 608
un ver 608
li fts</w> 608
si ons</w> 608
sp u 608
le bte</w> 608
clu tch</w> 608
stur mischen</w> 608
reg alen</w> 608
dam m</w> 608
basketball mannschaft</w> 608
pil ls</w> 608
wind schutz 608
bucher regal</w> 608
ware house</w> 608
i son</w> 607
k alli 607
un ited</w> 607
ti res</w> 607
ri ver 607
bal let 607
lil ies</w> 607
bauern markt</w> 607
recei ve</w> 607
gor illa</w> 607
ment ary</w> 607
zel ten</w> 607
prou d</w> 607
bedin gungen</w> 607
g un 606
di ri 606
ver gessen</w> 606
pla cing</w> 606
bri s</w> 606
isoli ertes</w> 606
sle ev 606
pick up</w> 606
farbenfro her</w> 606
militarkommand anten</w> 606
brilli ant</w> 606
be schaf 605
ma il</w> 605
pre ise</w> 605
sti ge</w> 605
kt us</w> 605
kin o</w> 605
luft aufnahmen</w> 605
hon ig</w> 605
eroffn ung 605
zit ate</w> 605
dandeli on</w> 605
fabu lous</w> 605
windschutz scheibe</w> 605
f ter</w> 604
au n</w> 604
sch lich 604
man gro 604
tru th 604
stud ded</w> 604
spit zen</w> 604
jung sten</w> 604
komp li 604
thum b</w> 604
backstein mauer</w> 604
kay ak</w> 604
depart ment</w> 604
verur sa 604
ho ly</w> 603
sh ut 603
gen eri 603
sta ying</w> 603
ger man</w> 603
star tet</w> 603
scho ol 603
ober halb</w> 603
minim al</w> 603
absol venten</w> 603
wri st</w> 603
k ite</w> 602
er zeu 602
or tho 602
di p</w> 602
li sting</w> 602
be haup 602
am bu 602
sk on 602
auf treten</w> 602
so h 602
call ing</w> 602
abenteu er</w> 602
a ssor 601
d ding</w> 601
k lar</w> 601
re qu 601
stra p 601
ku s 601
hand schuhen</w> 601
pin ke</w> 601
schn elle</w> 601
schil des</w> 601
tal ent</w> 601
spar k</w> 601
16 .</w> 601
funktion iert</w> 601
seagul l</w> 601
er zeugen</w> 600
le dge</w> 600
ba ge</w> 600
te sy</w> 600
zu erst</w> 600
ku sch 600
sie he</w> 600
stadt bild</w> 600
kul tur</w> 600
activ ities</w> 600
l ungen</w> 599
er raum</w> 599
and ern</w> 599
sti cking</w> 599
star ren</w> 599
hell es</w> 599
geburtstag s 599
kil ome 599
exerc ises</w> 599
e chten</w> 598
a part</w> 598
ol gemalde</w> 598
wo ven</w> 598
unter kunft</w> 598
over sized</w> 598
ged ul 598
schildk roten</w> 598
geneh mi 598
z ol 597
le gte</w> 597
kno pf</w> 597
cle an 597
bou l 597
gestal tet</w> 597
progre ss</w> 597
mother board</w> 597
limou sine</w> 597
profess or</w> 597
e scape</w> 596
s lu 596
er end</w> 596
ho f 596
ver lieren</w> 596
sk ating</w> 596
pre ci 596
aus schau</w> 596
ni ve 596
sol e</w> 596
bun gal 596
cam els</w> 596
flor ale</w> 596
metall kunstler</w> 596
meister schaften</w> 596
hinzu gefugt</w> 596
avo id</w> 596
confi dent</w> 596
pergol a</w> 596
shut ters</w> 596
d am</w> 595
ein gangs 595
ge eignet</w> 595
ver liert</w> 595
bo b</w> 595
ball ons</w> 595
fis hes</w> 595
ka ktus</w> 595
dam en 595
cour tesy</w> 595
tau be</w> 595
tren digen</w> 595
thro wn</w> 595
metalli sche</w> 595
frei zeit 595
musc les</w> 595
1 , 594
sch wei 594
ag gre 594
wor ter</w> 594
pf ahl</w> 594
dre i</w> 594
che ap</w> 594
ern sth 594
sw ans</w> 594
tack el</w> 594
stret ches</w> 594
t iled</w> 593
d s 593
v s.</w> 593
di ving</w> 593
ve st</w> 593
the ast</w> 593
pu ppe</w> 593
flie gende</w> 593
act ing</w> 593
visit or</w> 593
wichti gsten</w> 593
ferti gt</w> 593
ehr en 593
eisenbahn brucke</w> 593
repe at</w> 593
konzep tu 593
exklu si 593
oldtimer - 593
baufun ktion</w> 593
sp ur</w> 592
illu sion</w> 592
lie bte</w> 592
du st</w> 592
cle arly</w> 592
sem i</w> 592
zun det</w> 592
orangefarben em</w> 592
16 th</w> 592
tanz erin</w> 592
frie den</w> 592
jahri gen</w> 592
e ben</w> 591
in s 591
le mon 591
ha ss 591
bi ge</w> 591
her r</w> 591
mar ked</w> 591
herb s</w> 591
model le</w> 591
meere su 591
song writer</w> 591
aussa h</w> 591
be sitz 590
clo sure</w> 590
hor ns</w> 590
origin ally</w> 590
elefan ten 590
entschei den</w> 590
t ons</w> 589
8 0 589
ru ssi 589
fe h 589
team ed</w> 589
stadi ons</w> 589
roo fs</w> 589
comb ine</w> 589
ulti mate</w> 589
neujahr s 589
ergeb nis</w> 589
tribun e</w> 589
w ho 588
k an</w> 588
re turned</w> 588
re search</w> 588
di sc 588
sp al 588
lan tern</w> 588
con es</w> 588
ken den</w> 588
rel ated</w> 588
ask ing</w> 588
gesund heit</w> 588
fas zin 588
f tige</w> 587
ge he 587
be gluckwun 587
po v</w> 587
mar sh 587
lei st 587
let in</w> 587
politi kerin</w> 587
sy stems</w> 587
fur nis 587
video spiel</w> 587
wettbewer bs</w> 587
cycli sts</w> 587
phra se</w> 587
ste pping</w> 586
pf e</w> 586
bur st</w> 586
roman tisches</w> 586
stil voll</w> 586
photograph ers</w> 586
wein glaser</w> 586
modi scher</w> 586
spat gotische</w> 586
blin d</w> 586
begluckwun scht</w> 586
an kommt</w> 585
la go 585
wa i 585
fra cht 585
water mark</w> 585
cen ter 585
lux us 585
fahrzeu g 585
hintergrund bild</w> 585
renov ation</w> 585
engra ved</w> 585
spielzeu g 585
kaja k</w> 585
lago on</w> 585
a ss 584
c rit 584
i dent 584
sp ag 584
se ele</w> 584
wor l 584
ca sh</w> 584
bi l</w> 584
rau mes</w> 584
baum zweig</w> 584
cab ri 584
bren nen</w> 584
gescho ssen</w> 584
verbin den</w> 584
partici pat 584
u- bahn</w> 584
bescha dig 584
eben falls</w> 584
iri s</w> 584
social ite</w> 584
w ning</w> 583
er hoh 583
or che 583
per len 583
bu bble</w> 583
ent schieden</w> 583
sti ert</w> 583
um gibt</w> 583
pin t</w> 583
up date</w> 583
afar i</w> 583
verste cken</w> 583
care fully</w> 583
brennen den</w> 583
janu ar</w> 583
road side</w> 583
type writer</w> 583
s afari</w> 582
k alte</w> 582
hou se 582
wein berg</w> 582
kranken haus 582
dis cover</w> 582
sper rt</w> 582
mittwo ch 582
modi sche</w> 582
will kommen 582
discu ss</w> 582
senior en- 582
geret tet</w> 582
j ars</w> 581
di et</w> 581
se venth</w> 581
is mus</w> 581
pa pa 581
for malen</w> 581
ga ge</w> 581
feuer stelle</w> 581
happ ily</w> 581
zubere itet</w> 581
meeresu fer</w> 581
e ff 580
b ones</w> 580
a ca 580
ver zwei 580
ss y 580
tra cking</w> 580
met ro</w> 580
bun ny</w> 580
slee k</w> 580
versamm elt</w> 580
ess bereich</w> 580
my th 580
design ated</w> 580
remin ds</w> 580
dah in 580
vul kan 580
ausgestat tet</w> 580
camer as</w> 580
g ilt</w> 579
la g 579
pa ges</w> 579
pi cks</w> 579
mar in 579
mar ine 579
ex it</w> 579
fen sters</w> 579
bar en 579
kop fe</w> 579
over all</w> 579
gemein samen</w> 579
pum ps</w> 579
kle bt</w> 579
abschluss feier</w> 579
blick winkel</w> 579
wood land</w> 579
caus ed</w> 579
opportun ity</w> 579
l erin</w> 578
un ic 578
sch wa 578
du chess</w> 578
min t</w> 578
bah nen</w> 578
smar ag 578
zent rums</w> 578
sei den 578
hard wood</w> 578
gesichts ausdruck</w> 578
disa pp 578
brautjung fern</w> 578
k new</w> 577
sch leu 577
fe ather</w> 577
spor ted</w> 577
fahr radern</w> 577
hi de</w> 577
braun er</w> 577
consi der</w> 577
appli ances</w> 577
t ilt</w> 576
d einer</w> 576
ne st 576
ac cents</w> 576
unter nehmer</w> 576
dr itt 576
schi cke</w> 576
regen bogen 576
fab el 576
environ ment 576
sternen himmel</w> 576
jahre stag</w> 576
purcha sed</w> 576
i - 575
ver stei 575
for get</w> 575
com une</w> 575
.. ....</w> 575
vin ta 575
cli ent</w> 575
soft -rock-kunstler</w> 575
lag une</w> 575
g rie 574
an lagen</w> 574
it ary</w> 574
ck tem</w> 574
bu ff 574
hin aus</w> 574
mu ster 574
gan s</w> 574
foot path</w> 574
tro ub 574
bar be 574
clu bs</w> 574
dol phin</w> 574
schwarz- weißen</w> 574
schein wer 574
conc er 574
mittel punkt</w> 574
emer al 574
progre ssive</w> 574
aktiv itaten</w> 574
passagier flugzeug</w> 574
lecker eien</w> 574
triko t</w> 574
6 th</w> 573
di ves</w> 573
si sters</w> 573
lo u 573
se geln</w> 573
da kte 573
gar n 573
stan der</w> 573
herbst liche</w> 573
sket ches</w> 573
konferen z 573
proble me</w> 573
fußganger brucke</w> 573
herzo gin</w> 573
in die</w> 572
ri chtungen</w> 572
ba king</w> 572
ha i</w> 572
unter richt</w> 572
uber reicht</w> 572
histor isches</w> 572
publi shing</w> 572
braut kleid</w> 572
spiegel bild</w> 572
lay ered</w> 572
combin ed</w> 572
detail aufnahme</w> 572
se ed</w> 571
ih u 571
um rah 571
fla ch 571
ev ent 571
oli ven</w> 571
schi ffen</w> 571
wasser melone</w> 571
durch schnitt 571
militar ische</w> 571
vintage - 571
zel t 571
seni orin</w> 571
approa ches</w> 571
introdu ced</w> 571
real ity 571
gere gt</w> 571
chine si 571
aussicht spunkt</w> 571
n els</w> 570
g gage</w> 570
sch malen</w> 570
lo ves</w> 570
ver stre 570
ab stand</w> 570
me ssen</w> 570
lin g 570
lap tops</w> 570
feu chten</w> 570
can e</w> 570
dinosau rier</w> 570
j am 569
al tem</w> 569
re cy 569
be comes</w> 569
wa scht</w> 569
wa gon</w> 569
gel i 569
dra ws</w> 569
lei chten</w> 569
dan ke</w> 569
kunstl ern</w> 569
bath tub</w> 569
dou gh</w> 569
spre cher</w> 569
demonstr ators</w> 569
froh es</w> 569
obje kt</w> 569
post card</w> 569
rugby - 569
neben einander</w> 569
glitzern den</w> 569
avocad o</w> 569
z om 568
ch in 568
ar ab 568
al teste</w> 568
br aten</w> 568
star ring</w> 568
tru m 568
studi os</w> 568
schlaf zimmers</w> 568
dramati sche</w> 568
cal cul 568
und ati 568
bene fit</w> 568
verschwommen em</w> 568
discu ssing</w> 568
engine er</w> 568
ra m 567
auf geregt</w> 567
yo ung 567
can cer</w> 567
bin o 567
zy lin 567
selts am 567
tape ten</w> 567
appe al</w> 567
deze mber</w> 567
bouti que</w> 567
l ern</w> 566
de u 566
ss els</w> 566
str ate 566
pf ire</w> 566
hand chen</w> 566
tran sit</w> 566
cam pfire</w> 566
hochzeits feier</w> 566
jung frau</w> 566
ham burger</w> 566
employe es</w> 566
beli chtung</w> 566
a sts</w> 565
ge pflanzt</w> 565
pro m</w> 565
zu fugen</w> 565
vi d</w> 565
han de 565
prote ctive</w> 565
trock nen</w> 565
viol et</w> 565
attrakti ver</w> 565
valent ine</w> 565
beweg ungen</w> 565
de jected</w> 564
ver ziert</w> 564
stru ct 564
bar ely</w> 564
geschaf ts</w> 564
cur ious</w> 564
trau ung</w> 564
natur liches</w> 564
contain ers</w> 564
stol en</w> 564
repli ca</w> 564
toten kopf</w> 564
k it</w> 563
mu ddy</w> 563
fa cts</w> 563
mar king</w> 563
rou tine</w> 563
sil l</w> 563
hel den</w> 563
stri an</w> 563
dro pped</w> 563
sal mon</w> 563
que strian</w> 563
lock eren</w> 563
spaziergan ge</w> 563
e questrian</w> 562
do t</w> 562
blu t 562
dr ying</w> 562
em bel 562
kur ven 562
wieder hol 562
mix ing</w> 562
heil ige</w> 562
block iert</w> 562
$ 2 561
re port</w> 561
par rot</w> 561
mat rosen</w> 561
kar ton</w> 561
herbst - 561
blue skunst 561
einkauf stuten</w> 561
gri d</w> 561
ine ss</w> 561
niedri ge</w> 561
fro sty</w> 560
auf geht</w> 560
back pa 560
br unch</w> 560
kan di 560
film schauspieler</w> 560
bahn steig</w> 560
freund schafts 560
enga ged</w> 560
inve stig 560
militari scher</w> 560
re iter</w> 559
di c</w> 559
te tes</w> 559
bu ck 559
bu shes</w> 559
hu te</w> 559
bar bed</w> 559
jo gging</w> 559
gold medaille</w> 559
geno ssen</w> 559
physi cal</w> 559
sprit zer</w> 559
leer zeichen</w> 559
sah en</w> 559
t ents</w> 558
le ss 558
gel blichen</w> 558
unter geht</w> 558
met res</w> 558
flie sen 558
neh merin</w> 558
winter landschaft</w> 558
froh lichen</w> 558
sop hi 558
nieder geschlagen</w> 558
minu ten</w> 558
zentr ale</w> 558
buddh ist</w> 558
e con 557
st ils</w> 557
be an 557
se tzte</w> 557
nah en</w> 557
her stellt</w> 557
gre w</w> 557
ku s</w> 557
197 0er</w> 557
rustik ale</w> 557
verlor en</w> 557
metropolit an</w> 557
sophi stic 557
li me</w> 556
ei de 556
be tritt</w> 556
lo gi 556
wei gh 556
pain ter</w> 556
kir ch 556
sli ced</w> 556
supp lies</w> 556
kul tu 556
scien ce 556
felsi ge</w> 556
whis ky</w> 556
inte gr 556
pengu in</w> 556
en g</w> 555
au ges</w> 555
ra p-kunstler</w> 555
wild flowers</w> 555
national hymne</w> 555
fanta stic</w> 555
brand ung</w> 555
green ery</w> 555
freih eit</w> 555
zebra s</w> 555
an ruf</w> 554
la kes</w> 554
ent it 554
me x 554
gra ve</w> 554
win ken</w> 554
vi erte</w> 554
ki sses</w> 554
teil nehmen</w> 554
stur z</w> 554
num er 554
ziel linie</w> 554
muse ums</w> 554
vorhan ge</w> 554
liber ty</w> 554
ho hl 553
to ol</w> 553
ff e</w> 553
hau ch 553
hock ey 553
prepar ation</w> 553
versch win 553
val ue</w> 553
getran ke</w> 553
selten e</w> 553
schlag zeu 553
riesig es</w> 553
ge klei 552
ge zo 552
la dung</w> 552
ie f</w> 552
iti ve</w> 552
fi ktion</w> 552
vor garten</w> 552
col lar</w> 552
din e</w> 552
stru ck</w> 552
lap top- 552
flie ger</w> 552
peri o 552
dig an</w> 552
ruhi ge</w> 552
develop ed</w> 552
nauti cal</w> 552
re turning</w> 551
di ce</w> 551
di chter</w> 551
de bu 551
jun ction</w> 551
wur f</w> 551
ben de</w> 551
bla s 551
off nung</w> 551
gu ss</w> 551
fruh morgens</w> 551
cy cles</w> 551
schna bel</w> 551
schur ken 551
verlassen e</w> 551
ans wer</w> 551
universu m</w> 551
el fen 550
ge bet</w> 550
hand tuch</w> 550
fru cht</w> 550
tu lip</w> 550
oper n 550
ahn eln</w> 550
k eller</w> 549
al gen</w> 549
el ic 549
um fasst</w> 549
con dition</w> 549
bil l 549
kon sum 549
land ern</w> 549
hor te</w> 549
cro ch 549
[...]
