. 2136125
the 1995603
a 1652853
, 1520740
in 1317434
of 968634
der 918225
auf 710898
on 680243
die 676628
und 579441
and 570299
person 535353
mit 524926
with 481531
ein 409836
- 366542
einem 358554
im 347072
to 338753
an 322425
at 311191
eine 278669
den 277686
for 276809
einer 273346
das 266400
des 256888
dem 250506
von 248096
during 221545
: 217077
fur 211842
eines 199403
is 184400
zu 180507
background 168043
am 164145
wahrend 162870
hintergrund 155433
from 150457
! 149590
ist 147349
white 147238
sie 145401
actor 141508
this 136619
premiere 134461
aus 132659
by 130646
illustration 129947
einen 127515
sich 121967
bei 121873
artist 121030
man 113678
schauspieler 103104
uber 102630
as 102415
player 97448
up 93781
his 93550
view 92564
's 88565
um 86659
football 84538
team 83112
# 81583
weißem 80293
vor 80276
nach 75601
woman 73851
als 73606
was 72558
her 72539
city 72318
i 71786
frau 70974
vector 68638
stadt 67963
young 67366
that 65385
day 65360
against 65134
es 64837
blick 64424
hand 62813
ball 62767
mann 62733
over 62432
ich 62321
it 61990
are 61190
? 60839
film 59273
durch 59008
black 58685
game 58685
you 58568
show 58392
wie 57533
image 57409
zur 56694
gegen 56599
beach 56339
out 55519
people 54976
after 54654
tree 54006
festival 53908
red 53770
girl 53749
wird 53384
zum 52432
attends 52269
model 51617
blue 51004
their 50235
buhne 49253
performs 48551
isolated 47753
water 47565
strand 46479
your 46339
hat 46159
sind 45848
old 45710
photo 45486
fußballspieler 44707
stage 44378
house 44294
wurde 44102
night 44014
match 43979
beautiful 43962
home 43688
room 43424
madchen 43364
er 43361
park 43192
junge 42905
new 42764
fashion 42515
straße 41970
rock 41719
... 41595
into 41560
through 41403
all 41056
be 41018
looking 40525
portrait 40180
tritt 40122
sky 39669
car 39610
ihre 38709
-- 38592
like 38498
close 38098
design 37899
art 37387
front 37140
first 37102
green 36909
my 36750
sitting 36652
menschen 36294
event 36269
time 36094
tag 35979
teil 35692
or 35628
sports 35431
world 35053
style 34763
oder 34459
set 34333
so 34255
werden 34046
made 33941
kommt 33815
have 33526
isoliert 33478
road 33434
vom 33335
haus 33076
one 32898
building 32802
just 32778
himmel 32721
dress 32608
street 32532
winter 32506
wasser 32417
portrat 32386
playing 31992
bild 31959
silhouette 31831
paar 31781
has 31653
little 31210
flowers 31132
small 30550
foto 30467
war 30256
off 30209
besucht 30133
sunset 30057
beim 29999
pop 29742
wedding 29735
pattern 29533
look 29336
down 29295
sea 29292
wenn 29082
field 28920
attend 28901
country 28831
sein 28760
shot 28662
can 28404
sitzt 28384
trees 28361
dog 28349
kann 28164
back 28045
sonnenuntergang 28044
snow 27738
family 27720
how 27557
party 27509
ihren 27340
vektorillustration 27340
river 27308
american 27276
table 27209
dass 27197
business 27180
some 27109
flag 27105
walking 27044
spiels 26920
wind 26825
diese 26700
unter 26525
see 26491
boy 26134
wall 25968
seen 25871
happy 25508
christmas 25487
will 25447
steht 25409
couple 25384
ihr 25318
arrives 25185
muster 25171
before 25155
ihrem 25117
holding 25003
lauft 24971
summer 24895
halt 24832
along 24792
wooden 24699
forest 24657
top 24605
while 24464
love 24399
light 24278
make 24199
wir 24148
cute 24042
around 23936
sign 23831
haben 23826
baby 23698
garden 23612
walks 23499
under 23418
jungen 23338
baum 23112
he 22927
map 22912
nacht 22862
we 22640
fans 22612
large 22585
logo 22499
kunstler 22462
zeigt 22406
weißen 22241
spiel 22213
which 22187
standing 22052
they 22027
awards 22000
biological 21954
glass 21908
hands 21851
dieses 21827
but 21674
auto 21425
our 21383
its 21358
these 21269
not 21261
nahaufnahme 21191
welt 21177
soccer 21164
ersten 21075
training 20944
tv 20905
nicht 20794
high 20478
nimmt 20389
week 20348
meer 20318
aerial 20313
more 20307
text 20305
side 20304
entlang 20251
looks 20245
musical 20234
she 20230
seine 20216
what 20205
dieser 20190
seamless 20065
outside 20006
mountain 19973
nahe 19912
aber 19694
spielt 19646
who 19605
kleinen 19542
garten 19452
morning 19441
statue 19382
fluss 19378
vintage 19358
politician 19355
seinem 19300
form 19228
land 19215
ihrer 19190
diesem 19169
wald 19167
about 19101
near 18979
year 18947
held 18861
bridge 18797
line 18769
hund 18755
yellow 18749
character 18643
pink 18607
part 18557
when 18514
roten 18471
cartoon 18421
sun 18376
group 18353
sehen 18322
basketball 18319
food 18307
schnee 18306
feld 18258
window 18157
athlete 18093
hair 18060
stock 18051
spielen 18008
seiner 18004
-@@ 17999
boat 17976
long 17973
inside 17942
book 17928
runway 17899
gold 17849
popkunstler 17849
lake 17772
clouds 17722
holiday 17698
veranstaltung 17693
live 17670
grass 17639
painting 17608
animal 17526
other 17399
weg 17340
picture 17324
großen 17298
kitchen 17285
tourist 17279
town 17198
colorful 17174
cat 17121
dark 17099
session 17015
full 17010
way 17009
were 17008
species 16978
heart 16943
living 16914
biologische 16876
baseball 16757
familie 16650
alten 16644
sand 16639
big 16550
modern 16529
abstract 16523
actors 16509
celebrates 16508
stil 16365
children 16286
wearing 16223
there 16179
große 16156
wolken 16119
3d 16088
property 16059
leaves 15925
laptop 15874
hard 15827
camera 15822
most 15814
flower 15796
no 15782
may 15760
concert 15699
head 15645
blumen 15626
laufsteg 15626
posiert 15536
spieler 15513
free 15502
symbol 15469
running 15443
ice 15420
autumn 15389
kleine 15350
second 15338
area 15299
floor 15293
smiling 15261
restaurant 15240
get 15223
icon 15215
pool 15207
many 15168
kinder 15160
mannes 15107
tragt 14950
spring 14892
if 14885
katze 14881
feiert 14757
cake 14740
leben 14734
gebaude 14714
; 14682
fenster 14662
face 14660
gras 14645
seinen 14639
players 14611
geht 14601
tisch 14516
goal 14404
take 14399
neuen 14388
gruppe 14373
mountains 14360
round 14360
alle 14358
poses 14342
attraction 14317
tor 14310
nachdem 14292
modenschau 14276
open 14264
season 14262
women 14261
spezies 14239
sonne 14231
schone 14219
above 14195
fall 14164
walk 14149
sportmannschaft 14144
next 14142
politiker 14109
schwarzem 14097
color 14094
machen 14071
video 14047
junger 14042
skyline 14038
horse 14035
kind 14020
kuche 13993
macht 13963
been 13947
market 13853
fahrt 13823
behind 13795
boden 13768
kamera 13738
gesehen 13709
space 13610
landscape 13600
child 13572
office 13456
karte 13451
oben 13446
being 13362
band 13315
s 13305
grunen 13295
liebe 13287
touristenattraktion 13268
konnen 13234
wurden 13179
schonen 13175
sunny 13114
blauem 13109
tennis 13090
traditional 13073
blauen 13068
neben 13048
right 13038
festivals 13019
music 12983
do 12976
covered 12966
kunst 12961
would 12936
neue 12744
flying 12742
mutter 12738
men 12684
using 12669
had 12639
jeans 12639
award 12615
school 12575
different 12530
bride 12489
showing 12479
autos 12452
luftaufnahme 12451
me 12446
gehen 12436
sitzen 12436
here 12375
kleines 12308
poster 12307
fußballmannschaft 12276
left 12251
last 12235
across 12211
together 12211
each 12175
us 12079
blues 12065
kleid 12022
farbe 12019
kommen 12007
having 12001
another 11993
computer 11935
weiße 11873
schwarzen 11805
bar 11765
nehmen 11713
friends 11711
train 11699
work 11699
kuste 11686
mother 11640
bed 11638
seite 11610
baume 11608
hotel 11594
orange 11593
kleiner 11591
coast 11582
end 11581
bright 11565
village 11551
cars 11537
braut 11530
place 11522
ceremony 11501
brucke 11472
working 11447
drawn 11436
life 11363
zeit 11357
action 11349
sale 11339
coffee 11321
female 11302
bedroom 11289
gibt 11275
alte 11215
island 11194
half 11186
wand 11157
landschaft 11148
where 11148
birthday 11140
raum 11133
flagge 11122
stehen 11122
hinter 11113
industry 11110
ship 11094
kopf 11043
du 11011
hauses 10981
opening 10943
sonnigen 10943
lights 10907
uns 10893
location 10851
also 10821
best 10813
buildings 10774
un@@ 10774
card 10745
early 10722
treten 10711
farben 10693
evening 10689
contain 10682
hause 10680
motion 10615
metal 10596
letter 10586
schaut 10575
felsen 10552
frauen 10548
einige 10515
main 10514
national 10495
girls 10480
crowd 10477
preisverleihung 10439
zwischen 10429
bluten 10426
very 10388
fußballer 10386
door 10358
reihe 10354
students 10331
streets 10299
final 10297
bis 10245
anderen 10240
trainingseinheit 10226
automobile 10221
star 10220
blickt 10214
slow 10212
shows 10208
spaziert 10206
hande 10198
boot 10180
ihres 10170
' 10154
besuchen 10146
rain 10144
taking 10137
onstage 10110
instrument 10108
spazieren 10107
teppich 10102
used 10093
golden 10084
jahr 10082
studio 10082
licht 10074
fahne 10064
perform 10057
fire 10050
between 10029
shirt 10013
insel 9997
fotos 9994
organisation 9949
fun 9939
fresh 9938
painted 9938
sieht 9935
carpet 9903
than 9878
pretty 9860
immer 9829
woche 9828
ins 9807
digital 9805
buch 9801
ver@@ 9801
go 9775
stone 9739
auch 9737
ende 9712
good 9711
ge@@ 9704
stand 9692
erste 9633
straßen 9608
fish 9604
play 9592
sehr 9577
away 9545
hatte 9536
phone 9524
sportteam 9518
celebrity 9511
start 9493
ocean 9469
detail 9453
now 9407
bilder 9401
fishing 9385
kids 9377
habe 9374
rote 9341
baumen 9335
air 9319
wohnzimmer 9315
bank 9307
structure 9275
gesicht 9262
pferd 9246
meine 9223
classic 9220
4k 9217
them 9212
zuruck 9212
photos 9195
drawing 9188
geschaftsmann 9187
shape 9183
& 9175
station 9175
path 9171
essen 9152
smartphone 9152
matches 9147
director 9144
flat 9142
any 9128
colors 9118
cup 9117
junges 9111
making 9100
halten 9099
only 9089
floral 9086
bergen 9082
hochzeit 9061
wood 9050
feiern 9031
filming 9007
boys 8964
celebrate 8893
baseballspieler 8891
great 8877
bewegung 8873
waves 8856
police 8846
state 8842
church 8827
zimmer 8825
taken 8818
number 8806
performance 8794
mensch 8789
mich 8762
guitar 8745
etwas 8725
display 8711
weiß 8700
still 8689
noch 8688
banner 8644
pose 8644
herbst 8636
mannschaft 8634
an@@ 8632
much 8627
madchens 8620
wild 8602
region 8600
mein 8581
zweiten 8568
paper 8560
could 8550
manner 8547
t 8539
boats 8535
center 8534
bus 8531
military 8517
diesen 8502
sunrise 8502
shopping 8488
type 8472
want 8471
images 8467
riding 8465
moon 8450
pair 8443
ready 8442
blueskunstler 8435
comedian 8435
takes 8422
series 8419
schild 8417
plants 8411
businessman 8404
rahmen 8377
going 8376
konzert 8371
interior 8360
lapse 8319
filmfigur 8316
schwarze 8304
lying 8284
colored 8283
olympic 8282
circle 8273
modewoche 8264
scoring 8263
built 8246
use 8238
makes 8236
arrive 8215
coach 8211
box 8193
collection 8193
cover 8183
ab 8178
male 8157
every 8156
eyes 8133
cricket 8127
kirche 8118
site 8116
farm 8102
gray 8093
tochter 8080
store 8062
pflanzen 8040
plant 8023
aktion 8012
glasses 8003
low 8002
morgen 7979
platz 7957
roof 7957
augen 7947
stars 7937
inning 7919
hot 7916
hafen 7893
nur 7885
mehr 7844
deck 7838
branch 7830
urlaub 7830
royalty 7828
movie 7818
frame 7812
stands 7804
driving 7789
towards 7789
sonnenaufgang 7776
ring 7767
hut 7764
liegt 7761
square 7756
hier 7744
sits 7741
featuring 7723
eating 7716
tropical 7711
outdoor 7702
sommer 7700
scene 7690
fuhrt 7684
schatten 7661
ground 7657
hockey 7657
runs 7655
hanging 7654
studenten 7651
daughter 7643
walls 7635
archivbild 7624
vogel 7611
glas 7605
traffic 7598
viele 7577
past 7575
late 7574
komiker 7559
bathroom 7542
regen 7539
shoes 7538
jahren 7535
nahtloses 7525
singer 7522
tablet 7502
got 7495
leader 7494
too 7492
footballer 7481
andere 7478
landkarte 7476
fan 7469
schlafzimmer 7468
zusammen 7459
alles 7457
gitarre 7446
lot 7443
letzten 7428
brown 7420
außerhalb 7412
ab@@ 7397
dining 7397
markt 7396
bett 7392
ohne 7392
spricht 7386
pictured 7383
tour 7383
houses 7372
theater 7368
moving 7364
fotografiert 7344
freien 7341
texture 7340
middle 7336
photograph 7334
suit 7329
empty 7313
herz 7283
warm 7279
waren 7269
tragen 7263
weihnachtsbaum 7252
wine 7236
rugby 7213
watch 7210
touristen 7187
even 7137
apartment 7119
cafe 7103
funny 7082
swimming 7066
need 7063
buro 7056
pass 7055
rosa 7020
volker 7006
waving 6998
simple 6996
century 6994
purple 6977
animals 6949
ten 6935
stuck 6911
designer 6909
surface 6907
general 6903
nahtlose 6901
construction 6899
tourists 6892
press 6891
natural 6883
be@@ 6870
western 6870
bench 6866
kreis 6859
grey 6851
entrance 6848
sofa 6825
museum 6824
alter 6816
rocks 6812
cut 6811
eye 6806
preisverleihungen 6806
bird 6801
wo 6796
langen 6788
luft 6786
weißer 6781
/ 6771
growing 6769
lines 6769
hugel 6768
arbeit 6765
bunten 6763
shop 6750
talking 6748
musikinstrument 6747
well 6747
getting 6745
groom 6740
verkauf 6737
ort 6736
dabei 6726
er@@ 6726
golfer 6720
genießen 6713
holz@@ 6707
ufer 6700
voller 6692
race 6689
dogs 6682
lachelt 6671
roter 6666
pond 6652
senior 6650
truck 6616
special 6590
ein@@ 6584
jetzt 6571
tur 6554
example 6545
details 6532
enthalten 6523
herzen 6520
tattoo 6497
dach 6495
plays 6487
bottle 6462
father 6450
local 6450
reading 6449
struktur 6448
parade 6443
bear 6427
gut 6425
found 6423
amerikanische 6413
waiting 6411
wellen 6408
arbeitet 6391
industrie 6384
beispiel 6374
fest 6372
beauty 6371
inneren 6370
couch 6369
meadow 6361
private 6359
board 6347
großer 6345
abstrakte 6339
vektor 6330
today 6322
schon 6321
paint 6304
pitch 6301
idea 6300
heavy 6291
dressed 6284
bag 6283
cricketspieler 6282
both 6273
besten 6253
tower 6251
schwarzer 6248
birds 6233
ihn 6224
grunem 6212
re@@ 6208
leather 6194
own 6193
geschaft 6191
lacheln 6186
grune 6179
fahren 6176
weltpremiere 6161
auf@@ 6160
fahrrad 6144
few 6139
concept 6132
heute 6122
fliegen 6121
soft 6118
kaffee 6113
spaß 6109
third 6109
fallen 6105
wirft 6105
located 6098
badezimmer 6096
mitte 6090
zug 6080
him 6079
interview 6079
hoch 6076
trail 6076
chair 6068
find 6057
vater 6055
anzug 6054
darauf 6053
schauen 6048
palm 6036
version 6036
digitale 6028
original 6026
shore 6025
hip 6004
storm 6003
textur 5995
globe 5993
lange 5993
hinunter 5982
centre 5968
ihnen 5966
blute 5955
religious 5955
kampf 5950
flugzeug 5947
gluckliche 5947
mag 5947
te 5947
bereit 5944
laufen 5934
run 5932
aircraft 5931
hop 5924
members 5919
wife 5914
conference 5913
put 5912
ahead 5910
freunde 5905
arbeiten 5896
category 5895
fence 5888
modernen 5884
stadium 5878
christian 5868
feature 5863
hauser 5863
touchdown 5839
meinem 5838
hemd 5835
weht 5830
public 5825
fast 5823
tasse 5823
silver 5817
hohe 5815
brautigam 5811
neues 5811
gebaudes 5806
looked 5806
designed 5803
ancient 5795
never 5783
saturday 5781
ozean 5771
nice 5763
fruit 5750
plate 5750
single 5750
aus@@ 5748
bau 5743
basket 5737
finden 5731
cool 5723
horses 5701
zeigen 5700
spitze 5683
windows 5683
wide 5681
mir 5659
dish 5652
website 5643
photographed 5635
celebration 5632
blattern 5623
clear 5623
bevor 5616
took 5614
screen 5599
rotem 5598
vegetables 5597
friday 5596
sportler 5595
verschiedenen 5590
bunte 5578
berg 5574
then 5572
ansicht 5567
villa 5559
mobile 5551
abend 5550
tiere 5549
filmregisseur 5543
films 5543
add 5538
setting 5530
lady 5525
saison 5524
wiese 5517
visit 5501
performing 5499
kuchen 5498
sanger 5494
something 5488
drinking 5479
brick 5478
nature 5476
jacket 5469
jedes 5464
schauspielerin 5462
moment 5456
schuss 5456
flight 5452
kleider 5452
easy 5445
konnte 5436
decorated 5433
meiner 5430
hill 5420
musikkunstler 5418
author 5415
aussicht 5404
handen 5403
dinner 5398
trip 5394
short 5393
umgeben 5384
menge 5376
without 5376
exterior 5374
piece 5374
watching 5374
sunday 5370
shadow 5368
ever 5367
zeichen 5366
haar 5365
fliegt 5344
among 5335
gets 5333
enjoying 5332
backstage 5313
campus 5309
desert 5305
teller 5301
unsere 5298
aussehen 5296
meeting 5288
keine 5278
rund 5275
boxer 5272
sieg 5270
posieren 5263
bowl 5258
winner 5254
son 5240
jahrhundert 5239
berge 5238
cross 5231
company 5227
en 5227
leaf 5226
holds 5220
same 5219
double 5212
halfte 5211
runde 5211
noble 5209
monarch 5193
links 5190
money 5188
range 5188
decke 5177
eingang 5172
tier 5172
gift 5168
vielen 5167
quarter 5155
selected 5136
ideas 5132
volk 5130
zeichnung 5130
kindern 5126
schule 5126
gemuse 5124
spielend 5123
unten 5123
ausgewahlt 5118
historic 5118
m 5109
haare 5102
famous 5101
bicycle 5098
're 5093
lassen 5084
teams 5083
kein 5082
jeden 5080
outfit 5076
friend 5074
pflanze 5071
things 5070
know 5053
help 5045
zeremonie 5040
holz 5039
benutzt 5031
warten 5025
bouquet 5018
schuhe 5013
really 5008
ausstellung 5001
puppy 4996
afternoon 4994
perfect 4993
retro 4992
battle 4988
north 4988
papier 4986
edge 4985
real 4966
rhythm 4963
sport 4962
olympiateilnehmer 4955
create 4950
onto 4948
winning 4940
brand 4932
pictures 4932
pitches 4932
chef 4919
earth 4918
rendering 4915
blauer 4907
menschenmenge 4906
goes 4894
temple 4886
coat 4881
pier 4878
hardrock-kunstler 4870
cloudy 4862
luxury 4862
bedeckt 4859
branches 4855
~ 4854
boots 4852
organization 4851
years 4850
ganzen 4849
views 4848
draußen 4840
arm 4838
wear 4832
doing 4830
feier 4827
because 4823
tee 4818
try 4817
linien 4810
south 4800
geschichte 4798
trug 4797
magazine 4796
schließen 4795
done 4788
greeting 4788
arms 4784
textured 4781
trainer 4776
class 4770
schoner 4766
linie 4761
verschiedene 4761
'm 4756
always 4754
footage 4753
those 4749
vehicle 4746
human 4744
cold 4739
signs 4738
soldaten 4732
falling 4727
liest 4724
designs 4720
point 4719
indem 4718
sah 4716
dunklen 4712
surfer 4708
come 4704
fireworks 4699
grund 4697
los 4691
großes 4684
tea 4683
following 4681
schiff 4681
verwendet 4681
bin 4680
wirklich 4680
treffen 4674
erde 4673
drink 4672
hangen 4669
romantic 4668
bringen 4667
speaks 4666
nachts 4653
league 4651
feiertag 4650
gipfel 4650
tropischen 4650
huge 4647
think 4641
row 4630
dance 4629
popular 4629
sohn 4626
flusses 4624
rennen 4620
automobil-modell 4617
sicht 4613
feuer 4612
books 4604
launch 4604
clock 4603
plan 4601
surrounded 4594
selbst 4591
wuste 4584
zuhause 4579
hunde 4575
attractive 4572
beinhalten 4572
screening 4568
jeder 4562
tall 4557
keep 4553
sketch 4550
rhythmus- 4543
fruhling 4533
spaziergang 4531
wieder 4531
coming 4528
name 4527
szene 4525
freund 4524
wohnung 4524
beer 4522
£ 4521
print 4517
fireplace 4516
desk 4512
mond 4508
project 4508
gown 4505
dorf 4503
crossing 4502
enjoy 4489
bauen 4488
trinkt 4485
natur 4474
geburtstag 4460
korb 4458
figur 4452
rucken 4443
said 4443
hip-hop-kunstler 4440
dollar 4437
rockkunstler 4435
icons 4434
lila 4433
distance 4422
jahre 4418
valley 4415
leading 4410
angle 4408
wartet 4408
blatt 4403
better 4401
festes 4396
konzerts 4396
shaped 4396
in@@ 4392
banners 4390
castle 4384
floating 4383
blatter 4381
flags 4378
finger 4367
mal 4353
features 4350
altes 4347
ride 4334
goldenen 4327
jumping 4326
capital 4322
ziehen 4322
step 4321
drehort 4317
inspired 4316
tun 4313
basketballspieler 4312
personlich 4312
electric 4311
musik 4307
schwarz 4307
yoga 4302
erzielt 4298
springt 4298
oberflache 4295
sculpture 4292
cottage 4288
golf 4277
friendly 4274
uber@@ 4272
wore 4270
smile 4269
ter 4260
manager 4252
models 4249
viel 4239
unser 4238
umbrella 4235
ceiling 4233
student 4229
page 4227
jede 4221
plane 4221
dry 4220
known 4219
rasen 4216
several 4216
mauer 4213
parked 4204
brille 4203
weißes 4200
3d-illustration 4198
ware 4195
elements 4191
oil 4187
flasche 4185
fiction 4179
prior 4175
waterfall 4173
dancing 4169
should 4164
beobachtet 4163
geometric 4161
tes 4159
give 4158
sweet 4154
tages 4154
hohen 4152
wallpaper 4152
boote 4151
fields 4147
samstag 4143
grauen 4138
file 4134
casual 4133
facade 4130
bauernhof 4122
flachen 4120
tempel 4119
unserem 4119
candles 4118
vor@@ 4118
corner 4117
glaser 4117
pine 4114
decorative 4113
favorite 4112
wave 4106
balloons 4105
modell 4105
rest 4104
innenraum 4099
% 4094
teich 4092
gelben 4085
versucht 4084
program 4083
once 4081
date 4076
steps 4064
um@@ 4064
baumes 4062
blog 4061
planet 4061
lieben 4059
$ 4058
sunglasses 4058
busy 4053
filled 4053
media 4053
soldiers 4047
haaren 4043
stuhl 4043
zoo 4043
pizza 4042
symbols 4041
abandoned 4038
west 4037
abbildung 4034
body 4034
carrying 4030
wachsen 4027
web 4027
sleeping 4024
kerzen 4023
dead 4022
size 4022
competition 4020
port 4018
s@@ 4018
nebel 4013
guard 4012
build 4011
've 4008
watercolor 4006
doors 4005
breakfast 4004
vintage@@ 4004
zieht 4004
muss 4002
nie 4001
schreibtisch 3996
annual 3994
stadion 3994
pressekonferenz 3987
uhr 3981
call 3979
including 3978
written 3976
deep 3974
countryside 3969
rot 3969
weather 3968
airplane 3960
wunderschonen 3959
various 3957
reagiert 3954
guest 3952
visual 3950
seines 3947
break 3946
roses 3945
weekend 3945
en@@ 3939
folk 3938
outdoors 3935
moderne 3930
fog 3928
republic 3923
zentrum 3918
geld 3916
monday 3916
comedy 3914
dresses 3913
games 3912
ornament 3910
rear 3904
super 3901
figure 3900
hills 3898
sommertag 3897
why 3896
former 3895
hit 3895
genus 3894
period 3893
schonheit 3893
stairs 3888
giving 3887
clothes 3885
passing 3884
architecture 3883
bad 3879
ferne 3879
feet 3876
community 3874
feuerwerk 3868
woods 3867
chairs 3863
comic 3859
furniture 3857
hearts 3855
kunstlers 3854
does 3853
flaggen 3851
football-spieler 3851
bow 3849
guests 3849
flug 3848
recipe 3848
idee 3844
sheep 3841
font 3834
athlet 3833
wheel 3831
bekommen 3827
historischen 3821
guy 3819
hof 3819
animation 3818
pitcher 3807
bahnhof 3803
schwimmen 3803
ed 3802
vektorsilhouette 3801
plakat 3795
scores 3794
snowy 3792
plastic 3791
stylish 3785
days 3781
filmpremiere 3780
lebensmittel 3780
fließt 3776
tunnel 3776
gattung 3775
costume 3774
sure 3773
turn 3773
grun 3772
kleidern 3770
motorcycle 3770
fuhren 3769
lustige 3768
traditionellen 3768
finale 3767
sit 3767
palmen 3766
altstadt 3765
metall@@ 3765
below 3761
sonntag 3757
eis 3756
indoor 3750
tiny 3750
garage 3748
pferde 3747
smiles 3744
geben 3743
did 3736
works 3736
tuesday 3735
airport 3733
reacts 3733
wasser@@ 3730
bekannt 3727
harbour 3726
professional 3721
butterfly 3718
mantel 3711
uk 3711
dritten 3708
typical 3706
stream 3704
artists 3703
beside 3699
yard 3699
hole 3695
befindet 3694
bay 3693
unterwegs 3691
unserer 3687
geographical 3685
tiger 3685
win 3685
homes 3684
allen 3683
blaue 3683
wheat 3682
jahres 3680
story 3680
cream 3679
dies 3675
ihm 3675
blowing 3674
voll 3670
e 3668
passes 3666
wednesday 3663
rocky 3659
check 3657
tournament 3646
broken 3644
sagt 3644
clipping 3641
smart 3638
sommerlichen 3634
regenschirm 3631
railway 3630
fassade 3629
neighborhood 3628
protest 3620
ruins 3620
fisch 3619
abbild 3618
wer 3618
power 3617
comes 3614
basketballspiel 3604
relaxing 3604
schones 3593
highway 3592
throws 3592
thursday 3590
wanden 3587
rosen 3585
sollte 3585
katzchen 3582
practice 3581
ent@@ 3575
bewegt 3574
auftritt 3573
wasserfall 3571
suche 3569
trophy 3569
abstrakter 3567
chocolate 3565
vorbei 3564
restaurants 3562
international 3556
created 3555
month 3555
sammlung 3552
grauem 3551
tips 3551
lit 3549
stop 3547
goldene 3545
verkehr 3544
rechts 3542
resort 3538
rainbow 3534
besucher 3532
personen 3532
extra 3531
fallt 3530
wunderschone 3530
silhouettes 3523
college 3522
lesen 3522
aller 3521
kamin 3521
rural 3520
vase 3520
babys 3518
resting 3518
autor 3517
commander 3511
steel 3510
giant 3508
sold 3507
ribbon 3506
sad 3500
rotes 3499
zu@@ 3495
traditionelle 3494
gives 3493
paares 3492
beste 3490
pfad 3483
handy 3481
glucklichen 3479
zaun 3478
freitag 3476
mode 3474
balcony 3471
gluckliches 3470
gruner 3469
lugt 3468
uniform 3466
crowds 3465
eggs 3463
tasche 3462
sonnenbrille 3459
freunden 3458
kollektion 3458
ast 3455
deer 3455
district 3452
offenen 3450
architektur 3449
internet 3443
hospital 3442
leaving 3441
bereitet 3440
dock 3437
east 3435
hold 3433
online 3433
let 3428
healthy 3427
championship 3423
bike 3421
letzte 3421
polizei 3421
block 3419
ecke 3411
holztisch 3408
luftballons 3406
cartoon-illustration 3396
hang 3396
ruinen 3396
club 3395
stall 3391
cloud 3388
parking 3388
loch 3386
waters 3386
arten 3385
gaste 3380
border 3373
schussel 3372
fruits 3371
finish 3370
arbeiter 3367
feel 3367
gym 3367
haupt@@ 3366
antiken 3365
theatre 3365
forward 3364
glucklicher 3363
shoulder 3363
klassischen 3359
wochenende 3359
fly 3358
base 3357
bringt 3353
drops 3350
called 3344
garment 3344
overlooking 3343
schritt 3339
* 3338
balkon 3338
fruhen 3337
sunlight 3334
mochte 3333
vektor@@ 3333
nachbarschaft 3329
contemporary 3328
system 3328
hangt 3326
stern 3324
verwenden 3320
antique 3319
watches 3319
tapete 3317
burning 3316
shown 3314
chic 3313
mixed 3313
viewed 3313
mitglieder 3311
fountain 3308
bucht 3307
grunge 3305
grill 3302
werfen 3298
vehicles 3296
deity 3293
lawn 3293
treppe 3292
weil 3292
aussieht 3291
beobachten 3289
schießt 3289
einfach 3288
graffiti 3286
foot 3285
herbstlichen 3283
jedem 3282
republik 3281
auge 3276
schlaft 3275
sailing 3273
flache 3269
elderly 3268
apple 3267
dich 3267
smoke 3267
verlassen 3267
leg 3265
history 3262
legs 3261
clip 3256
level 3255
skirt 3255
da 3253
gericht 3251
gefunden 3250
metallic 3249
producer 3247
herum 3246
helicopter 3244
'll 3242
sandy 3241
trifft 3241
blonde 3236
eltern 3236
personality 3234
cocktail 3232
drama 3231
heimat 3227
hellen 3226
nest 3225
library 3222
wetter 3222
genießt 3220
civil 3216
says 3216
dinge 3214
fit 3213
ging 3212
malerei 3207
skulptur 3207
schneebedeckten 3204
fußballspiels 3203
master 3203
sagte 3197
angeles 3194
flughafen 3194
flowing 3193
genre 3190
tie 3189
isolierten 3187
bildschirm 3178
skizze 3177
fictional 3176
schrift 3176
barn 3175
feiertage 3173
cruise 3172
grußkarte 3169
stellen 3169
anniversary 3167
based 3165
meinen 3164
mirror 3163
won 3163
denen 3161
travel 3160
serien 3158
akteur 3157
dusk 3157
schwimmt 3156
reflection 3152
section 3150
sandstrand 3148
teenage 3148
aufgenommen 3147
fußballspiel 3144
unique 3142
elephant 3140
album 3139
fuhrer 3138
lasst 3135
lunch 3135
l 3131
mouth 3127
verlasst 3127
eat 3125
must 3125
fische 3124
dann 3123
composer 3121
tal 3121
konzept 3116
satz 3115
bier 3113
putting 3112
direkt 3111
veranda 3110
pile 3109
product 3109
via 3107
3 3106
biologischer 3105
trinken 3103
kitten 3102
frei 3095
graduation 3095
such 3095
change 3089
herd 3089
lost 3087
autobahn 3081
concrete 3081
driver 3081
parents 3079
victory 3078
1 3077
weihnachten 3077
brunnen 3076
allgemeine 3075
clean 3075
gelbe 3074
lead 3073
yacht 3070
cutting 3066
gallery 3066
hall 3065
preis 3064
urban 3062
move 3061
sonnenlicht 3061
fuß 3059
blume 3055
dancer 3053
vs 3049
zweig 3045
future 3043
official 3038
available 3037
focus 3037
dunklem 3035
hatten 3035
urauffuhrung 3035
mehrere 3031
whole 3031
symbole 3030
job 3029
tanzer 3025
went 3025
fahrzeug 3023
mussen 3022
post 3021
scheint 3021
vs. 3020
schlagt 3019
word 3019
formen 3017
organisationsleiter 3008
turm 3008
leeren 3007
trophae 3007
lovely 3006
performt 3006
rustic 3005
bewolkten 3004
far 3001
visitors 2999
musician 2997
played 2997
shower 2996
amerikanischer 2995
bronze 2995
patterns 2995
einigen 2994
verkauft 2993
liegen 2992
leere 2984
kaufen 2982
pointing 2979
schaffen 2979
welpe 2978
cats 2975
theme 2973
orangen 2970
viertel 2968
elegant 2967
novelist 2966
umgebung 2966
abstrakten 2963
bags 2962
gold@@ 2961
kleidung 2960
support 2954
suße 2951
wears 2949
bucher 2948
led 2947
riesigen 2942
isst 2941
two 2940
sees 2938
bit 2937
blurred 2934
allein 2933
trying 2933
einfache 2930
glucklich 2930
key 2929
fußball 2927
drive 2926
gottheit 2923
posing 2922
eigenen 2920
transparent 2920
exhibition 2919
thema 2919
grand 2914
graphic 2914
lots 2914
shiny 2914
bibliothek 2913
mogen 2909
audience 2907
ganze 2907
bring 2906
geschaftsfrau 2906
frozen 2905
lichter 2905
tafel 2905
gate 2904
ideen 2903
kinder@@ 2901
nationalflagge 2901
damit 2899
silhouetten 2896
unternehmen 2895
vordergrund 2894
b 2892
within 2890
) 2888
service 2888
narrow 2887
betrachtet 2885
english 2885
closed 2884
chicken 2883
illustrations 2883
hits 2882
pieces 2881
automotive 2879
bottles 2876
ripe 2876
soll 2876
cast 2874
bottom 2873
swing 2872
bold 2870
ruckseite 2870
teilen 2870
fourth 2869
bereich 2867
mates 2866
colourful 2865
workers 2865
stunning 2864
hundes 2862
blank 2861
height 2861
frische 2859
photography 2856
helfen 2855
dramatic 2854
march 2854
festtag 2853
touch 2853
gute 2851
camp 2850
lkw 2849
c 2843
planeten 2842
foreground 2841
colour 2839
weihnachts@@ 2836
großte 2832
ob 2832
alone 2831
nichts 2831
shooting 2831
variety 2830
test 2829
abendessen 2828
lernen 2827
sides 2827
selling 2826
husband 2823
celebrating 2822
donnerstag 2822
gothic 2822
welpen 2822
landstraße 2821
tipps 2817
musikinstruments 2815
sicher 2815
track 2814
rice 2813
abenddammerung 2812
bach 2812
tatowierung 2812
buchstaben 2804
coral 2804
entfernt 2803
hoch@@ 2803
balloon 2800
gebaut 2800
schwarzes 2800
homepage 2799
ers 2798
quality 2798
sharing 2794
stained 2791
host 2790
study 2789
creative 2788
save 2788
times 2788
label 2785
ways 2782
musiker 2781
jacke 2779
almost 2776
a@@ 2774
nachthimmel 2773
medieval 2771
handgezeichnete 2769
strong 2769
residential 2768
wandern 2765
nothing 2764
porch 2761
king 2758
i@@ 2756
arriving 2755
meal 2755
read 2755
lachelnden 2752
ern 2747
canal 2746
themed 2746
bauten 2744
schleife 2739
queen 2735
stein@@ 2735
lined 2733
prominente 2732
bewegen 2730
straight 2728
drives 2727
hauptstadt 2724
di@@ 2722
medical 2722
came 2721
parish 2720
force 2719
einfachen 2717
guide 2717
t@@ 2716
zweite 2716
nettes 2715
rainy 2715
schlange 2715
strauß 2713
landes 2710
piano 2710
someone 2708
schuler 2706
turned 2705
course 2703
route 2702
gardens 2699
trunk 2699
geschaftsleute 2697
st 2696
tractor 2695
flock 2693
lichen 2691
karikatur 2688
less 2688
wesen 2688
again 2686
katzen 2686
catch 2685
wreath 2684
wachst 2679
de@@ 2678
grau 2678
lage 2678
mittwoch 2676
fruchte 2675
ing 2675
soldier 2675
dekoration 2674
menschenmassen 2674
webseite 2674
appears 2673
photographer 2672
streifen 2672
menswear 2671
drone 2670
neuer 2667
pro 2666
presents 2665
presentation 2664
skull 2664
lighthouse 2663
rosafarbenen 2662
zahl 2662
grainy 2660
writing 2659
modernes 2658
welcome 2653
saw 2652
thing 2652
teenager 2651
spotted 2649
geparkt 2645
uberquert 2645
court 2641
neu 2640
position 2639
summit 2635
industrial 2631
2 2629
perfekt 2629
welle 2629
largest 2628
weiter 2628
gen 2626
bodies 2623
cliff 2621
fabric 2621
soul 2621
falls 2620
preparing 2618
gang 2617
reception 2617
rides 2617
komponist 2616
uberqueren 2615
vektorkunst 2610
klaren 2607
length 2604
vacation 2604
rooms 2602
striped 2602
amazing 2600
founder 2599
speech 2598
sagen 2597
wein 2596
invention 2595
faces 2594
worn 2594
leads 2593
ruht 2592
since 2592
heads 2590
motorrad 2590
montag 2589
pouring 2589
besuch 2588
grazing 2587
places 2587
rennt 2584
titled 2584
decorations 2583
hutte 2581
message 2579
patio 2578
prasentiert 2575
entworfen 2574
reflected 2573
trendy 2573
cherry 2571
em 2571
spiegel 2570
rough 2567
doctor 2565
draw 2560
mini 2560
namen 2560
3d-@@ 2559
leicht 2559
allgemeiner 2558
cupcakes 2558
tanzen 2558
umarmt 2557
bald 2556
beard 2556
telefon 2552
sten 2551
holzernen 2548
lace 2547
solar 2547
erstes 2546
words 2545
millionen 2544
printed 2542
gezeigt 2541
rising 2541
balls 2540
fruhstuck 2540
apfel 2538
artwork 2538
depicting 2538
frisch 2538
niedlichen 2538
arch 2534
buy 2534
passengers 2533
sets 2533
ski 2532
hinauf 2531
television 2530
estate 2528
instead 2527
isolierte 2527
sitzend 2526
government 2522
iron 2522
herzform 2520
realistic 2519
telefoniert 2519
wings 2519
dunkelheit 2517
klasse 2517
parkplatz 2517
cap 2516
blackboard 2514
classroom 2514
geschenk 2514
großbuchstaben 2514
pumpkin 2514
auswahl 2513
seiten 2512
o@@ 2510
fuße 2509
warmen 2509
production 2508
zeichnet 2506
gemacht 2504
complete 2503
wissen 2503
aged 2502
atmosphere 2501
personal 2501
rauch 2501
shining 2501
yet 2501
gather 2500
milk 2498
bart 2495
per 2495
wet 2495
meisten 2492
kunden 2485
regenbogen 2485
say 2485
australian 2484
atmosphare 2479
ra@@ 2477
uses 2476
ereignis 2474
wagen 2474
royal 2473
ung 2473
weit 2473
gelber 2469
ruckansicht 2467
element 2465
martial 2465
jump 2464
lebensmitteln 2463
lighting 2463
retro-@@ 2461
darstellung 2459
hebt 2459
spot 2459
able 2456
g 2456
armen 2455
drinks 2455
age 2454
reitet 2453
might 2452
country-kunstler 2451
gemalt 2451
besser 2450
liche 2449
frauen@@ 2447
gelb 2447
cookies 2446
elefanten 2446
farmer 2446
displayed 2445
learn 2445
reef 2444
hinterhof 2443
stick 2442
million 2441
hand@@ 2440
machine 2438
cart 2437
coastal 2435
kanal 2435
entspannt 2434
makeup 2434
commercial 2433
laughing 2432
venue 2432
shorts 2430
present 2429
hour 2426
winter@@ 2426
traditioneller 2424
architect 2420
wande 2420
tem 2419
kostenlos 2418
reise 2417
sternen 2411
winterlichen 2411
bau@@ 2410
reiten 2409
schau 2407
turnhalle 2407
cowboy 2403
feeding 2401
heißen 2401
pencil 2401
clothing 2397
m@@ 2397
mund 2395
toward 2393
dienstag 2392
downtown 2392
ankunft 2390
calm 2390
climbing 2390
hubsche 2390
important 2390
spielzeug 2389
hubschrauber 2388
profile 2385
rugby-spieler 2385
:) 2384
tent 2382
ago 2379
titel 2378
beginnt 2376
terrace 2374
gas 2373
offentlichen 2372
meeres 2370
bord 2369
hard-rock-kunstler 2369
supermodel 2369
leuchtturm 2368
cards 2367
legt 2367
central 2366
unter@@ 2366
d 2365
bridal 2364
g@@ 2364
pan 2364
zwei 2364
lion 2363
tieren 2361
accommodation 2359
ate 2356
backyard 2356
liste 2356
sch@@ 2356
steam 2356
weide 2356
pregnant 2355
kid 2353
newspaper 2352
reifen 2352
klassenzimmer 2350
bietet 2349
hd 2349
mask 2349
riesige 2348
o 2346
traditionelles 2344
weibliche 2344
politikers 2343
pause 2342
mittagessen 2340
pullover 2340
schmetterling 2340
al@@ 2339
warum 2339
krankenhaus 2336
traveling 2336
zeitraffer 2336
talk 2334
tank 2334
fine 2332
flies 2331
kiss 2331
cows 2330
westen 2330
toy 2329
langsamer 2325
rand 2325
zutaten 2324
cliffs 2322
regal 2321
dreht 2319
moored 2318
engagement 2316
turen 2316
erhalten 2315
raised 2315
ausgestellt 2312
p@@ 2312
sturm 2311
laying 2308
meet 2307
navy 2307
religion 2307
versuchen 2307
brush 2306
erfindung 2305
alphabet 2304
coins 2304
net 2304
crown 2303
engine 2303
stamp 2302
anhanger 2301
gelbem 2301
gemalde 2301
performer 2300
writer 2299
davon 2296
illustrationen 2296
welche 2294
inmitten 2293
function 2292
hotels 2292
sonnenuntergangs 2291
burg 2288
hubschen 2288
grunes 2286
k 2286
pot 2285
harbor 2284
baumstamm 2283
trainings 2282
ar@@ 2281
template 2281
bogen 2279
plus 2279
transport 2279
armed 2278
laub 2278
bunch 2277
gifts 2277
motor 2277
leave 2276
weitere 2275
listening 2274
speed 2274
k@@ 2273
richtung 2273
everything 2272
innen 2271
kostum 2270
rezept 2267
share 2266
fahrzeuge 2265
klippe 2265
monat 2265
se@@ 2264
stein 2264
10 2263
preistrager 2263
illuminated 2260
koffer 2260
sweater 2260
rollstuhl 2259
einschließlich 2257
cities 2256
kalten 2253
nachmittag 2253
surrounding 2253
toten 2253
denim 2251
mural 2251
x 2250
bought 2249
interesting 2249
lobby 2249
products 2249
sunshine 2249
alteren 2248
laden 2248
mahlzeit 2248
supermarket 2248
circa 2246
eroffnung 2246
halloween 2246
smoking 2246
vorne 2246
ferry 2244
kam 2244
wrapped 2243
button 2240
grenze 2239
taxi 2239
christliche 2237
e@@ 2237
necklace 2237
numbers 2235
born 2232
stoff 2231
jemand 2230
horizon 2228
rise 2228
bleiben 2226
brauchen 2226
frisst 2226
lamp 2226
langsam 2226
tile 2226
gala 2224
wollen 2224
facing 2223
perched 2223
named 2221
opened 2220
par@@ 2220
starting 2220
stay 2219
become 2218
photographs 2218
springen 2217
herrenmode-@@ 2215
holidays 2215
latin 2214
title 2214
cathedral 2213
marke 2213
schafe 2213
budget 2212
helmet 2212
prepares 2212
einander 2211
handsome 2211
detailed 2210
n 2210
bilden 2208
wheelchair 2208
flugel 2206
list 2204
ornate 2202
common 2201
thinking 2201
diamond 2200
großten 2200
zusammen@@ 2200
candle 2199
gemeinsam 2199
leuchtend 2198
lachelnd 2197
historical 2196
versammeln 2196
kreuz 2195
major 2195
cooking 2194
wait 2193
berges 2192
leaning 2191
carved 2190
norden 2187
suspension 2184
demonstration 2183
member 2183
scheune 2182
appearance 2181
overlay 2180
featured 2175
nebligen 2175
getragen 2172
mug 2172
bread 2171
hausern 2170
suden 2170
demonstranten 2168
monkey 2168
recently 2168
sugar 2168
traktor 2168
actress 2167
dollars 2167
patient 2167
ethnicity 2163
sucht 2163
marina 2162
hugeln 2161
mutze 2161
seitenansicht 2159
lauf 2158
blaues 2157
rings 2157
facility 2155
roads 2153
started 2153
enden 2152
later 2151
legen 2150
rich 2150
glowing 2149
ingredients 2149
care 2147
worker 2147
rules 2146
order 2145
horizont 2142
material 2142
inspiration 2141
latest 2141
erte 2140
lonely 2140
obst 2140
shoot 2140
anzahl 2139
tide 2139
5@@ 2136
kunstwerk 2136
champagne 2135
bisschen 2134
grow 2134
beginn 2133
thought 2133
complex 2132
ganz 2132
beruhmtheit 2130
skin 2130
earlier 2128
hangebrucke 2126
rally 2126
seeing 2125
geschaftsmannes 2124
university 2124
ruhigen 2123
graue 2122
september 2122
worship 2122
2nd 2120
westliche 2120
aquarium 2119
d@@ 2119
gorgeous 2119
n@@ 2116
thin 2116
banks 2115
outline 2115
showed 2114
winkt 2113
angry 2112
journalist 2112
picnic 2112
crew 2111
einkaufszentrum 2111
gast 2111
blau@@ 2110
competes 2109
decoration 2109
kept 2109
na 2109
toys 2109
zelt 2107
wort 2106
calendar 2104
watermark 2104
entspannen 2102
teacher 2102
bare 2101
korper 2101
fenstern 2100
salad 2099
giraffe 2098
vierten 2098
jahrlichen 2097
dazu 2095
stellt 2095
dessert 2094
toddler 2094
kick 2093
leute 2092
weise 2092
fischerboot 2091
goldener 2091
butterflies 2090
waldern 2090
pen 2089
elemente 2087
fahrer 2086
neck 2085
oldtimer 2084
return 2083
stamps 2082
animated 2081
publikum 2081
bekommt 2079
copy 2079
factory 2079
innere 2079
paintings 2078
wahrscheinlich 2077
besonderheit 2076
lichtern 2074
" 2073
listing 2073
thick 2071
shoots 2069
folk-rock-kunstler 2068
presented 2068
weltkarte 2068
chen 2067
kathedrale 2066
nachsten 2066
steigt 2066
scarf 2065
3@@ 2064
fell 2061
schwarz-weiße 2061
self 2061
wire 2060
owner 2059
y 2059
durch@@ 2058
f@@ 2057
shared 2057
daruber 2056
shapes 2056
alternative 2055
enough 2055
ated 2052
oak 2051
rabbit 2049
gefuhl 2048
posters 2048
tackle 2047
political 2046
rope 2046
4@@ 2043
caught 2043
promenade 2043
parts 2042
setzt 2041
klippen 2040
spiel@@ 2040
coloured 2039
division 2038
hin 2037
reisen 2037
unseren 2037
fischerboote 2035
lang 2035
talks 2035
familien 2034
rare 2034
seat 2033
5 2032
nahm 2032
stones 2032
tournee 2032
hiking 2029
shade 2029
bath 2028
mission 2028
schneefall 2028
beige 2027
playground 2027
tier@@ 2026
canvas 2025
pick 2024
trend 2022
colours 2021
areas 2020
offnet 2020
egg 2019
tracks 2019
langer 2017
schneiden 2017
shops 2017
bildes 2016
rande 2016
schriftzug 2015
aquarell 2014
gab 2014
married 2014
langsame 2013
lies 2013
decor 2010
kochen 2010
ungen 2010
anderer 2009
schloss 2009
panoramic 2008
inspiriert 2007
malen 2007
upper 2007
wege 2007
schal 2006
tables 2006
passenger 2005
de 2003
tiles 2003
attraktive 2001
hoher 2001
verlassenen 1998
administrative 1997
einzige 1997
finished 1996
language 1996
ornaments 1996
maple 1995
score 1994
je 1993
esszimmer 1992
ft 1992
ge 1992
lieblings@@ 1992
wolkenkratzer 1992
zeigte 1992
morgens 1991
enthullt 1990
eagle 1989
rede 1988
beruhmten 1987
farbenfrohe 1987
foggy 1987
thriller 1987
wassers 1987
el@@ 1986
squirrel 1986
interest 1985
platform 1985
shelf 1985
druck 1984
hohle 1984
kindes 1984
rolling 1984
quite 1981
everyone 1980
promis 1980
blau 1978
leopard 1978
massive 1978
cheese 1977
lich 1976
versuch 1975
afterparty 1974
composition 1974
stapel 1974
wintertag 1974
courtyard 1973
salon 1973
vorstellung 1973
arrived 1971
heading 1971
lachelnde 1970
punkt 1968
rechten 1968
sprechen 1968
fangt 1964
organismen 1964
ting 1964
heraus 1963
kissen 1963
alongside 1961
grasen 1961
herbst@@ 1960
though 1960
bubbles 1959
builder 1959
fight 1959
kaninchen 1959
roll 1959
beginnen 1958
exercise 1956
prepare 1956
soccerspieler 1956
ungs@@ 1956
dein 1955
fliesen 1954
suchen 1954
'd 1951
wolf 1951
..... 1950
helm 1950
kleidungsstuck 1950
winkel 1949
emblem 1945
tomaten 1945
dirt 1944
ste 1943
retail 1941
unterstutzung 1941
abge@@ 1940
astronaut 1939
milch 1939
abstraktes 1938
schnell 1937
netz 1936
headphones 1935
actually 1933
added 1933
antike 1933
karten 1933
served 1933
alterer 1932
container 1932
often 1931
skates 1930
fischer 1928
nails 1928
northern 1928
lehrer 1927
vegetation 1927
horizontal 1925
tattoos 1925
tomatoes 1925
ti@@ 1924
events 1923
flugzeugs 1923
cow 1919
lebt 1919
mist 1919
headquarters 1918
search 1918
fahre 1916
amerikanischen 1915
blooming 1915
einsatz 1913
palette 1913
zuruck@@ 1913
festive 1912
c@@ 1911
gewasser 1911
zeiten 1911
notes 1910
pfeil 1910
schneidet 1910
mannlicher 1908
racing 1908
ships 1908
arrow 1907
eren 1907
runden 1905
statement 1905
pulling 1904
miles 1902
steigen 1901
equipment 1900
saisonpremiere 1900
sei 1900
dream 1899
haut 1899
palace 1899
freundin 1898
lo@@ 1897
mobel 1897
rays 1896
hell 1894
kurbis 1894
eve 1893
zahlen 1893
drachen 1892
logos 1892
schen 1891
wish 1891
guten 1888
mosque 1888
effect 1887
weniger 1887
nationalpark 1886
foods 1885
braunen 1884
formal 1884
moves 1884
t-shirt 1884
geburtstagstorte 1883
supermarkt 1883
gebiet 1882
2@@ 1881
6@@ 1881
pet 1881
president 1881
projekt 1880
rather 1880
ausgabe 1879
basic 1879
corn 1879
points 1879
schachtel 1879
washing 1878
erten 1877
thousands 1877
officers 1876
beine 1875
krawatte 1874
4 1873
unit 1873
salat 1872
weges 1871
haustur 1867
kissing 1867
regenwald 1867
expensive 1866
flammen 1866
v 1866
buchfigur 1865
linken 1865
fabrik 1864
needs 1864
verschneiten 1864
messe 1863
pasture 1862
familien@@ 1861
newly 1861
sheet 1861
19. 1860
newborn 1858
klassische 1856
chalk 1854
cheerful 1854
circular 1854
olive 1854
throw 1854
geschmuckt 1853
herde 1853
saulen 1853
calligraphy 1852
tanzt 1852
teile 1852
zukunft 1851
mannliche 1850
prasentation 1850
backdrop 1849
braucht 1848
etikett 1848
monarchen 1848
abgebildet 1846
besitzer 1845
offnen 1845
soldat 1844
organic 1843
esstisch 1842
historische 1842
te@@ 1842
at@@ 1841
helle 1841
religiose 1841
setzen 1841
crime 1839
sprache 1838
religioser 1837
schultern 1837
until 1837
van 1836
ladies 1834
custom 1833
entry 1833
versteckt 1833
slowly 1832
tage 1832
blanket 1831
ch@@ 1831
km 1831
le@@ 1831
tries 1831
confetti 1829
diy 1829
felsigen 1829
teilnehmer 1829
schneeflocken 1828
sommer@@ 1827
felder 1825
rises 1825
ausge@@ 1824
entertainer 1824
iger 1824
letters 1824
volkern 1824
fischen 1823
decorating 1822
weizenfeld 1821
glasern 1820
la@@ 1818
diagram 1817
kusst 1817
mom 1817
stack 1817
hosted 1816
fragen 1815
mode@@ 1815
produkte 1815
stuhle 1815
1st 1814
genug 1814
serviert 1814
y@@ 1814
ert 1813
thanksgiving 1813
gebauden 1812
moderner 1812
throughout 1812
automobilindustrie 1811
kickt 1811
gegend 1808
kleinkind 1808
betrachten 1807
stiefel 1805
biggest 1804
quiet 1804
similar 1804
popkunstlerin 1803
lehnt 1801
licher 1801
antenne 1800
ikone 1800
seit 1800
treppen 1800
gesprach 1796
hilft 1796
fußganger 1794
frisur 1793
geschenke 1793
dauer 1792
dancers 1791
farbige 1790
groß 1790
schauspielerinnen 1789
european 1788
medium 1786
scher 1786
throwing 1786
countries 1785
delivers 1785
li@@ 1785
programme 1785
brot 1782
buntes 1782
kerze 1782
social 1782
gelande 1781
hauch 1781
ts 1781
creating 1780
dir 1780
liches 1780
placed 1779
airline 1778
denken 1778
heat 1777
ro@@ 1777
recent 1776
relief 1776
underwater 1776
native 1775
sches 1775
joined 1774
bemalung 1772
romantischen 1771
jungle 1770
schuhen 1770
attending 1769
eichhornchen 1769
stelle 1769
bereiten 1768
covering 1767
types 1767
7@@ 1766
visiting 1766
edle 1765
skies 1765
starts 1764
daran 1763
kuhe 1763
older 1763
invitation 1762
9@@ 1761
carries 1761
caucasian 1761
jet 1761
tief 1761
topf 1761
gewann 1760
revival 1759
rolle 1758
staff 1758
universitat 1758
plenty 1757
komische 1756
verfugt 1756
regisseur 1755
snowman 1755
fotografieren 1753
schnitt 1753
altere 1751
los-engel-premiere 1751
pedestrians 1751
begleitet 1750
erhalt 1748
mannlichen 1748
song 1747
carriage 1746
schwarz-weiß 1746
schwer 1745
lettering 1744
swim 1743
characters 1742
hort 1742
landkunstler 1742
mischung 1742
ange@@ 1741
cabinets 1741
lower 1741
three 1741
elementen 1740
seebrucke 1740
true 1738
gathered 1737
graphics 1736
warmt 1736
flaschen 1735
bull 1733
note 1733
band@@ 1731
farbigen 1730
blumen@@ 1729
arme 1727
ornamental 1727
wandert 1727
spaten 1726
given 1725
blocks 1724
biologischen 1723
breaking 1722
circles 1722
6 1721
fair 1720
mall 1720
baren 1719
snowflakes 1719
gewassern 1718
gezeichnet 1717
macro 1717
partner 1717
wohnungen 1717
natur@@ 1715
starrt 1715
stil@@ 1715
covers 1714
collage 1713
flames 1713
sister 1713
yourself 1713
august 1712
boxes 1712
spiele 1711
vollmond 1711
warning 1711
appeared 1710
schulter 1710
f 1707
spielplatz 1707
residents 1706
weiterer 1706
fleisch 1705
kategorie 1705
turning 1705
buying 1704
daily 1704
dschungel 1704
iges 1704
p 1704
bemalt 1703
oft 1703
probably 1701
problem 1701
april 1700
trauben 1700
verwandeln 1700
wandbild 1700
davor 1699
stadtzentrum 1699
grab 1698
jazz 1698
fried 1696
meines 1696
attended 1695
formation 1694
munzen 1694
zeitung 1693
tanz 1692
county 1691
fully 1691
november 1691
ebene 1690
kunst@@ 1690
pedestrian 1690
werde 1690
siehe 1689
arrivals 1687
baustelle 1687
dafur 1687
lustigen 1687
fest@@ 1686
fotograf 1686
grounds 1686
jubelt 1686
bildenden 1685
frischen 1685
sink 1685
stormy 1685
daumen 1683
verkaufen 1683
bildern 1682
format 1682
on@@ 1682
organisationsgrunder 1682
wing 1682
blumenstrauß 1680
diamanten 1680
reife 1679
wenig 1679
erinnert 1678
cattle 1677
drop 1674
dunkle 1674
lose 1674
panorama 1673
ausschnittpfad 1672
catching 1672
drohne 1672
pfanne 1672
wheels 1672
families 1671
hubsches 1671
u@@ 1671
10@@ 1670
posed 1670
chess 1669
halbzeit 1669
ss@@ 1669
chance 1668
christlichen 1668
mix 1668
ur@@ 1668
hours 1666
polizisten 1666
schiffes 1665
booten 1664
ere 1664
weltraum 1664
zone 1663
beruhmtheiten 1662
konnten 1662
nose 1662
ri@@ 1662
sammeln 1662
teen 1662
medien 1661
z@@ 1661
glossy 1660
einsamer 1659
tribute 1659
vielleicht 1659
meat 1657
wanderung 1657
aufnahme 1656
weiblichen 1656
hintergrundes 1655
worden 1655
loved 1654
peace 1654
wonderful 1653
7 1652
enten 1652
sneakers 1651
choose 1650
damaged 1650
gewinn 1650
hilfe 1650
indie 1650
monument 1650
constitutional 1649
mitten 1649
standort 1649
bloom 1648
easter 1648
kurzen 1648
schlagen 1648
singing 1648
upon 1648
hunden 1647
puts 1647
log 1646
mitarbeiter 1646
christlicher 1645
officer 1645
due 1644
frohliche 1644
charakter 1643
kreuzung 1643
diskutieren 1642
framed 1642
nail 1642
gießen 1641
shed 1641
keyboard 1640
schale 1640
sußen 1640
brought 1639
feeling 1639
turns 1638
vegetable 1637
außen@@ 1636
brain 1636
farbenfrohen 1636
screenshot 1636
willkommen 1636
stripes 1635
meets 1634
others 1634
roots 1634
visible 1633
19th 1632
a-@@ 1632
aste 1632
nagel 1632
render 1632
closeup 1631
brett 1630
geschafte 1630
grapes 1630
kopfes 1630
slope 1630
malers 1629
radio 1629
serious 1629
turtle 1629
knee 1628
lotus 1628
miteinander 1626
crosses 1625
erdbeeren 1625
holen 1625
kuh 1625
pin 1624
cabin 1623
pinsel 1623
pub 1623
tatowierungen 1623
dunes 1621
teammates 1620
mustern 1619
menschlichen 1618
wilden 1618
asten 1617
inseln 1617
shadows 1616
successful 1616
erstellen 1615
iconic 1615
pferdes 1615
shades 1615
zahlen@@ 1615
spider 1613
spielern 1613
verbringen 1612
hugging 1611
einkaufen 1610
foliage 1610
kranz 1609
architekten 1608
bewaffnete 1608
gra@@ 1608
maske 1608
owl 1608
campaign 1607
hintergrundvektor 1607
ink 1607
maybe 1607
perlen 1607
knopf 1606
skateboard 1606
skyscrapers 1606
straßenrand 1605
shallow 1604
abschlussfeier 1603
sidewalk 1603
fotografen 1602
palme 1602
ceramic 1601
mit@@ 1601
pumpkins 1600
scale 1600
u 1600
gerade 1599
innenhof 1599
vertical 1599
brother 1598
gewinnen 1598
kontrolliert 1597
kurz 1597
opens 1597
arranged 1596
result 1596
gemeinschaft 1595
misty 1595
ta@@ 1595
wahl 1595
mass 1594
drehen 1593
himself 1593
latin-pop-kunstler 1593
ethnic 1592
already 1591
geometrische 1591
medal 1591
speisesaal 1591
wanted 1590
bedrooms 1589
trails 1589
zeit@@ 1589
grundstuck 1588
paris 1587
herzens 1586
8@@ 1585
captured 1585
sammelt 1585
handmade 1582
jumps 1581
fußboden 1580
denkmal 1579
kette 1579
pinned 1577
geographische 1576
bee 1575
juice 1575
meisterschaft 1575
slide 1575
w 1575
coin 1574
anwesen 1573
keeping 1572
case 1571
sterne 1570
spielfeld 1569
lone 1568
cave 1567
diagramm 1566
ehren 1565
lachelnder 1565
verleiht 1565
dad 1564
includes 1564
flows 1563
gefangen 1563
lounge 1562
naturliche 1562
secret 1562
fokus 1560
matching 1560
stunde 1560
zweites 1559
customers 1558
kreuzfahrtschiff 1558
soil 1558
picking 1557
verwendung 1557
dressing 1556
scenes 1556
firefighters 1554
patterned 1554
reflektiert 1554
federn 1553
reden 1553
frischer 1552
land@@ 1552
mittel@@ 1552
brings 1551
kicks 1551
schließt 1551
parks 1550
beiden 1549
microphone 1549
nahtlos 1549
bundel 1547
energy 1546
film@@ 1546
goat 1546
becher 1545
denke 1545
panels 1545
wohn@@ 1545
kase 1544
standard 1544
tied 1544
regnerischen 1543
rent 1543
acrylic 1542
hellem 1541
schreiben 1541
basis 1540
gesichtet 1540
rusty 1540
schlussel 1540
al 1539
offiziellen 1539
wehen 1539
landing 1538
strandes 1538
weiteres 1538
botschaft 1537
westlicher 1537
lebens 1536
ung@@ 1536
union 1536
lugen 1535
naturlichen 1535
feuerwehrleute 1533
interieur 1533
role 1533
adorable 1532
ol 1532
science 1532
aufge@@ 1531
entire 1531
frontansicht 1531
haus@@ 1531
krone 1531
islands 1530
issue 1530
lokalen 1530
staircase 1530
wicket 1530
beneath 1529
gave 1528
gesichter 1528
architectural 1527
konigin 1527
network 1527
beginning 1526
leder@@ 1526
mine 1526
moss 1526
ducks 1525
silber@@ 1525
southern 1525
spent 1525
bootes 1524
ears 1524
her@@ 1524
gebracht 1523
musik@@ 1523
controls 1522
fangen 1522
inscription 1522
passagiere 1522
uppercase 1522
chain 1521
portrats 1521
schlafen 1521
lightning 1520
le 1518
deal 1517
despite 1517
spater 1516
beleuchtung 1515
blouse 1514
fancy 1514
sollten 1514
warms 1514
bunter 1513
hochzeitstag 1513
isoliertem 1513
plans 1513
tagen 1512
glas@@ 1510
schreibt 1510
fruchten 1509
nach@@ 1509
preseason 1509
singt 1509
halskette 1508
sk@@ 1508
einfaches 1507
nun 1507
komplett 1506
scooter 1506
vorderseite 1506
beton@@ 1505
elephants 1505
serving 1505
taste 1505
vektorbild 1505
x@@ 1505
50 1503
gestern 1503
offer 1503
se 1503
alpine 1502
rucksack 1502
tropische 1502
au@@ 1501
lives 1500
ensemble 1499
menu 1499
mosaic 1499
roller 1499
turquoise 1499
fand 1498
walder 1498
frog 1497
sunflower 1497
begrußt 1496
extruded 1496
hinten 1496
lips 1496
stahl@@ 1495
zebra 1494
province 1492
schneesturm 1492
aisle 1491
dekorative 1491
dome 1491
link 1491
vielzahl 1491
extreme 1490
inter@@ 1490
skinny 1490
soon 1490
adding 1489
changing 1489
zeichnen 1489
gedrange 1488
gewinner 1486
italian 1486
puck 1486
trucks 1486
ziel 1486
tote 1485
leuchten 1484
styles 1484
isometric 1483
l@@ 1483
lift 1483
ehemalige 1482
mannschaftskameraden 1482
symbolen 1481
wettbewerb 1481
zigarette 1481
leder 1480
rental 1480
cigarette 1477
darstellt 1477
verleihen 1476
selection 1475
graffitis 1474
record 1474
explosion 1473
mansion 1473
apartments 1472
monochrome 1470
reality 1470
schrank 1470
strawberries 1470
ted 1470
wassertropfen 1470
athleten 1469
blasen 1469
neutral 1468
app 1467
fox 1467
statuen 1467
pferden 1466
provinz 1465
leggings 1464
movement 1464
dried 1462
gewonnen 1462
zeitlupe 1462
einge@@ 1461
geboren 1460
gluck 1460
plain 1460
ding 1459
ehemaligen 1459
contest 1458
frisuren 1458
kurze 1458
pre@@ 1458
futter 1457
ru@@ 1457
außen 1455
walked 1454
alen 1453
jetty 1453
typing 1453
episode 1452
8 1451
feldweg 1451
bricht 1450
parchen 1450
fullen 1449
stadte 1449
straßen@@ 1449
atop 1447
co@@ 1447
hike 1447
lederjacke 1447
vogeln 1447
gebirge 1446
floralen 1445
kampfen 1445
terasse 1445
podium 1444
costumes 1443
feathers 1443
sen@@ 1443
coastline 1442
kiefern 1442
wildblumen 1442
eier 1441
meter 1441
quote 1441
beruhmte 1439
news 1439
festen 1438
shoulders 1438
freundinnen 1437
make-up 1437
bucket 1436
kampft 1436
mikrofon 1436
privaten 1436
blazer 1435
blast 1434
celebrations 1434
hairstyle 1434
sleep 1434
einheit 1433
items 1433
spend 1433
cartoon-stil 1432
curly 1432
eroffnungsnacht 1432
splash 1432
fairy 1431
development 1430
dort 1430
sowie 1430
ubung 1430
goldenes 1429
unusual 1429
abends 1427
schwimmbecken 1427
shoe 1427
waldes 1427
gespielt 1426
hobby 1426
apples 1425
orte 1425
geometrischen 1424
nutzen 1424
pulled 1424
20@@ 1423
association 1423
flugeln 1423
stucke 1423
panzer 1422
pull 1422
quick 1422
affen 1421
finally 1421
hochzeitskleider 1421
wanderer 1420
baut 1419
wolke 1418
18. 1417
angel 1417
findet 1417
genommen 1417
hidden 1417
businesswoman 1416
fingers 1416
rubber 1416
schneemann 1416
schiedsrichter 1415
champagner 1414
minute 1414
released 1414
18th 1413
cricketer 1413
dragon 1413
interesse 1413
kusten@@ 1413
schweben 1413
ansichten 1412
lachen 1412
control 1410
gewinnt 1410
earrings 1409
flugzeuge 1409
schauspielers 1409
v@@ 1408
elefant 1407
volleyball 1407
backpack 1406
geburtstagsparty 1406
sat 1406
sp@@ 1406
hairstyles 1405
raising 1405
organism 1404
pack 1404
schmuck 1404
adult 1403
charity 1403
discuss 1403
r@@ 1403
steinernen 1403
gestaltung 1402
großartige 1402
immobilien 1402
sen 1402
sparkling 1402
tische 1402
d-@@ 1401
nahert 1401
beat 1400
listed 1399
maler 1399
panel 1399
eule 1398
machte 1398
ating 1397
b@@ 1397
lush 1397
skyscraper 1397
bruder 1396
frames 1396
wegen 1396
installation 1395
mid 1395
scored 1395
silber 1395
spoon 1395
ve 1395
wollte 1395
jahrhunderts 1394
stylized 1394
wilde 1394
beds 1393
cinema 1393
z 1393
attention 1392
hals 1392
praying 1392
educational 1391
innen@@ 1391
klassischer 1391
rainforest 1391
bleistift 1390
reflecting 1390
anker 1389
crazy 1388
lagerfeuer 1388
15 1387
nase 1387
politische 1387
radfahrer 1387
feldern 1386
verschiedener 1386
verwandelt 1386
100 1385
dishes 1385
spirit 1385
dekorationen 1384
getrank 1384
hochzeitszeremonie 1384
lemon 1384
si@@ 1384
glanzenden 1383
lustiger 1383
po@@ 1383
eis@@ 1382
carry 1381
liefert 1381
perfekte 1381
sometimes 1381
floors 1380
lippen 1380
packed 1380
twin 1380
hinzu 1379
hundreds 1379
seeds 1379
sprung 1379
sunflowers 1379
candy 1378
autors 1377
berries 1377
cell 1377
overlay-wasserzeichen-stempel 1377
statues 1376
gehort 1375
terminal 1375
cheftrainer 1373
erster 1373
handgezeichneten 1373
innenstadt 1373
lacht 1373
recurring 1373
wand@@ 1372
gestellt 1371
enter 1370
huhner 1370
ones 1370
klettert 1369
magazin 1369
locomotive 1368
canyon 1367
teddy 1367
schildkrote 1366
t-@@ 1366
am@@ 1365
became 1365
hitting 1365
coconut 1363
passt 1363
sche 1363
begann 1362
bu@@ 1362
cheerleader 1362
schwebt 1362
cityscape 1361
london 1360
viertels 1360
frage 1359
grenzen 1359
mannern 1358
tinte 1358
storage 1357
beeren 1356
herbsttag 1356
weibchen 1356
access 1355
ster 1355
warme 1355
gleichen 1354
overhead 1354
stufen 1354
komposition 1353
forming 1352
galaxy 1352
richtigen 1352
bars 1351
costumer 1351
experience 1351
gasse 1351
goalkeeper 1351
mind 1351
shoppers 1351
verkleidet 1351
besteht 1350
polar 1350
pole 1350
memorial 1349
strecke 1349
teeth 1349
zen 1349
mitglied 1348
mud 1348
buchstabe 1347
kuppel 1347
ridge 1347
schwangere 1347
striking 1347
arrival 1346
fighting 1346
jar 1346
muscheln 1346
burgersteig 1345
lager 1345
remains 1345
era 1344
korallenriff 1344
fußballspielers 1343
netter 1343
tired 1343
erreichen 1342
skier 1342
country-pop-kunstler 1341
ruck@@ 1341
slice 1341
unterschiedlicher 1341
cartoon-@@ 1340
patienten 1339
sicherheit 1339
so@@ 1339
speak 1339
zer@@ 1339
bein 1338
diamonds 1338
homeless 1338
poprock-kunstler 1337
tools 1337
chest 1336
sußes 1336
winzigen 1336
conflict 1335
haired 1334
20 1333
corporate 1333
mittelalterlichen 1333
nachste 1333
neo 1333
satellite 1333
silhouetted 1333
stamm 1333
suite 1333
+ 1332
kino 1332
steep 1332
borders 1331
feierlichkeiten 1331
fisherman 1331
schiebt 1331
tray 1331
headed 1330
referee 1330
wert 1330
eiscreme 1329
schenkt 1328
typ 1328
walkway 1328
cage 1327
cyclist 1327
princess 1327
stadt@@ 1327
bicycles 1326
camel 1326
personen@@ 1326
steckt 1326
mi@@ 1325
fressen 1324
weight 1324
current 1322
leuchtet 1322
stretching 1322
zeichnungen 1322
passiert 1321
tulips 1321
gekleidet 1320
papier@@ 1320
bauer 1319
mobiltelefon 1319
sing 1318
uberall 1318
9 1317
top-@@ 1317
expression 1316
schriftsteller 1315
appear 1314
ation 1314
farmers 1314
gelbes 1314
kugel 1314
marble 1314
wurzeln 1314
awesome 1313
miniature 1313
pale 1313
tell 1313
curtain 1312
peak 1312
unseres 1312
hinzufugen 1311
reihen 1311
braune 1310
rotating 1310
suitcase 1310
farb@@ 1308
hochzeits@@ 1308
offers 1308
winger 1308
wrap 1308
buchern 1307
follow 1307
four 1307
reflections 1307
operation 1306
residence 1306
intricate 1305
freier 1304
ruckkehr 1304
cupcake 1303
quilt 1303
reflexion 1303
stolz 1303
trockenen 1303
hope 1302
ideal 1302
grown 1301
luft@@ 1301
goldenem 1300
obwohl 1300
supporters 1300
watering 1300
toilet 1299
adds 1298
completely 1298
bieten 1297
brechen 1297
classical 1297
federal 1297
girlfriend 1297
pro@@ 1297
promotional 1297
tomato 1297
werbung 1297
anderes 1296
ant 1296
highest 1296
laundry 1296
outdoor-@@ 1296
neon 1295
wunderschones 1295
enjoyed 1294
greenhouse 1294
geoffnet 1293
reaching 1293
colonial 1292
curtains 1292
frisches 1292
nearby 1292
pools 1292
tausende 1292
gewachshaus 1291
luftaufnahmen 1291
starry 1291
studentin 1291
lane 1290
oberteil 1290
smooth 1290
vorbereitet 1290
closet 1289
eiche 1289
stempel 1289
bewohner 1287
hangs 1287
su@@ 1287
filmplakat 1286
loose 1286
spiegelt 1286
dolly 1285
osten 1285
uk-premiere 1285
cactus 1284
rollen 1284
fluffy 1283
security 1283
west@@ 1283
3rd 1282
auszeichnung 1282
gloves 1282
july 1282
jungs 1282
multiple 1282
crossed 1281
herbstblatter 1281
kreide 1281
suß 1281
tackled 1281
herself 1280
laid 1280
death 1279
bist 1278
getroffen 1278
travelling 1278
wein@@ 1278
months 1277
oldest 1277
waits 1277
ma@@ 1276
beaches 1275
mouse 1275
zimmers 1275
debut 1274
dramatist 1274
heritage 1274
strich 1274
baum@@ 1273
panning 1273
ten@@ 1273
wins 1273
figuren 1272
safe 1272
segelboot 1272
trailer 1272
blumenmuster 1271
over@@ 1271
shirts 1271
typische 1271
horen 1270
ca 1269
cocktails 1269
mucke 1269
profil 1269
schwester 1269
chips 1268
fernseher 1268
inschrift 1268
dots 1267
schadel 1267
starkem 1267
borough 1266
passen 1266
software 1266
bat 1265
thank 1265
arrangement 1264
schokolade 1264
zitat 1264
fußen 1263
progressive 1263
tone 1263
kekse 1262
detaillierte 1261
environment 1261
pocket 1261
stehend 1261
zoom 1261
langem 1260
nurse 1260
affe 1259
hochzeitstorte 1259
singen 1259
bauern 1258
dusche 1258
penalty 1258
vektormuster 1258
breed 1257
mehreren 1257
smaller 1257
teilt 1257
loving 1256
starke 1256
vorfuhrung 1256
bluhen 1255
guter 1255
ei 1254
portraits 1254
snowfall 1254
geformt 1253
licht@@ 1253
sonnenblumen 1253
verschwommenem 1253
domestic 1252
journey 1252
success 1252
benutzen 1251
ens 1251
h 1251
religiosen 1251
rennens 1251
spiegeln 1251
financial 1250
lustiges 1250
bedeutet 1249
fill 1249
pipe 1249
teenagermadchen 1249
toast 1249
bauernhaus 1248
brief 1248
dekoriert 1248
displays 1248
interviews 1248
studie 1248
styled 1248
-symbol 1247
en-@@ 1247
hay 1247
price 1247
tram 1247
rap 1246
dunkler 1245
figures 1245
larger 1245
ranch 1245
states 1245
attached 1244
edition 1244
ger 1244
aboard 1242
businessperson 1242
clown 1242
dorfes 1242
text@@ 1242
umarmen 1242
allem 1241
ger@@ 1241
ige 1241
schem 1241
schmucken 1241
schwarm 1241
suburb 1241
sußer 1241
pe@@ 1240
wahlen 1240
electronic 1239
fifth 1239
sleeve 1239
madels 1238
bell 1237
farmhouse 1237
hipster 1237
leiter 1237
outfits 1237
baseballspiels 1236
s-@@ 1236
moved 1235
futtert 1234
schnee@@ 1234
seated 1234
tischen 1234
underground 1234
windy 1234
,000 1233
ethnizitat 1233
tops 1233
vektornahtloses 1233
visits 1233
super@@ 1232
yesterday 1232
offene 1231
scheibe 1231
dreams 1230
it@@ 1230
samen 1230
accessories 1229
breaks 1229
burogebaude 1229
iser 1229
completed 1228
pants 1228
continent 1227
loffel 1227
stroke 1227
carried 1226
darin 1226
hin@@ 1226
urbanen 1226
buches 1225
creator 1225
entering 1225
mounted 1225
enjoys 1224
mushrooms 1224
fotografien 1223
prominenz 1223
shell 1223
baroque 1222
catches 1222
europapremiere 1222
poured 1222
transparentem 1222
unterkunft 1222
ale 1221
koniglichen 1221
malkunstler 1221
pendant 1221
gte 1220
mo@@ 1220
sondern 1220
themselves 1220
richtige 1219
ufern 1219
columns 1218
filmschauspieler 1218
itself 1218
schiffe 1218
schafft 1217
fahr@@ 1216
labor 1216
blossoms 1215
landlichen 1215
ha@@ 1214
pov 1214
speaking 1214
bluhenden 1213
hats 1213
owned 1213
lived 1212
plaudert 1212
schlag 1212
beyond 1211
crash 1211
sliding 1210
stump 1210
tulpen 1210
champion 1209
ender 1209
paisley 1209
returns 1209
winds 1209
produkt 1208
schilder 1208
straßenbahn 1207
verteidiger 1207
cg 1206
mascot 1206
wildlife 1206
anfang 1205
bejubelt 1205
drinnen 1205
regentropfen 1205
oven 1204
platte 1204
checking 1203
health 1203
raw 1203
sauce 1203
schaukel 1203
blicken 1202
helping 1202
recipes 1202
schlucht 1202
shield 1202
th@@ 1202
roman 1201
romance 1201
scenic 1201
sh@@ 1200
st@@ 1200
to@@ 1200
posted 1199
straw 1199
2. 1198
eigentum 1198
premieren@@ 1198
stark 1198
customer 1197
frost 1197
technology 1197
underneath 1197
ahnlich 1196
einfacher 1196
kreative 1196
prints 1196
bo@@ 1195
folgen 1195
gezeichnete 1195
ierte 1195
terrasse 1195
blood 1194
erscheint 1194
kinderzimmer 1194
palast 1194
rows 1194
starken 1194
ter@@ 1194
drawings 1193
directed 1192
download 1192
gartens 1192
guitarist 1192
orangen@@ 1192
mile 1191
sized 1191
counter 1189
puzzle 1189
volksfest 1189
whale 1189
crop 1188
ernte 1188
kurbisse 1188
protected 1188
tet 1188
turnier 1188
venture 1188
agency 1187
alley 1187
jockey 1187
manner@@ 1187
begleiten 1186
krankenschwester 1186
militarischen 1186
receives 1186
taucht 1186
missing 1185
sorgen 1185
subject 1185
transportation 1185
vektorkunst-illustration 1185
dolphins 1184
glow 1184
hose 1184
nahtloser 1184
scheiben 1184
asphalt 1183
do@@ 1183
entfernen 1183
lander 1182
choice 1181
horror 1181
berg@@ 1180
ear 1180
lavender 1180
smartphones 1180
gezogen 1179
sanft 1179
ziege 1179
according 1178
dessen 1178
festgemacht 1178
filmaufnahmen 1178
naturlich 1178
verfugung 1178
voll@@ 1178
decken 1177
ous 1177
pillow 1177
provide 1177
sent 1177
umbrellas 1177
geschenken 1176
schwimmbad 1176
sud@@ 1176
sandwich 1175
trousers 1175
bar@@ 1174
dunkel@@ 1174
minutes 1174
told 1174
towers 1174
spinning 1173
total 1173
banana 1172
ho@@ 1172
hubsch 1172
retriever 1172
geschmack 1171
reach 1171
vergangenen 1171
zeitschrift 1171
besonderheiten 1170
olympische 1170
verbindet 1170
einzigen 1169
fiktionale 1169
installed 1169
kon@@ 1168
loaded 1168
mowen 1168
popcorn 1168
$@@ 1167
prepared 1167
daughters 1166
restored 1166
spielte 1166
strahlend 1166
wants 1166
geschaffen 1165
veranstaltungen 1165
wahrzeichen 1164
con@@ 1163
gesch@@ 1163
himmels 1163
loft 1163
maschine 1163
nacht@@ 1163
soft-rock-kunstler 1163
stretch 1163
stunden 1163
becken 1162
dekorativen 1162
remember 1162
war@@ 1162
15@@ 1161
internationalen 1161
accessoires 1160
begins 1159
marine 1159
pets 1159
ben 1158
eroffnet 1158
learning 1158
closing 1157
mini-@@ 1157
druckt 1156
sight 1156
ck@@ 1155
spread 1155
enge 1154
heiligen 1154
1@@ 1153
beleuchtet 1152
keeps 1152
rug 1152
prinzessin 1151
subway 1151
im@@ 1150
magazins 1150
treiben 1150
unterhalten 1150
den@@ 1149
ebbe 1149
heben 1149
hood 1149
materials 1149
cakes 1148
fliege 1147
funded 1147
geschrieben 1147
remote 1147
schmetterlinge 1147
tail 1147
lily 1146
tatsachlich 1146
constituent 1145
feldes 1145
romancier 1145
12 1144
greets 1144
camping 1143
crane 1143
army 1142
cargo 1142
logoschild 1142
schreitet 1142
solid 1142
attack 1141
auffuhrung 1141
immobilie 1141
inspirierte 1141
waterfront 1141
minimalist 1140
signing 1140
surf 1140
ausschnitt 1139
direction 1139
laufer 1139
fernseh@@ 1138
h@@ 1138
helps 1138
tra@@ 1138
fuhlen 1137
pilot 1137
airliner 1136
favourite 1136
filmen 1136
galerie 1136
stiefeln 1136
schutzen 1135
spinne 1135
chemical 1134
currently 1134
neuesten 1134
creek 1133
ische 1133
longer 1133
schneebedeckte 1133
17@@ 1132
burger 1132
einzelhandel 1132
means 1132
quadratischen 1132
sanddunen 1132
studying 1132
the@@ 1131
census 1130
drucken 1130
finalen 1130
glasfenster 1130
winding 1130
broadcasting 1129
doktor 1129
october 1129
ses 1129
aktienvektor 1128
amongst 1128
bleibt 1128
possible 1128
gehweg 1127
jewelry 1127
release 1127
schritte 1127
weihnachtsbaums 1127
e-@@ 1126
erung 1126
holzboden 1126
kunstgalerie 1126
musikfestivals 1126
schicken 1126
vergangenheit 1126
wild@@ 1126
celebrities 1125
eishockeyspieler 1125
produce 1125
16@@ 1124
belt 1124
besuchs 1124
doppel@@ 1124
30 1123
elektrische 1123
zentrale 1123
dammerung 1122
fruhlingstag 1122
gemeindefestes 1122
lokalisiert 1122
menschliche 1122
periode 1122
welt@@ 1122
12@@ 1121
cook 1121
elektrischen 1121
else 1121
physical 1121
quelle 1121
sizes 1121
tablett 1121
teilweise 1121
befestigt 1120
closer 1120
cockpit 1120
etage 1120
honor 1120
punkte 1120
sin@@ 1120
badewanne 1119
believe 1119
mil@@ 1119
nahmen 1119
potatoes 1119
tennisspieler 1119
cups 1118
erfolg 1118
reads 1118
retro-stil 1118
vibrant 1118
coloring 1117
conversation 1117
erwachsene 1117
for@@ 1117
exotic 1116
information 1116
intersection 1116
object 1116
stores 1116
arts 1115
braun 1115
decorate 1115
rad 1115
flaggen@@ 1114
frohliches 1114
seitenlinie 1114
scary 1113
kuss 1112
birth 1111
damen 1111
flow 1111
leerer 1111
tricks 1111
w@@ 1111
dargestellt 1110
emergency 1110
geist 1110
grauer 1110
schonsten 1110
reichen 1109
soup 1109
besatzung 1108
gestures 1108
songwriter 1108
inner 1107
ms 1107
offentliche 1107
schwermetallkunstler 1107
stuhlen 1107
verbunden 1107
crowded 1106
kapelle 1106
rosafarbene 1105
schreit 1105
blitz 1104
deinen 1104
fishermen 1104
approaching 1103
hochwertige 1103
raucht 1103
sichtbar 1103
spray 1103
tiefe 1103
4th 1102
buses 1102
ferienhaus 1102
fruher 1102
hast 1102
ds 1101
gewitterwolken 1101
saumen 1100
steine 1100
biker 1099
leistung 1099
thumbs 1099
click 1098
darunter 1098
instructions 1098
schuttelt 1098
stacked 1098
winters 1098
mannchen 1097
seating 1097
stift 1097
braut@@ 1096
landung 1096
picturesque 1096
ly 1095
typischen 1095
wunderschoner 1095
braunem 1094
knife 1094
knitted 1094
tennisspielerin 1094
zentralen 1094
duck 1093
erinnern 1093
klassisches 1093
portion 1093
pulls 1093
exposure 1092
fe@@ 1092
destination 1091
inch 1091
incredible 1091
steinen 1091
surprised 1091
flowering 1090
goods 1090
stopped 1090
18@@ 1089
bezirk 1089
excited 1089
qualifying 1089
anything 1088
darsteller 1088
freude 1088
marsch 1088
seaside 1088
serve 1088
bedecken 1087
climb 1087
denkt 1087
displaying 1087
frohlich 1087
handles 1087
anyone 1086
kiefer 1086
remove 1086
ballerina 1085
eastern 1085
french 1085
hauptstraße 1085
sonnenschein 1085
zier@@ 1085
alt 1084
ente 1084
erin 1084
heller 1084
3d-darstellung 1083
gehullt 1083
leuchtenden 1083
lowen 1083
eln 1082
generation 1082
ornamenten 1082
pushing 1082
staat 1082
weihnacht@@ 1081
texten 1080
ausflug 1079
jam 1079
kunstwerke 1079
oberen 1079
sportwagen 1079
tete 1079
16 1078
baumstumpf 1078
befinden 1078
exclusive 1078
schlamm 1078
compete 1077
vogelperspektive 1077
dirty 1076
bi@@ 1075
englische 1075
marschieren 1075
opposite 1075
turniers 1075
wa@@ 1075
butter 1074
highlights 1074
moglich 1074
trends 1074
unknown 1074
volle 1074
vollen 1074
flecken 1073
conceptual 1072
handelt 1072
join 1072
magic 1072
sonnen@@ 1072
geografische 1071
leeres 1071
picknick 1071
vorbereitung 1071
vorlage 1071
biene 1070
posierte 1070
positive 1070
shaking 1070
tradition 1070
triangle 1070
ol@@ 1069
punkten 1069
received 1069
robot 1069
thanks 1069
washed 1069
quarterback 1068
worth 1068
chapel 1067
filmproduzent 1067
gt 1067
reason 1067
volkes 1067
anime 1066
behandelt 1066
cleaning 1066
schul@@ 1066
1. 1065
cheer 1065
quadrat 1065
stadtpark 1065
tutorial 1065
erschaffen 1064
flur 1064
grun@@ 1064
shores 1064
sick 1064
ad 1063
arena 1063
filling 1063
sangerin 1063
fat 1062
pure 1062
creation 1061
folgt 1061
perfekten 1061
ruhen 1061
tight 1061
approach 1060
komischen 1060
bananas 1059
ehefrau 1059
either 1059
gone 1059
hiding 1059
kopfhorern 1059
lay 1059
edler 1058
entwicklung 1058
maskottchen 1058
seems 1058
sonnenstrahlen 1058
beans 1057
contrast 1057
endlich 1057
fashionable 1057
rast 1057
shelter 1057
skatet 1057
stimmung 1057
tatowieren 1057
bush 1056
genannt 1056
gitarrist 1056
schaufenster 1055
slopes 1055
auto@@ 1054
bosewicht 1054
ertes 1054
question 1054
raume 1054
engel 1053
global 1053
isolierter 1053
lokale 1053
spiral 1053
vorher 1053
cost 1052
honey 1052
zustand 1052
eats 1051
einzigartige 1051
heels 1051
services 1051
anblick 1050
bedeckte 1050
ganseblumchen 1050
isoliertes 1050
practicing 1050
situated 1050
bills 1049
brust 1049
frosch 1049
ges 1049
hiker 1049
illustrated 1049
nahtlosen 1049
choosing 1048
metall 1048
originale 1048
revealed 1048
stainless 1048
verruckt 1048
zugang 1048
gemeinde 1047
grundriss 1047
june 1047
weichen 1047
bees 1046
maxi 1046
prasidenten 1046
snake 1046
stecken 1046
stroll 1046
visited 1046
harvest 1045
puppies 1045
snowboarder 1045
cardboard 1044
illustrator 1043
langes 1043
pfarrei 1043
see@@ 1043
stag 1043
stilvolle 1043
glamour 1041
projekt@@ 1041
sack 1041
especially 1040
gently 1040
greift 1040
kronleuchter 1040
tiefen 1040
bears 1039
charming 1039
swaying 1039
gold- 1038
schwarz-weißes 1038
socks 1038
tippt 1038
westlichen 1038
blossom 1037
hammer 1037
helped 1037
klicken 1037
merkmale 1037
entdecken 1036
liquid 1036
winzige 1036
goats 1035
liebespaar 1035
shines 1035
boxing 1034
du@@ 1034
leinwanden 1034
psychedelic 1034
sense 1034
dicht 1033
editor 1032
eroffnungszeremonie 1032
mittelalterliche 1032
nuts 1032
perspective 1032
realistische 1032
wohnzimmers 1032
1950s 1031
flaches 1031
fork 1031
bogenbrucke 1030
perfectly 1030
fußballball 1029
rustikalen 1029
spacecraft 1029
stadten 1029
upcoming 1029
auction 1028
hinteren 1028
keys 1028
steinerne 1028
weg@@ 1028
elt 1027
entdeckt 1027
miss 1027
panoramablick 1027
seil 1027
trains 1027
adults 1026
benefit 1026
wash 1026
nets 1025
treat 1024
boyfriend 1023
cultural 1023
entwickelt 1023
felt 1023
he@@ 1023
lampe 1023
no@@ 1023
ask 1022
casino 1022
hochzeitskleid 1022
ko@@ 1022
defensive 1021
fuß@@ 1021
ling 1021
kutsche 1020
lock 1020
opera 1020
violetten 1020
champions 1019
darkness 1019
gangsta 1019
agricultural 1018
akrosse 1018
bananen 1018
bienen 1018
entgegen 1018
teamkollegen 1018
gesetzt 1017
phrase 1017
1960s 1016
challenge 1016
militarkommandeur 1016
objects 1016
progressiver 1016
14@@ 1015
bearded 1015
lanterns 1015
layer 1015
sushi 1015
dapper 1014
faux 1014
gehoren 1014
or@@ 1014
southwest 1014
ze 1014
energie 1013
gerne 1013
tabby 1013
gabel 1012
klavier 1012
messer 1012
ofen 1012
ripped 1012
sterling 1012
zuges 1012
ber@@ 1011
directly 1011
glacier 1011
ischen 1011
sailboat 1011
zeitgenossische 1011
babies 1010
brightly 1010
flussufer 1010
westkuste 1010
ziegelwand 1010
zog 1010
soap 1009
difference 1008
five 1008
uben 1008
geschaftsleuten 1007
hammock 1007
lachelndes 1007
rund@@ 1006
aufnahmen 1005
beverage 1005
landebahn 1005
landet 1005
tropischer 1005
bemalte 1004
deserted 1004
erreicht 1004
kauft 1004
linke 1004
mm 1004
rescue 1004
spiegelung 1004
worked 1004
flooded 1003
glamorous 1003
herz@@ 1003
hielt 1003
modells 1003
ortlichen 1003
fußballteam 1002
gentleman 1002
magical 1002
triangles 1002
verliebt 1002
wenige 1002
ates 1001
klettern 1001
wiederbelebungsstruktur 1001
brachte 1000
crashing 1000
performed 1000
sculptures 1000
aufmerksamkeit 999
doodle 999
mu@@ 999
ohrringe 999
planting 999
saß 999
turbines 999
adventure 998
galaxie 998
ni@@ 998
dramatiker 997
gs 997
hunderte 997
iert 997
putzt 997
athletes 996
hangematte 996
lifestyle 996
met 996
reservoir 996
anweisungen 995
erhellt 995
erscheinen 995
schien 995
sonniger 995
delivery 994
tallest 994
bricks 993
driveway 993
erkunden 993
pastel 993
reindeer 993
ton 993
unidentified 993
vorhang 993
auftreten 992
consumer 992
empfang 992
gathering 992
relax 992
shelves 992
trainiert 992
basketballmannschaft 991
chandelier 991
hug 991
strand@@ 991
comfort 990
curved 990
g-@@ 990
shoreline 990
teten 990
tore 990
aufkleber 989
kartoffeln 989
operating 989
ozeans 989
fertig 988
mt 988
crying 987
klein@@ 987
prime 987
peaks 986
teddybar 986
troops 986
-stil 985
dritte 985
gen@@ 985
protesters 985
spectacular 985
40 984
fitness 984
hal@@ 984
neueste 984
starring 984
garten@@ 983
platziert 983
regierung 983
removed 983
questions 982
steak 982
einrichtung 981
groß@@ 981
ken 981
konstruktion 981
lifting 981
needed 981
strom 981
außere 980
geworfen 980
notebook 980
presidential 980
rezepte 980
spots 980
tempels 980
definition 979
dis@@ 979
diverse 979
exposed 979
hillside 979
lu@@ 979
tub 979
unteren 979
freshly 978
fuhrte 978
nen 978
einzelne 977
erwartet 977
haustier 977
kundgebung 977
kurzlich 977
monats 977
niedrigen 977
organisms 977
renovated 977
sch 977
toilette 977
enters 976
esel 976
gel@@ 976
monastery 976
pasta 976
rot@@ 976
tor@@ 976
erbaut 975
fernsehen 975
kopfhorer 975
pressure 975
acoustic 974
einsame 974
vektorgrafik 974
industrie@@ 973
rush 973
spending 973
artificial 972
denn 972
glanz 972
serie 972
eigene 971
eleganten 971
gletscher 971
looping 971
bildet 970
elevated 970
fake 970
finishing 970
gla@@ 970
kennen 970
planted 970
stood 970
strawberry 970
sturmer 970
0 969
11 969
17. 969
fitted 969
hunde@@ 969
mandala 969
re 969
senioren 969
snack 969
celebrated 968
converted 968
eins 968
fahrrader 968
freie 968
glauben 968
sail 968
sell 968
cable 967
deine 967
dramatischen 967
feder 967
labyrinth 967
panda 967
joy 966
sturzt 966
historischer 965
malerischen 965
signed 965
trendigen 965
chickens 964
nette 964
tauchen 964
wache 964
wissenschaftler 964
artikel 963
begin 963
flame 963
fußweg 963
genau 963
kante 963
kussen 963
salt 963
skulpturen 963
slightly 963
teilte 963
hochste 962
individual 962
sa@@ 962
digitales 961
informationen 961
separate 961
shots 961
abschnitt 960
erdgeschoss 960
inches 960
kreisen 960
meters 960
tablet-computer 960
bracelet 959
canoe 959
einsamen 959
gefallt 959
protests 959
stuffed 959
breite 958
easily 958
manchmal 958
miniatur@@ 958
active 957
boardwalk 957
gesunde 957
labels 957
poppy 957
raumen 957
schlitten 957
swinging 957
tongue 957
aufzu@@ 956
gangsta-rap-kunstler 956
rau@@ 956
schranke 956
docked 955
gruppen 955
socken 955
basketballspiels 954
dating 954
kombination 954
meerblick 954
tribal 954
werk 954
although 953
fußballtrainer 953
menschlicher 953
ahnelt 952
provided 952
errichtet 951
igen 951
il@@ 951
monster 951
totally 951
bluhende 950
delicate 950
iphone 950
amusement 949
angeordnet 949
fa@@ 949
quickly 949
speisen 949
wardrobe 949
ages 948
chatting 948
disease 948
engen 948
process 948
pug 948
touches 948
elf 947
explore 947
geige 947
schwenken 947
sound 947
stilvollen 947
20th 946
pencils 946
bauarbeiter 945
picked 945
register 945
reichlich 945
styling 945
delfine 944
1950er 943
amount 943
chefs 943
gießt 943
grassy 943
included 943
january 943
lowercase 943
shells 943
stove 943
write 943
zunge 943
doll 942
hervor 942
suits 942
ladder 941
losen 941
nursery 941
wurfel 941
proposed 940
raise 940
shark 940
windigen 940
cause 939
connected 939
docks 939
exhibit 939
hinter@@ 939
poppies 939
saying 939
waschen 939
december 938
kleiderschrank 938
songs 938
wrong 938
began 937
channel 937
geschlossenen 937
gleiche 937
owners 937
paired 937
runners 937
schuppen 937
bemalten 936
besonderen 936
edlen 936
filmfestivals 936
gegossen 936
ing-@@ 936
sharp 936
sportanlage 936
abend@@ 935
baked 935
balance 935
buntem 935
geschaften 935
grafiken 935
prayer 935
qualitativ 935
representing 935
sand@@ 935
werbe@@ 935
fisch@@ 934
listen 934
rider 934
markiert 933
gluhbirne 932
pilze 932
weiß@@ 932
donkey 931
honoring 931
meilen 931
pots 931
spices 931
zuge 931
einheimische 930
einkaufswagen 930
hart 930
national@@ 930
neugeborenes 930
romantische 930
disabled 929
kraft 929
solo 929
erstaunliche 928
layers 928
pa@@ 928
spuren 928
vorort 928
we@@ 928
betet 927
homemade 927
outer 927
split 927
travels 927
chinese 926
eingezeichnet 926
formed 926
glanzende 926
guys 926
großem 925
occasion 925
paste 925
quotes 925
skiern 925
straßenszene 925
4. 924
belebten 924
officials 924
vision 924
and@@ 923
flamme 923
petals 923
receiving 923
schluss 923
tire 923
astra 922
nation 922
violin 922
bedeutung 921
mittleren 921
musicians 921
housing 920
szenerie 920
universe 920
zuschauer 920
alarm 919
betreten 919
kaffeetasse 919
lens 919
liga 919
skifahrer 919
zahne 919
conditions 918
credit 918
geschwindigkeit 918
kombiniert 918
privat@@ 918
tri@@ 918
comfortable 917
gewicht 917
grid 917
stau 917
containing 916
gun 916
luxuriosen 916
pollen 916
sewing 916
whether 916
achten 915
ballon 915
geburtstagskuchen 915
hitze 915
pay 915
ramp 915
scheinen 915
powder 914
beute 913
bulb 913
fernsehproduzent 913
mon@@ 913
teenagers 913
ton@@ 913
ad@@ 912
ehemann 912
gesichts 912
heck 912
pyramid 912
san@@ 912
arrows 911
buttons 911
ereignisses 911
erter 911
frischem 911
safety 911
schichten 911
spaces 911
unterschied 911
bereits 910
beziehung 910
changed 910
dichten 910
fernsehmoderator 910
musste 910
regular 910
schnurrbart 910
windmill 910
died 909
lebens@@ 909
mochten 909
ziegelmauer 909
farbiger 908
isch 908
offering 908
rakete 908
schießen 908
shares 908
sticking 908
hallway 907
keinen 907
nummer 907
veroffentlicht 907
vogel@@ 907
couples 906
decided 906
hosen 906
nahrung 906
14 905
abschluss 905
beinen 905
fashioned 905
großartig 905
heraus@@ 905
schuh 905
waterfalls 905
atemberaubend 904
erhaltlich 904
kamen 904
waist 904
effekt 903
einzelnen 903
marriage 903
notizbuch 903
seagulls 903
distant 902
erhebt 902
philosopher 902
sieger 902
treibt 902
constructed 901
cub 901
einzu@@ 901
geformte 901
laugh 901
lied 901
produktion 901
sparen 901
ste@@ 901
wavy 901
appartement 900
captain 900
february 900
gutes 900
haar@@ 900
institution 900
jemals 900
kreise 900
per@@ 900
stuff 900
brennt 899
dam 899
duty 899
item 899
jahrestag 899
relaxed 899
stadtbild 899
cracked 898
morgendlichen 898
strike 898
armband 897
pressing 897
traume 897
20. 896
acryl 896
aufgestellt 896
flooring 896
geraten 896
quadratische 896
relationship 896
schwenkend 896
snacks 896
sternenhimmel 896
er-@@ 895
everyday 895
handtasche 895
oktober 895
renovierung 895
schmetterlingen 895
kuhlen 894
laufe 894
riesiger 894
blown 893
deinem 893
hutten 893
jahreszeit 893
vektorhintergrund 893
verkehrsschild 893
moose 892
repeat 892
baby@@ 891
knochen 891
notizen 891
rounded 891
schweren 891
stillleben 891
touching 891
ves 891
euro 890
finding 890
fuhlt 890
konig 890
verlangsamt 890
win@@ 890
advertising 889
egal 889
wiesen 889
verlassenes 888
workshop 888
17th 887
atemberaubenden 887
bass 887
bei@@ 887
florale 887
grafische 887
preise 887
1970s 886
ckt 886
dreharbeiten 886
limited 886
technologie 886
winterlandschaft 886
cheerleaders 885
combination 885
composite 885
mal@@ 885
munze 885
niedriger 885
snail 885
destroyed 884
floats 884
geschenkbox 884
orangefarbener 884
pig 884
seats 884
filme 883
injured 883
offentlichkeit 883
sleeves 883
trick 883
trim 883
wasseroberflache 883
herum@@ 882
locals 882
mast 882
raum@@ 882
teig 882
tried 882
ative 881
dar@@ 881
hochsten 881
kalender 881
pfund 881
slim 881
bill 880
discover 880
geschlossen 880
handgezeichnetes 880
seal 880
gesture 879
materialien 879
scenery 879
sses 879
zeitgenossischen 879
banknotes 878
ei@@ 878
enthalt 878
gewand 878
hardware 878
layout 878
lichem 878
probieren 878
surfbrett 878
uferpromenade 878
unterstutzer 878
vine 878
whilst 878
bridges 877
desserts 877
einzigartigen 877
puddle 877
vollstandige 877
echte 876
genutzt 876
resorts 876
spar@@ 876
vorbei@@ 876
career 875
kirschbluten 875
lipstick 875
lowenzahn 875
mama 875
musikfestival 875
sonnenblume 875
spat@@ 875
gewalt 874
grade 874
addition 873
berglandschaft 873
einiger 873
landhaus 873
normal 873
angegangen 872
besetzung 872
nearly 872
wonder 872
ales 871
ananas 871
exercises 871
fußball@@ 871
planen 871
promote 871
sport@@ 871
stepped 871
vogels 871
welcher 871
buros 870
dairy 870
dense 870
expected 870
ingredient 870
rathaus 870
tees 870
brauche 869
capture 869
congratulated 869
craft 869
landmark 869
nieder@@ 869
truppen 869
wrestler 869
3d-rendering 868
altem 868
aufbau 868
hochzeitsfotos 868
wildbahn 868
zed 868
epic 867
least 867
ns 867
parkbank 867
zusatzliche 867
buch@@ 866
elegante 866
mohn 866
pills 866
rotwein 866
außenansicht 865
carving 865
chat 865
reis 865
resolution 865
starker 865
dandelion 864
drehbuchautor 864
dune 864
ohr 864
playoffs 864
skeleton 864
ziegel 864
german 863
prasident 863
sandals 863
schwanz 863
source 863
adler 862
charge 862
exploring 862
fugen 862
kanu 862
regie 862
staring 862
twist 862
wanderweg 862
movies 861
tape 861
worte 861
bezeichnet 860
geschwister 860
moments 860
patch 860
rendered 860
schutz 860
synthpop 860
altar 859
emotional 859
provides 859
thront 859
gegenseitig 858
gu@@ 858
letzter 858
politikern 858
pony 858
pra@@ 858
rooster 858
sings 858
tauben 858
0@@ 857
compass 857
gurtel 857
hell@@ 857
juni 857
marktstand 857
mobeln 857
richtig 857
send 857
zweigen 857
etiketten 856
untersucht 856
collecting 855
continues 855
lets 855
elevation 854
gten 854
ke@@ 854
kunstlern 854
lowe 854
possibly 854
sorte 854
wilder 854
anzeige 853
bringing 853
canopy 852
kehrt 852
names 852
steinmauer 852
wider 852
additional 851
ausgezeichnet 851
beton 851
brucken 851
fahrzeugen 851
jersey 851
klarem 851
online-@@ 851
qu@@ 851
schicht 851
skating 851
turme 851
watermelon 851
ballet 850
nordlichen 850
winners 850
besonders 849
fruh@@ 849
gesundes 849
laternen 849
paare 849
posen 849
bluten@@ 848
perhaps 848
pillows 848
suburban 848
flo@@ 847
gesunden 847
lie 847
usually 847
einmal 846
olympischen 846
vies 846
watched 846
combine 845
fir 845
kontrast 845
mops 845
tailed 845
vaters 845
flats 844
formations 844
heiße 844
laptops 844
nationalen 844
aler 843
angeln 843
eclipse 843
holt 843
steuer 843
torwart 843
weathered 843
float 842
golfplatz 842
mais 842
ohren 842
sails 842
surfers 842
tan 842
theke 842
cycling 841
fliegende 841
gerat 841
holy 841
pi@@ 841
wobei 841
bigger 840
marks 840
romantisches 840
snap 840
ausblicke 839
grows 839
mowe 839
outing 839
receiver 839
rolls 839
satin 839
twilight 838
unveiled 838
versammelten 838
wohnbereich 838
ankle 837
barbecue 837
horizontale 837
monitor 837
patrol 837
sitzung 837
attraktiven 836
ends 836
flut 836
friseur 836
kittens 836
silk 836
wohnhaus 836
carnival 835
erkennen 835
folded 835
gorilla 835
creates 834
environmentalist 834
food@@ 834
gehalten 834
niemand 834
weiteren 834
yards 834
3. 833
attempt 833
ded 833
hinunter@@ 833
kostumen 833
me@@ 833
powerful 833
spatgotische 833
tankstelle 833
unterschiedlichen 833
verleihung 833
asked 832
cozy 832
futtern 832
gelander 832
kurve 832
meeresufer 832
nord@@ 832
arbeit@@ 831
ent 831
maus 831
perspektive 831
racecar 831
rocket 831
straßenschild 831
tu@@ 831
wasche 831
alters 830
cellphone 830
ck 830
end@@ 830
facebook 830
jagd 830
kopf@@ 830
landschaften 830
mischen 830
planning 830
ruhe 830
statt 830
verbindung 830
aufs 829
definitely 829
ebenen 829
forms 829
herbstliche 829
mor@@ 829
prozent 829
trauriger 829
< 828
convertible 828
currency 828
firmen@@ 828
kloster 828
plantation 828
uhren 828
vorteile 828
wichtig 828
hikers 827
kinds 827
wiederholen 827
brennende 826
competing 826
farbigem 826
oliven 826
staaten 826
sto@@ 826
topped 826
dacher 825
grandmother 825
matter 825
schutz@@ 825
zi@@ 825
1960er 824
alternativer 824
musikalische 824
orangefarbene 824
surfing 824
zitrone 824
activity 823
allowed 823
broke 823
cooked 823
dangerous 823
dedicated 823
dinosaur 823
farbenfroher 823
gern 823
modeschopfer 823
moos 823
pfutze 823
cm 822
herstellung 822
kten 822
surfen 822
taille 822
ziegen 822
benefits 821
cranes 821
erklart 821
further 821
mai 821
martialkunstler 821
rei@@ 821
searching 821
ch 820
cookie 820
eisenbahnbrucke 820
flugzeugmodell 820
protect 820
regen@@ 820
tropfen 820
armel 819
damm 819
moglichkeiten 819
offizielle 819
pc 819
verfolgen 819
13 818
cartoons 818
culture 818
glitter 818
griff 818
traurig 818
umge@@ 818
ziemlich 818
aufwandigen 817
camels 817
signage 817
stand@@ 817
undated 817
volunteers 817
inspirieren 816
vineyard 816
wegweiser 816
abzeichen 815
els 815
fishes 815
florist 815
fuhr 815
lang@@ 815
lippenstift 815
mondes 815
rowing 815
angst 814
schranken 814
schurken 814
traf 814
bubble 813
greenery 813
highlighted 813
ivy 813
landern 813
locks 813
mer@@ 813
pferde@@ 813
playful 813
wald@@ 813
wer@@ 813
5th 812
greetings 812
reagieren 812
beams 811
birch 811
embroidered 811
gear 811
hung 811
kite 811
krachen 811
originalen 811
squares 811
tip 811
abenteuer 810
anzu@@ 810
catwalk 810
cuts 810
gestreiften 810
kosten 810
leerzeichen 810
pit 810
playoff 810
runner 810
schonem 810
zubereitet 810
cafes 809
gesellschaft 809
latte 809
militar@@ 809
races 809
related 809
reveal 809
steilen 809
bluht 808
discussing 808
eps 808
railroad 808
besuchte 807
equestrian 807
forces 807
musikgruppe 807
shepherd 807
stadtteil 807
workout 807
ig 806
kauf 806
schwenkt 806
swan 806
bio-@@ 805
blonden 805
botanical 805
etwa 805
fototermin 805
geburt 805
irgendwo 805
kafer 805
ok 805
option 805
participants 805
pin@@ 805
powered 805
sixth 805
swans 805
weist 805
bound 804
rests 804
sandalen 804
schnecke 804
weizen 804
detailaufnahme 803
grußt 803
kurzem 803
prom 803
sache 803
splashing 803
streckt 803
sturmischen 803
testen 803
brennenden 802
kamel 802
leinwand 802
nachtansicht 802
residenz 802
tod 802
jeep 801
schurke 801
standen 801
sticks 801
tiert 801
warehouse 801
winterwald 801
ba@@ 800
plaudern 800
rader 800
southeast 800
tre@@ 800
unesco 800
cone 799
cottages 799
daytime 799
discovered 799
fuhrung 799
passagierflugzeug 799
reasons 799
under@@ 799
vintage-@@ 799
gehirn 798
retten 798
wolkenverhangenen 798
cones 797
echten 797
igem 797
stages 797
strahlen 797
tribune 797
anwesend 796
dre@@ 796
gefaß 796
halb 796
kleinbuchstaben 796
kt 796
stellte 796
surprise 796
toned 796
unbe@@ 796
wood-@@ 796
comune 795
doodles 795
lieferwagen 795
photographers 795
semi 795
sessel 795
tube 795
unterstutzen 795
zwei@@ 795
gegeben 794
heißluftballon 794
kunstlerin 794
ps 794
rehearsal 794
sage 794
scared 794
surfboard 794
ubt 794
viewing 794
begluckwunscht 793
fallenden 793
fernsehprogramm 793
holzerne 793
kostenlose 793
mieten 793
preview 793
scheme 793
verlangsamte 793
ans 792
fang 792
grunde 792
jahres@@ 792
landerspiel 792
liebt 792
olives 792
ons 792
flucht 791
include 791
kneipe 791
linear 791
ne@@ 791
schauspielern 791
schriftstellers 791
yachten 791
absolventen 790
anthem 790
poetry 790
roboter 790
typewriter 790
fruhjahr 789
ikonen 789
neu@@ 789
politicians 789
unterhalb 789
dives 788
hotelzimmer 788
korallen 788
lands 788
original@@ 788
pavement 788
segeln 788
skigebiet 788
.@@ 787
aufstieg 787
bauch 787
der@@ 787
filmstandort 787
geschnitten 787
herbs 787
ober@@ 787
zelten 787
flu@@ 786
herstellt 786
ierten 786
imagine 786
kreation 786
minister 786
polka 786
poor 786
reicht 786
sußigkeiten 786
wind@@ 786
bunt 785
driven 785
kontrolle 785
lamps 785
lizard 785
lucky 785
oldtimer-@@ 785
trio 785
zweige 785
baumzweig 784
hochzeitsempfang 784
maps 784
plates 784
16. 783
embracing 783
kontinent 783
schulab@@ 783
servieren 783
star@@ 783
fiktion 782
kar@@ 782
kultur 782
programm 782
speziellen 782
draws 781
interessante 781
liebling@@ 781
muskeln 781
orangefarbenem 781
tisches 781
umriss 781
vorderen 781
yachts 781
ckte 780
coole 780
et@@ 780
fernsehfigur 780
fuhrungstor 780
gotische 780
impression 780
leine 780
lilies 780
radern 780
schwere 780
serves 780
shine 780
auszu@@ 779
marine@@ 779
depth 778
einkaufstuten 778
ethnische 778
gi@@ 777
grasses 777
nachster 777
namens 777
ne 777
rollt 777
strange 777
vektorsymbol 777
weiter@@ 777
500px 776
bathrooms 776
fahnenmast 776
socialite 776
sollen 776
taube 776
accent 775
atemberaubende 775
bamboo 775
frohlicher 775
historisches 775
indie-rock-kunstler 775
kurs 775
musters 775
plat@@ 775
reminds 775
salmon 775
schaden 775
spaziergange 775
sportmannschaften 775
attraktiver 774
bauernmarkt 774
dunkel 774
feed 774
graph 774
meaning 774
proben 774
rooftop 774
totenkopf 774
wassermelone 774
wieder@@ 774
brautkleid 773
gates 773
hasen 773
ings 773
launched 773
sitz 773
spazierganger 773
16th 772
anchor 772
auges 772
dachte 772
frosty 772
pain 772
pineapple 772
schildes 772
simply 772
benutzte 771
großmutter 771
laboratory 771
lagoon 771
ringe 771
scientist 771
stes 771
taping 771
abzu@@ 770
beads 770
designers 770
honig 770
karriere 770
mude 770
ornamente 770
safari 770
wrist 770
dinosaurier 769
huts 769
indian 769
miete 769
passed 769
tapeten 769
urlaubs 769
vieh 769
establishing 768
kuhlschrank 768
progress 768
stucken 768
13@@ 767
drummer 767
forever 767
muscles 767
ruft 767
walled 767
50@@ 766
chen@@ 766
fruhlingsblumen 766
klein 766
mood 766
plastik@@ 766
transit 766
verfolgt 766
witch 766
announced 765
artistic 765
directions 765
fruhmorgens 765
hochzeitsfeier 765
impressive 765
minimal 765
nationalmannschaft 765
tastatur 765
hu@@ 764
granite 763
ieren 763
innenansicht 763
oberhalb 763
recycled 763
tur@@ 763
ultimate 763
bildender 762
erzeugen 762
feuerstelle 762
militarkommandanten 762
ters 762
tippen 762
handle 761
prasentieren 761
zeile 761
bedeckten 760
escape 760
forests 760
funften 760
hau@@ 760
kiefernwald 760
niedergeschlagen 760
warmer 760
whiskey 760
changes 759
diving 759
eigenes 759
hintergrundbild 759
ischer 759
kalligraphien 759
lovers 759
regional 759
grafik 758
halle 758
knie 758
lagune 758
luxurious 758
valentine 758
anders 757
asleep 757
bronze@@ 757
mixing 757
pickup 757
tanzerin 757
towel 757
wander@@ 757
gefullt 756
hamburger 756
hosts 756
pp@@ 756
seagull 756
somewhere 756
studios 756
zebras 756
automobilen 755
dolphin 755
feather 755
fußgangerbrucke 755
gingen 755
insekten 755
na@@ 755
australische 754
ballons 754
basketball@@ 754
erstreckt 754
ic 754
inflatable 754
preparation 754
rabatt 754
rack 754
receive 754
tern 754
felsige 753
gewesen 753
grain 753
kayak 753
lauf@@ 753
motorrader 753
penguins 753
traum 753
welches 753
breeze 752
mysterious 752
shakes 752
stoff@@ 752
u-bahn 752
zwiebeln 752
backsteinmauer 751
breiten 751
engraved 751
malt 751
primary 751
sti@@ 751
sub@@ 751
labrador 750
plaid 750
treatment 750
ally 749
electricity 749
endes 749
projects 749
roofs 749
checken 748
fahrradern 748
geschossen 748
gesichtsausdruck 748
kugeln 748
pergola 748
pfluckt 748
rechte 748
string 748
texturiertes 748
windschutzscheibe 748
calf 747
fleck 747
produced 747
ran 747
transparenten 747
weinberg 747
bra@@ 746
dejected 746
dose 746
einzel@@ 746
geschafts 746
ubungen 746
deren 745
jogging 745
recording 745
signiert 745
tiled 745
truly 745
article 744
beherbergt 744
bergsteiger 744
bunny 744
derzeit 744
exercising 744
ish 744
shrine 744
ankommt 743
dicken 743
lime 743
objekt 743
reise@@ 743
stan@@ 743
unbekannten 743
attraktives 742
freitagabend 742
gesamte 742
heilige 742
overview 742
reaches 742
rundenspiels 742
sliced 742
wichtigsten 742
augen@@ 741
boutique 741
cotton 741
cubes 741
department 741
front@@ 741
gegenuber 741
matte 741
parrot 741
rolled 741
terraced 741
violette 741
activities 740
gemeinsamen 740
militarische 740
reich 740
seemed 740
textes 740
duke 739
magnifying 739
pages 739
teilnehmen 739
update 739
1930er 738
basketballteam 738
belonging 738
extension 738
lantern 738
lupe 738
papa 738
pinke 738
starten 738
subspecies 738
ziellinie 738
außenseite 737
code 737
erschien 737
karten@@ 737
kran 737
lining 737
anlage 736
chten 736
cuisine 736
damage 736
dates 736
handchen 736
herbst-@@ 736
kicking 736
ließ 736
mean 736
weihnachtslichter 736
behandlung 735
dauer@@ 735
ended 735
finales 735
geworden 735
man@@ 735
meiste 735
presseraum 735
stadions 735
stops 735
tv-@@ 735
wascht 735
westwood 735
bowling 734
continue 734
manufacturing 734
saule 734
sudwesten 734
tieres 734
vollig 734
athletic 733
ausrustung 733
da@@ 733
goals 733
myself 733
repeating 733
umarmung 733
violet 733
weeks 733
angriff 732
bark 732
buddhist 732
komplex 732
pyramide 732
raumes 732
schwarz-weiß-foto 732
seem 732
seltene 732
seniorin 732
education 731
einladung 731
mesh 731
tulip 731
archivfoto 730
attempts 730
fiktiven 730
hauptschlafzimmer 730
huhner@@ 730
impact 730
load 730
push 730
suppe 730
capped 729
freies 729
getranke 729
insects 729
jemanden 729
leckereien 729
lifts 729
loss 729
nachricht 729
protective 729
ex@@ 728
konzipiert 728
participate 728
reisfeld 728
riders 728
talent 728
teal 728
turbine 728
woodland 728
beruhrt 727
introduced 727
previous 727
published 727
seventh 727
tanz@@ 727
hulle 726
rebound 726
teuersten 726
torn 726
aussichtspunkt 725
avocado 725
dribbles 725
gefallen 725
locken 725
mitgliedern 725
modernem 725
neujahrs@@ 725
occupied 725
parallel 725
tires 725
© 725
multicolored 724
script 724
seele 724
thumb 724
trauung 724
baking 723
bronzestatue 723
campfire 723
difficult 723
dust 723
gehirns 723
marathon 723
motherboard 723
random 723
boards 722
checks 722
dough 722
engineer 722
feuchten 722
graben 722
opportunity 722
reiter 722
banknote 721
cash 721
designated 721
dramatische 721
gepflanzt 721
herr 721
taxis 721
textures 721
verlassene 721
wildflowers 721
woven 721
zitate 721
backgrounds 720
model@@ 720
tracking 720
winken 720
18 719
apart 719
back@@ 719
bedingungen 719
fall@@ 719
gefahren 719
gestikuliert 719
kindergarten 719
renovation 719
sauberen 719
ursprunglich 719
calling 718
dern 718
elle 718
funktioniert 718
gender 718
gesundheit 718
haustiere 718
independence 718
ju@@ 718
limousine 718
nightclub 718
paradise 718
percent 718
retired 718
roasted 718
außer 717
casting 717
daten 717
duo 717
helles 717
mundung 717
trockene 717
ag@@ 716
goldmedaille 716
knows 716
laterne 716
motorcycles 716
muddy 716
research 716
sho@@ 716
wake 716
wenigen 716
abendkleid 715
advert 715
checkt 715
cropped 715
damen@@ 715
em@@ 715
temples 715
verbrachte 715
autofahrer 714
average 714
bikes 714
blows 714
car@@ 714
chimney 714
eiern 714
kostume 714
militarkommandeurs 714
opted 714
trocknen 714
ty 714
bahnsteig 713
derelict 713
jewellery 713
kreises 713
seasons 713
vi@@ 713
wal@@ 713
brilliant 712
bug 712
cu@@ 712
drittes 712
grilled 712
lap 712
ribbons 712
synthpop-kunstler 712
tundra 712
verpackung 712
dip 711
fordern 711
ig@@ 711
mechanic 711
sketches 711
sticker 711
wettbewerbs 711
alteste 710
calls 710
college-fußballspiels 710
geoffneten 710
glimpse 710
lakes 710
leadsanger 710
outskirts 710
regionen 710
ser@@ 710
artisten 709
auffahrt 709
ber 709
chose 709
containers 709
picks 709
schwane 709
endem 708
erst@@ 708
illusion 708
rustikale 708
schrift@@ 708
seiden@@ 708
showroom 708
twitter 708
warming 708
willst 708
appliances 707
client 707
clubs 707
drei 707
footpath 707
kostenlosen 707
ler 707
mat@@ 707
nachrichten 707
whisky 707
wi@@ 707
zuvor 707
barbed 706
beten 706
fort 706
netten 706
raster 706
schlager 706
schnappschuss 706
shipping 706
stre@@ 706
vergessen 706
cra@@ 705
handler 705
planets 705
pon@@ 705
stahl 705
tackel 705
bahn 704
chalkboard 704
fuchs 704
geeignet 704
postcard 704
wallet 704
whose 704
badge 703
blind 703
data 703
flieger 703
mate 703
schau@@ 703
schlussel@@ 703
sonnenaufgangs 703
thatched 703
wirst 703
ahnliches 702
confident 702
diet 702
folge 702
irgendwann 702
kasten 702
locked 702
proud 702
warnschild 702
wasserfalle 702
ausschau 701
drivers 701
einfahrt 701
entschied 701
entwurfe 701
fi@@ 701
finals 701
blicke 700
fabulous 700
madchen@@ 700
malerische 700
schwarz-weißen 700
staying 700
brauner 699
bulldog 699
cking 699
duchess 699
feels 699
om@@ 699
passenden 699
probleme 699
aktivitaten 698
ander 698
asking 698
bucherregal 698
ca@@ 698
geschmuckten 698
nahen 698
olgemalde 698
pins 698
produktionsfirma 698
valentinstag 698
frohlichen 697
hinaus 697
modelle 697
starren 697
vektors 697
wur@@ 697
ball@@ 696
bandern 696
boss 696
bridesmaids 696
cricketspielers 696
curious 696
fer@@ 696
januar 696
metro 696
nautical 696
rat@@ 696
tau@@ 696
beamte 695
benz 695
cancer 695
charaktere 695
entitled 695
personlichen 695
routine 695
schlagzeuger 695
caused 694
dichter 694
dunne 694
fusion 694
jubilaum 694
orchard 694
stretches 694
backen 693
backs 693
herzogin 693
layered 693
r 693
riesen@@ 693
th 693
vivid 693
cheap 692
daisies 692
politikerin 692
professor 692
rail 692
uberrascht 692
anlasslich 691
broadcast 691
crocodile 691
fen 691
metropolitan 691
nachtlichen 691
out@@ 691
seafront 691
vessel 691
vorgarten 691
blu@@ 690
brunch 690
clutch 690
combined 690
gastezimmer 690
geschirr 690
marking 690
quadratischer 690
tut 690
verziert 690
30@@ 689
bob 689
courtesy 689
gelbliche 689
kit 689
militarischer 689
steering 689
tagsuber 689
thrown 689
ugly 689
vorgestellt 689
allow 688
blickwinkel 688
fensterbank 688
formalen 688
ks 688
metallischen 688
painter 688
qualitat 688
schwimmer 688
wiegt 688
ausdruck 687
dach@@ 687
demonstrators 687
foyer 687
hafens 687
hintergrundkonzept 687
nationalhymne 687
regions 687
reiche 687
skizzen 687
wunschen 687
ziert 687
bathtub 686
bomber 686
eisenbahn 686
elektro@@ 686
freundlich 686
hamster 686
klebt 686
sites 686
taschen 686
umgibt 686
besondere 685
carefully 685
chte 685
gerettet 685
roadside 685
schwarz-weiß-@@ 685
studded 685
versammelt 685
visitor 685
dig 684
freiheit 684
injury 684
mercedes 684
niedrige 684
nummern 684
originally 684
schmalen 684
tough 684
weihnachtskarte 684
1980s 683
amerikanisches 683
cameras 683
engraving 683
hibiscus 683
nebeneinander 683
wunschte 683
addresses 682
bur@@ 682
ertem 682
fingern 682
fu@@ 682
glitzernden 682
grave 682
happily 682
iris 682
liberty 682
mosaik 682
alligator 681
animiert 681
ben@@ 681
com@@ 681
dot 681
handschrift 681
overall 681
pint 681
pound 681
sheer 681
spiegelbild 681
verlieren 681
verliert 681
appeal 680
basteln 680
besetzt 680
dated 680
erzielen 680
fahrenden 680
fitting 680
gilt 680
han@@ 680
handgezeichneter 680
jungsten 680
modedesignerin 680
olympiateilnehmerin 680
replica 680
report 680
rivers 680
sorgt 680
60 679
avoid 679
dekorieren 679
knoten 679
lip 679
politik 679
sed 679
steg 679
sword 679
target 679
universum 679
untergeht 679
wahlt 679
blaubeeren 678
bushes 678
donned 678
drying 678
gedenken 678
hanger 678
likely 678
slices 678
ties 678
fahrzeugs 677
mel@@ 677
os 677
regisseurs 677
verfugbar 677
vergnugen 677
wagon 677
werkzeuge 677
10th 676
battles 676
boden@@ 676
dropped 676
fjord 676
irgendetwas 676
jahrliche 676
kur@@ 676
loses 676
min@@ 676
prince 676
schlafzimmers 676
unterarten 676
brandung 675
highly 675
modischer 675
monkeys 675
reisende 675
sommers 675
25 674
cher 674
climbs 674
kalte 674
medizinische 674
minuten 674
penguin 674
stem 674
zubereiten 674
bust 673
chip 673
considered 673
datum 673
ful 673
generated 673
niedliche 673
schriftzuge 673
schwimmenden 673
wor@@ 673
zahlt 673
det 672
handtuch 672
jars 672
lava 672
luxuriose 672
trat 672
wasserfalls 672
accents 671
braten 671
crawling 671
engaged 671
mint 671
wetteifern 671
bergkette 670
cht 670
entscheiden 670
gebirgskette 670
kummert 670
overcast 670
selbst@@ 670
sisters 670
sse 670
unterstutzt 670
unterwasser@@ 670
verbringt 670
wellen@@ 670
worter 670
angebot 669
dezember 669
employees 669
farbtupfer 669
islamic 669
jagt 669
kaukasische 669
saving 669
surgery 669
verbinden 669
aktivitat 668
cyclists 668
haufen 668
hinzugefugt 668
kan@@ 668
kleidungsstucke 668
merry 668
musikvideo-performer 668
mustache 668
mutter@@ 668
platten 668
tool 668
werkstatt 668
device 667
identity 667
katzen@@ 667
person@@ 667
schicke 667
souvenirs 667
zuerst 667
all@@ 666
anchored 666
bel@@ 666
betritt 666
ches 666
clash 666
facial 666
leichten 666
passieren 666
ruhige 666
shutters 666
umweltschutzer 666
vest 666
vintagestil 666
baseballspiel 665
beef 665
bluhender 665
exit 665
kisses 665
mannschaften 665
matrosen 665
paints 665
unternehmens 665
verandern 665
wacht 665
6th 664
blockiert 664
evolution 664
hide 664
japanese 664
kriecht 664
mail@@ 664
naturliches 664
apfeln 663
autumnal 663
berggipfel 663
defender 663
fantastic 663
fohlen 663
forget 663
liebte 663
oversized 663
reh 663
rugbyspieler 663
traurigen 663
aurora 662
brautjungfern 662
feuer@@ 662
heu 662
sahen 662
verkehrszeichen 662
boxen 661
geschickt 661
großere 661
losung 661
messages 661
options 661
returned 661
schornstein 661
schutteln 661
skiing 661
spectators 661
tage@@ 661
zes 661
einstellung 660
envelope 660
kajak 660
ssen 660
weinglaser 660
werbeveranstaltung 660
1920er 659
bauwerk 659
dances 659
fact 659
fin@@ 659
gerate 659
mehr@@ 659
orbit 659
ren@@ 659
schnabel 659
supplies 659
trikot 659
uberreicht 659
flacher 658
ine 658
kleinem 658
legte 658
mar@@ 658
offnung 658
raus 658
stadtrand 658
stepping 658
telephone 658
verstecken 658
whistle 658
wiederkehrenden 658
wunder 658
1970er 657
einfuhrung 657
lastwagen 657
pumps 657
rectangular 657
ruined 657
stils 657
betrieb 656
direct 656
dreaming 656
fee 656
freundliche 656
futuristic 656
maisfeld 656
publishing 656
regale 656
zugefrorenen 656
aren 655
becomes 655
diamant 655
dung 655
fed 655
gelblichen 655
jung@@ 655
kte 655
probe 655
value 655
verloren 655
dentist 654
hute 654
icy 654
kaktus 654
korper@@ 654
loves 654
mahlzeiten 654
offenem 654
poet 654
scientists 654
ss 654
sta@@ 654
telescope 654
wintermorgen 654
burn 653
clearly 653
collar 653
developed 653
erwachsenen 653
gesprache 653
leerem 653
liebhaber 653
rink 653
tute 653
alteres 652
cks 652
kaffeetisch 652
signal 652
strande 652
weihnachtsdekoration 652
wicker 652
...... 651
auszeichnungen 651
beliebtesten 651
graues 651
metres 651
spitzen@@ 651
starfish 651
traditionellem 651
architektonische 650
connecting 650
deiner 650
dunen 650
februar 650
growth 650
holzbrett 650
meals 650
ph@@ 650
phase 650
staates 650
studieren 650
typisches 650
ahneln 649
ausgestattet 649
hauptbuhne 649
hero 649
leichte 649
metallische 649
mostly 649
stilvoll 649
approaches 648
ceo 648
dient 648
drei@@ 648
dunks 648
masse 648
scattered 648
schwert 648
segelt 648
trash 648
cycle 647
mauern 647
measuring 647
meister 647
static 647
binoculars 646
clay 646
crab 646
dampflokomotive 646
electrical 646
fruhlingshaften 646
geschnitzt 646
ked 646
videos 646
wolkenkratzern 646
baren@@ 645
hunting 645
kinderwagen 645
palms 645
platze 645
punch 645
purchased 645
rutsche 645
virtual 645
businessmen 644
kocht 644
modische 644
stayed 644
sternen@@ 644
texte 644
volcano 644
ward 644
administrativen 643
basketballschießwart 643
bt 643
consider 643
cubs 643
dimension 643
felsbrocken 643
gedanken 643
hear 643
mum 643
schafherde 643
blogger 642
carrots 642
dribbelt 642
fluttering 642
levels 642
marked 642
pops 642
stalls 642
steadicam 642
unterkunftstyp 642
vectors 642
wunderschon 642
desktop 641
durchquert 641
felsformationen 641
ghost 641
kampfes 641
knew 641
rock@@ 641
schalen 641
showcase 641
wirbt 641
<3 640
ak@@ 640
ity 640
junction 640
kopierraum 640
singles 640
vendors 640
versus 640
zeichentrick@@ 640
alcohol 639
horns 639
kirschen 639
menschen@@ 639
mull 639
oriental 639
schreibmaschine 639
scissors 639
tags 639
wasserloch 639
bemalen 638
frucht 638
handbag 638
industriellen 638
kleinere 638
lackierung 638
lord 638
machten 638
manufacturer 638
niederlage 638
premierenfeier 638
schmuck@@ 638
suspended 638
vorhange 638
bakery 637
basement 637
drum 637
graduates 637
lockeren 637
reflective 637
selective 637
tender 637
essbereich 636
holztur 636
santa 636
tap 636
weste 636
aufgeregt 635
aussah 635
bestehend 635
doppelbett 635
gestaltet 635
innenarchitektur 635
kurzer 635
prey 635
pri@@ 635
rockband 635
rugged 635
unterschiedliche 635
bildungseinrichtung 634
fan@@ 634
fein@@ 634
ften 634
hervorgehoben 634
kameras 634
schach 634
sektion 634
stra@@ 634
textile 634
turkey 634
unterricht 634
villen 634
cherries 633
greeted 633
großeren 633
kal@@ 633
letztes 633
saft 633
style@@ 633
faced 632
les 632
likes 632
marching 632
mushroom 632
problems 632
schnursenkel 632
seashore 632
terrassen@@ 632
answer 631
applying 631
condition 631
design@@ 631
fensters 631
fighter 631
mittelpunkt 631
ran@@ 631
smallest 631
statesman 631
wirtschaft 631
zeichentrickillustration 631
dra@@ 630
hervor@@ 630
pie 630
ster@@ 630
sumpf 630
.000 629
angeboten 629
fullt 629
genossen 629
holzhaus 629
hoop 629
ka@@ 629
plakate 629
stisch 629
1930s 628
creme 628
dame 628
distressed 628
graduate 628
konflikt 628
london@@ 628
premierenparty 628
sari 628
sportliga 628
stories 628
stromen 628
struck 628
sudosten 628
traurige 628
17 627
60@@ 627
extended 627
flare 627
flattert 627
kaufer 627
logo-symbol 627
mach 627
prozess 627
returning 627
riesiges 627
stange 627
stock@@ 627
tuch 627
verkehrs@@ 627
violettem 627
80 626
bildung 626
flashing 626
krafte 626
puppen 626
spacious 626
buste 625
futterung 625
ged 625
gesagt 625
parken 625
racer 625
tv-genre 625
umfasst 625
wettkampf 625
minimalistischen 624
potential 624
rasse 624
schlangelt 624
schmuckt 624
sel@@ 624
sleek 624
stromt 624
temporary 624
tierte 624
tru@@ 624
dauerhafte 623
gem 623
landliche 623
lebte 623
luftballon 623
motorway 623
pigeons 623
review 623
speaker 623
activist 622
cabrio 622
fliegenden 622
gebet 622
gradient 622
hardwood 622
heimischen 622
kurz@@ 622
musikfest 622
shopper 622
tunnels 622
verlobungsring 622
becoming 621
cke 621
erd@@ 621
greet 621
harvested 621
humans 621
nah 621
oldtimers 621
riff 621
sc@@ 621
tilt 621
verschwommenen 621
charm 620
checkered 620
fre@@ 620
groups 620
harvesting 620
hocker 620
kollegen 620
nusse 620
transform 620
warnt 620
blizzard 619
blueskunstlers 619
cken 619
dahinter 619
farms 619
foto-sharing-webseite 619
foul 619
kritzeleien 619
lays 619
loop 619
plattform 619
teamed 619
12th 618
amid 618
außenaufnahme 618
bushaltestelle 618
freundlicher 618
greek 618
medizinischen 618
spur 618
turms 618
astronauten 617
beruhmt 617
burnt 617
ebenfalls 617
flug@@ 617
gruppierung 617
indoors 617
is@@ 617
kreis@@ 617
reveals 617
smoothie 617
stolen 617
touristin 617
vast 617
wildnis 617
horrorfilm 616
jugendliche 616
kleben 616
luxurioses 616
morgenlicht 616
vektorsilhouetten 616
betrachter 615
blueberries 615
shake 615
stray 615
dachern 614
dove 614
employee 614
fun@@ 614
gears 614
großbritannien 614
memory 614
tan@@ 614
bahnhofs 613
banknoten 613
kai 613
polished 613
protestieren 613
rescued 613
spitzen 613
stethoscope 613
aid 612
crisp 612
erosion 612
felswand 612
fruh 612
ga@@ 612
geschaftigen 612
hen 612
jumper 612
leuchtende 612
partially 612
sal@@ 612
trage 612
bauarbeiten 611
del@@ 611
eindruck 611
flash 611
gefuhrt 611
geschlagen 611
lokaler 611
maze 611
overnight 611
silky 611
veil 611
50th 610
algen 610
frying 610
glanzend 610
isches 610
outlined 610
parliamentary 610
seasonal 610
transformed 610
bewegungen 609
bild@@ 609
dental 609
eidechse 609
everywhere 609
gekommen 609
grew 609
hinzuzufugen 609
kom@@ 609
marmor 609
matten 609
museums 609
pear 609
rein@@ 609
represent 609
stile 609
trendiges 609
anruf 608
boho 608
deckel 608
ene 608
ff@@ 608
gasten 608
gehege 608
peeking 608
schriftstil 608
timber 608
vollstandig 608
weiche 608
15th 607
believed 607
computers 607
documents 607
gleich 607
kli@@ 607
kompass 607
purpose 607
ambulance 606
barely 606
basierend 606
behalten 606
cing 606
purchase 606
reflexionen 606
schiffen 606
uniforms 606
valentines 606
wiegen 606
75 605
diskutiert 605
familienzimmer 605
feierte 605
filmed 605
go@@ 605
guckt 605
hai 605
nachtklub 605
piste 605
schwan 605
seas 605
sorgfaltig 605
wool 605
blossoming 604
ce 604
estuary 604
pflucken 604
profi-boxer 604
slides 604
sobald 604
tones 604
traumen 604
vegan 604
eisen@@ 603
emotionen 603
herausforderung 603
jagged 603
kopfe 603
lag 603
ost@@ 603
spiegelungen 603
sported 603
bestehen 602
butter@@ 602
crops 602
feuerwehrmann 602
herstellen 602
ie@@ 602
ruhig 602
seriously 602
strikes 602
bones 601
higher 601
moglichkeit 601
multi@@ 601
sitzgelegenheiten 601
slip 601
sporting 601
spruce 601
tanks 601
traum@@ 601
typen 601
wendet 601
armchair 600
entscheidung 600
erganzen 600
flussigkeit 600
geometrisches 600
lodge 600
verletzt 600
described 599
grasbewachsenen 599
len 599
lich@@ 599
medals 599
montiert 599
nebula 599
sonnenbrillen 599
staub 599
act 598
crews 598
ikonischen 598
marker 598
schwarz-weißer 598
sieger@@ 598
tale 598
ban@@ 597
enthullung 597
geschichten 597
hochzeiten 597
peacock 597
physiker 597
polish 597
ringen 597
schurkenstaat 597
texturen 597
theaters 597
trade 597
8th 596
abseits 596
aufgeht 596
backerei 596
drew 596
eisbar 596
gebirgsfluss 596
lesson 596
orchid 596
uberreste 596
waage 596
commuters 595
fulle 595
glory 595
grocery 595
hoffnung 595
ie 595
massen 595
perfume 595
tickets 595
waldweg 595
zt 595
acres 594
barrel 594
bewundern 594
holzzaun 594
jobs 594
konigliche 594
sozialen 594
wed 594
weite 594
wrought 594
aktuellen 593
detached 593
milch@@ 593
praktiziert 593
sphere 593
40@@ 592
definitiv 592
foto@@ 592
gefrorenen 592
gingerbread 592
heim 592
heim@@ 592
kuchen@@ 592
lebendigen 592
meereswellen 592
potato 592
rundes 592
aktor 591
clearing 591
cre@@ 591
defense 591
dekorativer 591
fte 591
karton 591
lenkrad 591
membership 591
minimalistisches 591
orangensaft 591
oval 591
pathway 591
pours 591
procession 591
rettet 591
tief@@ 591
tracht 591
turtles 591
busch 590
fließenden 590
gathers 590
grund@@ 590
heißluftballons 590
holzbrucke 590
marmor@@ 590
modellathlet 590
neutralen 590
spritzer 590
sudlichen 590
weint 590
bewacht 589
content 589
genden 589
happiness 589
isometrisches 589
ku@@ 589
lander@@ 589
lifted 589
majestic 589
passend 589
pfeiler 589
pilz 589
riot 589
skelett 589
stammt 589
wochen 589
12. 588
barfuß 588
climber 588
dreieck 588
firefighter 588
frei@@ 588
gravel 588
hauptstrasse 588
ladung 588
recht 588
seafood 588
zerstort 588
cluster 587
cowboys 587
fernsehshow 587
gemischte 587
hexe 587
joke 587
physikalischen 587
regierungs@@ 587
waffe 587
baskets 586
darstellen 586
gewurze 586
luxus@@ 586
muscular 586
neugeborenen 586
projekte 586
properties 586
putt 586
schi@@ 586
texting 586
tic 586
behalter 585
bowls 585
colleagues 585
dreiecken 585
fla@@ 585
ordnung 585
schrein 585
teaching 585
tribe 585
ballen 584
beladen 584
brautkleider 584
dauert 584
fiel 584
juli 584
kummern 584
locker 584
publicity 584
summers 584
verließ 584
alien 583
banane 583
bares 583
freundes 583
gemuse@@ 583
gratis 583
juicy 583
ostereier 583
portals 583
spritze 583
suburbs 583
treppenhaus 583
winterlicher 583
ble 582
buro@@ 582
fiber 582
fo@@ 582
fuhrers 582
geese 582
gefeiert 582
heaven 582
komodienfilms 582
nadeln 582
newest 582
offices 582
peaceful 582
squad 582
wahre 582
boarding 581
burned 581
cloth 581
consisting 581
cting 581
eingebettet 581
feld@@ 581
fellow 581
la 581
nestled 581
tv-programm 581
verfassungsmaßige 581
zten 581
bullen 580
carrier 580
ersetzt 580
exterieur 580
horseback 580
kor@@ 580
lichkeit 580
portrat@@ 580
umrisse 580
vines 580
younger 580
arrangiert 579
braunes 579
charme 579
contains 579
erleben 579
fliese 579
keramik@@ 579
paid 579
qualifikation 579
ups 579
wolken@@ 579
aufwarmen 578
dienst 578
flair 578
iceberg 578
makeover 578
oranges 578
passage 578
sample 578
spirits 578
dew 577
fle@@ 577
flusse 577
gluckwunsch@@ 577
informal 577
knall 577
pen@@ 577
pfeife 577
schwingt 577
sehe 577
sleeps 577
tassen 577
500 576
ceilings 576
einzelner 576
loading 576
modischen 576
schonste 576
twins 576
zusatzlichen 576
5. 575
auflosung 575
blow 575
har@@ 575
komponisten 575
statte 575
strick@@ 575
verandert 575
25@@ 574
adjacent 574
bander 574
dro@@ 574
euch 574
nudeln 574
offiziell 574
rennfahrer 574
setzte 574
sonnenfinsternis 574
spin 574
trotz 574
wutend 574
6. 573
ched 573
depressed 573
handschuh 573
landscaping 573
lief 573
offered 573
prarie 573
stable 573
tutorium 573
barefoot 572
bungalow 572
collected 572
fruhmorgendlichen 572
gymnastik 572
handgelenk 572
handschuhen 572
jemandem 572
kreuz@@ 572
slalom 572
unicorn 572
bil@@ 571
kt@@ 571
megaphone 571
parliament 571
schlusspfiff 571
textilien 571
umschlag 571
zeichentrickfigur 571
allows 570
baums 570
crest 570
gotteshaus 570
grat 570
kalb 570
krieg 570
masks 570
muschel 570
sagten 570
schlecht 570
terrain 570
weißkopfseeadler 570
worten 570
canadian 569
farbenen 569
kamele 569
kopft 569
lin@@ 569
pendler 569
sitze 569
sun@@ 569
altesten 568
avenue 568
except 568
follows 568
fragment 568
funktion 568
hemden 568
lampen 568
ruhiger 568
stethoskop 568
sts 568
vorder@@ 568
assigned 567
außenbereich 567
basiert 567
drehung 567
empire 567
enclosed 567
hirsch 567
krankheit 567
marktplatz 567
meisterschaften 567
mermaid 567
scht 567
stress 567
territory 567
wrapping 567
absolutely 566
doorway 566
eingesetzt 566
erleuchtet 566
faust 566
fortress 566
headset 566
holes 566
pollution 566
postete 566
skarte 566
ss18 566
unterhalt 566
verfassungsrepublik 566
begrußen 565
bonfire 565
debris 565
enen 565
formigen 565
furnished 565
gelegt 565
geschenkt 565
involved 565
joins 565
tarmac 565
armeln 564
bequem 564
corridor 564
farbiges 564
glanzender 564
j@@ 564
saison@@ 564
sponsored 564
alive 563
angeblich 563
burst 563
evil 563
festtages 563
flavor 563
geographischen 563
heutigen 563
hohlen 563
of@@ 563
schatten@@ 563
schiffstyp 563
schleppt 563
sonnigem 563
teleskop 563
werke 563
abgelegenen 562
alkohol 562
canals 562
ching 562
danke 562
darum 562
maschinen 562
metallischer 562
rufen 562
bonbons 561
breath 561
brothers 561
clad 561
documentary 561
drawers 561
emerald 561
finds 561
fired 561
genen 561
grandfather 561
klar 561
transportiert 561
wahlkampfveranstaltung 561
-design 560
dj 560
gegangen 560
greifen 560
lab 560
offener 560
sturms 560
twisted 560
wort@@ 560
bid 559
ckten 559
derte 559
dete 559
examples 559
hungry 559
privacy 559
sichtweise 559
speichern 559
strip 559
temperaturen 559
7th 558
blur 558
cane 558
erzeugt 558
hint 558
kuhne 558
lieblings-@@ 558
octopus 558
schick 558
billboard 557
box@@ 557
dreh@@ 557
drums 557
dunnen 557
embrace 557
focused 557
geoffnete 557
herzog 557
j 557
kofferraum 557
raises 557
savanne 557
sechsten 557
ski@@ 557
strapless 557
unglaublich 557
weiden 557
15. 556
barge 556
bewaldeten 556
bored 556
cabinet 556
erinnerung 556
fires 556
fisches 556
ke 556
komfort 556
organisiert 556
richtungen 556
wasserhahn 556
zeitgenossischer 556
ats 555
bartiger 555
climate 555
crochet 555
dynamic 555
easier 555
englischen 555
itat 555
pu@@ 555
react 555
tisch@@ 555
turban 555
vorschau 555
werkzeug 555
allee 554
array 554
beak 554
cheering 554
constellation 554
erzahlt 554
extrem 554
facts 554
flip 554
formige 554
originelle 554
pigs 554
polizeiauto 554
population 554
privater 554
regalen 554
ska 554
skater 554
vielfalt 554
-illustration 553
ations 553
einsames 553
fernsehserien 553
friedhof 553
kimono 553
premium 553
skateboarder 553
tights 553
weidet 553
abendlicht 552
actual 552
andern 552
bohemian 552
experimental 552
fluss@@ 552
hugs 552
karierten 552
kurven 552
surround 552
trunks 552
tt@@ 552
umgewandelt 552
y-@@ 552
dam@@ 551
entwurf 551
funky 551
graze 551
hi@@ 551
kurbissen 551
managed 551
modelliert 551
muster@@ 551
papers 551
profession 551
proudly 551
segelboote 551
seiten@@ 551
tourism 551
comics 550
gon 550
imax 550
landmarks 550
leitfaden 550
lions 550
messy 550
sudkuste 550
agent 549
animierte 549
cape 549
compound 549
gelegenheit 549
selbstportrat 549
snowstorm 549
swims 549
texts 549
zahn@@ 549
bridesmaid 548
burns 548
eigentumswohnung 548
grob 548
hoodie 548
kunde 548
luck 548
ner 548
schematic 548
sur@@ 548
surft 548
upside 548
zte 548
blumchen 547
cardigan 547
dar 547
exactly 547
freeway 547
jahr@@ 547
liegend 547
lilac 547
mittlerer 547
neckline 547
schildkroten 547
schwerer 547
teachers 547
theaterschauspieler 547
weihnachtszeit 547
worried 547
zucker 547
belly 546
kaffeebohnen 546
promotion 546
tages@@ 546
tucked 546
unveiling 546
bales 545
cd 545
danger 545
freundschaftsspiel 545
fugt 545
jacht 545
kommerziellen 545
reclaimed 545
reflect 545
rennstrecke 545
run@@ 545
samstagabend 545
stopping 545
touchline 545
chaos 544
digitalen 544
gemusterte 544
haupteingang 544
landerspiels 544
moschee 544
pop-rock-kunstler 544
teilung 544
verkaufer 544
19@@ 543
breeds 543
cheetah 543
gebunden 543
hockt 543
konferenz 543
kusse 543
motor@@ 543
punk 543
rehe 543
stilvolles 543
wo@@ 543
anbau 542
cheers 542
firm 542
gefahr 542
kern 542
reflects 542
renn@@ 542
reserve 542
stucks 542
sturz 542
70@@ 541
barer 541
briefmarke 541
carrot 541
diejenigen 541
fruhjahrsmodenschau 541
knien 541
morgensonne 541
performers 541
rucken@@ 541
vermeiden 541
column 540
eighth 540
fantasy 540
gefarbte 540
leash 540
papagei 540
partial 540
blattes 539
cartoon-vektorillustration 539
deten 539
ely 539
erwachsener 539
fights 539
followed 539
gelassen 539
gemusterten 539
hairdresser 539
haken 539
markets 539
nutzt 539
pearl 539
pensive 539
realistisches 539
rinde 539
schwarz-@@ 539
springtime 539
sweeping 539
touristenattraktionen 539
vier@@ 539
abendhimmel 538
arzt 538
executive 538
glockenturm 538
gluhend 538
greatest 538
indigenous 538
ker 538
nah@@ 538
newlyweds 538
notice 538
paved 538
polizei@@ 538
siedlung 538
solution 538
strandnahe 538
thigh 538
zitronen 538
zodiac 538
14. 537
14th 537
ar 537
aten 537
autogramme 537
biographical 537
ellen 537
fischt 537
gal@@ 537
hubscher 537
kanals 537
keller 537
paddeln 537
senioren-paar 537
stander 537
teppiche 537
vierte 537
bite 536
buffet 536
ell@@ 536
erganzung 536
finanz@@ 536
law 536
muffins 536
postkarte 536
remain 536
shrubs 536
tents 536
youth 536
benches 535
bun 535
copper 535
decision 535
erstaunlichen 535
fernsehprogramms 535
flach@@ 535
herbstblattern 535
hugels 535
jahreszeiten 535
pflege 535
turnschuhen 535
vendor 535
vertikale 535
wunderbare 535
accepts 534
attractions 534
championships 534
erklimmen 534
globus 534
harten 534
herbstmodenschau 534
installiert 534
karussell 534
kommode 534
politischen 534
ri 534
schieben 534
spielers 534
ticket 534
trainers 534
ursprungliche 534
usual 534
wilderness 534
70 533
appearing 533
beautifully 533
blush 533
carousel 533
dampfzug 533
erdbeere 533
gol@@ 533
gravur 533
leinen 533
nden 533
on-@@ 533
rocking 533
sweatshirt 533
tasten 533
temperatures 533
umrahmt 533
unge@@ 533
weiblicher 533
ackerland 532
bunk 532
fordert 532
gers 532
glaube 532
huten 532
insect 532
kampf@@ 532
ker@@ 532
multi 532
nights 532
olmalerei 532
twice 532
videospiel 532
delivered 531
feuers 531
filmcharakter 531
fruhlings 531
gastehaus 531
haltung 531
knot 531
lung 531
naher 531
pastor 531
transparente 531
tv-produzent 531
bats 530
cted 530
dampf 530
flugzeugen 530
ierter 530
invitations 530
jahre@@ 530
paddle 530
rat 530
repair 530
toter 530
typography 530
abschluss@@ 529
clinic 529
crafts 529
draht 529
existing 529
krankenwagen 529
pirate 529
precious 529
produkten 529
rapper 529
ruderboot 529
speculative 529
,@@ 528
alpha 528
autographs 528
bene 528
cur@@ 528
digitaler 528
flach 528
footprints 528
gekauft 528
gluten 528
kla@@ 528
kreatives 528
lau@@ 528
messen 528
physicist 528
snowflake 528
teter 528
escalator 527
finger@@ 527
fountains 527
halb@@ 527
mannschaftsfoto 527
neuem 527
pflaster 527
premier 527
schneidebrett 527
aquarellmalerei 526
cricketteam 526
edible 526
gelangen 526
gs@@ 526
lapsus 526
lokomotive 526
motorhaube 526
pinguine 526
skifahren 526
aufrichtig 525
betten 525
che 525
che@@ 525
compact 525
edges 525
farbung 525
handwritten 525
heavily 525
herren@@ 525
herrenhaus 525
joint 525
nectar 525
performen 525
rosafarbener 525
rushing 525
tig 525
balconies 524
dealership 524
exklusiven 524
fanden 524
filmt 524
gardener 524
grizzly 524
herbstlicher 524
hr@@ 524
lachs 524
lemons 524
longest 524
luxus 524
oster@@ 524
umliegenden 524
uppigen 524
1920s 523
21 523
benannt 523
besiegt 523
daisy 523
dicke 523
document 523
fenster@@ 523
freundlichen 523
gazebo 523
plu@@ 523
romantischer 523
spotlight 523
straßenmarkt 523
swimmer 523
trauriges 523
ungewohnliche 523
united 523
wei@@ 523
wohnen 523
wurst 523
zieren 523
1,@@ 522
13th 522
after-party 522
beaded 522
cked 522
eyed 522
glocke 522
mess@@ 522
paddock 522
schmetterlings 522
sinn 522
sorten 522
span@@ 522
werben 522
9th 521
bogen@@ 521
burogebaudes 521
endless 521
erzielte 521
folgenden 521
laub@@ 521
motorrad@@ 521
obere 521
peek 521
pipes 521
radeln 521
schlafzimmern 521
schnelle 521
schoß 521
stausee 521
suede 521
teilnimmt 521
vergnugungspark 521
baumhaus 520
erlaubt 520
ferris 520
foam 520
fra@@ 520
geste 520
misch@@ 520
nav@@ 520
optionen 520
penny 520
proof 520
rolltreppe 520
shortly 520
bergstraße 519
bitten 519
curve 519
fold 519
interpretation 519
listens 519
netz@@ 519
onen 519
plan@@ 519
raumschiff 519
tears 519
uniformen 519
vektorillustrationsvektor 519
volcanic 519
♥ 519
-kunstler 518
ation@@ 518
beenden 518
bows 518
cooler 518
dropping 518
eng 518
foal 518
lernt 518
linien@@ 518
meerjungfrau 518
pairs 518
planned 518
schadels 518
sportverband 518
switch 518
vergleich 518
wal 518
advantage 517
deutsche 517
doppelzimmer 517
eroffnungsabend 517
filmfestival 517
flugelspieler 517
grasfeld 517
kill 517
lagen 517
lastwagens 517
lustig 517
particles 517
pur@@ 517
sitz@@ 517
sled 517
stische 517
trench 517
versuchte 517
weird 517
bein@@ 516
ethnischer 516
freedom 516
hate 516
herbstfarben 516
hornern 516
koi 516
kulissen 516
loop@@ 516
passport 516
pf@@ 516
stilisierte 516
waschmaschine 516
wichtigste 516
brautigams 515
continued 515
doctors 515
flughafens 515
gefarbten 515
gesamten 515
hochzeitspaar 515
rostiges 515
rot-@@ 515
silbernen 515
streichholz 515
tartan 515
200@@ 514
aneinander 514
badezimmers 514
confused 514
garland 514
hersteller 514
huhnchen 514
kapuze 514
microscope 514
piggy 514
scriptwriter 514
sitcom 514
strukturen 514
ts@@ 514
® 514
adoption 513
dri@@ 513
effort 513
geschnittene 513
gig 513
hinterlasst 513
mten 513
opener 513
schwangeren 513
weh@@ 513
anbetung 512
curves 512
effects 512
eimer 512
eisbahn 512
emerging 512
fahrgaste 512
fal@@ 512
mond@@ 512
nahern 512
nein 512
patriotic 512
persons 512
planes 512
risk 512
stoßen 512
tat 512
verkleidung 512
wel@@ 512
wrote 512
bewundert 511
cent 511
fischmarkt 511
gartner 511
geehrt 511
gleich@@ 511
harte 511
hor@@ 511
muscle 511
rennwagen 511
rutscht 511
streifen@@ 511
tiger@@ 511
tochtern 511
tuten 511
bunker 510
depicts 510
massiven 510
motorroller 510
pic 510
privates 510
sailors 510
systems 510
welcoming 510
10. 509
anziehen 509
beech 509
bener 509
embroidery 509
examining 509
mechanical 509
rauen 509
reifer 509
sh 509
tomb 509
versch@@ 509
ys 509
core 508
datiert 508
doppelt 508
heard 508
hol@@ 508
mango 508
northwest 508
orten 508
peas 508
privatsphare 508
restoration 508
schulkinder 508
tanzflache 508
zeiger 508
athletin 507
augenbrauen 507
beliebte 507
fractal 507
gange 507
genehmigung 507
halbfinale 507
lan@@ 507
lar@@ 507
lichts 507
package 507
platzes 507
poker 507
revealing 507
besitz 506
condo 506
extremely 506
garlic 506
habitat 506
ikonische 506
met@@ 506
morgen@@ 506
tooth 506
weddings 506
akustikgitarre 505
alt@@ 505
begonnen 505
beschadigt 505
cken@@ 505
druck@@ 505
fach@@ 505
freundschaftsspiels 505
jazzkunstler 505
kraftwerk 505
lack 505
raindrops 505
sausages 505
scales 505
seed 505
terrassen 505
unbekannter 505
vote 505
winged 505
zahnarzt 505
barren 504
counting 504
doppelte 504
folie 504
gefilmt 504
indierock-kunstler 504
kunstdruck 504
marshmallows 504
officially 504
polo 504
sells 504
sweets 504
tuxedo 504
u-bahn-station 504
verlangsamen 504
blei@@ 503
brides 503
containerschiff 503
dan@@ 503
ethnischen 503
festlichen 503
k-@@ 503
meditating 503
musikvideoprogramms 503
placing 503
ragt 503
removing 503
sei@@ 503
skulls 503
wandgemalde 503
blooms 502
chens 502
erstaunlich 502
frachtschiff 502
frohes 502
offenes 502
peony 502
pupils 502
rauch@@ 502
schar 502
sockel 502
wechsel 502
absolviert 501
anleitung 501
arched 501
branding 501
bru@@ 501
bump 501
drangen 501
essential 501
joggt 501
killed 501
koala 501
quellen 501
remaining 501
saubere 501
stems 501
superhero 501
2018 500
7. 500
80s 500
bro@@ 500
caps 500
clever 500
collect 500
duft 500
gemusegarten 500
geteilt 500
jeansjacke 500
kampfkunstler 500
krug 500
naturlicher 500
prairie 500
sohnes 500
sommerabend 500
ssed 500
stehlen 500
waschkuche 500
beruhren 499
bla@@ 499
bohnen 499
centerpiece 499
clowns 499
fruhlings@@ 499
protecting 499
renaissance 499
situation 499
spezielle 499
strohhut 499
wires 499
barber 498
connect 498
erweiterung 498
fiktionalen 498
flights 498
kampagne 498
knight 498
losing 498
ment@@ 498
obdachloser 498
rad@@ 498
rs 498
sporty 498
stadtstraße 498
tennis@@ 498
vogue 498
walkers 498
wann 498
wonderland 498
ary 497
baufunktion 497
blut 497
brave 497
fern 497
focal 497
garnelen 497
hoping 497
sahne 497
schienen 497
tiara 497
ursprunglichen 497
ying 497
ze@@ 497
13. 496
collections 496
darts 496
fied 496
offen 496
ostkuste 496
rushes 496
schaukeln 496
schneebedeckter 496
schneesturms 496
willow 496
windmills 496
bootsfahrt 495
ceremonial 495
emotions 495
express 495
fels 495
fist 495
gung 495
hielten 495
meeres@@ 495
paw 495
philosophen 495
sonnenschirm 495
studioportrat 495
100@@ 494
abstrakt 494
ali@@ 494
beats 494
buds 494
chrome 494
cla@@ 494
cobbled 494
dunkeln 494
ernahrung 494
gesten 494
ite 494
kapitan 494
paradies 494
pflanzen@@ 494
presenting 494
probiert 494
rettung 494
schlaf@@ 494
spazierengehen 494
supporting 494
wichtige 494
aufgabe 493
brennen 493
broadcaster 493
contour 493
culinary 493
gras@@ 493
hafte 493
holzhintergrund 493
honored 493
konzeptuelle 493
makro@@ 493
obdachlose 493
paddy 493
popkunstlers 493
revolution 493
sales 493
wurf 493
.00 492
chihuahua 492
clears 492
corals 492
fel@@ 492
fro@@ 492
getriebe 492
kokosnuss 492
memories 492
metalloberflache 492
no. 492
nuclear 492
partys 492
schnappt 492
signature 492
start@@ 492
steuert 492
tells 492
versteigert 492
vulkan 492
wunsche 492
burger@@ 491
dotted 491
forced 491
friseursalon 491
genoss 491
geometrischer 491
geschafts@@ 491
hahn 491
industrielle 491
komodienfilm 491
kreuzfahrtschiffes 491
krokodil 491
luggage 491
naturally 491
pelzmantel 491
plaza 491
results 491
ausprobieren 490
einzigartig 490
eisen 490
embellished 490
fiery 490
foundation 490
leer 490
nachbarn 490
selben 490
semifinal 490
aktuelle 489
architektonischen 489
ations@@ 489
campsite 489
countertops 489
eco 489
eingerichtet 489
entschieden 489
familiar 489
fear 489
fruhlingssommer 489
geoffnetem 489
happens 489
pat@@ 489
seilbahn 489
seltsame 489
silence 489
ve@@ 489
volume 489
1940s 488
acre 488
axt 488
balanciert 488
bulbs 488
bulldogge 488
china 488
defends 488
dice 488
eigentlich 488
enclosure 488
handschuhe 488
refreshing 488
rie@@ 488
schere 488
tablette 488
themen@@ 488
vorbereiten 488
waffen 488
ziegeln 488
abstraktem 487
anzusehen 487
bands 487
barocke 487
blutenblattern 487
charcoal 487
ernahren 487
gegeneinander 487
heartland 487
manischen 487
pavillon 487
subtle 487
verbessern 487
zerbrochenen 487
certain 486
luftbild 486
monaten 486
novel 486
raumt 486
riesenrad 486
schulter@@ 486
toll 486
treffens 486
vektorabstrakte 486
weihnachtsbaume 486
anlass 485
balanced 485
bedient 485
blend 485
coats 485
ct 485
hautnah 485
klare 485
produktlinie 485
q 485
treffer 485
busses 484
catholic 484
crystals 484
frauenhande 484
hybrid 484
paddling 484
schuh@@ 484
ssing 484
strandhutten 484
streetart 484
verschwommener 484
wagens 484
auszusehen 483
bessere 483
countrykunstler 483
disaster 483
explorer 483
flood 483
forum 483
fps 483
gefarbt 483
ken@@ 483
knitting 483
pfingstrosen 483
photographing 483
schwierig 483
ss17 483
tal@@ 483
1.@@ 482
angels 482
balken 482
banke 482
creamy 482
drache 482
drove 482
extrudiert 482
fischerdorf 482
geburtstagsfeier 482
gelandewagen 482
hauptquartier 482
hintergrunds 482
incident 482
marktes 482
nebliger 482
sophisticated 482
transitional 482
ziegel@@ 482
27 481
9. 481
arches 481
bekleidung 481
coaches 481
ell 481
faden 481
fort@@ 481
gan@@ 481
gott 481
gre@@ 481
numerous 481
patientin 481
t-shirts 481
tolles 481
umgebaut 481
umwelt@@ 481
ur 481
absolut 480
alpinen 480
buchstabens 480
eisberg 480
feder@@ 480
flauschige 480
gewidmet 480
governmental 480
holzsteg 480
kragen 480
kreditkarte 480
kreuzt 480
ostlichen 480
replaced 480
reprasentiert 480
standig 480
tests 480
thermometer 480
tierarzt 480
tigers 480
trainingsplatz 480
verschwommene 480
wutenden 480
zubereitung 480
elk 479
feste 479
ganse 479
großvater 479
guess 479
ir@@ 479
lighter 479
mahdrescher 479
mehl 479
ssi@@ 479
stehenden 479
stimme 479
tourismus 479
urbaner 479
waste 479
yachthafen 479
19 478
8. 478
demolition 478
eigenheim 478
feuerwerkskorper 478
herzstuck 478
kafig 478
kg 478
lebensstil 478
ninth 478
onions 478
pianist 478
regeln 478
resident 478
satelliten 478
schaft 478
schwimm@@ 478
sons 478
stamped 478
trapped 478
angles 477
ankommen 477
bassist 477
erfolgreich 477
guided 477
heit 477
highlight 477
hohem 477
overgrown 477
parties 477
saved 477
stilisierten 477
strength 477
uberleben 477
urlaub@@ 477
veranstaltet 477
villages 477
baseball@@ 476
bash 476
festung 476
holzbank 476
liner 476
meditation 476
outstretched 476
paws 476
pralinen 476
repariert 476
schools 476
screaming 476
sonder@@ 476
souvenir 476
soziale 476
splashes 476
trendige 476
up@@ 476
vertikalen 476
windrader 476
wooded 476
zucker@@ 476
drill 475
forscher 475
freight 475
fur@@ 475
gerichte 475
geschnitzte 475
halben 475
kabel 475
leadership 475
motorbike 475
pfannkuchen 475
previously 475
skiers 475
smell 475
syringe 475
telling 475
abgerissen 474
ahornblatter 474
beamten 474
bone 474
experiment 474
farmland 474
gene 474
kno@@ 474
measure 474
modedesigner 474
nationale 474
nd 474
ou@@ 474
tem@@ 474
thrillerfilm 474
typischer 474
whiteboard 474
ampel 473
autohaus 473
beispiele 473
connects 473
getreide 473
heißer 473
justice 473
p-@@ 473
renoviert 473
salute 473
baus 472
beam 472
bet@@ 472
checked 472
dige 472
environmental 472
feminine 472
laughs 472
lavendel 472
phones 472
strolling 472
teammatten 472
tigen 472
zusatzliches 472
bison 471
dachboden 471
flechten 471
fries 471
galloping 471
gende 471
gotischen 471
grabs 471
haarfarbe 471
hello 471
medizinisches 471
mini@@ 471
ppt 471
sausage 471
wascheleine 471
zeltplatz 471
accident 470
adorned 470
anzeigt 470
benen 470
copies 470
dolls 470
elektrischer 470
freiheitsstatue 470
helfer 470
motif 470
party@@ 470
peoples 470
sting 470
tischdekoration 470
verschließen 470
waiter 470
weidenkorb 470
beendet 469
contact 469
dur@@ 469
equal 469
fußballs 469
gedenk@@ 469
girlanden 469
heated 469
montage 469
saucer 469
schilf 469
architekt 468
chasing 468
discussion 468
elementary 468
elte 468
mothers 468
operated 468
paaren 468
regierungsagenturen 468
sofort 468
zerbrochene 468
blut@@ 467
charging 467
einzigartiges 467
friendship 467
herren 467
jazzfusionskunstler 467
limit 467
nordkuste 467
objekte 467
stillen 467
suitable 467
temperature 467
towering 467
urbane 467
anschauen 466
antwort 466
blockieren 466
cruising 466
entfernung 466
entrepreneur 466
gemusesorten 466
leitet 466
machines 466
ned 466
nektar 466
passion 466
pour 466
pre 466
rabbits 466
startet 466
stic 466
tin 466
veteran 466
aussehenden 465
baumstamme 465
dusty 465
laden@@ 465
minimalistic 465
missed 465
pride 465
schwimmende 465
sor@@ 465
spenden 465
treated 465
vier 465
wan 465
chalet 464
honour 464
immobilien@@ 464
kreuzfahrt 464
lt 464
mussten 464
mx 464
personliche 464
recycling 464
seitenprofil 464
solar@@ 464
stro@@ 464
teekanne 464
whales 464
wohnhauses 464
creepy 463
englisch 463
erhielt 463
festliche 463
grunge-hintergrund 463
haircut 463
judge 463
kunstwerken 463
loschen 463
pearls 463
reif 463
schlechte 463
shouts 463
sided 463
stam@@ 463
structures 463
uberpruft 463
unternehmer 463
untertasse 463
winde 463
yed 463
90 462
ac@@ 462
ahnliche 462
bevolkerung 462
corners 462
demolished 462
garderobe 462
halbe 462
hexagonal 462
journal 462
kel@@ 462
kern@@ 462
locations 462
participating 462
radweg 462
replace 462
sandwiches 462
silberne 462
stoffe 462
umrissen 462
zehn 462
anschaut 461
arbeitete 461
arbeits@@ 461
banken 461
beliebter 461
coal 461
entertainment 461
eyebrows 461
gemutlich 461
greens 461
haarschnitt 461
handshake 461
hangar 461
happen 461
lachelte 461
owls 461
schwingen 461
teapot 461
teils 461
tiges 461
tranen 461
wales 461
zeigten 461
address 460
exciting 460
gefertigt 460
golfball 460
lehnen 460
mph 460
nagel@@ 460
pinguin 460
selektiver 460
trouble 460
1980er 459
assorted 459
falle 459
fernglas 459
filmvorfuhrung 459
getrocknete 459
giraffen 459
logs 459
manche 459
ners 459
plains 459
polizeibeamter 459
walker 459
warmes 459
angekommen 458
ausgestreckten 458
auswirkungen 458
dollar@@ 458
fallende 458
golf@@ 458
haft 458
homework 458
kanten 458
medicine 458
palastes 458
sacred 458
scharfen 458
spritzt 458
thriller-film 458
verhindern 458
auktion 457
breit 457
certainly 457
einheimischen 457
erwarten 457
exotische 457
fahrers 457
hochzeit@@ 457
huddle 457
kegel 457
kopien 457
lackiert 457
men@@ 457
metallkunstler 457
mikroskop 457
peach 457
pfoten 457
produziert 457
professionellen 457
tomorrow 457
wachstum 457
application 456
arbeitsplatz 456
außeren 456
defeated 456
digging 456
errichtung 456
frieden 456
glaubt 456
ingenieur 456
literally 456
montagabend 456
purse 456
raums 456
sailboats 456
schlacht 456
schlosses 456
sidelines 456
tro@@ 456
velvet 456
braute 455
can@@ 455
char@@ 455
defeat 455
filetiert 455
gesund 455
grove 455
haften 455
handzeichnung 455
learned 455
lebendige 455
lichsten 455
mens 455
mierte 455
nageln 455
rosafarbenem 455
siehst 455
spaghetti 455
ven@@ 455
aufgrund 454
beschaftigt 454
chase 454
einladungen 454
gal 454
gestalt 454
gluhende 454
heiraten 454
krater 454
medaille 454
obst- 454
ping 454
reisenden 454
schwanz@@ 454
sonntagabend 454
stande 454
superhelden 454
treadmill 454
app-symbol 453
barem 453
blumenschmuck 453
bonsai 453
ehren@@ 453
florales 453
geschlossene 453
getrennt 453
kombinierte 453
kommenden 453
lebensraum 453
mock 453
northeast 453
pepper 453
pointed 453
ripples 453
summertime 453
testing 453
untergehende 453
100th 452
70s 452
angedockt 452
apfel@@ 452
audienz 452
blitze 452
congratulations 452
country-@@ 452
draped 452
gleise 452
kopie 452
monate 452
nde 452
neubau 452
pe 452
performances 452
post@@ 452
pray 452
rahmens 452
shrimp 452
sit@@ 452
sten@@ 452
straucher 452
verkehrs 452
wach@@ 452
weekly 452
bacon 451
bend 451
boasts 451
buffalo 451
composed 451
equipped 451
erbsen 451
gelb-@@ 451
harvester 451
hohlraum 451
id 451
knospen 451
kronen 451
laufband 451
raff@@ 451
reparatur 451
schneeflocke 451
teil@@ 451
teste 451
untere 451
ationen 450
beschrieben 450
cricket@@ 450
dive 450
fruhe 450
haunted 450
hip-hop-soul-kunstler 450
holly 450
leichtem 450
nutzung 450
partnership 450
prevent 450
weißt 450
zauns 450
abriss 449
accompanied 449
aktentasche 449
anatomy 449
bauern@@ 449
briefcase 449
britische 449
eichen 449
freiwillige 449
kayaking 449
kitchens 449
lettuce 449
nt 449
oberseite 449
paddelt 449
personnel 449
protection 449
schnalle 449
sm@@ 449
botanischen 448
brautstrauß 448
cor@@ 448
erfolgreichen 448
hausaufgaben 448
hinein 448
kugel@@ 448
nordlichter 448
restauriert 448
shocked 448
solltest 448
stimmen 448
trainieren 448
24 447
beigen 447
cushion 447
decks 447
eleganz 447
fe 447
flugzeugfenster 447
meditiert 447
nussen 447
organ 447
saxophone 447
schiff@@ 447
schwarz@@ 447
spooky 447
wurdest 447
1940er 446
australischer 446
captures 446
chart 446
eisenbahn@@ 446
ersetzen 446
fits 446
gemutlichen 446
handvoll 446
lippe 446
magische 446
pastell@@ 446
represents 446
sector 446
sending 446
speeding 446
tackles 446
verpackt 446
voice 446
fri@@ 445
gewohnlich 445
goldfish 445
ing@@ 445
lighted 445
maintenance 445
polarlichter 445
sleigh 445
sterben 445
1080p 444
autorin 444
contract 444
diesel 444
hochzeitsfoto 444
inspire 444
interception 444
kiefern@@ 444
kreativen 444
mad 444
ously 444
pointer 444
stauraum 444
streetstyle 444
tasting 444
trummer 444
welcomed 444
wunsch 444
abschlage 443
awaiting 443
cabbage 443
faith 443
gemischten 443
knees 443
landwirtschaft 443
ll 443
moonlight 443
pebble 443
plot 443
ruckwarts 443
schulbus 443
spulen 443
steal 443
storey 443
truthahn 443
vorwarts 443
vulkan@@ 443
ansammlung 442
curls 442
elegance 442
geld@@ 442
highlands 442
hing 442
landwirt 442
mixture 442
nebenan 442
neighbourhood 442
pavilion 442
ren 442
silberfarbenen 442
snapped 442
technik 442
treats 442
advice 441
albums 441
babydusche 441
booth 441
childhood 441
chopping 441
computer@@ 441
eingangs 441
erzahlen 441
functional 441
gelistet 441
gentle 441
glasscheiben 441
ma 441
masken 441
nominee 441
par 441
patients 441
scaffolding 441
selten 441
solo@@ 441
spe@@ 441
stern@@ 441
trained 441
uni@@ 441
wahrheit 441
whatever 441
wolle 441
zeitgenossisches 441
abteilung 440
auftritts 440
blue@@ 440
boulders 440
brach 440
eingangsbereich 440
felsformation 440
flour 440
freundschaft 440
geback 440
großstadt 440
nieder 440
pushes 440
rahmen@@ 440
refrigerator 440
rockkunstlers 440
skills 440
stool 440
studiohintergrund 440
swept 440
werkzeugen 440
windowsill 440
berghang 439
bergsee 439
cooling 439
digen 439
ehe 439
eri@@ 439
eroffnungs@@ 439
geraden 439
gesichtern 439
happened 439
marsh 439
midfielder 439
prozession 439
rollladen 439
satelliten@@ 439
sort 439
stomach 439
tige 439
weihnachtsschmuck 439
weiten 439
zo@@ 439
zugen 439
altitude 438
aspen 438
battery 438
collects 438
dimensional 438
eller 438
fli@@ 438
gefrorene 438
geschnitzten 438
gitter 438
gro@@ 438
grundlage 438
hangenden 438
jagen 438
kreuzen 438
len@@ 438
niveau 438
schriften 438
tag@@ 438
ver 438
.0000 437
challenges 437
diagonal 437
embassy 437
flamingos 437
fließen 437
inspirierten 437
inviting 437
meant 437
mirrors 437
nahrungsmittel 437
priester 437
sauber 437
strahlenden 437
studiert 437
trugen 437
unexpected 437
zeitschriften 437
abschlussball 436
bericht 436
combo 436
dingen 436
glove 436
kunststoff@@ 436
makroaufnahme 436
nahmaschine 436
negative 436
preschool 436
rocked 436
schritten 436
sections 436
toe 436
zogen 436
zweit@@ 436
$2@@ 435
aquarell@@ 435
arctic 435
astronomical 435
baden 435
baumwoll@@ 435
blondine 435
blutenblatter 435
borealis 435
crescent 435
degree 435
dramatischer 435
frohe 435
full@@ 435
hatched 435
hecke 435
leichtes 435
manicure 435
mr 435
neujahr@@ 435
ombre 435
overlooks 435
powerpoint 435
represented 435
schafen 435
seeufer 435
swingkunstler 435
vanity 435
verletzung 435
wappen 435
alter@@ 434
anatomie 434
bling 434
farbton 434
funf 434
gewitter 434
inspiziert 434
lassig 434
mes 434
pped 434
rooftops 434
schnell@@ 434
sol@@ 434
staffel 434
traditionell 434
umzug 434
ving 434
zahnen 434
aufgebaut 433
bestimmt 433
brise 433
chter 433
classy 433
dual 433
feeder 433
fiktionales 433
herunter 433
kanale 433
landen 433
meadows 433
peonies 433
sleeved 433
sw@@ 433
turmen 433
200 432
admire 432
blocked 432
fertig@@ 432
legal 432
live-@@ 432
nap 432
opti@@ 432
pt 432
reinigen 432
stadtmauern 432
tonen 432
unterhaltung 432
wax 432
balancing 431
beigem 431
brand@@ 431
demonstriert 431
detail@@ 431
ehemaliger 431
entirely 431
hochland 431
ized 431
kirchen 431
ladt 431
melting 431
obersten 431
paprika 431
park@@ 431
pla@@ 431
schenken 431
siblings 431
spielzeuge 431
sticht 431
tons 431
triple 431
truth 431
afro 430
bin@@ 430
churches 430
filter 430
flachem 430
gestreifte 430
parlamentarische 430
partnerschaft 430
pping 430
prison 430
promoting 430
protestors 430
seniors 430
stisches 430
stu@@ 430
theater@@ 430
traveler 430
warmth 430
bol@@ 429
brautpaar 429
caravan 429
dart 429
england 429
expedition 429
gebirgszug 429
grandparents 429
handheld 429
huhn 429
iti@@ 429
leichter 429
personenzug 429
rauchen 429
stischen 429
studioaufnahme 429
tiered 429
viewer 429
wirkt 429
24@@ 428
adlers 428
anywhere 428
besitzen 428
besseres 428
businessanzug 428
coated 428
crack 428
eben 428
einst 428
gestalten 428
goose 428
heuballen 428
image@@ 428
interiors 428
kirchturm 428
ky 428
literary 428
olivenol 428
pagoda 428
presence 428
slogans 428
thunderstorm 428
turkis 428
untergehenden 428
wig 428
wil@@ 428
windmuhlen 428
winterliche 428
wortern 428
beleuchteten 427
besessen 427
browsing 427
descending 427
dugout 427
fernsehautor 427
frostigen 427
fußball-teammanager 427
grau@@ 427
ities 427
laut 427
liefern 427
markierungen 427
spa 427
uberdauert 427
uberfliegen 427
wurfeln 427
autofahren 426
beistelltisch 426
blues-kunstler 426
doppelter 426
gefangnis 426
gestreiftem 426
giraffes 426
hohenkarte 426
iced 426
murals 426
praxis 426
rim 426
schie@@ 426
sitzenden 426
sters 426
stranded 426
ure 426
ved 426
backed 425
decker 425
erfahrung 425
funktionieren 425
gefesselt 425
himbeeren 425
hinrunde 425
horn 425
liebevoll 425
organized 425
perlen@@ 425
plunging 425
sauna 425
stum@@ 425
term 425
uberprufen 425
unbekannte 425
verpasst 425
vinyl 425
al-@@ 424
animationsfilm 424
anpfiff 424
barrels 424
branche 424
defeating 424
gleisen 424
grafischen 424
interactive 424
lecture 424
naht 424
normalerweise 424
regenschirmen 424
russian 424
swings 424
tasty 424
vorstadt 424
bahn@@ 423
balle 423
bestimmten 423
creatures 423
falten 423
fil@@ 423
flauschigen 423
gotteshauses 423
mosaik@@ 423
op@@ 423
priest 423
schulen 423
snowboard 423
themen 423
verstehen 423
zehen 423
50. 422
ankam 422
beating 422
flussabwarts 422
großartiges 422
guterzug 422
kellner 422
kokospalmen 422
meeresschildkrote 422
onion 422
ped 422
ponds 422
schulern 422
sights 422
unkraut 422
winziges 422
zufallig 422
arti@@ 421
design-@@ 421
glases 421
hofft 421
ier@@ 421
iguana 421
ketten 421
kuchentisch 421
landed 421
ler@@ 421
liebe@@ 421
metallisch 421
newspapers 421
peninsula 421
produ@@ 421
schnappen 421
tin@@ 421
trans@@ 421
understand 421
2016 420
besseren 420
besuchten 420
clover 420
college-basketballspiels 420
einkaufer 420
eisbaren 420
ette 420
fliegender 420
gap 420
gluhbirnen 420
jpeg 420
krebs 420
makro 420
overalls 420
particular 420
prachtvollen 420
queue 420
shelving 420
speck 420
spoke 420
aufgehangt 419
auswahlen 419
baches 419
edelmann 419
espresso 419
gastgeber 419
grouping 419
grungy 419
insekt 419
issues 419
ivory 419
laufenden 419
manikure 419
nordwesten 419
rollenden 419
schaf 419
stadtlandschaft 419
stickers 419
tear 419
trout 419
ultimative 419
unglaubliche 419
volles 419
wahl@@ 419
zucchini 419
avatar 418
blurry 418
boring 418
chilly 418
cupid 418
dly 418
election 418
gesunder 418
guards 418
italienische 418
nr. 418
plateau 418
powerpoint-vorlage 418
reaktion 418
scheunen 418
skate 418
ssen@@ 418
szenen 418
teppichs 418
uberhaupt 418
antennen@@ 417
bartender 417
competitor 417
competitors 417
degrees 417
eigentumer 417
enthullte 417
erbauer 417
funkeln 417
herzformigen 417
however 417
medaillen 417
packing 417
paths 417
schuf 417
six 417
spezialitaten 417
tannenzapfen 417
units 417
windkraftanlage 417
admiring 416
bre@@ 416
breiter 416
gluhen 416
hupft 416
lauschen 416
lazy 416
mirrored 416
monochromen 416
party-@@ 416
pflanzung 416
prominenten 416
roboters 416
schattierungen 416
schweine 416
showcases 416
swamp 416
terraces 416
verteilt 416
zombie 416
22 415
ausgestellten 415
coolen 415
creations 415
fotografie 415
gabe 415
gar@@ 415
holzschild 415
ik@@ 415
irgendwie 415
jubeln 415
ki@@ 415
peaches 415
pommes 415
spezielles 415
tischer 415
trennt 415
untersuchung 415
angezogen 414
blo@@ 414
circus 414
collie 414
ders 414
erkundet 414
eulen 414
feeds 414
geschnittenen 414
getranken 414
heißt 414
herab@@ 414
herunter@@ 414
leafs 414
leuchtreklame 414
nadel 414
perucke 414
rekord 414
reprasentieren 414
schaf@@ 414
tours 414
weighing 414
wussten 414
annaherung 413
fedora 413
fragt 413
gedruckt 413
gter 413
hirsche 413
kalligraphen 413
kites 413
pebbles 413
pyramids 413
rallye 413
skipisten 413
sprin@@ 413
uberfullten 413
amc 412
antennenvideo 412
belebte 412
buried 412
city@@ 412
dienstagabend 412
droplets 412
feine 412
fußball-@@ 412
gegenstand 412
hecheln 412
himmelshintergrund 412
hohepunkt 412
internationale 412
lilien 412
modegeschaft 412
opfer 412
pflugt 412
ponytail 412
surreal 412
travelers 412
zusammensetzung 412
ati@@ 411
drought 411
erfolgreicher 411
festungen 411
illegal 411
lieblich 411
marienkafer 411
mer 411
monks 411
paying 411
rostigen 411
schiebeturen 411
schlangen 411
sommerliche 411
ven 411
viertelfinale 411
winterpark 411
35 410
boxers 410
buchstablich 410
catcher 410
ced 410
chief 410
console 410
dripping 410
eng@@ 410
eres 410
evergreen 410
expect 410
falsch 410
fixtures 410
fruhling@@ 410
hardrockkunstler 410
herrn 410
intimate 410
jellyfish 410
karren 410
kreisverkehr 410
lanes 410
pilgrims 410
reist 410
schnellen 410
schwer@@ 410
steinhaus 410
stirn 410
vollem 410
weihnachtsbeleuchtung 410
westseite 410
writes 410
ziel@@ 410
alphabets 409
bake 409
baseballmutze 409
diger 409
donated 409
konigreich 409
korallen@@ 409
legend 409
neat 409
pancakes 409
pope 409
prahlt 409
safely 409
schachbrett 409
unfall 409
zwecke 409
bester 408
emotion 408
frauenhand 408
gin 408
heißem 408
knit 408
lockigem 408
sau@@ 408
viertes 408
waldboden 408
wissenschaft 408
aqua 407
bio@@ 407
correct 407
explodiert 407
ferien 407
festspielen 407
gelb@@ 407
gowns 407
gurken 407
korpers 407
minus 407
pagode 407
parent 407
piloten 407
polizeibeamte 407
schließlich 407
sprecher 407
stacks 407
stilvoller 407
suv 407
thread 407
umhang 407
vektorsatz 407
verschneite 407
backstein@@ 406
domin@@ 406
enormous 406
entwickeln 406
ermoglichen 406
fills 406
gruseligen 406
kuhnen 406
kunstzeit 406
m2 406
ordinary 406
pflanz@@ 406
reached 406
rohr 406
sech@@ 406
senden 406
suffering 406
verdient 406
weltweit 406
atrium 405
aufzug 405
ce@@ 405
fakten 405
flattern 405
formale 405
gerufen 405
hauptplatz 405
heiß 405
herbstpark 405
kommerzielle 405
lea@@ 405
lieferung 405
mailbox 405
niemals 405
pel@@ 405
peppers 405
premierenvorfuhrung 405
railing 405
salz 405
trotzdem 405
upstairs 405
web@@ 405
wohn- 405
wohnzimmerdesigns 405
zoll 405
$3@@ 404
abendsonne 404
ators 404
baseballspieler-pitches 404
chosen 404
ecken 404
einzelnes 404
elevator 404
embankment 404
foreign 404
geradeaus 404
geschmuckte 404
klares 404
krauter 404
leaders 404
ner@@ 404
portfolio 404
schematische 404
undatierten 404
weich 404
worst 404
ade 403
bullet 403
charakters 403
comedyfilm 403
cts 403
dekoratives 403
dieselbe 403
elling 403
lager@@ 403
meerwasser 403
moderator 403
profiboxer 403
replik 403
schlechten 403
strauch 403
stunned 403
wasserflasche 403
weicher 403
beliebtes 402
claims 402
eclectic 402
improve 402
joggen 402
malerin 402
metal@@ 402
patrouillieren 402
pics 402
plush 402
prominent 402
reinigt 402
schmerzen 402
skizzenstil 402
sofas 402
survive 402
videospielserien 402
amphitheater 401
bal@@ 401
baumzweige 401
besuchern 401
chemische 401
council 401
doubt 401
endrunde 401
grapefruit 401
letter@@ 401
monk 401
nut 401
pushed 401
pyramiden 401
satin-@@ 401
shy 401
staatsmann 401
steady 401
steigung 401
ums 401
underway 401
49@@ 400
blieb 400
compared 400
einhorn 400
entered 400
external 400
fertige 400
fetten 400
fix 400
fs 400
halbinsel 400
initial 400
journalisten 400
kopierabstand 400
kostet 400
launches 400
needles 400
ostseite 400
overlook 400
participates 400
schla@@ 400
schubladen 400
stylisch 400
surgeon 400
tatowierer 400
tausenden 400
buchen 399
donnerstagabend 399
dragonfly 399
dreiecke 399
ending 399
fußballmannschaften 399
getranke@@ 399
halter 399
ised 399
landscapes 399
linen 399
medien@@ 399
narzissen 399
otherwise 399
regenbogen@@ 399
schlage 399
schlug 399
shouting 399
stoppt 399
trumpet 399
tung 399
zuckerguss 399
80er 398
abgeschlossen 398
anonymous 398
assistant 398
australischen 398
awarded 398
centuries 398
dehnt 398
erfolgreiche 398
ermoglicht 398
estimated 398
far@@ 398
fridge 398
großeltern 398
hummer 398
komplexes 398
mediterranean 398
nische 398
off@@ 398
separated 398
sitzecke 398
soaring 398
strandpromenade 398
transformation 398
traumt 398
2015 397
ativen 397
aufschrift 397
bathing 397
bodens 397
camper 397
dienen 397
fer 397
fleet 397
garbage 397
hedgehog 397
lean 397
loser 397
meereskuste 397
mohn@@ 397
pfeile 397
proper 397
schreiten 397
sew 397
slums 397
spo@@ 397
submerged 397
thoughts 397
zug@@ 397
aufgereiht 396
aussichtsplattform 396
bewolktem 396
departure 396
dinosaurs 396
divided 396
erkaltung 396
fackel 396
grandson 396
kers 396
kostenloses 396
malermeister 396
mittlere 396
ortes 396
policeman 396
reportedly 396
schneller 396
successfully 396
tulpe 396
tv-sitcom 396
updated 396
verstreut 396
verteidigt 396
windshield 396
accessible 395
atelier 395
beast 395
calculator 395
commencement 395
fen@@ 395
fledermaus 395
freizeitpark 395
handed 395
infinity 395
kaffee@@ 395
kleides 395
neo-soul-kunstler 395
pferdeschwanz 395
ppen 395
schlanke 395
seh@@ 395
sternbild 395
sturzen 395
teach 395
tractors 395
trummern 395
ubrig 395
uren 395
verheiratet 395
ziffern 395
zweimal 395
45 394
akzenten 394
assembly 394
basilica 394
bereiche 394
birken 394
circuit 394
comfy 394
conducted 394
delivering 394
dent@@ 394
einbaum 394
einfachem 394
explode 394
farbene 394
gekocht 394
gondola 394
haup@@ 394
hauptplakat 394
jets 394
joining 394
kaukasischen 394
magischen 394
potted 394
sam@@ 394
schlagzeug 394
secure 394
siert 394
sonnige 394
zierte 394
african 393
braunbar 393
detailing 393
endangered 393
essay 393
farbtonen 393
fußballspielern 393
gemeinden 393
humpback 393
iertes 393
interessant 393
knocked 393
kunstlerische 393
pounds 393
pun@@ 393
rotation 393
roundabout 393
schildern 393
schwan@@ 393
siding 393
sport-team 393
teilzunehmen 393
typo@@ 393
upset 393
wishes 393
zoomen 393
dying 392
enthullen 392
erenden 392
feinen 392
grunge-@@ 392
landwirtschaftlichen 392
seien 392
stadien 392
stylische 392
verdienen 392
vorsaisonalen 392
wheelbarrow 392
academic 391
anschluss 391
attic 391
besichtigung 391
bleistiftzeichnung 391
closely 391
count 391
fett 391
fixture 391
fotoshooting 391
klassiker 391
kniet 391
koniglich 391
konkurrenz 391
mound 391
ottoman 391
pork 391
puppe 391
riss 391
sharks 391
touristen@@ 391
towns 391
turnschuhe 391
unternehmen@@ 391
versammlung 391
wol@@ 391
23 390
benes 390
blumentopf 390
diert 390
flotte 390
footbridge 390
fuel 390
geparden 390
gri@@ 390
h-@@ 390
innerhalb 390
kaukasischer 390
kilometer 390
kleinstadt 390
observatory 390
preliminary 390
shabby 390
sportliga-meisterschaft 390
stamme 390
stet 390
volks@@ 390
zigaretten 390
zirkus 390
aquarell-illustration 389
automobil-@@ 389
booties 389
chopped 389
ci@@ 389
derselben 389
dirigiert 389
fluglinie 389
formula 389
friedensaktivist 389
heel 389
italienischen 389
mausoleum 389
med 389
neutrale 389
rod 389
sitzungssaal 389
society 389
sonnt 389
strandhaus 389
surroundings 389
technique 389
uberzogen 389
zeichens 389
zerstorten 389
apfelbaum 388
arbeitern 388
arrangements 388
basketballtrainer 388
erfahren 388
falschen 388
gelegen 388
increase 388
linge 388
mannschafts@@ 388
ssene 388
stamm@@ 388
teammate 388
wowed 388
adapted 387
backlit 387
behinderte 387
decades 387
drifting 387
editorial 387
elled 387
erer 387
fototag 387
gitter@@ 387
hinuntergeht 387
ies 387
igel 387
inauguration 387
kippen 387
linked 387
magie 387
momente 387
mountainbiker 387
pottery 387
quadrate 387
researchers 387
schubkarre 387
seals 387
staats@@ 387
stacheldraht 387
swimmers 387
trekking 387
uhrturm 387
violett 387
;) 386
baumeister 386
connection 386
diges 386
dor@@ 386
eiskalte 386
farbschema 386
fru@@ 386
gemeinsame 386
glo@@ 386
grundschule 386
guitars 386
hahns 386
kreativ 386
maul 386
millions 386
motorradern 386
naturlichem 386
pedigreed 386
piled 386
privatem 386
rodeo 386
tageslicht 386
vo@@ 386
weisen 386
zing 386
ably 385
bade@@ 385
bearbeitet 385
bereichs 385
capturing 385
crushed 385
gefullten 385
gemischt 385
holzboot 385
kleiderbugel 385
korbe 385
lawyer 385
nebel@@ 385
pan@@ 385
platzen 385
scratch 385
sticky 385
tr@@ 385
ubernommen 385
verlassener 385
weine 385
wischt 385
zen@@ 385
apron 384
bereichen 384
failed 384
gardening 384
glittering 384
hauskatze 384
header 384
internal 384
jungste 384
orchids 384
pilger 384
riverside 384
shaded 384
stole 384
stroh 384
vordere 384
wetteifert 384
af@@ 383
basilika 383
blin@@ 383
businesses 383
contrasting 383
cube 383
demand 383
eventually 383
hispanic 383
hochzeitsfotografen 383
konzentriert 383
linker 383
metallic@@ 383
mte 383
platinum 383
portratsession 383
raspberries 383
scientific 383
seide 383
thinks 383
torjubel 383
yawning 383
ability 382
absatzen 382
blues-@@ 382
dozen 382
funkelnden 382
granit@@ 382
handflache 382
hopes 382
kannst 382
mannigfaltige 382
obje@@ 382
pinkfarbenen 382
schaufel 382
smashed 382
sounds 382
stammes@@ 382
starb 382
stoppschild 382
tierten 382
versand 382
wechseln 382
wirkung 382
zarte 382
adopted 381
affair 381
attendance 381
bor@@ 381
cigar 381
classes 381
decken@@ 381
flagpole 381
gearbeitet 381
herrlichen 381
hunt 381
instant 381
meist 381
midi 381
musikvideokunstler 381
paar@@ 381
polizist 381
rauer 381
rustikales 381
schaum 381
sonnenblumenfeld 381
stadtischen 381
stapeln 381
trau@@ 381
vektorset 381
wohin 381
applied 380
begeistert 380
ch-@@ 380
drug 380
ereignisse 380
finis@@ 380
fußballfans 380
gassen 380
haftes 380
kennt 380
kombinieren 380
kopfen 380
lat@@ 380
legende 380
leidenschaft 380
mat 380
panoramische 380
pockets 380
pol@@ 380
racket 380
slam 380
stitch 380
zeigefinger 380
ble@@ 379
brass 379
controlled 379
corrugated 379
daffodils 379
demonstrant 379
dresser 379
fy 379
gru@@ 379
grunder 379
irgendjemand 379
kle@@ 379
kleineren 379
misst 379
monarchin 379
nachtliche 379
pigeon 379
prize 379
roll@@ 379
segment 379
stattfindet 379
stellten 379
straßenlaterne 379
wat@@ 379
zelte 379
21st 378
apply 378
automesse 378
beschreibung 378
bewegungs@@ 378
evidence 378
fastest 378
installing 378
knoblauch 378
pferdekutsche 378
rinder 378
schlafenden 378
abhebt 377
antikes 377
antiquitaten@@ 377
auditorium 377
await 377
business-team 377
cigarettes 377
eichen@@ 377
entsprechend 377
form@@ 377
gh@@ 377
gospel 377
krabbe 377
mannequin 377
nar@@ 377
noten 377
offshore 377
saal 377
schlepper 377
sonst 377
stell@@ 377
thoughtful 377
tidal 377
trockenes 377
useful 377
ausflugs 376
barkeeper 376
boschung 376
caves 376
chi@@ 376
dank 376
dichte 376
divers 376
dunkles 376
ex 376
finest 376
geb@@ 376
gesaumt 376
kamm 376
kapuzenpullover 376
konzeptkunst 376
obergeschoss 376
pomegranate 376
providing 376
rehearsals 376
spare 376
taglich 376
triumph 376
wohnzimmer@@ 376
ah@@ 375
beschadigten 375
cornerback 375
eintritt 375
ernahrt 375
holzernes 375
portable 375
protein 375
sparkle 375
tonne 375
woll@@ 375
arabic 374
aussehende 374
chs 374
crashed 374
einkaufszentrums 374
elefanten@@ 374
exchange 374
farbener 374
foderale 374
freestyle 374
glazed 374
hintere 374
hochglanz@@ 374
insel@@ 374
lacrosse 374
lamb 374
linse 374
mixer 374
nagellack 374
printmaking 374
sommerurlaub 374
symptom 374
tablets 374
veroffentlichung 374
worlds 374
= 373
commissioned 373
dunkelblauem 373
ergebnis 373
gebiete 373
gipfels 373
großartiger 373
hues 373
kameramann 373
konzert@@ 373
modell@@ 373
nassen 373
partners 373
passe 373
rentier 373
rosafarbenes 373
slogan 373
sparschwein 373
speziell 373
stammen 373
vases 373
vorzubereiten 373
wirbel@@ 373
zierten 373
30th 372
apparently 372
auslosen 372
cab 372
entgegen@@ 372
fahrrads 372
farbpalette 372
foto-sharing 372
freundschaften 372
gerichtet 372
ginger 372
glocken 372
kohl 372
leaps 372
malte 372
nu@@ 372
observation 372
reißverschluss 372
schieberegler 372
siebten 372
slot 372
tals 372
wandering 372
weinen 372
western@@ 372
zusehen 372
apps 371
baumkronen 371
fahigkeiten 371
favoriten 371
gesperrt 371
himmel@@ 371
kajakfahren 371
kreationen 371
lockigen 371
mail 371
probt 371
recht@@ 371
respect 371
sachen 371
stranden 371
stromung 371
symbolic 371
verruckten 371
wolkenbruch 371
zentrums 371
-hintergrund 370
atem 370
beleuchtete 370
cartoon@@ 370
curry 370
fitness@@ 370
fuhle 370
geschaftige 370
hei@@ 370
helicopters 370
intense 370
lagerung 370
lauscht 370
moody 370
niedrigem 370
operatic 370
orchideen 370
reben 370
reeds 370
rustikalem 370
sli@@ 370
slider 370
smokey 370
sommerzeit 370
stromleitungen 370
tende 370
tennisball 370
theaterstuck 370
tolle 370
uberfluteten 370
ubergangs@@ 370
wahrungen 370
wrench 370
anwendung 369
bartigen 369
blocken 369
claimed 369
cowgirl 369
donuts 369
elch 369
ener 369
founded 369
handedruck 369
helikopter 369
inaugural 369
jumpsuit 369
litter 369
lover 369
mexican 369
nadel@@ 369
plastik 369
profil@@ 369
significant 369
steile 369
supporter 369
trocken@@ 369
vektoren 369
wichtiger 369
architektur@@ 368
bastelt 368
bett@@ 368
beutel 368
chtet 368
defenceman 368
drag 368
dutch 368
eishockey 368
epoche 368
goldfische 368
hooded 368
kohle@@ 368
portemonnaie 368
reisfelder 368
schiffs@@ 368
sive 368
stischer 368
ta 368
uberblickt 368
zeitungen 368
crafted 367
engels 367
exact 367
fame 367
gemalden 367
granddaughter 367
je@@ 367
kat@@ 367
krautern 367
liedermacher 367
meister@@ 367
mohnblumen 367
pump 367
radi@@ 367
streichelt 367
teetasse 367
teichs 367
auflistung 366
ausruhen 366
cowboyhut 366
dandelions 366
deter 366
diaper 366
digitalem 366
eaten 366
enkelin 366
entkommen 366
ernsthaft 366
extra@@ 366
fiktionaler 366
ically 366
instruments 366
kangaroo 366
kratzt 366
rank 366
reported 366
skirts 366
smog 366
traktoren 366
vertrag 366
wanduhr 366
11th 365
algae 365
appartements 365
barbie 365
bikers 365
cappuccino 365
chin 365
claim 365
distinctive 365
dokument 365
eingangstur 365
enti@@ 365
gemischter 365
handful 365
hangende 365
hoffen 365
kleider@@ 365
konflikts 365
mangrove 365
musst 365
preises 365
schlafzimmer@@ 365
seifenblasen 365
stylist 365
ultra@@ 365
umbau 365
verjungungskur 365
vineyards 365
welchem 365
abschlag 364
abschlusszeremonie 364
aller@@ 364
attraktionen 364
auftritte 364
ausbildung 364
autonomous 364
cola 364
diver 364
furry 364
gei@@ 364
herzustellen 364
kingdom 364
kreisformigen 364
mess 364
mittel 364
mobel@@ 364
quad 364
religionsfuhrer 364
sanddune 364
shovel 364
tetes 364
uberblick 364
zapfen 364
amidst 363
bisher 363
blumenmadchen 363
breast 363
brennpunkt 363
challenged 363
chende 363
fegt 363
geh@@ 363
gewurzen 363
lebensmittel@@ 363
lichtstrahlen 363
mache 363
moderiert 363
nationales 363
pilzen 363
presenter 363
quar@@ 363
ragen 363
rebe 363
sailor 363
schlanken 363
setup 363
sideline 363
teenagermadchens 363
territorium 363
torhuter 363
trips 363
trockener 363
uring 363
ars 362
beilage 362
bettes 362
edelstahl@@ 362
feast 362
gebackene 362
gestromte 362
goldmunzen 362
gummi@@ 362
herbstlaub 362
hohen@@ 362
influence 362
koalas 362
krippe 362
prices 362
quadrat@@ 362
restaurierung 362
rotates 362
schnur 362
shintergrund 362
standorte 362
sturmen 362
sudlich 362
vegetarian 362
vorgeschlagenen 362
weißwein 362
zarten 362
35@@ 361
angebracht 361
anzieht 361
beruhmtesten 361
bles 361
damask 361
idyllic 361
lid 361
live-konzert 361
lobster 361
pylon 361
rohe 361
seitlich 361
spaniel 361
stri@@ 361
topfen 361
zip 361
acryl@@ 360
atom@@ 360
bandage 360
bier@@ 360
brighten 360
cher@@ 360
depicted 360
elaborate 360
fixed 360
fruhmorgendlicher 360
gedacht 360
geln 360
gun@@ 360
klassi@@ 360
ladens 360
massen@@ 360
merkmal 360
min 360
mitgliedsorganisation 360
nis 360
paarungen 360
padlock 360
schaufensterpuppe 360
simplicity 360
softball 360
stamme@@ 360
answers 359
applaudiert 359
cables 359
dicker 359
din@@ 359
donkeys 359
dreamy 359
dun@@ 359
enkel 359
erhobenen 359
flamingo 359
funk 359
grafisches 359
handout 359
haufig 359
haut@@ 359
liebes@@ 359
lilie 359
marchen@@ 359
matador 359
meter@@ 359
nennen 359
nordosten 359
orchestra 359
oz 359
res 359
reste 359
rv 359
schachteln 359
schaffung 359
shingle 359
skylight 359
symbol@@ 359
teuerste 359
vereint 359
yours 359
anstrich 358
authentic 358
c. 358
citrus 358
dozens 358
erheben 358
fasten 358
favorit 358
geschaft@@ 358
klinik 358
kohle 358
konferenzraum 358
kontrollieren 358
kreide@@ 358
mahne 358
nisse 358
nobody 358
nung 358
polygonal 358
preserved 358
smoked 358
spielerin 358
temperatur 358
vorbeifahrt 358
aluminum 357
darbietungen 357
dasselbe 357
exotischen 357
fairway 357
finishes 357
folding 357
geschmuckter 357
großartigen 357
hohes 357
illustrative 357
knopfen 357
ladybug 357
particularly 357
pfeffer 357
romanze 357
ruin 357
saddle 357
schutzt 357
screenwriter 357
son@@ 357
vermieten 357
video@@ 357
viewpoint 357
vorfall 357
vorsichtig 357
wines 357
.000,00 356
bedding 356
birne 356
dert 356
designer@@ 356
einfluss 356
fahnen@@ 356
friedlichen 356
geformten 356
krankenhausbett 356
lowen@@ 356
marktgemeinde 356
meme 356
schrauben 356
select 356
torneo 356
tropft 356
umlaufbahn 356
veranderungen 356
veteranen 356
aside 355
backwards 355
beloved 355
bracelets 355
ces 355
dachterrasse 355
darker 355
detes 355
entwerfen 355
fan-@@ 355
gebirgs@@ 355
glowed 355
high-@@ 355
isometrische 355
judges 355
kaffeebecher 355
keramik 355
kuchendesign 355
lektion 355
letting 355
ligaspiels 355
liked 355
linkshander 355
nahtlosem 355
operationssaal 355
parfum 355
pflanzt 355
potter 355
rechtsaußen 355
reminiscent 355
reverse 355
richtet 355
stadtsilhouette 355
stricken 355
sudseite 355
70er 354
attendees 354
attitude 354
buntstifte 354
dutzend 354
duvet 354
gener 354
halbmond 354
holzernem 354
interested 354
kleinste 354
laser 354
mossy 354
neunten 354
retaining 354
skat@@ 354
tatort 354
tierheim 354
wahrung 354
agriculture 353
airplanes 353
antlers 353
ari@@ 353
ausschnittspfad 353
bettwasche 353
cello 353
gesammelt 353
hartholzboden 353
hipster-@@ 353
hy@@ 353
kunstausstellung 353
langsamen 353
lavish 353
libelle 353
luxu@@ 353
offentliches 353
savanna 353
schlammigen 353
secluded 353
shady 353
silent 353
specific 353
supply 353
tanzenden 353
tupfen 353
basking 352
bells 352
benefizkonzert 352
cal@@ 352
cricketspiel 352
disco 352
experten 352
familienportrat 352
fantasie 352
gain 352
gegenwart 352
monsters 352
ors 352
ostrich 352
personlichkeit 352
pillen 352
stati@@ 352
ub@@ 352
wahr@@ 352
zeitalter 352
21. 351
ads 351
brautpaares 351
flea 351
foderalen 351
imageproblem 351
kontur 351
manor 351
nutz@@ 351
offnete 351
ons@@ 351
rate 351
rounds 351
seaweed 351
ssenen 351
standard@@ 351
stigen 351
tablet-pc 351
trafen 351
traube 351
unterseite 351
youngster 351
akzent 350
beers 350
biking 350
cht@@ 350
dramafilm 350
erhobenem 350
firework 350
forested 350
gere@@ 350
grabt 350
hel@@ 350
herab 350
herbstes 350
hindurch 350
martini 350
moglicherweise 350
mul@@ 350
nte 350
objekten 350
olympischer 350
prix 350
restaurant@@ 350
shut 350
spat 350
stoppen 350
trennen 350
uralte 350
weeds 350
00@@ 349
ansieht 349
attire 349
beanie 349
beetle 349
betonwand 349
elegantes 349
endet 349
erei 349
ernten 349
fokussiert 349
frosted 349
gesamt@@ 349
imagegewinn 349
knie@@ 349
militarparade 349
nationalparks 349
nordseite 349
optimi@@ 349
planks 349
prophet 349
sele@@ 349
seltenen 349
sprachen 349
staatsflagge 349
team@@ 349
tele@@ 349
timbered 349
unterstutzern 349
weinflaschen 349
wimpern 349
500@@ 348
architects 348
automobil 348
bolt 348
bulle 348
drohnenaufnahmen 348
eingefuhrt 348
erst 348
erstellt 348
etched 348
fehl@@ 348
floraler 348
fußball-ball 348
heraldic 348
keksen 348
kuhle 348
moral 348
mystery 348
ning 348
oned 348
pfote 348
reli@@ 348
schotten@@ 348
stressed 348
till 348
uberdachte 348
ubersat 348
vektorkarte 348
veterans 348
washes 348
zenden 348
2,@@ 347
beliebten 347
besichtigen 347
causing 347
countdown 347
danach 347
dash 347
eroffnungsveranstaltung 347
fahnenschwenken 347
footwear 347
fruhes 347
geblieben 347
herbstlich 347
icing 347
identify 347
independent 347
interviewt 347
karneval 347
longboard 347
modeled 347
mountainous 347
none 347
origami 347
packen 347
plakatwand 347
plaster 347
prefer 347
rasenmaher 347
retreat 347
saf@@ 347
tortoise 347
uberraschung 347
wildes 347
wintersturm 347
bewaffneten 346
bouquets 346
cosplay 346
dische 346
eiswurfel 346
excellent 346
genes 346
inform@@ 346
raining 346
redet 346
regenschirme 346
renovierten 346
sources 346
stretched 346
bases 345
beschadigte 345
biografischen 345
bran@@ 345
decide 345
eagles 345
fertigstellung 345
folkrock-kunstler 345
gegrundet 345
geliefert 345
geschafft 345
getonten 345
gleichzeitig 345
grußen 345
kinos 345
lichste 345
mane 345
packaging 345
partie 345
peanut 345
quadraten 345
root 345
schlaf 345
sonnen 345
stechen 345
uberspannt 345
verfallenen 345
weizen@@ 345
zifferblatt 345
bildhauer 344
blogs 344
charges 344
digitally 344
entweder 344
filmautor 344
flussen 344
football-team 344
god 344
gratuliert 344
handgezeichnet 344
klassischem 344
krane 344
linebacker 344
markte 344
mern 344
outback 344
pfingstrose 344
repairing 344
seltener 344
sparks 344
stroller 344
trolley 344
versammelte 344
acting 343
ational 343
besen 343
crow 343
curled 343
dazzling 343
einheiten 343
ernst 343
grassland 343
harter 343
hofes 343
iled 343
kahlen 343
klang 343
kopfuber 343
kun@@ 343
metallschild 343
minze 343
planung 343
sanctuary 343
schablone 343
segel@@ 343
segelschiff 343
slo@@ 343
spraying 343
tastes 343
torch 343
umher 343
vermietung 343
viertel@@ 343
beitrag 342
chipmunk 342
damals 342
ets 342
fabrics 342
futuristische 342
glam 342
hr 342
ical 342
joyful 342
lichter@@ 342
loads 342
ls 342
pens 342
press@@ 342
rails 342
sekret 342
siegtor 342
steppdecke 342
tonnen 342
tour@@ 342
vorstellen 342
airy 341
alphakanal 341
attrappe 341
aufhangen 341
cellar 341
discusses 341
foothills 341
geparkten 341
gestapelt 341
husky 341
ja@@ 341
kakteen 341
kleinsten 341
kranken 341
lucke 341
morgenstunden 341
promise 341
strauchern 341
vanilla 341
zylinder 341
2017 340
attraktion 340
blumenbeet 340
description 340
ehemaliges 340
fußballfeld 340
geduldig 340
gesichts@@ 340
gewahlt 340
gorillas 340
importance 340
jazz@@ 340
kes 340
kommunikation 340
picknicktisch 340
por@@ 340
practices 340
schat@@ 340
schnitt@@ 340
solitary 340
soße 340
speisekarte 340
spreading 340
steppe 340
survey 340
teens 340
treasure 340
tying 340
verwirrt 340
zweck 340
4x@@ 339
boiled 339
bs 339
caterpillar 339
cker 339
cucumber 339
dumbbells 339
entladen 339
grizzlybar 339
grußkarten 339
herrlich 339
mers 339
odd 339
saftige 339
schaute 339
sprach 339
taucher 339
trampoline 339
whimsical 339
windkraftanlagen 339
wise 339
ztes 339
-team 338
90s 338
adventures 338
app@@ 338
barreled 338
befindlichen 338
bezahlen 338
broom 338
business-@@ 338
danksagung 338
delicious 338
fahigkeit 338
galaxien 338
gegessen 338
grasland 338
hauchdunnen 338
hawk 338
juvenile 338
knopfe 338
lichtung 338
marchen 338
mayor 338
mobil@@ 338
nagelkunst 338
partly 338
pears 338
pudding 338
schte 338
seltsamen 338
status 338
tv-netzwerk 338
warm@@ 338
weihnachtskugel 338
wen 338
zer 338
anfangen 337
applauds 337
aufsteigen 337
barley 337
beruhmter 337
besitzt 337
cells 337
ergebnisse 337
faded 337
geoffneter 337
glamourose 337
hafter 337
handgefertigte 337
innenseite 337
nowhere 337
reparieren 337
robe 337
sedan 337
solarpaneele 337
teilten 337
vet 337
blase 336
braided 336
einkaufsstraße 336
gelernt 336
head@@ 336
hook 336
hren 336
instrumental 336
kunstlichen 336
launch-party 336
paarung 336
premierenvorstellung 336
radfahren 336
reißt 336
ritual 336
st-@@ 336
subfamily 336
taschenuhr 336
tennisturnier 336
toasting 336
upfront 336
whipped 336
youngest 336
beide 335
bet 335
breites 335
completion 335
cosmetics 335
farbenfrohes 335
forbidden 335
generations 335
grasslands 335
hausgemachte 335
igkeit 335
install 335
interagieren 335
jug 335
kanadische 335
kinn 335
koffern 335
landkreis 335
leafy 335
leoparden 335
los@@ 335
mineral 335
rostige 335
silly 335
stiel 335
strom@@ 335
ubernimmt 335
wirbeln 335
wirken 335
asphaltstraße 334
bautatigkeit 334
bern 334
bikini 334
chocolates 334
cocktail@@ 334
courthouse 334
delight 334
dy 334
dyed 334
engineers 334
fluge 334
franzosischen 334
fußballplatz 334
geschaftsviertel 334
gleitet 334
ii 334
klammert 334
kommende 334
layup 334
leinwande 334
medizinischer 334
nahrungssuche 334
nicely 334
sheets 334
transportieren 334
zwillinge 334
.5 333
blocking 333
casts 333
chiseled 333
depression 333
diskussion 333
ernde 333
experts 333
false 333
ferns 333
flute 333
flyer 333
gated 333
gegenstande 333
gepaart 333
gleichgewicht 333
homerun 333
klammern 333
krank 333
ladendiebe 333
ledge 333
leerraum 333
normally 333
oceans 333
optik 333
preis@@ 333
rouge 333
secondary 333
seltenes 333
seltsam 333
slender 333
stischem 333
straßenkunstler 333
striker 333
topper 333
transporter 333
unabhangigkeitstag 333
verruckte 333
wickets 333
25th 332
artikeln 332
auffallend 332
basketballspitzengarde 332
bespoke 332
chats 332
drills 332
drucke 332
durchfuhrt 332
ehr@@ 332
exemplar 332
expressions 332
extensive 332
fischerbooten 332
flagship 332
generalprobe 332
glanzendem 332
hedge 332
kreisformige 332
monche 332
motorboot 332
municipality 332
nuss 332
obsessed 332
piles 332
pillars 332
poem 332
scheinwerfer 332
schurze 332
sted 332
stuhls 332
warrior 332
ahornblatt 331
auftrag 331
bbq 331
birke 331
brillen 331
cer@@ 331
chewing 331
clocks 331
finde 331
geladen 331
glei@@ 331
gluck@@ 331
lon@@ 331
mans 331
migranten 331
mohren 331
papst 331
raupe 331
screened 331
signals 331
souvenirladen 331
staat@@ 331
straßenecke 331
supported 331
toller 331
wahlte 331
wildtiere 331
wolfes 331
€ 331
auszeit 330
basin 330
baumwolle 330
betrieben 330
bruder@@ 330
cousin 330
dokumentationen 330
eingebaut 330
erende 330
fass 330
generationen 330
gezwungen 330
gorge 330
hergestellt 330
laurel 330
lesung 330
lokal 330
philosoph 330
platzieren 330
printable 330
pulver 330
ranked 330
reichweite 330
rundem 330
runter 330
schten 330
secrets 330
sehenswurdigkeiten 330
seil@@ 330
severe 330
signatur 330
sill 330
sommerlicher 330
stupa 330
teilnahme 330
trikots 330
ukulele 330
unitary 330
va@@ 330
14k 329
animationsfilms 329
apotheke 329
departing 329
erkennt 329
fet@@ 329
foil 329
freezing 329
gegen@@ 329
headache 329
herauszufinden 329
kopfschuss 329
leser 329
markt@@ 329
mikro@@ 329
motiv 329
pistole 329
praline 329
qualifikationsspiels 329
required 329
sanierung 329
schleifen 329
shing 329
straßenkunst 329
struggling 329
sturmt 329
taglichen 329
tee@@ 329
ultra 329
umkreisen 329
blondes 328
cob 328
creativity 328
doktors 328
economic 328
encyclopedia 328
entstehen 328
fashions 328
grafschaft 328
grillen 328
hange 328
heiliger 328
herbstmorgen 328
ien@@ 328
kariertem 328
kolonial@@ 328
lei@@ 328
motiven 328
orangefarbenen 328
pfirsiche 328
seascape 328
spinnennetz 328
stripped 328
tow 328
user 328
verkauf@@ 328
verletzungen 328
weights 328
zeug 328
acker 327
berichten 327
blass@@ 327
clients 327
collapsed 327
flew 327
gebirgsbach 327
geographischer 327
gluhenden 327
kontinents 327
professioneller 327
rentiere 327
robuste 327
saßen 327
serien-premiere 327
technical 327
zeitpunkt 327
archaeological 326
bewegte 326
blumenfeld 326
causes 326
cemetery 326
chern 326
defence 326
deutlich 326
diamantring 326
eroffnungsvorstellung 326
familienmitglied 326
fertiggestellt 326
flankiert 326
gekreuzten 326
gemeinschafts@@ 326
gend 326
getotet 326
golfers 326
hinterlassen 326
immediately 326
indicating 326
kustenstadt 326
line-@@ 326
mannschaftstrainings 326
mende 326
metre 326
nder 326
orthodox 326
professionelle 326
riecht 326
rohre 326
schlosser 326
sonntagmorgen 326
sprechblase 326
verursacht 326
wireless 326
bent 325
bestandteil 325
bestimmen 325
biting 325
boiling 325
braun@@ 325
cardinal 325
ction 325
gehause 325
geschutzten 325
gewebe 325
golfturniers 325
henna 325
kilt 325
luxusimmobilien 325
marken 325
nen@@ 325
peanuts 325
reiterin 325
smo@@ 325
sonntagnachmittag 325
stau@@ 325
torte 325
trenchcoat 325
wert@@ 325
wiederkehrende 325
acts 324
adaptation 324
animator 324
axe 324
bekannte 324
bel 324
bengal 324
bilderrahmen 324
billed 324
blattert 324
bruch 324
curb 324
deliver 324
electronica 324
elektroauto 324
gerendertes 324
handeschutteln 324
horizontalen 324
kings 324
kissed 324
klassen@@ 324
komodie 324
kreuzes 324
lenkt 324
lten 324
meeresfruchte 324
ponies 324
prachtvolle 324
psychedelic-rock-kunstler 324
puppen@@ 324
raccoon 324
schein@@ 324
schen@@ 324
stab@@ 324
str@@ 324
trocken 324
umwelt 324
upgrade 324
welcomes 324
windpark 324
wutender 324
blade 323
blinds 323
bronzeskulptur 323
brunnens 323
charmanten 323
clo@@ 323
discovery 323
doubles 323
elektronikkunstler 323
formerly 323
geformter 323
goaltender 323
herbstfarbung 323
ill 323
impossible 323
klassisch 323
kleidungsstucken 323
kuhl@@ 323
liefer@@ 323
mobilen 323
perfor@@ 323
permanent 323
plated 323
posts 323
rein 323
staffelei 323
tend 323
trainingslager 323
workplace 323
90@@ 322
abgestellt 322
auftaucht 322
austern 322
begging 322
beziehungen 322
bled 322
chemischen 322
erected 322
expansion 322
gitarristen 322
gy 322
heil@@ 322
ils 322
kalt 322
kuhen 322
langzeitbelichtung 322
mannliches 322
martialische 322
pfeil@@ 322
pul@@ 322
queensize-bett 322
reports 322
sattel 322
schlu@@ 322
schokoladenkuchen 322
shattered 322
skonzept 322
threw 322
verschwindet 322
anime-@@ 321
awareness 321
begleiter 321
cartoonist 321
continents 321
ct@@ 321
dvd 321
eigenschaft 321
ganzes 321
gluckwunsch 321
helden 321
jalousien 321
jung 321
kreisformiges 321
lehr@@ 321
migrants 321
reproduction 321
rid 321
skon@@ 321
soccer@@ 321
sterns 321
stete 321
watercolour 321
wodurch 321
wollten 321
ach@@ 320
aggressive 320
beliebt 320
blickend 320
dachshund 320
dampf@@ 320
dekollete 320
dump 320
electronics 320
eucalyptus 320
glacial 320
hoffe 320
konigs 320
lern 320
lkws 320
mobiles 320
musikvideoprogramm 320
necessary 320
pleated 320
rockt 320
schnitzereien 320
scuba 320
ser 320
signalisiert 320
sparkly 320
stei@@ 320
tauschen 320
tollen 320
turkisfarbenen 320
advertisement 319
berechtigt 319
cleared 319
coa@@ 319
cooles 319
dominiert 319
flieder 319
gefahrlich 319
grast 319
handel 319
intended 319
introduction 319
klapp@@ 319
knopf@@ 319
krallen 319
kurvenreiche 319
leans 319
lust 319
nachdenken 319
nations 319
ordered 319
schaferhund 319
sparkles 319
triathlon 319
untersuchen 319
vinta@@ 319
vorhangeschloss 319
websitekategorie 319
wiederhol@@ 319
wochen@@ 319
boar 318
boots@@ 318
chor 318
cleans 318
deciduous 318
deck@@ 318
doppelten 318
forderung 318
gewickelt 318
graticule 318
komplexen 318
laufs 318
mechanischen 318
naval 318
neighbors 318
offentlicher 318
poli@@ 318
principal 318
projektes 318
sands 318
shift 318
sportwagens 318
volkskunstler 318
weit@@ 318
wustenlandschaft 318
zumindest 318
11. 317
aufsteigt 317
behinderter 317
charmante 317
ehering 317
erinnen 317
gespendet 317
gospelkunstler 317
kni@@ 317
lebendig 317
lotsen 317
meereslandschaft 317
niedrig 317
ortliche 317
patrouille 317
proposal 317
religiosem 317
ruine 317
sichern 317
statten 317
suited 317
texturiertem 317
tive 317
turkish 317
typisch 317
vibe 317
viert 317
80@@ 316
^ 316
afraid 316
beagle 316
begannen 316
believes 316
charts 316
components 316
determine 316
directs 316
entertaining 316
et 316
fallender 316
filmkostumdesigner 316
flanked 316
forehead 316
framing 316
fringe 316
gebrochenem 316
glasflasche 316
hummingbird 316
klub 316
kopfschmerzen 316
linienzeichnung 316
medi@@ 316
redwood 316
remodel 316
schaften 316
trampolin 316
trockenem 316
waterhole 316
weihnachtsk@@ 316
wochenmarkt 316
ßen 316
ahnlichen 315
andrang 315
attract 315
castles 315
cry 315
eleganter 315
erkundung 315
fantastische 315
fertigen 315
flugzeug@@ 315
gestein 315
granatapfel 315
groceries 315
gurdwara 315
hauptdarsteller 315
headboard 315
jackets 315
jenseits 315
joghurt 315
kit@@ 315
kriegs@@ 315
lass 315
mental 315
monch 315
moor 315
moti@@ 315
oatmeal 315
regenwolken 315
ruf 315
snakes 315
sorry 315
struggle 315
taschenrechner 315
team-prasentation 315
bargeld 314
bastel@@ 314
chunky 314
coconuts 314
echter 314
forgotten 314
fotografierte 314
frosting 314
game@@ 314
geschi@@ 314
hochzeitsfotograf 314
mic 314
moglichen 314
noodles 314
rindfleisch 314
ritter 314
ropes 314
rotfuchs 314
senioren@@ 314
stab 314
stare 314
texturierten 314
transporting 314
typically 314
umkleidekabine 314
ungewohnlich 314
ventilator 314
wandelt 314
baumstammen 313
boarded 313
farbtone 313
fein 313
firma 313
fliesenboden 313
gebot 313
glue 313
hosting 313
jogger 313
nickerchen 313
pinsel@@ 313
portratsitzung 313
prove 313
recreation 313
regi@@ 313
respekt 313
rustikaler 313
schließung 313
spicy 313
squash 313
steuern 313
tex@@ 313
toothbrush 313
tum@@ 313
weibliches 313
ws 313
yarn 313
abhangen 312
bestand 312
bootstour 312
bursting 312
colony 312
commemorate 312
debate 312
diente 312
einkaufstasche 312
faulen 312
geschutzter 312
hind 312
hochzeitseinladung 312
holle 312
impress 312
medina 312
pantry 312
putts 312
regenwaldes 312
schnellste 312
trager 312
trimmed 312
uberdachten 312
zugehorigkeit 312
ate@@ 311
beißt 311
belichtung 311
broccoli 311
duschen 311
eiserne 311
elten 311
embedded 311
erhohter 311
fackeln 311
feuert 311
fragrance 311
fullung 311
gans 311
gedicht 311
gefuhle 311
info 311
iter 311
lifetime 311
modest 311
oysters 311
pallet 311
petrol 311
pflegt 311
refurbished 311
reisepass 311
sauberes 311
sekunde 311
shrub 311
spanning 311
streichen 311
trink@@ 311
turkisfarbenem 311
ungefahr 311
waited 311
wallpapers 311
welchen 311
wishing 311
zufahrt 311
1920x1080 310
33 310
acht 310
beschreibt 310
blumengarten 310
buhnen@@ 310
contours 310
developer 310
faser 310
festivities 310
fototages 310
funkelnde 310
gefragt 310
geliebt 310
glasschussel 310
graph@@ 310
hase 310
hauschen 310
kehren 310
m-@@ 310
mugs 310
nahr@@ 310
repairs 310
strecken 310
submarine 310
trophaen 310
u-bahn-@@ 310
verdeckt 310
wetter@@ 310
wunderbaren 310
abenteuer@@ 309
bambus 309
cases 309
ckter 309
closes 309
convention 309
diploma 309
down@@ 309
earned 309
gleiten 309
goldfarbe 309
hardrock-kunstlers 309
militar 309
nachte 309
pfosten 309
regenbogens 309
rights 309
romanesque 309
sag@@ 309
samt 309
schlag@@ 309
stadtplatz 309
stadtzentrums 309
stiegen 309
stille 309
trainings@@ 309
truben 309
trust 309
volunteer 309
wickeln 309
zahnburste 309
-ikone 308
announce 308
assault 308
ausgerichtet 308
awaits 308
candidate 308
clausura 308
creature 308
cushions 308
deckung 308
elektronische 308
fern@@ 308
filmmusik-kunstler 308
filmortung 308
frucht@@ 308
gelo@@ 308
goldrahmen 308
graveyard 308
grooming 308
housed 308
industri@@ 308
kayaks 308
matched 308
megaphon 308
melted 308
morgendlicher 308
muslim 308
oscars 308
ppe 308
reinigung 308
rusted 308
stran@@ 308
streitet 308
tot 308
waking 308
with@@ 308
28@@ 307
arer 307
bible 307
chairman 307
filmset 307
gener@@ 307
glad 307
globale 307
gummistempel 307
hochhaus 307
interpreten 307
klosters 307
kti@@ 307
martialischer 307
motivational 307
mung 307
regelmaßig 307
schickes 307
schwanger 307
souk 307
therapy 307
trophies 307
van@@ 307
verteidigung 307
vie 307
vorbereitungen 307
60s 306
abbildungen 306
aufwachen 306
bangs 306
bedruckten 306
beweis 306
buchs 306
communication 306
cypress 306
echtes 306
engines 306
ergießt 306
ern@@ 306
fixing 306
flammen@@ 306
galeriewand 306
geha@@ 306
glittery 306
jo@@ 306
kampfer 306
karate 306
languages 306
liegestuhle 306
mann@@ 306
marsches 306
modified 306
parachute 306
praktisch 306
representation 306
respond 306
royals 306
schein 306
scheinbar 306
schrei@@ 306
steinigen 306
sunken 306
taught 306
tomate 306
topfe 306
weihnachtsmarkt 306
wohnzimmerdesign 306
wreaths 306
alike 305
angel@@ 305
britischen 305
buggy 305
cedar 305
decade 305
deckt 305
dienstags 305
endete 305
figurine 305
gelt 305
imageergebnis 305
injuries 305
kader 305
konzeptuelles 305
mittelalter 305
nam@@ 305
parolen 305
romanautor 305
sandigen 305
schenkel 305
sou@@ 305
statische 305
stieg 305
terrier 305
ther@@ 305
23@@ 304
bergrucken 304
braid 304
bte 304
cinematographer 304
destroyer 304
dischen 304
equation 304
gens 304
gezeiten@@ 304
gulls 304
heap 304
interacting 304
kicken 304
laptop-computer 304
laptop-tastatur 304
mittwochs 304
motorists 304
orchester 304
photographic 304
preisen 304
provinces 304
puffy 304
rechteckiger 304
recorded 304
rothirsch 304
rule 304
runen 304
scottish 304
touren 304
triangular 304
wichtigen 304
zundet 304
baumwurzeln 303
berufsverkehr 303
blau- 303
chilling 303
deen 303
entwirft 303
feuerwehr@@ 303
gitarren 303
hubschraubers 303
konig@@ 303
lachend 303
prayers 303
pristine 303
provinzen 303
rudel 303
sechs 303
singers 303
stur@@ 303
verhalten 303
bahnen 302
balkonen 302
calories 302
developing 302
devil 302
gefullte 302
gerechtigkeit 302
gleichung 302
holzofen 302
index 302
iting 302
krie@@ 302
landschafts@@ 302
lebensmittelladen 302
mati@@ 302
methode 302
nachdenklich 302
physician 302
posierten 302
railings 302
ratte 302
reg@@ 302
sang 302
schusse 302
spice 302
strait 302
symbolisiert 302
szen@@ 302
topic 302
unglaublichen 302
videospiele 302
wider@@ 302
95 301
ballerinas 301
basketballplatz 301
behauptet 301
chirurgen 301
comeback 301
driftwood 301
ess@@ 301
familienspaziergang 301
ganzkorperportrat 301
gel 301
gepflasterten 301
heißes 301
koch@@ 301
mandalas 301
menden 301
mold 301
mower 301
nachmittags 301
neben@@ 301
papiertute 301
perch 301
reiterhofe 301
reißen 301
schmelzen 301
scrap 301
shuttle 301
sleepy 301
smokes 301
stork 301
strokes 301
tacos 301
tailored 301
vektorlogo-symbol 301
vogelhaus 301
zwillings@@ 301
brucken@@ 300
bullenelch 300
cement 300
defenders 300
draft 300
dunkelblauen 300
elfe 300
entdeckte 300
familienmitglieder 300
frogs 300
fußgangern 300
gehoben 300
gele@@ 300
getan 300
heiratete 300
insbesondere 300
interessanten 300
interessantes 300
jaw 300
killer 300
knowledge 300
kontakt 300
malenden 300
marines 300
musikalischen 300
pass@@ 300
pooltisch 300
schachfiguren 300
schmerz 300
schmetterlings@@ 300
speisekammer 300
statur 300
tech 300
tulle 300
verdeckte 300
vorhangen 300
vororten 300
wohngebiet 300
zel@@ 300
alert 299
alpen 299
armbanduhr 299
badezimmer@@ 299
bookshelf 299
ceremonies 299
chooses 299
ensure 299
entdeckung 299
entlassen 299
ently 299
explodieren 299
expon@@ 299
geheimnisvollen 299
gletscher@@ 299
graser 299
informelle 299
invited 299
komplette 299
kopftuch 299
laps 299
leckerbissen 299
mitarbeitern 299
nordlich 299
pines 299
practical 299
produkts 299
protester 299
response 299
riverbank 299
rucksitz 299
schwanken 299
shimmering 299
spor@@ 299
streams 299
stutzen 299
tattooed 299
vektorskizze 299
wunscht 299
allowing 298
announcement 298
ausgesetzt 298
blumenladen 298
british 298
buyers 298
deco 298
denkst 298
established 298
fahrerlager 298
fugte 298
fundament 298
glaciers 298
hourglass 298
inklusive 298
kiwi 298
knochel 298
lese@@ 298
linearen 298
linksaußen 298
maht 298
mais@@ 298
major@@ 298
messing 298
mittag 298
ness 298
offensive 298
perfektes 298
presse@@ 298
radiomoderator 298
richten 298
schad@@ 298
scheduled 298
silbernem 298
spinach 298
sustainable 298
thesen 298
tierisches 298
trompete 298
vaulted 298
1990s 297
alem 297
anmutigen 297
baldachin 297
brennender 297
eitelkeit 297
eroffnungstag 297
flote 297
frustrated 297
heimat@@ 297
kin@@ 297
konzerten 297
militarkommandant 297
moden@@ 297
montagmorgen 297
oberflachen 297
packung 297
pop-kunstler 297
ruhiges 297
slate 297
sneak 297
swirls 297
wachsende 297
weihnachtsgeschenk 297
ß@@ 297
54 296
armaturenbrett 296
caribbean 296
computergeneriertes 296
crowns 296
designing 296
dutzende 296
el 296
familienfotos 296
filmcharaktere 296
gadgets 296
gebietes 296
gleis 296
grasshopper 296
gruß 296
herein@@ 296
humor 296
investment 296
kam@@ 296
krankheiten 296
ktion 296
leben@@ 296
liebesfilm 296
milky 296
motto 296
posten 296
schlei@@ 296
skis 296
specsavers 296
symmetrical 296
tranquil 296
tug 296
ubergang 296
ubersehen 296
vertrau@@ 296
wanting 296
weihnachtsfeier 296
aging 295
altersgruppen 295
anische 295
ankunfte 295
ants 295
arm@@ 295
aufmerksam 295
bauernhauses 295
benefizveranstaltung 295
chtige 295
crib 295
determined 295
donut 295
draht@@ 295
elfenbein 295
embraces 295
funeral 295
generic 295
initials 295
jacuzzi 295
moge 295
mount 295
netze 295
platschert 295
pool@@ 295
rennwagenfahrer 295
schwamm 295
sogar 295
stairway 295
stellung 295
struggles 295
sunsets 295
surgical 295
task 295
trag@@ 295
vasen 295
verbrennen 295
abstellgleis 294
angebaut 294
anim@@ 294
anzuge 294
awkward 294
besonderes 294
blickte 294
bugs 294
clippingpfad 294
crate 294
dest 294
dreadlocks 294
einweihung 294
erungs@@ 294
finalrunde 294
futter@@ 294
heiligen@@ 294
herb 294
hollow 294
kolonie 294
kuchendesigns 294
nanny 294
needle 294
observe 294
pastry 294
pipeline 294
plaque 294
rhythmus 294
soda 294
spire 294
spult 294
squ@@ 294
stehende 294
stromten 294
touchdown-pass 294
touring 294
affordable 293
angetrieben 293
appropriate 293
athletische 293
bahngleise 293
bequemen 293
bestellen 293
extensions 293
fixiert 293
goddess 293
haltend 293
hinein@@ 293
kandidaten 293
karikaturen 293
karotten 293
lebhaften 293
lookout 293
notiz 293
ore 293
passagieren 293
sondervorfuhrung 293
spei@@ 293
speise@@ 293
spektakulare 293
ul@@ 293
upholstered 293
werbeportrat 293
30. 292
32 292
ane 292
anmutig 292
batting 292
bedeckter 292
beinhaltet 292
belongs 292
bierflaschen 292
blaze 292
boulder 292
charged 292
cosmetic 292
develop 292
don@@ 292
drugs 292
farbenem 292
freizeit@@ 292
gerahmte 292
gipfeln 292
haupthaus 292
hoffentlich 292
indische 292
introduce 292
krabben 292
landschaft@@ 292
lavendel@@ 292
mauerwerk 292
nachdenkt 292
oma 292
promi-@@ 292
proved 292
reflektierenden 292
regel 292
rock-kunstler 292
rocken 292
roman@@ 292
schnellsten 292
spikes 292
streunende 292
stru@@ 292
tv-personalitat 292
tv-seifenoper 292
verpassen 292
verwandelte 292
wintergarten 292
yogurt 292
zweiter 292
absolute 291
angestellter 291
ara 291
aufweist 291
beweisen 291
ernden 291
formationen 291
gemobbt 291
glows 291
imagination 291
inhalt 291
kaut 291
kneeling 291
limonade 291
meist@@ 291
merkmalen 291
offensichtlich 291
schauend 291
scratching 291
sinn@@ 291
spielzeugauto 291
strips 291
sunlit 291
unfinished 291
vektorgrafiken 291
versionen 291
armored 290
beet 290
bekampfen 290
entsteht 290
farbig 290
fencing 290
gerissen 290
getrockneten 290
hochzeitsringe 290
incredibly 290
inselgruppe 290
irgendeinem 290
lamm 290
lastkahn 290
locher 290
mobiliar 290
oase 290
orchidee 290
packt 290
planter 290
presse 290
ribs 290
schalt@@ 290
sectional 290
sneaker 290
stopp 290
tz@@ 290
vektorzeichnung 290
aktivisten 289
altarraum 289
ambiente 289
assortment 289
brushing 289
cascading 289
confirmed 289
entspannung 289
fahrten 289
fischer@@ 289
gottin 289
grafischer 289
ham 289
haufigsten 289
holder 289
interviewed 289
iten 289
jaguar 289
kalligrafie 289
katalog 289
kieselstrand 289
kunsthandwerk 289
kupfer@@ 289
mobbed 289
nook 289
observer 289
originellen 289
portal 289
schnees 289
strei@@ 289
transition 289
unveils 289
upwards 289
urlaubs@@ 289
verfall 289
wahr 289
wolkenverhangenem 289
.99 288
abstand 288
aktiv 288
cinnamon 288
computertastatur 288
dete@@ 288
drahte 288
feuerwehr 288
gezogene 288
grundlegende 288
hearing 288
herzformige 288
heuschrecke 288
ic@@ 288
initialen 288
kasse 288
langste 288
mare 288
polizeibeamten 288
rades 288
rubble 288
sammlungen 288
satten 288
schirm 288
schmale 288
stair 288
stich 288
suffered 288
suitcases 288
uralten 288
usa 288
vektorillustrationen 288
wading 288
wohnwagen 288
wutende 288
zende 288
arrested 287
billi@@ 287
bookcase 287
comedyfilms 287
cooker 287
drauf 287
erfordert 287
fascinating 287
faule 287
fels@@ 287
frisbee 287
fußabdrucke 287
gebrochenen 287
gekochte 287
gruselige 287
halbem 287
hazy 287
holzgrund 287
ien 287
konsu@@ 287
magnetic 287
maintain 287
meanwhile 287
ments 287
notwendigkeit 287
pralinen@@ 287
screens 287
sculpted 287
spate 287
storms 287
ungewohnlichen 287
untergrund 287
verwitterten 287
wirbelt 287
worldwide 287
allgemeinen 286
anwesens 286
beantwortet 286
begraben 286
beugt 286
bezirks 286
brushes 286
chainsaw 286
concepts 286
cou@@ 286
elektronischer 286
ents 286
fairytale 286
fond 286
gebieten 286
genres 286
hellblauem 286
hummel 286
kommen@@ 286
konturen 286
legendary 286
mallard 286
misses 286
mondlicht 286
neon@@ 286
pedestal 286
producing 286
schei@@ 286
schopfung 286
sleeveless 286
talented 286
taler 286
twigs 286
uberfuhrung 286
unterirdischen 286
vertrauen 286
videoaufnahmen 286
vintagehintergrund 286
zwischen@@ 286
31 285
abendlicher 285
bettelt 285
bundle 285
discarded 285
edgy 285
eisernen 285
erungen 285
fig 285
gendes 285
gerust 285
hauptgebaude 285
hohensicht 285
holzmaserung 285
hunderasse 285
inen 285
kaltem 285
konzentrieren 285
konzer@@ 285
mechanische 285
minikleid 285
nachttisch 285
pals 285
reali@@ 285
reisfeldern 285
sche@@ 285
schlauch 285
schmutzigen 285
segelbootes 285
tened 285
tens 285
textiles 285
winziger 285
-jahrigen 284
akt 284
amt 284
assembled 284
barrier 284
baseball-spieler 284
brieftasche 284
citizens 284
consists 284
decked 284
dung@@ 284
gedreht 284
geru@@ 284
jahrestages 284
kostenloser 284
kuchenschranke 284
realistischen 284
rickshaw 284
sandstone 284
schmaler 284
spends 284
sturmische 284
sturzte 284
tagliche 284
tatsache 284
textur@@ 284
toes 284
towels 284
verbotsschild 284
wegesrand 284
woke 284
-muster 283
00 283
alps 283
ambassador 283
bissen 283
bond 283
bookstore 283
bot 283
capacity 283
cove 283
diplo@@ 283
erholung 283
flops 283
flugdeck 283
fußgangeruberweg 283
gebacken 283
gefahr@@ 283
illuminate 283
kalter 283
krankenhauses 283
motors 283
pajamas 283
quilts 283
seg@@ 283
sommerweide 283
sportliche 283
toddlers 283
treibholz 283
verschonern 283
vorsaison 283
wartete 283
zah@@ 283
zusammenarbeit 283
-jahr-feier 282
45@@ 282
absatz 282
associated 282
batter 282
behalt 282
belong 282
bienen@@ 282
brullt 282
computerbildschirm 282
croissant 282
crowned 282
emerged 282
fehler 282
fol@@ 282
gasmaske 282
gib 282
goggles 282
ht 282
kapit@@ 282
kreaturen 282
krei@@ 282
kru@@ 282
ktive 282
leaping 282
leguan 282
massage 282
nachthimmels 282
november@@ 282
platter 282
retirement 282
schopfer 282
spektakularen 282
spins 282
ssymbole 282
stat@@ 282
test@@ 282
verse 282
viaduct 282
weiß-@@ 282
wendeltreppe 282
wetlands 282
wu@@ 282
200m 281
aka 281
akzente 281
anzugen 281
armellosen 281
bande 281
burostuhl 281
completing 281
coyote 281
daneben 281
ebenso 281
epi@@ 281
flog 281
forth 281
funken 281
gedichtband 281
geschaftstreffen 281
gestorben 281
gloomy 281
hasslichen 281
herausgefordert 281
hibiskusbluten 281
indoor-@@ 281
karat 281
liert 281
ming 281
moat 281
oats 281
occasions 281
raspberry 281
stute 281
stylen 281
superlangsamer 281
teenager@@ 281
toten@@ 281
towed 281
transport@@ 281
valleys 281
veranderung 281
verhullt 281
warmem 281
weapons 281
ately 280
ator 280
aufenthalt 280
besch@@ 280
beweglichen 280
botschaften 280
commemorating 280
commuter 280
costs 280
entstanden 280
experienced 280
familienfoto 280
fantastischen 280
feelings 280
fiance 280
flaming 280
fruheren 280
gecko 280
gottesdienst 280
hunderten 280
innings 280
lambs 280
lassigen 280
lehrerin 280
malern 280
oktopus 280
pal 280
postage 280
produces 280
rains 280
realitat 280
sechseck 280
spa@@ 280
spi@@ 280
studies 280
symbolisieren 280
traumhaus 280
urban@@ 280
vacant 280
weiterhin 280
18k 279
40th 279
abschied 279
achieve 279
bewolkter 279
chinesische 279
clipboard 279
counties 279
dank@@ 279
denden 279
desperate 279
dienstagmorgen 279
fußball-bundesliga 279
grape 279
gutem 279
halbfinalspiels 279
inspects 279
intensive 279
kauf@@ 279
knowing 279
marry 279
netzwerk 279
power@@ 279
qualifikationsspiel 279
quiz 279
recycelten 279
roast 279
sie@@ 279
stor@@ 279
straßenschilder 279
trocknet 279
wesens 279
wohnblock 279
26@@ 278
buck 278
daylight 278
eig@@ 278
endzone 278
escorted 278
explains 278
final@@ 278
fußganger@@ 278
geschuttet 278
haie 278
huhnern 278
hur@@ 278
kajaks 278
launching 278
lioness 278
manual 278
marken@@ 278
marmelade 278
missile 278
mogliche 278
nor@@ 278
radiosender 278
reduce 278
reifen@@ 278
reihenhauser 278
relativ 278
rotten 278
rudern 278
samstagmorgen 278
schublade 278
spanish 278
stattfinden 278
strap 278
surrounds 278
versions 278
wandkunst 278
wildpferde 278
abstieg 277
adorn 277
aufstellen 277
automaten 277
bewahren 277
brands 277
concerts 277
daddy 277
demonstrates 277
dge 277
dienst@@ 277
dress@@ 277
erleuchten 277
fuhrenden 277
fußball-liga 277
geheimnisse 277
glamourosen 277
graceful 277
keen 277
kirschbaum 277
lowin 277
magnolia 277
mull@@ 277
passagier 277
platz@@ 277
quarters 277
restaurierte 277
rippled 277
saftigen 277
schnur@@ 277
schreien 277
showcasing 277
sommertagen 277
starkregen 277
stiehlt 277
streitkrafte 277
verschluss 277
warn@@ 277
armbander 276
auflage 276
barte 276
bizarre 276
einfangen 276
einzigartiger 276
erlebnis 276
erweckungsstruktur 276
flugzeugtrager 276
gekennzeichnet 276
gucken 276
inspect 276
inspirational 276
kalorien 276
kompositbild 276
kopieren 276
meerenge 276
mussels 276
nern 276
olivenbaum 276
pfarrkirche 276
pixel@@ 276
platzchen 276
positions 276
setzung 276
sprang 276
steller 276
tatowier@@ 276
testspiels 276
wachter 276
aufblasbaren 275
aufrecht 275
bauch@@ 275
baumzweigen 275
beitragen 275
broad 275
bul@@ 275
cally 275
capsule 275
charityveranstaltung 275
districts 275
dorf@@ 275
dye 275
explain 275
fernsehpersonlichkeit 275
funktion@@ 275
garlands 275
geburtstag@@ 275
goodbye 275
grafiker 275
handge@@ 275
heron 275
holzerner 275
hovering 275
innenansichten 275
junior 275
kettensage 275
kuppeln 275
loaf 275
mountainbike 275
musikerin 275
my@@ 275
oasis 275
plantage 275
pracht 275
privathaus 275
reit@@ 275
sapphire 275
schatzen 275
sierte 275
stoß@@ 275
uberlagert 275
upward 275
verkaufs@@ 275
villas 275
waschbar 275
alle@@ 274
ansehen 274
außenfassade 274
beziehen 274
bleistifte 274
bosen 274
buchserien 274
camouflage 274
caramel 274
coaching 274
direktor 274
einbruch 274
emp@@ 274
feiner 274
funf@@ 274
galoppiert 274
gehabt 274
issued 274
jugendlichen 274
kurzes 274
mach@@ 274
moth 274
navigating 274
organised 274
piercing 274
raue 274
schickt 274
schiffs 274
schlafzimmerdesigns 274
schmeckt 274
schwierigkeiten 274
sideways 274
steten 274
swirling 274
wahlkampf 274
99 273
amphibious 273
autoscheibe 273
bagger 273
dear 273
dinosauriers 273
dorm 273
dramatisches 273
englischer 273
entspannten 273
favorites 273
forearm 273
gelegenen 273
gie@@ 273
globalen 273
gtes 273
herrliche 273
hupfen 273
ischem 273
jewish 273
jockeys 273
jugendlicher 273
keit@@ 273
lightweight 273
limestone 273
lunar 273
protopunk 273
realistisch 273
reisender 273
schleuse 273
schnellboot 273
schokoladen@@ 273
shootings 273
sla@@ 273
slight 273
sportfreunde 273
stoffen 273
teilnahm 273
transfer 273
trinkwasser 273
vervollstandigen 273
vorgeschmack 273
weiches 273
welligen 273
wohl@@ 273
zeremoniellen 273
apfels 272
banking 272
bekannten 272
bindung 272
ca. 272
circling 272
cleaned 272
cleaner 272
faster 272
firewood 272
geformtes 272
gemein@@ 272
großbuchstabe 272
heiligenschein 272
highways 272
hissen 272
hochzeitsstrauß 272
lieren 272
muder 272
okay 272
pandas 272
patches 272
petting 272
plotzlich 272
refugees 272
sch-@@ 272
schickte 272
schleppen 272
seestern 272
smoky 272
sonnenuntergange 272
spazierte 272
sponge 272
ss16 272
strafstoß 272
tape@@ 272
tischplatte 272
watet 272
zombies 272
atlas 271
attacks 271
basketballspielers 271
biss 271
bulldozer 271
chains 271
dramatisch 271
entfernten 271
erlebt 271
erstmals 271
exploding 271
farbenes 271
fischereihafen 271
fleisch@@ 271
gepflegt 271
gepostet 271
ham@@ 271
hinterher 271
hirten 271
kleinkinder 271
legged 271
linsen 271
logi@@ 271
ment 271
offizier 271
papageien 271
perle 271
pillar 271
piraten 271
plakat@@ 271
protest@@ 271
proteste 271
querschnitt 271
saisonale 271
schlauchboot 271
schnitzerei 271
sicheren 271
stylt 271
sweaters 271
tellern 271
umher@@ 271
variation 271
wrecked 271
zellen 271
zirka 271
akti@@ 270
applaudieren 270
bri@@ 270
cat@@ 270
comp@@ 270
dashboard 270
domes 270
durchfuhren 270
erend 270
expansive 270
galerien 270
geplant 270
get@@ 270
ghats 270
gie 270
helmets 270
honigbiene 270
juwel 270
konkurrent 270
lie@@ 270
mechaniker 270
neuschnee 270
noticed 270
nten 270
popping 270
prasidenten@@ 270
rampenlicht 270
roadtrip 270
sensory 270
spielzimmer 270
stabchen 270
stately 270
stickerei 270
ubersteht 270
veran@@ 270
viertelfinalspiels 270
wechselt 270
weites 270
wit@@ 270
wounded 270
zusieht 270
50s 269
argues 269
atic 269
außenfoto 269
bewaffneter 269
dekorationsideen 269
diat 269
dig@@ 269
einfachheit 269
einkaufs@@ 269
es@@ 269
fluges 269
gekurt 269
gestartet 269
gips 269
grundlagen 269
hautengen 269
heroes 269
hul@@ 269
kindheit 269
kopfsteinpflasterstraße 269
kra@@ 269
kucheninsel 269
lte 269
marschiert 269
melone 269
organisieren 269
prasentierte 269
pressed 269
privatschule 269
projected 269
rhododendron 269
romantik 269
schmutz 269
spell 269
steil@@ 269
stencil 269
stoßt 269
tauscht 269
traditions 269
trek 269
uberstehen 269
-tatowierung 268
affected 268
arbeiters 268
baseballspielers 268
bl@@ 268
blumenkranz 268
chases 268
darf 268
denkmals 268
dont 268
drawer 268
eiszapfen 268
europaischen 268
flora 268
gekleideten 268
gemalte 268
gewe@@ 268
gran@@ 268
holzwand 268
islamische 268
karikaturist 268
kirschblute 268
kolle@@ 268
kopfteil 268
kranke 268
kupfer 268
machinery 268
moderatorin 268
mun@@ 268
nahme 268
nummern@@ 268
plank 268
realen 268
saisonalen 268
setz@@ 268
smiley 268
sportlerin 268
terms 268
umgebenden 268
verangstigt 268
verlauft 268
wn 268
wraps 268
ym@@ 268
28 267
advance 267
anti@@ 267
baumeisters 267
beehive 267
climbers 267
constellations 267
devices 267
explaining 267
fallschirm 267
fonts 267
gebusch 267
illuminates 267
ily 267
imple@@ 267
kaputten 267
kirsche 267
offizieller 267
orders 267
pfen 267
rassen 267
ratsel 267
schriftzugen 267
settings 267
showers 267
simulation 267
skop@@ 267
sommermorgen 267
sommersonne 267
spro@@ 267
stilts 267
transported 267
unable 267
vorbeifahrenden 267
zitronen@@ 267
aluminium@@ 266
aufbau@@ 266
berlin 266
best@@ 266
bezahlt 266
bildunterschrift 266
bougainvillea 266
bra 266
bud@@ 266
cabinetry 266
cheeseburger 266
deines 266
designillustration 266
detaillierten 266
eisigen 266
fails 266
fasten@@ 266
ganz@@ 266
gendem 266
gesetz@@ 266
gesturing 266
gischen 266
identical 266
liegestuhl 266
mittelfeldakteur 266
off-@@ 266
olympus 266
pixel 266
profi 266
rentner 266
schlendern 266
settlement 266
spra@@ 266
spre@@ 266
stilisierter 266
traveled 266
verbindungen 266
verein@@ 266
verschwinden 266
weinflasche 266
zubringen 266
zusatzlich 266
alarmuhr 265
ame 265
anemone 265
approved 265
bearing 265
bepflanzung 265
besatzungen 265
bomb 265
boost 265
bumper 265
clown@@ 265
communities 265
dr@@ 265
ered 265
farbt 265
flashed 265
freistoß 265
gruppenspiels 265
hilly 265
kreieren 265
lebendiges 265
liebevolle 265
metallenen 265
mughal 265
pharmacy 265
pumpt 265
relative 265
remind 265
rock-@@ 265
roh@@ 265
spinnen 265
spirale 265
stored 265
vergnugt 265
wohl 265
400@@ 264
65 264
aloe 264
anpassung 264
atemberaubendes 264
baseballteam 264
bittet 264
cereal 264
charakteren 264
crabs 264
delfin 264
ease 264
eerie 264
elnden 264
erbe 264
fahrer@@ 264
feiertags@@ 264
ffekt 264
freuen 264
gelaunt 264
geruch 264
glanzendes 264
hotel@@ 264
identifizieren 264
illustrierte 264
klarer 264
niedlicher 264
pelz 264
quirky 264
raft 264
seife 264
sends 264
shaus 264
stube 264
tab@@ 264
textet 264
trailhead 264
verteilen 264
verzierten 264
wanderern 264
willkommensschild 264
winternacht 264
wintersaison 264
zeilen 264
zuruckkehrt 264
90er 263
angled 263
bauwerke 263
bewaldete 263
chameleon 263
cktem 263
commonly 263
considering 263
containern 263
detaillierter 263
draufsicht 263
efeu 263
eroffnung@@ 263
falcon 263
fußgangerzone 263
gaben 263
gebiets 263
glorious 263
hides 263
leistungs@@ 263
lokales 263
lorry 263
makeshift 263
mau@@ 263
moped 263
musikern 263
non@@ 263
pferderennen 263
pfirsich 263
pfte 263
poodle 263
profisportler 263
schlussrunde 263
spieltages 263
sportverein 263
sturmischem 263
tanzern 263
tater 263
themas 263
verkehr@@ 263
wasch@@ 263
37@@ 262
authorities 262
binden 262
cantilever 262
climbed 262
closest 262
eigenschaften 262
eroffnungsfeier 262
feuerwerke 262
geschutzt 262
gleichmaßig 262
glitzernde 262
grases 262
half@@ 262
hammered 262
heutige 262
illustrate 262
jubilaums-@@ 262
kamins 262
kaum 262
konkurrieren 262
krankenhaus@@ 262
meinung 262
musikalischer 262
organisations@@ 262
pinks 262
popularen 262
quarry 262
radelt 262
rum@@ 262
runningback 262
schwenkenden 262
shields 262
stunt 262
volk@@ 262
volumen 262
wartezimmer 262
wassermassen 262
wolkenkratzers 262
2.@@ 261
americana 261
archipelago 261
asparagus 261
beaver 261
disused 261
eher 261
einladungskarte 261
erb@@ 261
erinnere 261
formt 261
geerntet 261
geri@@ 261
greater 261
hobbie 261
hq 261
hurt 261
introducing 261
jet@@ 261
krickente 261
nass 261
neugierig 261
pleasure 261
purpur@@ 261
quadratisches 261
schattigen 261
seerosen 261
seller 261
spans 261
steh@@ 261
tropisches 261
uner@@ 261
vent@@ 261
vigil 261
wechsel@@ 261
weihnachtslichtern 261
weinreben 261
werken 261
wildfire 261
[...]
