i n 5442942
e r 4402111
e n</w> 4280615
e r</w> 4274770
c h 3168334
t h 3026410
s t 2823659
a n 2787574
u n 2698729
e n 2426054
o n</w> 2418467
a u 2323414
th e</w> 2173666
i n</w> 2171634
a r 1979420
i t 1848564
e in 1795164
e s</w> 1791533
a l 1713701
in g</w> 1684215
r e 1653119
a t 1606082
s ch 1493673
r o 1485417
e l 1441657
o r 1386452
d er</w> 1241977
d i 1216196
i l 1170686
o n 1111724
un d</w> 1102717
r a 1098495
o f</w> 1079445
s i 998115
l i 991269
u r 982855
e m</w> 978485
e i 938779
l a 934044
s p 911529
an d</w> 900725
c h</w> 895769
m i 881090
g e 873046
o r</w> 868803
b e 863966
p er 847701
s t</w> 825487
m a 817233
au f</w> 802734
h o 796112
l o 773537
t i 758516
di e</w> 753386
r i 695913
e d</w> 678435
s on</w> 673894
c k 652403
per son</w> 637725
s e 623010
d en</w> 601527
g e</w> 599550
a t</w> 599032
o l 597363
w a 578127
l u 574856
d a 572216
mi t</w> 571045
f u 554133
t o</w> 551293
a n</w> 537021
d e 532378
t er 525181
w it 524121
t e</w> 521881
i s</w> 518784
wit h</w> 516293
l e 513740
b a 507703
t en</w> 497846
e in</w> 495680
a m 493744
l e</w> 488983
a l</w> 485694
h r 481997
m o 469112
t o 460493
sp i 448864
t a 448673
at i 444732
c o 440746
t e 436389
d e</w> 416286
ein em</w> 416101
v er 413347
g en</w> 413258
i r 410096
s e</w> 408527
c t 404736
r u 399742
b al 396584
n e 387721
i m</w> 387087
b o 386206
c k</w> 376985
ein e</w> 375586
n a 369642
m m 365653
spi el 363930
s s 358906
t er</w> 354532
d es</w> 345793
b u 340689
un g</w> 335475
w e 334432
ein er</w> 334042
t ra 325201
a m</w> 318757
w h 315994
f or</w> 314027
d ur 311664
g ro 311285
st a 310784
o u 309690
h a 307555
i e 305549
i s 305423
f o 302232
d em</w> 301792
ati on</w> 299181
an d 298529
f e 297900
s s</w> 297536
da s</w> 295835
st r 291926
en d</w> 291780
p o 286268
g r 282301
f a 279960
er e</w> 278239
m u 276426
t s</w> 276224
v on</w> 275176
p re 272116
m e</w> 266679
h i 265099
m en 264451
p la 259071
a f 258201
m e 253133
h in 250889
ch en</w> 250253
s u 248816
m an 245880
p a 244100
c e</w> 242324
fu r</w> 241387
ein es</w> 240419
er t</w> 240105
h t</w> 239774
ch t</w> 239590
f ro 239562
w ei 238248
ct or</w> 235191
dur ing</w> 235174
d o 230902
v e</w> 228224
f i 228079
z u 227560
w o 226657
ma n</w> 226433
it e</w> 223071
s k 223029
d s</w> 219756
f or 219667
p p 217688
au s</w> 210716
spiel er</w> 210623
u b 209054
au f 208947
er s</w> 208494
i st</w> 208450
p ar 208052
bal l</w> 207752
t r 207260
z u</w> 206836
w i 204157
st i 202396
s ho 201133
a r</w> 196073
v e 195065
ba ck 194867
w ar 193941
pla y 193524
ein en</w> 191168
il lu 190287
h n 188939
g ra 188735
l er</w> 188713
e t 188213
gro und</w> 186364
b y</w> 185146
illu str 184876
a b 182858
wa hr 182680
c on 182409
n i 181721
k o 179548
hin ter 179011
d er 177471
w in 177243
wahr end</w> 174066
k e</w> 174038
illustr ation</w> 173981
gr und</w> 173228
g i 172927
m p 172266
z i 171830
back ground</w> 171212
b r 170740
l an 169863
n o 165569
fro m</w> 165330
si e</w> 165157
w al 163937
k un 163866
hinter grund</w> 163826
p ro 163707
g en 163147
e t</w> 162111
d ing</w> 160737
pre mi 160277
s o 159709
h e 155943
premi ere</w> 155270
b il 154956
th is</w> 154718
wh ite</w> 153889
ar ti 153710
b lu 153585
b au 153133
b en</w> 152920
k ing</w> 151897
en t 150750
v er</w> 150364
y o 150207
g ht</w> 150206
i t</w> 149659
a ctor</w> 148923
da y</w> 148830
el e 147386
sch au 147080
f il 146699
m en</w> 145667
v i 145356
sch af 144025
fo o 143916
sch en</w> 142918
e l</w> 142179
k l 141876
be i</w> 141778
g an 141612
wei ß 141570
bal l 141041
u p</w> 140343
ti on</w> 140047
u m</w> 139851
s on 138677
d en 138326
t re 137837
ch e</w> 137739
si ch</w> 134304
st ra 133628
h al 133403
t en 133382
au s 133331
o m</w> 133301
i ma 133009
a s</w> 132914
s it 132619
g t</w> 132197
p i 132090
f f 130551
al s</w> 129977
al l</w> 129799
s in 129702
b er 129608
l y</w> 129198
v ie 128670
z ei 128211
w or 128068
s h 127391
arti st</w> 127145
lo o 126453
it y</w> 126443
st e 125935
el l 124492
q u 124490
b i 124430
sch e</w> 124312
c i 124297
a g 124254
kun st 124161
er i 123940
l in 123454
na h 123138
z e 122512
on e</w> 121690
st u 120647
si g 120128
b e</w> 119636
o p 119408
mu si 118309
u r</w> 117356
it i 117341
li e 117184
k t 116962
re d</w> 116921
di e 116449
c al</w> 115920
c a 115082
b li 114822
en t</w> 114588
t ing</w> 114402
w n</w> 114400
h en</w> 114084
ho u 113582
ub er</w> 113563
f la 113408
b l 113136
men t</w> 111740
fu ß 110328
p or 110293
u l 110234
c ar 110027
te am</w> 109099
schau spieler</w> 109023
h er 108610
foo t 108461
i ch</w> 108396
vie w</w> 107997
j un 107357
t y</w> 106279
i hr 106021
er n</w> 105980
m ar 105900
play er</w> 105864
sta d 104065
m s</w> 103854
st ru 103838
mm er</w> 103524
d u 103182
er en</w> 102339
p e 101881
g er</w> 101493
f ra 101337
ar e</w> 101267
p f 101168
f lo 101041
at ed</w> 100669
sp or 100481
h is</w> 100399
k s</w> 100171
ur e</w> 99643
g s</w> 99005
f re 98939
at e</w> 98873
ima ge</w> 98746
v or</w> 98667
hn e</w> 97430
m on 97400
st er</w> 97398
c lo 96878
kunst ler</w> 96791
w at 96490
th e 95385
f t</w> 95059
k an 94971
st en</w> 94755
w er 94551
h er</w> 94168
g o 94056
z en</w> 93828
a d</w> 93130
wa s</w> 91854
foot ball</w> 91821
k in 91511
n en 90761
k on 90263
p ho 89644
s si 89509
c ol 89490
th er</w> 89323
g re 88675
man n 88540
s a 88446
g el 88071
am e</w> 87822
u m 87578
a ch</w> 87155
stad t</w> 86939
m at 86751
w ir 86610
e x 86304
per for 86244
al l 86052
s es</w> 85955
f in 85831
k u 85741
ho l 85335
c u 85151
schaf t</w> 84386
g u 84087
c ity</w> 84019
s un 83943
sta ge</w> 83868
d re 83684
z e</w> 83562
g ar 83210
un ter 83115
v es</w> 83011
ou r</w> 82992
na ch 82946
n en</w> 82903
el d</w> 82761
b en 82670
na ch</w> 82648
por tra 82548
st re 82284
a d 82202
fuß ball 82083
weiß em</w> 82032
s hi 81842
g h</w> 81822
i h 81382
fu l</w> 80450
b ri 80324
man n</w> 80109
b la 80084
j a 79830
ar t</w> 79743
sp e 79575
v ing</w> 79360
si de</w> 79346
f lu 79343
fra u</w> 79137
s en</w> 79061
fe sti 78525
wo man</w> 78355
s c 78269
ro om</w> 78152
al e</w> 77464
ß e</w> 77423
r au 77119
w ur 77013
ol d</w> 76882
n ing</w> 76702
mo de 76328
j e 76291
o f 76054
s m 76006
f ar 75801
bli ck</w> 75456
fa hr 75263
st e</w> 75070
ati on 74988
m or 74390
g h 74368
th at</w> 74312
ag a 74176
de sig 74110
festi v 73852
t h</w> 73676
w el 73064
bu hne</w> 72937
g la 72649
se t</w> 72579
n t</w> 71979
r an 71544
c tion</w> 71411
ou t</w> 71371
g ir 71201
p h 71133
in st</w> 70905
aga inst</w> 70837
ko mm 70575
yo ung</w> 70076
bil d</w> 69745
f am 69521
ve ctor</w> 69476
fil m</w> 69427
yo u</w> 69394
l and 68904
k en</w> 68879
o ver</w> 68582
g s 68534
ta g</w> 68487
bo o 68456
ss en</w> 68421
wa ss 68193
wi e</w> 68099
z t</w> 67873
h and 67860
s il 67332
g ame</w> 67292
h and</w> 67043
wa y</w> 66776
e v 66616
ei t</w> 66586
c an</w> 66391
ro u 66285
li ch 66215
k e 65859
r un 65647
ve kt 65317
v or 64961
sho w</w> 64883
bu il 64718
dur ch</w> 64628
f ri 64136
sch war 63918
ar d</w> 63795
ge gen</w> 63600
p e</w> 63502
sp a 63197
ta in</w> 63157
ß en</w> 63114
bla ck</w> 63032
b le</w> 62952
fam il 62942
h an 62853
t ur 62419
t ro 62396
c e 62369
v ol 62365
it t 62110
h or 62008
at ten 61636
w il 61494
le a 61387
n e</w> 61370
zu m</w> 61280
ma d 61174
t es</w> 61043
p u 61036
w en 60975
to ur 60907
r in 60494
af ter</w> 60434
pe op 60126
be ach</w> 59998
zu r</w> 59889
st y 59805
g es</w> 59685
peop le</w> 59613
l at 59553
gr un 59551
wir d</w> 59415
flo w 59413
c t</w> 59283
p ol 59135
f ir 59038
st or 58843
tre e</w> 58788
li chen</w> 58738
son nen 58686
mode l</w> 58637
d ra 58595
j u 58534
h u 58509
au ti 58251
l auf 58141
l ei 58132
ge sch 57738
ck e</w> 57738
f er 57731
k t</w> 57458
festiv al</w> 57419
c ro 57259
. . 57121
t s 57108
s ch</w> 56991
gir l</w> 56930
t ri 56672
it t</w> 56671
m in 56591
th ei 56346
thei r</w> 56250
h l 56129
gan g</w> 56003
ne u 55702
f an 55474
y ing</w> 55325
au to 55211
or s</w> 55154
ter n</w> 55097
i r</w> 54949
it en</w> 54862
play ing</w> 54651
kan n</w> 54602
hou se</w> 54534
ni ght</w> 54445
k er</w> 54373
h au 54364
y our</w> 54304
el n</w> 54008
blu e</w> 53959
n er</w> 53863
w ing</w> 53774
vekt or 53759
stru ment</w> 53740
str and</w> 53612
l d</w> 53527
k ar 53429
h aus</w> 53369
te x 53354
stra ße</w> 53213
sch u 53199
atten ds</w> 53143
p at 53061
lo gi 53050
ou t 53021
wat er</w> 52995
f en</w> 52968
t ei 52779
on g</w> 52746
s o</w> 52683
li ch</w> 52574
y s</w> 52245
be su 52093
m b 51999
c ele 51902
sin d</w> 51685
pho to</w> 51652
o li 51608
et te</w> 51578
b ei 51514
g ol 51288
st ell 51229
h e</w> 51223
par k</w> 51207
h at</w> 51141
cele br 51111
zi mmer</w> 50971
i e</w> 50696
bi o 50671
h r</w> 50555
f ei 50541
in ter 50440
m al 50403
w s</w> 50182
ho me</w> 50102
d ar 49991
le t 49798
tra in 49735
fa shi 49576
perfor ms</w> 49469
p s</w> 49461
p lan 49432
co un 49414
o ff 49333
g a 49309
rou gh</w> 49226
a ct 49178
.. .</w> 49069
is ol 48964
s am 48756
wur de</w> 48750
mad chen</w> 48741
il e</w> 48704
ne w</w> 48604
isol ated</w> 48512
s en 48385
s y 48251
lo w</w> 48067
pol iti 47970
lin e</w> 47813
kl ei 47734
be auti 47724
der n</w> 47674
bio logi 47347
s er</w> 47312
loo king</w> 47298
to p</w> 47257
spor t 47254
ck en</w> 47241
spi el</w> 47198
co mp 47111
beauti ful</w> 46913
fashi on</w> 46907
ch es</w> 46847
m y</w> 46804
at t 46731
bl au 46643
fußball spieler</w> 46629
no w</w> 46590
wo o 46548
f ru 46502
p le</w> 46397
ge b 46390
in s</w> 46330
f en 46326
re i 46325
am eri 46228
tr itt</w> 46208
se hen</w> 46086
s h</w> 46078
st o 46070
sil hou 46016
t ed</w> 45894
in to</w> 45791
ar ri 45734
mat ch</w> 45664
ho ch 45589
g er 45546
st ri 45421
ro ck</w> 45418
k am 45241
desig n</w> 45235
ba sk 45170
auf nah 45146
it s</w> 45066
t u 45026
jun ge</w> 44982
th rough</w> 44899
b an 44851
l es</w> 44830
c re 44756
spiel s</w> 44744
el t</w> 44738
to gra 44648
c ar</w> 44619
c or 44475
sin e 44171
bu sine 44170
ch e 43963
is oli 43945
fil m 43787
r en 43756
un gen</w> 43580
te t</w> 43558
li ke</w> 43537
li che</w> 43479
portra it</w> 43426
ti me</w> 43424
st and 43394
d in 43315
b re 43167
ihr e</w> 43106
- -</w> 42956
al ten</w> 42944
fro nt</w> 42806
fir st</w> 42733
at tra 42707
wo hn 42558
sch ne 42358
ck t</w> 42295
musi cal</w> 42283
tei l</w> 42283
sk y</w> 42165
ch ri 42084
mann schaft</w> 42019
f t 41834
w ol 41643
sty le</w> 41564
a k 41559
pa in 41556
t ung</w> 41355
o l</w> 41320
ma de</w> 41307
sch la 41114
we d 41081
ub er 41068
sch er</w> 40888
er e 40868
mo un 40864
s ur 40809
tr y</w> 40751
d el 40630
fo to</w> 40615
mm el</w> 40599
m il 40522
aufnah me</w> 40298
ma y</w> 40261
do wn</w> 40204
l and</w> 40169
ta ge</w> 40167
clo se</w> 40082
spor ts</w> 40016
l s</w> 39846
it ar 39706
sit ting</w> 39700
ba se 39664
s er 39634
on s</w> 39536
p in 39462
si cht</w> 39385
gre en</w> 39290
men schen</w> 39279
r e</w> 39238
co u 39235
wor ld</w> 39186
ch ar 39075
un ter</w> 39020
sch on 38991
wass er</w> 38952
a war 38940
ev ent</w> 38881
b t</w> 38856
e ar 38831
wer den</w> 38748
a bo 38725
li ght</w> 38705
ss es</w> 38635
d r 38541
ze it 38520
loo k</w> 38491
d iti 38396
of f</w> 38382
ha ve</w> 38378
i l</w> 38265
st at 38192
l au 38119
at ur 38066
g o</w> 38017
v in 37996
pi ct 37949
s ol 37948
komm t</w> 37922
bask et 37885
bau m</w> 37652
zei ch 37454
o der</w> 37437
ju st</w> 37421
ro ad</w> 37403
ro ck 37320
d ed</w> 37299
be t 37276
j o 37208
g ru 37170
st er 37141
mo bil 37104
w an 37097
silhou ette</w> 37081
dre ss</w> 37040
portra t</w> 37034
ze u 36611
ge l</w> 36594
f e</w> 36565
p ri 36499
v om</w> 36477
l ar 36446
c am 36409
hi mmel</w> 36289
b ar 36261
fu hr 36189
k i 36122
d un 36088
zei t</w> 36051
m it 36045
ba ck</w> 36034
z en 35943
buil ding</w> 35905
pa ar</w> 35883
ou s</w> 35778
u e</w> 35732
u ch 35724
st ar 35693
a th 35632
me t 35563
ha s</w> 35561
wed ding</w> 35473
chri st 35434
s ha 35376
par ty</w> 35356
b ro 35331
c ti 35307
ch il 35191
flow ers</w> 35170
sch i 35126
te l</w> 35099
p lat 35061
schwar z 35028
at ing</w> 34997
gro ß 34903
fo re 34845
f el 34726
win ter</w> 34687
so me</w> 34629
con tain</w> 34607
or gan 34331
b ru 34318
k or 34198
al i 34197
ge bau 34193
co m 34157
ar ch 34106
stre et</w> 34075
ta ble</w> 34050
k at 33988
isoli ert</w> 33965
wa r</w> 33933
er a</w> 33887
k es</w> 33858
tr an 33856
ja hr 33752
s el 33726
g in 33629
ab stra 33616
d y</w> 33593
pp y</w> 33558
b ir 33437
i c</w> 33337
wen n</w> 33326
k re 33321
l itt 33312
s se</w> 33292
sm all</w> 33214
t t 33161
s ed</w> 33149
na cht</w> 33140
litt le</w> 32967
h aus 32858
ho w</w> 32817
si e 32746
sonnen unter 32743
o ther</w> 32721
d ri 32670
st en 32588
p er</w> 32587
st al 32579
ch en 32569
c er</w> 32553
po p</w> 32533
sho t</w> 32477
po p 32472
au t 32448
de t</w> 32434
- kunstler</w> 32421
kar te</w> 32398
hal ten</w> 32380
tour i 32364
b un 32357
bei m</w> 32132
t an 32077
se in</w> 32048
do w</w> 32038
on al</w> 31986
ch er</w> 31956
sun set</w> 31931
hal t</w> 31869
mm er 31846
do or</w> 31822
for m</w> 31815
in strument</w> 31772
do g</w> 31668
t y 31549
d ge</w> 31546
h el 31544
musi kin 31526
a pp 31513
se a</w> 31501
fi eld</w> 31501
d an 31497
ameri can</w> 31472
b ein 31384
famil y</w> 31233
g lu 31056
besu cht</w> 31001
we e 30994
da ss</w> 30985
fu l 30910
se e</w> 30904
coun try</w> 30895
re st 30888
m er</w> 30883
ssi on</w> 30793
h men</w> 30733
tre es</w> 30698
ma s</w> 30688
f un 30616
hol z 30493
f l 30464
bo y</w> 30405
f is 30392
spa zi 30379
mu ster</w> 30334
pat tern</w> 30327
s ing</w> 30300
die se</w> 30204
at es</w> 30173
sit zt</w> 30108
ihr en</w> 30066
f lie 30015
s now</w> 29996
i m 29970
sch ie 29941
r ing</w> 29923
sch n 29897
f ol 29855
b lo 29778
a ge</w> 29762
in du 29760
ste ht</w> 29732
tra diti 29698
busine ss</w> 29698
ch ten</w> 29667
b ur 29583
spe ci 29567
sonnenunter gang</w> 29560
f all</w> 29551
pp e</w> 29524
p ra 29512
h eit</w> 29458
sch a 29444
l ed</w> 29429
h ei 29413
n s</w> 29413
att end</w> 29370
en ing</w> 29339
wil l</w> 29321
ti sch</w> 29219
f all 29174
a c 29156
h un 29152
mm t</w> 29131
un der</w> 29108
ri ver</w> 29106
b er</w> 29103
n ation 29077
be for 28989
en de</w> 28940
ge schaf 28903
car to 28898
u t</w> 28821
f er</w> 28742
h ar 28709
wal king</w> 28691
h l</w> 28678
befor e</w> 28639
se en</w> 28632
f eld</w> 28593
il ing</w> 28569
of fi 28507
christ mas</w> 28470
wal l</w> 28417
p t 28415
vektor illustration</w> 28355
wi r</w> 28312
ss en 28187
w e</w> 28168
ch te</w> 28160
ih r</w> 28106
ath le 28088
v o 28068
ar o 28066
wei h 28035
la p 28018
zei gt</w> 28005
la ch 27967
fi g 27960
le ss</w> 27870
di g 27838
re m</w> 27785
clo u 27774
ma ke</w> 27772
st s</w> 27748
rau m</w> 27737
ih rem</w> 27713
or t</w> 27696
fla g</w> 27664
u s</w> 27662
ver an 27631
c li 27596
fore st</w> 27520
c la 27508
weih nach 27493
t or 27425
win d</w> 27367
lo ve</w> 27365
k a 27346
al ly</w> 27319
at s</w> 27262
b el 27135
k ti 27012
k tion</w> 27011
er te</w> 26961
en th 26956
lauf t</w> 26920
ha ben</w> 26879
pro du 26876
an s</w> 26861
her b 26851
wh ile</w> 26840
we g</w> 26815
cou ple</w> 26813
me di 26737
spiel en</w> 26728
ha ppy</w> 26628
ar be 26617
aro und</w> 26583
t ru 26500
z ie 26429
al ong</w> 26419
se l</w> 26399
c es</w> 26360
c le</w> 26294
ck s</w> 26246
g ing</w> 26210
su mmer</w> 26207
a st</w> 26183
ba by</w> 26144
k it 26128
li gh 26120
au to</w> 26096
si on</w> 26052
hol ding</w> 25963
pho togra 25951
stu den 25947
arri ves</w> 25943
spiel t</w> 25934
y e 25913
in e</w> 25857
i de 25817
er sten</w> 25801
ci an</w> 25800
bu t</w> 25752
ell en</w> 25711
gar ten</w> 25700
p f</w> 25664
z a 25647
gar den</w> 25617
sti l</w> 25549
w er</w> 25536
woo den</w> 25525
a ir 25487
se ite</w> 25445
w and 25431
br au 25430
t at 25415
so c 25362
la r</w> 25338
wel t</w> 25295
un k</w> 25256
stand ing</w> 25251
he ad</w> 25229
cu te</w> 25229
fan s</w> 25218
pf er 25192
i en</w> 25152
t z 25109
wal d</w> 25089
sig n</w> 25050
ma p</w> 25010
t ter</w> 24999
n u 24961
c ri 24921
de ta 24918
veran stal 24911
n y</w> 24857
lan g</w> 24829
lar ge</w> 24751
jun gen</w> 24741
die ses</w> 24740
l en</w> 24719
ph one</w> 24668
r it 24657
wal ks</w> 24653
se a 24626
p it 24605
wass er 24603
v il 24514
no t</w> 24507
un i 24449
at e 24448
wh ich</w> 24390
weiß en</w> 24353
o d</w> 24312
the y</w> 24306
it e 24205
w ie 24190
lo go</w> 24183
the se</w> 24110
ere mon 24090
rest au 24049
n am 24027
m bo 24012
ne t</w> 23996
sch es</w> 23857
po si 23843
wh at</w> 23818
organ is 23818
st ro 23760
k auf 23743
ni cht</w> 23739
gla ss</w> 23696
m es</w> 23694
per son 23660
biologi cal</w> 23656
f le 23636
mor e</w> 23588
eri al</w> 23545
glu ck 23530
ar ing</w> 23505
d ung</w> 23501
k ur 23460
la ge</w> 23451
ni mmt</w> 23443
n ed</w> 23389
e y 23382
fa ce</w> 23336
awar ds</w> 23326
to s</w> 23322
vi de 23291
lich er</w> 23248
ver y</w> 23228
hand s</w> 23193
or an 23189
i or</w> 23185
s em</w> 23168
l ing</w> 23117
el s</w> 23115
sch il 23109
w un 23070
st il 23056
ho li 23029
el le</w> 22929
loo ks</w> 22907
ver lei 22855
nah e</w> 22843
c en 22822
ter s</w> 22814
hi gh</w> 22776
lu ft 22772
shi p</w> 22762
er ten</w> 22750
po li 22746
te mp 22712
at er</w> 22707
tex t</w> 22646
en den</w> 22619
m ale</w> 22606
auto mobil 22595
veranstal tung</w> 22567
sta g</w> 22546
or i 22506
stat ue</w> 22484
it et</w> 22466
k la 22460
ar y</w> 22408
die ser</w> 22379
sy mbo 22366
an t</w> 22362
nah aufnahme</w> 22320
p al 22314
t v</w> 22297
sch o 22296
soc cer</w> 22234
en d 22232
bl at 22222
lo c 22180
zu g</w> 22176
er in</w> 22161
restau ran 22130
d ro 22119
flu ss</w> 22091
ab er</w> 22068
ge t</w> 22056
boo k</w> 22015
n is</w> 22009
s eine</w> 22000
t em</w> 21982
musikin strument</w> 21958
al en</w> 21951
die sem</w> 21921
abo ut</w> 21894
sh e</w> 21891
wee k</w> 21887
p an 21884
wh o</w> 21880
komm en</w> 21872
f f</w> 21857
train ing</w> 21821
i z 21816
h und</w> 21778
v ed</w> 21768
e ts</w> 21750
ent lang</w> 21728
con c 21640
ihr er</w> 21609
blu men</w> 21596
out side</w> 21590
mo st</w> 21539
fla g 21527
me er</w> 21520
politi cian</w> 21473
i c 21456
s at 21438
men ts</w> 21437
ye ar</w> 21434
kon z 21380
h n</w> 21307
par t</w> 21294
moun tain</w> 21293
k en 21285
c y 21270
foo d</w> 21263
wh en</w> 21230
re a 21225
i ge</w> 21221
bo at</w> 21220
b and</w> 21208
ck et</w> 21181
mo der 21164
ati ve</w> 21122
b or 21080
to wn</w> 21073
mor ning</w> 21067
un gs 21057
f fe 21031
flu g 21031
ro ten</w> 20966
kl einen</w> 20930
n or 20916
mo del 20913
ra l</w> 20912
si ch 20897
t ting</w> 20891
st ern</w> 20857
a erial</w> 20844
h eld</w> 20829
s einem</w> 20822
p ub 20805
t lo 20740
co lo 20690
vin tage</w> 20636
fre un 20630
p t</w> 20612
c ra 20587
base ball</w> 20584
hi stor 20571
pub li 20567
b ra 20566
bo den</w> 20564
schne e</w> 20537
se am 20532
col le 20526
bo ard</w> 20511
act er</w> 20500
char acter</w> 20499
ar e 20497
basket ball</w> 20455
pp ing</w> 20424
pre is 20422
n at 20415
bri dge</w> 20407
ru ck 20396
ba r</w> 20374
co ver 20319
seam less</w> 20315
di re 20273
enth alten</w> 20215
k ed</w> 20209
ne ar</w> 20190
nah tlo 20158
conc ert</w> 20156
pin k</w> 20117
i ce</w> 20105
ha ir</w> 20083
y el 20029
symbo l</w> 19992
scha u</w> 19956
le ben</w> 19944
li cht</w> 19901
fahr t</w> 19887
ima l</w> 19881
ma cht</w> 19878
at en</w> 19864
l ong</w> 19862
kit chen</w> 19854
qu ar 19839
al le</w> 19831
g old</w> 19810
w ere</w> 19797
in gs</w> 19793
geschaf ts 19791
hoch zeit 19790
er n 19781
dig it 19776
ro l 19753
in side</w> 19752
yel low</w> 19723
th ing</w> 19717
a ir</w> 19691
su n</w> 19660
holi day</w> 19659
plat z</w> 19647
s ca 19638
sto ck</w> 19638
spe zi 19618
te il 19589
d d 19580
col or</w> 19580
gro up</w> 19568
t al 19562
wo che</w> 19560
pro per 19542
win dow</w> 19508
fe u 19497
se ssion</w> 19492
weihnach ts 19445
pain ting</w> 19396
athle te</w> 19395
ct ed</w> 19392
z we 19387
pict ure</w> 19384
ge o 19369
t or</w> 19349
carto on</w> 19340
gra p 19333
o ver 19317
s einer</w> 19315
k et</w> 19308
pop kunstler</w> 19297
aus ge 19293
li ving</w> 19292
wal k</w> 19281
pf lan 19279
speci es</w> 19271
wor k</w> 19243
de cor 19177
verlei h 19173
la ke</w> 19164
u te</w> 19144
ß en 19136
li ve</w> 19130
col or 19117
a de</w> 19084
c at</w> 19076
flow er</w> 19069
i sche</w> 19062
c lu 19058
w and</w> 19045
v en 19032
ß t</w> 19025
ge m 18999
be we 18996
s eri 18958
an imal</w> 18938
arch ite 18912
bru cke</w> 18899
pla ce</w> 18885
bu ch 18864
gro ßen</w> 18817
kun st</w> 18803
sch ri 18797
sk y 18791
ge ht</w> 18779
re gi 18773
fen ster</w> 18732
f rau 18683
wol ken</w> 18657
cro ss</w> 18634
proper ty</w> 18626
clou ds</w> 18601
sp la 18585
1 9 18583
sch one</w> 18582
fig ur</w> 18579
g lo 18551
ta ins</w> 18545
e p</w> 18537
gra ss</w> 18535
tour ist</w> 18490
h of</w> 18440
mo dern</w> 18433
bal ler</w> 18431
ful l</w> 18415
gebau de</w> 18409
c ur 18396
s and</w> 18390
in nen 18353
mann es</w> 18353
schon en</w> 18336
th ere</w> 18301
re g 18289
comp u 18283
v el 18279
k no 18241
gro ße</w> 18241
ir t</w> 18235
preis verleih 18234
ff er 18230
bi g</w> 18222
ch ing</w> 18199
dar k</w> 18178
se con 18163
st ur 18148
fe l</w> 18144
fo togra 18132
y mp 18130
run way</w> 18119
biologi sche</w> 18119
n ung</w> 18096
he art</w> 18082
musi k 18081
famil ie</w> 18080
be de 18063
il s</w> 18057
base ball 18043
d - 18038
ol ymp 18016
ne hmen</w> 17987
dr en</w> 17958
chil dren</w> 17958
d au 17956
s st</w> 17942
co mm 17937
hor se</w> 17937
h ere</w> 17917
o b 17890
wi mm 17887
di en 17875
en ds</w> 17873
s ite</w> 17857
sc re 17838
n o</w> 17825
vi el 17790
fre e</w> 17751
z o 17735
sm iling</w> 17728
e y</w> 17706
mil itar 17704
ca ke</w> 17679
celebr ates</w> 17668
kin der</w> 17650
tex t 17632
st an 17622
color ful</w> 17619
c an 17616
p en 17586
hau se</w> 17569
ss ing</w> 17544
boo t</w> 17521
fe st 17512
ri e 17502
s and 17481
we aring</w> 17481
wat er 17457
er ung</w> 17447
sti c</w> 17443
s qu 17417
d o</w> 17397
gru ppe</w> 17391
kin d</w> 17381
ste g</w> 17349
it er</w> 17348
v en</w> 17345
basket ball 17342
secon d</w> 17311
tr au 17274
sea son</w> 17264
flo or</w> 17206
t zt</w> 17201
ku che</w> 17187
ation s</w> 17185
are a</w> 17157
for m 17131
sca pe</w> 17120
st and</w> 17118
restauran t</w> 17105
l ate</w> 17085
sp ar 17077
cro w 17058
mar ket</w> 17042
d rin 17031
h il 17024
wa ch 16978
schne e 16970
i f</w> 16952
klei d</w> 16951
act ors</w> 16934
stu di 16919
tra gt</w> 16918
el ler</w> 16859
ge d</w> 16851
s le 16841
be hin 16831
son ne</w> 16829
pre s 16828
h ard</w> 16811
k te</w> 16808
man y</w> 16792
br an 16787
it ar</w> 16766
s ou 16750
m er 16750
p rin 16738
spiel end</w> 16695
ber e 16689
fei ert</w> 16687
abstra ct</w> 16684
or y</w> 16672
3 d</w> 16667
kat ze</w> 16648
cam era</w> 16627
aut um 16624
stell ung</w> 16606
po ol</w> 16602
lea ves</w> 16585
fru h 16576
par t 16561
indu stri 16548
posi ert</w> 16542
s mar 16540
neu en</w> 16492
kl eine</w> 16491
c le 16481
be d</w> 16445
g ung</w> 16429
s an 16404
be d 16402
lap top</w> 16394
gu itar</w> 16391
p ing</w> 16386
fer n 16379
re li 16358
run ning</w> 16357
so mmer 16338
ri ch 16317
x t</w> 16316
c ir 16311
z ur 16302
land schaft</w> 16289
g itar 16277
tro pi 16263
stu ck</w> 16251
touri sten 16242
v is 16238
herb st 16233
kon nen</w> 16228
zeu g</w> 16228
mo den 16203
le ben 16157
sport mannschaft</w> 16099
re gen 16080
ta ke</w> 16070
let z 16059
sch en 16030
ma chen</w> 16029
vide o</w> 16027
min i 16018
ch an 15978
sp ring</w> 15955
an y</w> 15922
d ru 15916
re fle 15898
t in 15888
moden schau</w> 15888
autum n</w> 15886
s einen</w> 15880
nach dem</w> 15879
lauf steg</w> 15877
bri de</w> 15875
wo men</w> 15870
play ers</w> 15869
win ter 15862
reli gi 15830
zur u 15814
mo tor 15808
le t</w> 15803
politi ker</w> 15768
s au 15757
ro und</w> 15751
r y</w> 15745
gitar re</w> 15735
in spi 15725
op en</w> 15719
g le</w> 15687
to o</w> 15682
in n 15672
ge hen</w> 15666
s ale</w> 15665
fe atur 15661
pp en</w> 15658
kam era</w> 15653
sc or 15649
spa ce</w> 15624
festiv als</w> 15622
sie ht</w> 15616
en e</w> 15585
i schen</w> 15568
k ten</w> 15560
m itt 15553
schil d</w> 15552
c ing</w> 15505
be en</w> 15493
ne xt</w> 15484
moun tains</w> 15480
po ses</w> 15457
ic on</w> 15456
kt ur</w> 15432
al ter 15431
ab le</w> 15421
attra ction</w> 15378
ct ure</w> 15373
spezi es</w> 15363
hl en</w> 15308
grap hi 15299
gra s</w> 15277
go al</w> 15276
di ffer 15271
ge sehen</w> 15236
hau pt 15232
n ie 15224
abo ve</w> 15224
behin d</w> 15216
ku ste</w> 15213
haus es</w> 15205
ta b 15186
far ben 15162
d ol 15158
je ans</w> 15151
h y 15146
s al 15122
h at 15106
le uch 15092
den en</w> 15092
touristen attra 15062
m t</w> 15053
ul d</w> 15050
be l</w> 15041
cover ed</w> 15034
sch lu 15033
he a 15026
neu e</w> 14957
st ing</w> 14924
an im 14924
i en 14923
nation al</w> 14897
bein g</w> 14896
far be</w> 14869
wur den</w> 14867
weiß e</w> 14863
sam m 14848
bein halten</w> 14844
sky line</w> 14809
wh ere</w> 14798
flag ge</w> 14780
l a</w> 14773
bau me</w> 14772
i d</w> 14763
di spla 14748
auto s</w> 14743
ri ght</w> 14741
scho ol</w> 14733
i g 14714
ro man 14706
pp ed</w> 14705
z er</w> 14674
mar kt</w> 14668
compu ter</w> 14662
stell t</w> 14642
i gen</w> 14638
sh or 14595
ss ed</w> 14578
blau en</w> 14573
o ber 14567
ste hen</w> 14566
brau t</w> 14551
ligh ts</w> 14550
schla f 14545
lie be</w> 14544
schwarz em</w> 14544
fl or 14530
sh irt</w> 14514
traditi on 14503
o ben</w> 14485
chil d</w> 14449
pri v 14448
br in 14442
mo ti 14438
mu tter</w> 14429
jun ger</w> 14429
ber u 14423
touristenattra ktion</w> 14420
al li 14407
li fe</w> 14406
offi ce</w> 14402
land scape</w> 14352
sit zen</w> 14350
ein fa 14345
zu sam 14333
blau em</w> 14317
m ati 14312
grun en</w> 14295
s k</w> 14280
po in 14260
0 0 14251
ou ld</w> 14246
el l</w> 14238
w ould</w> 14237
wh e 14208
ha d</w> 14183
photogra ph 14183
ameri kan 14179
k ir 14177
el n 14145
ch o 14131
c eremon 14093
e mp 14082
ma l</w> 14066
ne ben</w> 14046
wun der 14028
gr au 14021
on en</w> 14010
on i 13991
m ei 13977
w rit 13973
bed room</w> 13952
tre ten</w> 13946
t ter 13936
gi bt</w> 13907
st am 13884
awar d</w> 13876
la st</w> 13872
pro te 13867
rock -kunstler</w> 13867
le ft</w> 13845
car s</w> 13834
f te</w> 13826
u red</w> 13823
ten nis</w> 13815
si den 13787
str y</w> 13781
un g 13779
b is</w> 13774
musi c</w> 13764
an other</w> 13752
m a</w> 13726
ur y</w> 13724
po ster</w> 13698
fi re 13697
de kor 13680
pa per</w> 13671
traditi onal</w> 13638
ge ben</w> 13608
wel t 13605
sun ny</w> 13604
en jo 13593
per fe 13589
son ni 13561
ver schie 13560
blu e 13555
kunst l 13549
lich es</w> 13545
al te</w> 13538
u sing</w> 13531
geb ur 13529
ro s 13527
sp it 13514
t ele 13513
we en</w> 13490
differ ent</w> 13471
d u</w> 13463
g al 13453
s no 13452
an sicht</w> 13446
we b 13445
ko pf</w> 13394
st ate</w> 13389
hal f</w> 13360
k af 13358
e ach</w> 13338
mo ther</w> 13336
un s</w> 13335
ro w</w> 13326
konz ert</w> 13301
an der</w> 13295
fer en 13287
pfer d</w> 13286
fotogra fi 13284
a k</w> 13278
sho wing</w> 13275
fußball mannschaft</w> 13248
bu ch</w> 13202
bo x 13172
k ro 13165
ceremon y</w> 13153
blu ten</w> 13147
ta ge 13145
k ra 13137
al so</w> 13133
to ge 13120
bl es</w> 13116
kl eines</w> 13092
toge ther</w> 13064
sp o 13060
c ed</w> 13058
su per 13026
ho tel</w> 13011
ha ving</w> 13011
gla sses</w> 13009
be st</w> 13006
a cross</w> 12997
woo d</w> 12974
n um 12958
sno w 12933
indu stry</w> 12930
fl ying</w> 12922
fo tos</w> 12912
m ing</w> 12901
s we 12884
hin ter</w> 12881
fri ends</w> 12879
an ge 12876
te pp 12860
din gs</w> 12860
luft aufnahme</w> 12857
k ran 12855
ch ter</w> 12838
s y</w> 12834
so me 12829
blu es</w> 12792
ch ed</w> 12791
bir th 12782
ja hr</w> 12757
sch ir 12753
p ur 12705
ru g 12689
al le 12687
p et</w> 12685
ba de 12662
te am 12651
i es</w> 12633
far ben</w> 12629
z z 12624
ori gin 12611
re ih 12604
h m 12603
schwar zen</w> 12586
me tri 12583
st ei 12542
ban k</w> 12534
bri ght</w> 12526
train in 12510
sk un 12498
k eit</w> 12465
birth day</w> 12465
sta di 12463
lu x 12461
s day</w> 12448
ch am 12442
ma in</w> 12440
gel n</w> 12437
busine ss 12411
th ou 12387
u se</w> 12376
gen ie 12358
h ub 12351
z wi 12348
s li 12347
tra in</w> 12344
oran ge</w> 12341
automobil e</w> 12335
fis h</w> 12310
u p 12305
an ti 12302
mb er</w> 12292
h ing</w> 12289
co ffe 12281
sch ul 12276
ver su 12272
o se</w> 12262
ci al</w> 12233
gebur t 12230
co ast</w> 12227
e a 12222
wor king</w> 12218
pro je 12207
pro gra 12200
ur lau 12199
car d</w> 12165
coffe e</w> 12146
kl einer</w> 12131
k er 12115
au ß 12109
el y</w> 12102
skun st 12101
vil lage</w> 12100
fei er 12093
in ning</w> 12085
studen ts</w> 12085
en s</w> 12084
loc ation</w> 12080
on d</w> 12069
et ing</w> 12069
ver la 12064
sch lie 12050
chen s</w> 12050
ein ige</w> 12034
st ed</w> 12032
w o</w> 12025
ha fen</w> 12021
ba th 12018
ra d</w> 12002
fir e</w> 12001
p ul 11996
fin al</w> 11993
sch rei 11979
frau en</w> 11979
il le</w> 11978
ba hn 11974
is land</w> 11963
au ch</w> 11952
ein heit</w> 11942
we it 11935
hoch zeit</w> 11925
gen er 11904
ei gen 11894
p ed</w> 11879
op ening</w> 11879
stra ßen 11875
is h</w> 11864
ro y 11862
ri se</w> 11849
pre t 11818
se h 11803
it ing</w> 11798
cla ssi 11795
ad y</w> 11789
schau t</w> 11788
fe male</w> 11782
ti c</w> 11771
mor gen</w> 11771
mo tion</w> 11769
a ction</w> 11757
photogra p 11755
studi o</w> 11741
er ste</w> 11704
zwi schen</w> 11697
st ein 11688
trainin gs 11673
v y</w> 11665
ko mi 11656
hl t</w> 11648
ct s</w> 11639
m au 11637
bau m 11632
cri ck 11626
e d 11625
wer k</w> 11625
ear ly</w> 11622
dra wn</w> 11586
c ent 11569
ff en</w> 11556
model l</w> 11541
e st</w> 11537
ta in 11533
fla che</w> 11533
buil dings</w> 11530
sho ws</w> 11527
wei ß</w> 11520
men ge</w> 11507
ck ed</w> 11504
c au 11496
fel sen</w> 11486
ne t 11477
l t</w> 11468
sta r</w> 11465
en ts</w> 11458
wa gen</w> 11457
gir ls</w> 11457
in sel</w> 11456
bet t</w> 11429
fahr en</w> 11428
bu s</w> 11423
ba hn</w> 11422
sch at 11421
tra gen</w> 11415
ev ening</w> 11408
organis ation</w> 11408
en en</w> 11406
th an</w> 11403
crow d</w> 11390
bli ckt</w> 11372
m ed</w> 11354
mi c</w> 11351
han de</w> 11351
p il 11350
co me</w> 11346
st one</w> 11329
ra in</w> 11329
u sed</w> 11325
re ady</w> 11322
ab end</w> 11320
stre ets</w> 11313
k auf</w> 11308
n ers</w> 11307
i mmer</w> 11303
p es</w> 11302
and eren</w> 11275
ge zeich 11272
sit i 11267
pi er</w> 11260
ar ch</w> 11256
co o 11246
smar t 11234
ihr es</w> 11231
sonni gen</w> 11227
te en 11219
tepp ich</w> 11209
hal b</w> 11203
feu er 11203
mm en</w> 11199
en g 11197
reih e</w> 11182
ge mu 11159
go od</w> 11148
s mo 11130
met al</w> 11129
ver wen 11127
ta king</w> 11126
baseball spieler</w> 11085
si t</w> 11059
k el 11040
preisverleih ung</w> 11030
th em</w> 11025
fuhr t</w> 11020
s or 11015
blu men 11014
kaf fe 11008
kre u 11004
st ation</w> 11002
bet ween</w> 10998
p un 10986
gem ein 10984
to war 10962
fu n</w> 10959
z er 10954
sport team</w> 10954
e g 10950
ko pf 10945
on ly</w> 10940
bau men</w> 10935
cti ve</w> 10935
s hin 10922
wohn zimmer</w> 10921
ho ck 10914
sp an 10913
lach eln 10910
fi t</w> 10901
perfor man 10885
ri ding</w> 10875
vi er 10868
let ter</w> 10866
zei chen</w> 10859
bil der</w> 10855
qu e</w> 10848
sp rin 10847
k ol 10842
fa hne</w> 10829
fa st</w> 10828
pla y</w> 10826
f li 10817
out door</w> 10814
n it 10803
a way</w> 10794
di s 10781
ra ce</w> 10778
vekt or</w> 10763
stra ßen</w> 10758
celebr ity</w> 10756
cy cle</w> 10749
ha be</w> 10740
o ce 10722
spazi eren</w> 10720
ba u</w> 10716
pain ted</w> 10715
m m</w> 10708
on es</w> 10705
featur ing</w> 10693
besu chen</w> 10686
st art</w> 10682
ve ge 10679
n atur 10675
un ser 10675
fuß baller</w> 10669
ne h 10649
car pet</w> 10628
pa ss</w> 10623
spazi ert</w> 10621
hn en</w> 10597
gen o 10596
pat h</w> 10585
at h</w> 10570
pret ty</w> 10566
dd le</w> 10560
hat te</w> 10555
gol den</w> 10548
co ver</w> 10546
or nam 10545
ra hmen</w> 10541
se e 10541
v a 10532
to o 10519
schlaf zimmer</w> 10511
ki ds</w> 10501
r hy 10485
er off 10485
ro te</w> 10482
po se</w> 10472
stru cture</w> 10466
rhy th 10463
se hr</w> 10461
fre ien</w> 10457
zuru ck</w> 10455
skunst ler</w> 10446
z el 10438
publi c</w> 10438
m eine</w> 10419
ber gen</w> 10402
bo x</w> 10388
p - 10372
on stage</w> 10368
ma king</w> 10366
r at 10364
trainings einheit</w> 10363
performan ce</w> 10354
spi e 10353
d ert</w> 10351
bo tt 10341
w ed</w> 10339
s low</w> 10334
ation en</w> 10334
b b 10327
wa ys</w> 10327
fi sch 10325
kla ssi 10319
pho tos</w> 10316
f fi 10302
gh ter</w> 10301
er er</w> 10299
fre sh</w> 10294
perfor m</w> 10285
p ie 10284
col ors</w> 10284
stru ktur</w> 10280
t al</w> 10274
di es</w> 10274
bo ys</w> 10267
ch ur 10261
ar en</w> 10254
ch tet</w> 10249
a part 10246
ra in 10246
lan ge</w> 10242
ge sicht</w> 10238
be g 10238
arch i 10234
to uch 10207
schau spiel 10207
e ssen</w> 10206
ro un 10194
ear s</w> 10188
co ur 10182
oce an</w> 10170
mb ol 10162
w u 10161
d or 10154
g lei 10152
nation al 10150
ent ru 10128
ri cht</w> 10119
fei er</w> 10097
dra wing</w> 10092
hu t</w> 10083
hochzeit s 10081
on - 10075
ver kauf</w> 10052
t zen</w> 10038
zeich nung</w> 10032
gesch en 10031
bo u 10029
z wei 10020
lan gs 10018
t it 10012
de ck</w> 9997
be gin 9996
deta il</w> 9989
z eremon 9984
ko mp 9983
b y 9979
iti on</w> 9979
ta ken</w> 9970
4 k</w> 9960
film ing</w> 9946
t au 9943
crick et 9931
stre i 9920
digit al</w> 9919
schwarz - 9918
po siti 9903
inter ior</w> 9901
no ch</w> 9897
l ung</w> 9892
at or</w> 9890
pre par 9889
stil l</w> 9887
fis hing</w> 9878
f ur 9874
zwe iten</w> 9869
pf en</w> 9867
per i 9865
u ral</w> 9864
pa ir</w> 9857
mi ch</w> 9853
classi c</w> 9851
sch e 9846
ti gen</w> 9845
we st 9830
industri e</w> 9823
m ein</w> 9813
k al 9812
go ing</w> 9809
3 d- 9805
mu ch</w> 9796
sch wimm 9794
gre at</w> 9794
k ers</w> 9785
fuhr ung</w> 9781
ch i 9759
co uld</w> 9755
al ty</w> 9749
t ur</w> 9741
sh ing</w> 9740
tr in 9719
ty pe</w> 9714
lu sti 9711
n er 9709
et was</w> 9701
fei ern</w> 9698
stell en</w> 9694
o ba 9692
sy mbol 9688
fe st</w> 9684
wi th 9684
tr y 9673
die sen</w> 9666
lea der</w> 9660
mann er</w> 9655
dire ctor</w> 9647
flor al</w> 9647
si mp 9644
e very</w> 9633
grun d 9628
j et 9605
er es</w> 9603
mat ches</w> 9601
sel f</w> 9601
bath room</w> 9599
men sch</w> 9595
k el</w> 9594
in door</w> 9593
ch air</w> 9592
a b</w> 9570
smart phone</w> 9567
den e</w> 9563
celebr ate</w> 9560
v al</w> 9559
stru ments</w> 9557
d on 9539
poli ce</w> 9538
cen ter</w> 9537
l it 9535
buil t</w> 9533
jun ges</w> 9531
pflan zen</w> 9528
mo vi 9526
chur ch</w> 9522
v ar 9499
sch ein 9490
fla t</w> 9490
wa ves</w> 9488
c up</w> 9485
buch sta 9482
0 s</w> 9471
sha pe</w> 9469
wor ks</w> 9466
qu e 9466
s he 9448
lo t</w> 9442
ver ke 9442
ch a 9441
l ying</w> 9438
gen d 9438
mad chens</w> 9428
b ele 9425
re ch 9422
num ber</w> 9421
be oba 9404
herb st</w> 9403
c at 9397
do ors</w> 9395
geschafts mann</w> 9392
bo ats</w> 9390
beru hm 9386
hi gh 9367
s ele 9363
sch mu 9361
ve hi 9357
coun try 9351
geo metri 9339
stor e</w> 9329
ga z 9329
plan ts</w> 9316
sho p</w> 9311
ta kes</w> 9305
un ch</w> 9296
displa y</w> 9286
por t</w> 9278
g ers</w> 9277
he ad 9269
sta g 9248
c ul 9244
sho o 9237
zeremon ie</w> 9236
i ert</w> 9235
sho es</w> 9225
wan t</w> 9221
sa i 9219
sonnen auf 9214
mo on</w> 9212
tat o 9204
sh ed</w> 9203
bu l 9202
fe at 9195
militar y</w> 9194
con stru 9192
ma kes</w> 9191
plan t</w> 9189
urlau b</w> 9180
stad t 9177
colo red</w> 9174
ban ner</w> 9172
musikin struments</w> 9171
c les</w> 9165
seri es</w> 9160
st ers</w> 9159
regi on</w> 9155
dur ch 9151
colle ction</w> 9148
wil d</w> 9140
pro fe 9134
ro o 9120
sun rise</w> 9110
er y</w> 9106
ima ges</w> 9103
n te</w> 9100
studen ten</w> 9098
me a 9087
sk ul 9081
af e</w> 9077
gra fi 9075
sho pping</w> 9063
ck ing</w> 9062
kir che</w> 9062
al ter</w> 9059
schir m</w> 9040
st un 9028
ak tion</w> 9028
gol d 9018
plan e</w> 9018
un s 9017
l il 9015
hi er</w> 9006
schi ff</w> 9002
ein kauf 8993
gla s</w> 8987
archi v 8981
blue skunstler</w> 8979
ve l</w> 8970
schwar ze</w> 8968
men schen 8957
s sel</w> 8953
ey es</w> 8951
auß er 8949
p fel</w> 8947
k li 8937
silhou et 8935
film figur</w> 8935
ele ct 8932
dra mati 8924
vol l 8919
re s 8917
bewe gung</w> 8907
er nen</w> 8903
ex p 8899
entru m</w> 8895
n is 8894
is se 8892
to ur</w> 8889
go t</w> 8884
reg isse 8878
sch ei 8876
co medi 8876
ge win 8866
me hr</w> 8860
n ur</w> 8859
n ei 8851
ber ei 8849
af ter 8848
hock ey</w> 8848
nahtlo ses</w> 8847
gro om</w> 8843
ti ert</w> 8831
ar s</w> 8828
ca se</w> 8825
ge schaft</w> 8823
vo gel</w> 8818
sk i 8798
sle e 8791
so mmer</w> 8783
din ing</w> 8771
p ha 8770
lo s</w> 8765
ti ge</w> 8765
dun kl 8763
fern seh 8756
fil ms</w> 8755
wil d 8750
b s</w> 8746
lan gen</w> 8741
spor t</w> 8740
co ach</w> 8735
train er</w> 8705
innen raum</w> 8705
all es</w> 8702
ag er</w> 8696
su it</w> 8694
fin den</w> 8693
ere i</w> 8688
olymp ic</w> 8688
cri cket</w> 8681
to chter</w> 8679
re c 8668
it at</w> 8661
ex am 8656
th ro 8655
spazi er 8654
ur s</w> 8653
sp ra 8653
letz ten</w> 8648
ma gaz 8637
scor ing</w> 8633
business man</w> 8633
si ve</w> 8630
comedi an</w> 8617
al ity</w> 8613
far m</w> 8613
lin ie</w> 8612
s zen 8609
mode woche</w> 8604
lap se</w> 8598
a ks</w> 8592
in clu 8592
au gen</w> 8587
gra y</w> 8582
gla s 8581
b eit</w> 8575
u fer</w> 8570
e th 8556
ben u 8553
ho t</w> 8550
c and 8545
tr en 8545
cra ft</w> 8533
movi e</w> 8531
ro of</w> 8530
w n 8525
har d 8513
dau ghter</w> 8513
mu se 8503
cu t</w> 8501
star s</w> 8496
un der 8487
stand s</w> 8486
ti g</w> 8479
hor iz 8478
con ce 8476
dri ving</w> 8451
sit s</w> 8442
cir cle</w> 8433
stu hl</w> 8432
han ging</w> 8430
neh mer</w> 8428
hor t</w> 8426
ev en</w> 8423
sp richt</w> 8421
bran ch</w> 8420
c al 8415
jahr en</w> 8413
gesch i 8410
towar ds</w> 8410
ge mal 8409
arri ve</w> 8406
lie gt</w> 8402
we stern</w> 8400
desig ner</w> 8395
schat ten</w> 8391
ar beit</w> 8389
tele f 8383
t un 8380
g te</w> 8374
da ch</w> 8374
g y</w> 8373
re siden 8370
pa st</w> 8369
fahr er</w> 8369
st ie 8367
hou ses</w> 8366
g eri 8358
run s</w> 8357
th in 8350
weihnachts baum</w> 8346
i se</w> 8338
viel e</w> 8335
squ are</w> 8332
famil ien 8331
wat ch</w> 8330
ke y</w> 8329
brin gen</w> 8328
f ly</w> 8327
photograp h</w> 8323
ur es</w> 8304
pre ss</w> 8301
apart ment</w> 8299
o hne</w> 8295
mit g 8295
fotografi ert</w> 8293
ho le</w> 8290
su b 8290
ser vi 8287
land karte</w> 8282
he m 8278
pres ent 8277
d ers</w> 8270
p en</w> 8258
klei der</w> 8256
bede ck 8254
g ri 8248
br ille</w> 8234
pp er</w> 8233
war m</w> 8232
2 0 8230
mo ving</w> 8225
mu l 8224
sonnenauf gang</w> 8224
and ere</w> 8219
ch t 8218
wal ls</w> 8198
do ws</w> 8197
bo w</w> 8196
de l</w> 8188
sit z 8184
br auti 8175
de s 8167
ty pi 8159
ss a 8154
ne te</w> 8148
roy alty</w> 8144
brauti g 8143
fra me</w> 8141
d ou 8133
bau ern 8133
tropi cal</w> 8131
ta bles</w> 8129
ge h 8123
war en</w> 8119
com ing</w> 8114
p ati 8112
o ze 8106
sc ene</w> 8105
is ch</w> 8096
arbe itet</w> 8088
bil d 8086
iti es</w> 8085
comp et 8084
in ed</w> 8083
f an</w> 8080
sur roun 8079
bade zimmer</w> 8079
y ard</w> 8066
the ater</w> 8066
win e</w> 8063
g ele 8060
off ent 8053
tru ck</w> 8044
flug zeug</w> 8043
haus er</w> 8041
sch t</w> 8039
o w 8037
sch on</w> 8031
tato wi 8030
loc ated</w> 8024
wel l</w> 8023
on ed</w> 8014
archiv bild</w> 8012
e ating</w> 8005
fri end</w> 8003
leben sm 8002
met all 7997
war e</w> 7994
s wimm 7983
b is 7978
ne w 7973
de mon 7967
außer halb</w> 7962
ber g</w> 7958
arbe iten</w> 7958
bro wn</w> 7953
weiß er</w> 7951
zusam men</w> 7949
- spieler</w> 7946
ne ed</w> 7944
jahr hun 7943
kin der 7938
tra ffi 7934
schu he</w> 7934
mi ddle</w> 7933
schri ft</w> 7927
traffi c</w> 7926
pict ured</w> 7911
shor e</w> 7908
e ver</w> 7906
ele kt 7906
fall en</w> 7902
nat ural</w> 7899
t t</w> 7891
s ure</w> 7883
ta sse</w> 7878
so f 7877
fil e</w> 7874
kl ein 7872
th ir 7863
vol ler</w> 7858
pla k 7854
carto on- 7849
sin ger</w> 7847
simp le</w> 7845
inter e 7840
bir d</w> 7837
en tran 7813
bur o</w> 7813
schaf t 7807
gu t</w> 7806
vol ker</w> 7800
re gen</w> 7799
eth ni 7781
ber g 7780
regisse ur</w> 7768
ri es</w> 7762
f al 7759
anim als</w> 7755
far b 7749
bo w 7747
su pp 7736
do gs</w> 7732
an zug</w> 7731
mau er</w> 7729
vin tage 7725
ba g</w> 7721
bl ei 7715
co ck 7714
i scher</w> 7711
p fa 7708
komi ker</w> 7707
kre is</w> 7705
ti eren</w> 7702
ta il</w> 7702
f ten</w> 7689
her z</w> 7686
m el 7682
l te</w> 7677
schri ft 7672
ros a</w> 7671
l on 7670
fa ther</w> 7653
tab let</w> 7646
mitt el 7644
muse um</w> 7640
ver kauf 7638
y ed</w> 7634
c afe</w> 7633
be sten</w> 7632
schu ss</w> 7632
th er 7624
t - 7619
sty li 7613
constru ction</w> 7613
blu te</w> 7608
stor m</w> 7607
lin es</w> 7605
jet zt</w> 7605
kunstl ers</w> 7604
genie ßen</w> 7604
par ti 7602
c s</w> 7597
ein zi 7593
e u 7592
kam pf</w> 7590
ran ge</w> 7579
sof a</w> 7577
touri sten</w> 7570
be mal 7569
di am 7568
ju mp 7564
w ein 7562
blat ter</w> 7548
ti ere</w> 7547
ver sch 7545
to day</w> 7540
ti e 7538
wie der 7538
foot baller</w> 7532
ey e</w> 7529
da ys</w> 7526
hr en</w> 7524
text ure</w> 7522
e ver 7516
o per 7515
entran ce</w> 7513
fre i 7511
pa ge</w> 7510
ge tting</w> 7509
emp ty</w> 7507
lach eln</w> 7506
pur ple</w> 7506
swimm ing</w> 7504
m p</w> 7501
do wn 7501
c ab 7496
lin gs 7491
p tion</w> 7484
ge sich 7484
str an 7481
gre y</w> 7480
brautig am</w> 7471
par ade</w> 7465
wa iting</w> 7463
c y</w> 7457
cent ury</w> 7453
be kan 7451
be au 7444
rug by</w> 7442
mon d</w> 7441
hu gel</w> 7441
g a</w> 7434
lie b 7430
h le</w> 7415
tur m</w> 7412
boo te</w> 7409
lauf en</w> 7405
amerikan ische</w> 7403
sol d 7401
fun ny</w> 7399
bra un 7398
au th 7375
freun d 7370
he ar 7366
run de</w> 7359
str au 7358
mu s 7347
ku chen</w> 7335
s ame</w> 7334
v ater</w> 7330
ta ges</w> 7330
rock s</w> 7329
touri sts</w> 7322
deta ils</w> 7321
ben ch</w> 7309
sta ir 7307
rea ding</w> 7306
w ellen</w> 7301
schu le</w> 7299
z ing</w> 7295
schau en</w> 7287
be son 7280
co stu 7270
ab end 7266
hol z</w> 7266
ren der 7262
tat too</w> 7260
s na 7251
z ed</w> 7249
pu s</w> 7247
ru n</w> 7239
lu ft</w> 7226
berei ch</w> 7221
sol di 7220
he ute</w> 7219
sat z</w> 7212
bu tter 7209
beau ty</w> 7206
gro wing</w> 7204
preisverleih ungen</w> 7204
sur face</w> 7200
speci al</w> 7192
er zi 7187
flug zeu 7186
sch ran 7181
il ed</w> 7171
p ond</w> 7161
priv ate</w> 7160
g lan 7155
bal lo 7146
fo und</w> 7146
ele gan 7145
pain t</w> 7145
blat tern</w> 7121
nahtlo se</w> 7119
0 er</w> 7116
touch down</w> 7113
gener al</w> 7110
lach elt</w> 7108
hem d</w> 7108
flie gen</w> 7098
vide o 7096
mb ers</w> 7094
ex ter 7088
vie ws</w> 7087
th i 7080
wir ft</w> 7079
ate g 7079
sai son</w> 7077
en der</w> 7071
z au 7070
sel b 7070
be ar</w> 7068
sen ior</w> 7066
ck er</w> 7065
tal king</w> 7059
z entrum</w> 7046
de cke</w> 7045
bo th</w> 7045
kon ze 7043
ein ander</w> 7034
le ute</w> 7032
er ei 7029
st elle</w> 7026
in di 7023
za hl</w> 7021
il es</w> 7018
inn eren</w> 7010
ber eit</w> 7004
her zen</w> 7002
la ssen</w> 6992
sch wan 6989
an ci 6981
fe w</w> 6976
ja h 6975
ti er</w> 6973
cou ch</w> 6970
a quar 6969
ar m</w> 6967
att le</w> 6965
wa ving</w> 6963
abstra kte</w> 6955
bun ten</w> 6955
0 0</w> 6952
zie hen</w> 6950
gol fer</w> 6949
te st</w> 6947
origin al</w> 6937
o wn</w> 6934
ba si 6932
ih n</w> 6930
kreu z 6929
play s</w> 6926
ro ter</w> 6925
spa ß</w> 6925
s atur 6922
bir ds</w> 6921
lea ther</w> 6920
kol le 6918
b ie 6917
ide as</w> 6917
sat z 6917
b in 6914
en te</w> 6912
lo cal</w> 6912
ver sion</w> 6911
gebau des</w> 6910
groß er</w> 6902
fin d</w> 6901
qu i 6896
fa ss 6894
thir d</w> 6889
da bei</w> 6888
cham pi 6881
bei spiel</w> 6864
geo graphi 6863
flu g</w> 6858
c ru 6852
ti sche</w> 6852
be tra 6845
mit te</w> 6845
to wer</w> 6837
h ell 6836
freun de</w> 6835
sch we 6834
wohn ung</w> 6834
dar auf</w> 6829
ta g 6827
hal fte</w> 6827
m einem</w> 6806
it en 6805
mo di 6805
ide a</w> 6802
grun e</w> 6801
per s</w> 6797
bott le</w> 6794
se tzt</w> 6789
r t</w> 6785
exam ple</w> 6785
vor der 6784
mil li 6779
hea vy</w> 6777
w on 6773
s lo 6766
tu red</w> 6762
me ss 6759
we st</w> 6754
dre ssed</w> 6754
organis ation 6753
cricket spieler</w> 6752
bel ie 6747
ne ver</w> 6746
tra il</w> 6743
box er</w> 6741
sc ul 6740
ph y</w> 6739
ar es</w> 6724
pit ch</w> 6720
cen tr 6720
positi on</w> 6716
ab ge 6711
sk u 6708
fen ce</w> 6707
i mp 6705
tro ck 6705
schi ff 6703
ac ce 6703
re la 6701
ss o 6701
ti er 6700
pie ce</w> 6697
mea dow</w> 6694
g em</w> 6691
feu er</w> 6691
fahr rad</w> 6688
ge gen 6687
ho ch</w> 6687
e he 6686
ra d 6684
met alli 6683
pu t</w> 6682
fru it</w> 6681
i hnen</w> 6680
zi mm 6680
mi r</w> 6679
en ten</w> 6674
ff er</w> 6674
wei se</w> 6673
i con 6670
conce pt</w> 6669
di sh</w> 6668
we ar</w> 6668
comp le 6664
desig ns</w> 6663
ge ts</w> 6660
ta sche</w> 6658
desig ned</w> 6658
zei gen</w> 6656
c ateg 6655
fro h 6653
cle ar</w> 6652
wi de</w> 6651
schwarz er</w> 6648
ever y 6648
su al</w> 6645
satur day</w> 6642
c er 6641
h im</w> 6638
br and</w> 6636
x i 6634
automobil - 6633
photograph ed</w> 6631
on t</w> 6625
s co 6624
feren ce</w> 6623
cau se</w> 6623
wie se</w> 6617
br aut 6614
h on 6613
sk et 6612
wa hlt</w> 6611
pu mp 6610
y a 6607
k le 6604
chri sti 6601
fol lo 6601
christi an</w> 6598
all en</w> 6596
me mbers</w> 6592
religi ous</w> 6586
bo ar 6572
me hr 6570
far bi 6569
la den</w> 6566
the at 6564
grun em</w> 6564
elect ri 6564
hin unter</w> 6563
in e 6560
1 8 6557
olymp i 6556
k - 6552
s - 6545
categ ory</w> 6545
neu es</w> 6544
sp en 6543
kaffe e</w> 6535
v - 6532
scre en</w> 6522
to mat 6514
nat ure</w> 6513
ma g</w> 6508
schrei b 6503
sh ort</w> 6499
di a 6489
ba d</w> 6489
ste h 6487
feat ure</w> 6482
i g</w> 6481
foot ball 6481
vil la</w> 6480
kor b</w> 6478
spit ze</w> 6471
i ger</w> 6468
plak at</w> 6450
ho he</w> 6447
fri day</w> 6446
kun ft</w> 6438
sil ver</w> 6437
mitg lie 6433
sp re 6431
p r 6430
tur en</w> 6430
san ger</w> 6430
stro n 6429
tur n</w> 6427
gi ert</w> 6416
moder nen</w> 6407
wi fe</w> 6403
so ft</w> 6402
quar ter</w> 6400
fla sche</w> 6399
gi ving</w> 6396
moti ve</w> 6396
web site</w> 6395
schn ei 6393
sp ei 6387
zusam men 6384
uns ere</w> 6382
stadi um</w> 6370
i ous</w> 6367
wi ck 6366
tri p</w> 6364
sch em</w> 6363
p -kunstler</w> 6361
ni ce</w> 6360
sin gle</w> 6360
fisch er 6356
poin t</w> 6354
rol l 6349
ent span 6347
ho p</w> 6344
co p 6344
di gen</w> 6342
pal m</w> 6342
text ur</w> 6340
buchsta ben</w> 6338
hand gezeich 6337
au ßen 6336
v it 6326
air craft</w> 6323
in st 6320
an i 6320
ho od</w> 6315
konz er 6314
all gem 6313
fin det</w> 6311
vi sion</w> 6309
schon er</w> 6302
mo ment</w> 6300
te ch 6295
inter view</w> 6293
r ying</w> 6289
wir k 6285
dun kel 6284
st es</w> 6283
v ent 6279
aus sehen</w> 6278
a head</w> 6273
con ference</w> 6272
oze an</w> 6270
th en</w> 6269
war tet</w> 6265
welt premiere</w> 6265
ein zel 6258
glo be</w> 6253
war ten</w> 6252
in nen</w> 6251
uni ver 6250
cti ons</w> 6249
ge st</w> 6246
centr e</w> 6239
organ iz 6238
ad d</w> 6234
un ten</w> 6232
han gen</w> 6230
af ar 6226
kam pf 6224
ein gang</w> 6223
m ber 6212
vol l</w> 6209
loo ked</w> 6206
her z 6204
p lu 6202
ell ing</w> 6200
be vor</w> 6196
we ht</w> 6193
pa ssen 6193
kon feren 6193
alle y</w> 6193
hor ses</w> 6191
co at</w> 6189
aus sicht</w> 6189
li t</w> 6187
tran spar 6185
dru ck</w> 6185
m einer</w> 6180
il l</w> 6177
hil l</w> 6175
digit ale</w> 6169
gluck liche</w> 6163
mobil e</w> 6161
co ol</w> 6157
f ern</w> 6153
bask et</w> 6150
cam pus</w> 6148
some thing</w> 6148
pfa d</w> 6148
pin e</w> 6147
men t 6146
qu ad 6145
hi p</w> 6141
an ce</w> 6140
t ure</w> 6139
fam ous</w> 6130
sport ler</w> 6127
re al</w> 6122
too k</w> 6122
sh el 6118
ke iten</w> 6114
mo d 6112
u hr</w> 6110
ber ge</w> 6109
sh es</w> 6108
ge stellt</w> 6106
ea sy</w> 6105
w in</w> 6101
ko sten 6101
gen en</w> 6097
t v- 6093
render ing</w> 6092
ro tem</w> 6083
g am 6081
kon nte</w> 6081
win dows</w> 6076
ell s</w> 6076
uber qu 6076
anci ent</w> 6071
gla ser</w> 6066
with out</w> 6066
ver ti 6064
ja cket</w> 6063
ja cke</w> 6060
mo u 6059
verschie denen</w> 6059
eroff n 6059
szen e</w> 6058
gen s</w> 6057
al t 6052
u al</w> 6051
vi sit</w> 6048
ei s 6044
m un 6043
je des</w> 6040
k et 6036
ma t</w> 6027
ha ar</w> 6027
ate il 6024
olympi ateil 6024
gr en 6023
re ali 6018
gan zen</w> 6018
la y 6016
do pp 6016
ak ti 6014
bere itet</w> 6014
son n 6012
g ab 6010
ct ing</w> 6009
fa vor 6005
inspi ri 6004
tr o</w> 6003
ch s</w> 6001
ver and 6001
an gle</w> 5999
p late</w> 5996
pra cti 5994
frau en 5988
gra du 5983
la dy</w> 5971
zi ert</w> 5971
ie t</w> 5969
din ner</w> 5969
r und</w> 5967
be ss 5963
bro n 5960
sch le 5954
f light</w> 5940
pa g 5937
k ul 5934
perfor ming</w> 5933
me ere 5931
pa pier</w> 5928
win d 5928
sun day</w> 5924
fre it 5922
kti on 5913
dou ble</w> 5913
char ak 5912
me eting</w> 5910
st em</w> 5906
l en 5904
ba b 5901
ver s</w> 5901
weiß es</w> 5896
blat t</w> 5895
ro t</w> 5893
ho mes</w> 5891
schlie ßen</w> 5891
th ings</w> 5888
jun g 5886
comp any</w> 5884
del i 5884
aus stellung</w> 5883
li ert</w> 5879
bil dung</w> 5878
ti al</w> 5876
kran ken 5875
kin dern</w> 5874
go t 5867
lin ks</w> 5866
k now</w> 5864
celebr ation</w> 5862
profe ssi 5862
win ner</w> 5861
al es</w> 5857
flie gt</w> 5857
se tting</w> 5855
rie si 5848
cre ate</w> 5847
dre sses</w> 5845
dr y</w> 5844
vi ol 5843
um geben</w> 5843
t eller</w> 5842
team s</w> 5841
bo gen</w> 5840
bri ck</w> 5839
sch met 5837
vege tables</w> 5836
nei gh 5835
han g</w> 5830
schmet ter 5827
l or 5824
sie g</w> 5820
am ong</w> 5818
ne l</w> 5818
te e</w> 5817
auth or</w> 5815
ha are</w> 5814
perfe ct</w> 5808
han den</w> 5803
to u 5802
re is 5801
k eine</w> 5800
decor ated</w> 5800
wat ching</w> 5799
com po 5796
s car 5792
ur en</w> 5790
dan ce</w> 5790
pict ures</w> 5787
je den</w> 5786
it ten</w> 5783
drin king</w> 5783
bau en</w> 5780
kno wn</w> 5777
geschi chte</w> 5776
ro t 5775
wol ken 5775
re ci 5772
schauspiel erin</w> 5771
des ert</w> 5771
th eit</w> 5770
t ly</w> 5768
g y 5768
exter ior</w> 5768
bo t 5767
ben en</w> 5764
st le</w> 5758
ma ke 5758
ti ger</w> 5758
bou qu 5757
sha dow</w> 5756
l l</w> 5751
geb ir 5751
bun te</w> 5751
he al 5750
ar ten</w> 5749
a hn 5745
luft ball 5744
s ci 5743
ti schen</w> 5743
in en</w> 5739
gi pfel</w> 5732
fest es</w> 5727
er tes</w> 5726
pan or 5726
hel p</w> 5725
j ub 5722
out fit</w> 5720
mi x 5715
geno mmen</w> 5715
langs am 5713
sh ar 5711
enjo ying</w> 5711
ro a 5710
mon ey</w> 5708
er ter</w> 5703
k ein</w> 5698
gra ff 5691
bre l 5688
sk iz 5685
re ally</w> 5684
posi eren</w> 5680
um brel 5679
viel en</w> 5679
d ent 5678
t el 5677
tre ffen</w> 5675
eng li 5667
pt ure</w> 5664
fa bri 5663
histor ic</w> 5659
sch wi 5652
we sen</w> 5652
den k 5651
musik kunstler</w> 5646
st y</w> 5644
ma sk 5642
gi ft</w> 5642
b it</w> 5639
p- ho 5635
co t 5634
de ck 5633
pro min 5631
vol k</w> 5631
jahrhun dert</w> 5631
kar i 5630
fahr zeu 5629
br en 5628
back stage</w> 5619
leuch t 5619
el i 5618
boo ts</w> 5618
hol ds</w> 5617
co a 5608
dun gs 5608
co me 5602
ober flache</w> 5602
schaf ten</w> 5600
k ie 5599
automobil- modell</w> 5598
pflan ze</w> 5596
sich t 5595
da ch 5594
d lichen</w> 5592
ni e</w> 5590
sho ul 5588
film regisseur</w> 5586
ha ir 5584
go es</w> 5583
k end</w> 5582
b lan 5578
d ate</w> 5575
ct ory</w> 5573
fo to 5572
bre tt</w> 5572
for mi 5570
a - 5565
after no 5562
mon arch</w> 5559
rec ei 5548
t te</w> 5543
spazier gang</w> 5542
bo dy</w> 5535
tz ung</w> 5535
afterno on</w> 5534
schn itt</w> 5533
gen re</w> 5528
nat ur</w> 5528
at mo 5526
pit ches</w> 5526
o s</w> 5519
ke e 5516
on to</w> 5514
atmo sp 5513
geburt stag 5509
da l</w> 5503
par k 5502
vol k 5501
be cause</w> 5498
lea f</w> 5498
te te</w> 5497
y ears</w> 5489
b in</w> 5488
war d</w> 5480
bow l</w> 5480
fo un 5476
pla n</w> 5476
schlu ss 5476
vehi cle</w> 5476
ssi ve</w> 5473
la ce</w> 5464
hal b 5461
it u 5460
strau ß</w> 5459
wal l 5448
nach mit 5448
lich ter</w> 5448
hi p-ho 5445
aut or</w> 5445
che er 5442
e mb 5441
al ler</w> 5440
schnee bedeck 5440
feier tag</w> 5440
al ways</w> 5439
zie ht</w> 5437
sc ri 5436
je der</w> 5436
ko m 5430
boo ks</w> 5424
u mar 5422
cla ss</w> 5419
hun de</w> 5418
th ose</w> 5409
in g 5407
o c 5405
th an 5404
man tel</w> 5402
c all 5399
er d 5398
e dge</w> 5397
mo g 5397
zeich net</w> 5397
no ble</w> 5391
nach t 5391
it tel</w> 5388
bouqu et</w> 5387
unter stu 5386
d one</w> 5381
bele uch 5380
prin t</w> 5379
d rau 5376
lux ury</w> 5375
gemu se</w> 5375
dor f</w> 5373
blau er</w> 5367
zu hause</w> 5363
s ag 5356
bi cycle</w> 5348
en ti 5345
menschen menge</w> 5345
fall s</w> 5344
bl on 5343
ag ue</w> 5340
ros afar 5337
thin k</w> 5333
v al 5330
gu e 5329
pra sen 5329
ho me 5325
fi el 5314
roo ms</w> 5309
we a 5308
win ning</w> 5305
benu tzt</w> 5303
w ra 5299
organiz ation</w> 5298
lin g 5296
schon es</w> 5292
sp er 5289
sch re 5286
ta ck 5285
ren o 5285
olympiateil nehmer</w> 5279
stan ce</w> 5274
magaz ine</w> 5272
che f</w> 5270
com es</w> 5269
tri e 5268
klei dung</w> 5267
gesch nit 5264
wei bli 5263
sou th</w> 5262
wirk lich</w> 5260
nor th</w> 5259
tro l 5256
t ze</w> 5254
po pu 5252
ti g 5251
seri en</w> 5245
gel b 5242
en ter 5241
ein ge 5241
ren nen</w> 5239
wie der</w> 5235
bran ches</w> 5233
fin ger</w> 5232
verke hr</w> 5232
attra kti 5225
en - 5222
mei ster 5222
writ er</w> 5219
temp le</w> 5218
ausge wahlt</w> 5217
pa st 5213
lie st</w> 5212
rhyth m</w> 5212
it ed</w> 5209
jo ur 5209
b attle</w> 5207
fan gen</w> 5206
lie ben</w> 5205
drin k</w> 5205
rela x 5203
hor n 5199
mal erei</w> 5195
clou dy</w> 5195
re tro</w> 5194
ph ones</w> 5194
ear th</w> 5193
fri end 5192
fin ale</w> 5191
sele cted</w> 5189
gre i 5186
popu lar</w> 5186
comm un 5182
ta pe 5181
ar ran 5179
ho hen</w> 5179
col d</w> 5174
ke ep</w> 5174
beson der 5173
pu ppy</w> 5172
flu sses</w> 5170
verschie dene</w> 5170
s ei 5167
zuru ck 5166
se ver 5163
se iten 5162
we tt 5162
sa gt</w> 5162
te ten</w> 5157
ma ch 5150
y si 5149
ra il 5146
he il 5146
groß es</w> 5144
gen den</w> 5143
wo chen 5141
selb st</w> 5139
bet ter</w> 5136
ca de</w> 5135
rock kunstler</w> 5135
spie gel 5126
graff it 5126
fla chen</w> 5125
ro r</w> 5123
mi r 5122
ca pit 5121
fan g</w> 5120
sig ns</w> 5118
mat es</w> 5117
drau ßen</w> 5116
le g 5112
gol f</w> 5110
c a</w> 5106
in dem</w> 5102
le der 5102
hu man</w> 5101
hard rock-kunstler</w> 5101
ent fer 5098
bre ak 5094
ge stal 5087
proje ct</w> 5087
n ame</w> 5082
fre und</w> 5082
fuhr en</w> 5079
schaf ts 5076
ell es</w> 5073
ben e 5073
kon ig 5072
le ague</w> 5066
ste p</w> 5062
lin ien</w> 5061
ar row</w> 5060
ob je 5052
gr an 5051
de sk</w> 5049
dopp el 5048
do ing</w> 5046
spe aks</w> 5043
temp or 5043
eroffn ungs 5042
ru cken</w> 5041
pp en 5037
be er</w> 5035
is o 5033
ab en 5031
ar ms</w> 5029
ele fan 5028
bede ckt</w> 5027
con tain 5025
hu ge</w> 5025
verwen det</w> 5024
wan den</w> 5023
inspi red</w> 5020
clo ck</w> 5019
wi ch 5016
mb in 5015
man ager</w> 5013
en ga 5005
cu p 5004
te a</w> 4998
stair s</w> 4993
bar en</w> 4992
ele ph 4988
nach ts</w> 4985
enjo y</w> 4983
ge sun 4982
en ce</w> 4981
go wn</w> 4981
z es</w> 4980
follo wing</w> 4980
basketball spieler</w> 4979
ma sch 4978
pun kt</w> 4978
lo k 4977
fußball spiels</w> 4973
la unch</w> 4971
tu n</w> 4971
ter ra 4969
h am 4968
tru g</w> 4968
zimm ers</w> 4968
sold aten</w> 4965
gebau t</w> 4964
sa h</w> 4963
ch air 4954
er de</w> 4953
ver samm 4949
sc en 4944
surroun ded</w> 4941
au str 4938
stur m</w> 4938
fire works</w> 4938
roman tic</w> 4936
k y</w> 4934
v alley</w> 4934
app ear 4933
de fen 4932
kre is 4931
ste ps</w> 4929
si ze</w> 4926
geburt stag</w> 4922
o w</w> 4920
dunkl en</w> 4918
un ser</w> 4917
sur fer</w> 4917
con tin 4913
fall ing</w> 4911
ro sen</w> 4909
rich tung</w> 4908
fire place</w> 4908
hel i 4905
sho uld</w> 4903
a den</w> 4901
vie l</w> 4894
lo ch</w> 4890
di stri 4888
featur es</w> 4885
1 0 4882
gre eting</w> 4880
hl ing</w> 4880
lil a</w> 4879
wu ste</w> 4878
ver s 4877
foo tage</w> 4877
konferen z</w> 4876
gol den 4875
lea ding</w> 4870
ru hi 4869
tex tured</w> 4869
zi mmer 4868
t all</w> 4865
w ein</w> 4865
b an</w> 4862
ca p 4862
fall t</w> 4860
archite ktur</w> 4860
sket ch</w> 4859
re st</w> 4856
fru hling</w> 4851
kt or</w> 4849
mus -</w> 4848
ca st</w> 4847
eri e</w> 4846
dol lar</w> 4846
th r 4839
sil ber 4839
rhyth mus-</w> 4839
sm ile</w> 4838
austr ali 4838
ti mes</w> 4837
zau n</w> 4834
ra sen</w> 4833
is on 4833
a ma 4832
u t 4831
univer sit 4830
d a</w> 4827
r y 4826
un e</w> 4826
fli es</w> 4826
t on 4825
writ ten</w> 4825
trin kt</w> 4823
bor n</w> 4822
so hn</w> 4820
grau en</w> 4820
e ffe 4817
je de</w> 4815
arbe iter</w> 4814
su ß 4812
ben e</w> 4812
or en</w> 4811
is h 4810
farben fro 4810
pat ter 4809
gru ß 4805
k lu 4803
wa hl</w> 4802
o p</w> 4801
gu ard</w> 4800
diti on</w> 4800
m ers</w> 4798
wach sen 4796
ban an 4795
wh y</w> 4792
de er</w> 4788
wach sen</w> 4788
ko st 4782
n ten</w> 4781
di d</w> 4780
le ar 4780
e f</w> 4779
vel y</w> 4778
hr t</w> 4776
tropi schen</w> 4767
football -spieler</w> 4766
einkauf s 4765
demon str 4765
fass ade</w> 4765
pi er 4761
ca kes</w> 4761
mm e</w> 4759
su d 4759
ne ss</w> 4757
ex hi 4755
musi k</w> 4754
vo gel 4754
act s</w> 4753
st au 4747
ful ly</w> 4745
lo go 4744
electri c</w> 4744
unser em</w> 4742
dia gra 4742
d y 4741
wa ve</w> 4740
po sed</w> 4740
scre ening</w> 4740
mi sch 4737
cu lar</w> 4736
ga ste</w> 4735
er inn 4733
cro ssing</w> 4732
erei g 4732
sa id</w> 4731
dre hort</w> 4731
stre t 4724
an gel 4722
ri de</w> 4722
pi zz 4719
b by</w> 4715
gi ve</w> 4712
ce iling</w> 4708
brin gt</w> 4708
schwar z</w> 4702
sha ped</w> 4701
cot tage</w> 4700
buil d</w> 4697
all en 4696
attra ctive</w> 4694
ti pp 4693
al bu 4692
f au 4689
ver fu 4687
vi l</w> 4687
jahr e</w> 4684
al tes</w> 4683
sam stag</w> 4675
arbe it 4674
clu b</w> 4667
nit ure</w> 4667
fur niture</w> 4667
st ein</w> 4666
be eren</w> 4661
di stance</w> 4658
wer k 4658
fi cti 4651
sc ra 4646
pres se 4640
ze iten</w> 4636
ide e</w> 4636
sprin gt</w> 4636
tre ppe</w> 4635
se ction</w> 4633
sch rau 4632
th y</w> 4630
geb ung</w> 4629
re iten</w> 4628
ca stle</w> 4628
ma ß 4624
icon s</w> 4621
cu s</w> 4619
ra is 4616
wor e</w> 4616
ph ysi 4614
ide en</w> 4612
e ten</w> 4610
scul pture</w> 4609
t els</w> 4608
me t</w> 4608
person lich</w> 4607
hip-ho p-kunstler</w> 4607
fla gs</w> 4606
beoba chtet</w> 4606
ss y</w> 4605
mal en</w> 4603
on ce</w> 4602
versu cht</w> 4602
schein t</w> 4602
r and</w> 4601
te a 4601
pop -kunstler</w> 4598
stadi on</w> 4595
qu o 4591
sch r 4590
mul ti 4590
be a 4587
offi zi 4587
flo ating</w> 4586
c ame</w> 4584
mitglie der</w> 4584
an g 4582
ff t</w> 4581
ra di 4580
studen t</w> 4579
i si 4578
water fall</w> 4578
pizz a</w> 4577
dan cing</w> 4576
wall paper</w> 4575
jump ing</w> 4573
sever al</w> 4573
favor ite</w> 4568
gar age</w> 4566
model s</w> 4565
erzi elt</w> 4564
sa ison 4562
bi ke</w> 4561
de ssen</w> 4560
mo de</w> 4557
a g</w> 4556
o il</w> 4555
klei dern</w> 4554
mo ve</w> 4548
schaf fen</w> 4545
en gin 4544
bl em</w> 4542
gam es</w> 4542
yo ga</w> 4541
re l 4538
gar ten 4538
ban ners</w> 4538
ge ment</w> 4537
kur z 4537
gol denen</w> 4536
cor ner</w> 4536
capit al</w> 4536
sti k 4529
wee kend</w> 4528
nach bar 4527
f ts</w> 4525
an ing</w> 4524
foo t</w> 4523
konzer ts</w> 4521
n ment</w> 4519
chair s</w> 4519
tempor ary</w> 4518
att ung</w> 4515
bu ro 4513
so ft 4508
ne bel</w> 4505
ch er 4503
ir gend 4503
g ei 4502
men sch 4502
ent ri 4502
mu ss</w> 4499
den s</w> 4498
ssen en</w> 4498
weihnach t 4497
vier tel</w> 4496
schreib tisch</w> 4495
ri bb 4494
bahn hof</w> 4493
im mobil 4491
flag gen</w> 4490
pit cher</w> 4489
peri od</w> 4489
samm lung</w> 4488
gesch lo 4487
moder ne</w> 4486
commun ity</w> 4483
kun den</w> 4482
gue sts</w> 4482
progra m</w> 4479
fi ction</w> 4478
win gs</w> 4478
k ter</w> 4477
str and 4477
gel d</w> 4477
tran s 4475
zo o</w> 4475
do es</w> 4474
er en 4465
tei ch</w> 4465
m y 4462
k rat 4461
auf fuhrung</w> 4460
ab bildung</w> 4458
an nu 4457
e m 4452
ch ro 4452
ch ts</w> 4452
blo ck</w> 4452
ma gi 4450
swe et</w> 4447
bauern hof</w> 4443
bre ak</w> 4440
cham pag 4437
dekor ation</w> 4436
g lit 4434
mon day</w> 4432
let ter 4432
che e 4431
unser er</w> 4430
m and</w> 4425
friend ly</w> 4425
bal con 4424
fis ch</w> 4422
er ungen</w> 4421
medi a</w> 4420
do ck</w> 4418
break fast</w> 4418
ker zen</w> 4417
blo g</w> 4416
b art</w> 4414
e ss 4413
b at 4413
ab and 4411
moder n 4410
de fin 4407
blu me</w> 4407
g end</w> 4403
co mic</w> 4403
champi on 4403
ver wand 4400
v an 4398
umbrel la</w> 4398
hi t</w> 4397
pri or</w> 4397
ha aren</w> 4394
clo th 4394
vel op 4394
tre i 4393
schu ssel</w> 4392
sch lo 4390
fa cade</w> 4390
z un 4387
jahr es</w> 4387
fiel ds</w> 4387
su per</w> 4385
ent al</w> 4384
land s</w> 4384
geometri c</w> 4383
par ked</w> 4379
ck er 4378
z chen</w> 4375
be kommen</w> 4375
de ep</w> 4375
bu sy</w> 4371
g ie 4370
ma hl 4370
z it 4369
fil led</w> 4368
pfer de</w> 4364
ro ses</w> 4362
de c 4355
aband oned</w> 4352
st eller</w> 4350
ei s</w> 4350
eu ro 4350
schwimm en</w> 4346
fe et</w> 4345
m arti 4344
app le</w> 4344
mi schen</w> 4343
schon heit</w> 4343
cand les</w> 4342
wea ther</w> 4340
re ar</w> 4339
ele ments</w> 4339
sur f 4339
rea giert</w> 4338
gel ben</w> 4335
p l 4334
temp el</w> 4334
pi ck 4331
ku chen 4331
r en</w> 4327
de ad</w> 4326
mit ten</w> 4326
th o 4324
sun glasses</w> 4324
gru n</w> 4323
tour nam 4322
ber ries</w> 4321
gu est</w> 4320
aufnah men</w> 4318
annu al</w> 4317
p y 4315
car rying</w> 4313
ca sual</w> 4312
z ent</w> 4311
bau mes</w> 4311
ne e</w> 4310
soldi ers</w> 4306
su che</w> 4305
woo ds</w> 4305
tin y</w> 4305
co w 4301
c all</w> 4299
be wer 4299
che ck</w> 4299
compet ition</w> 4299
da mmer 4298
neigh bor 4297
ab bild</w> 4295
quad r 4295
auf ge 4291
ak te 4291
wor fen</w> 4290
inclu ding</w> 4288
tra l</w> 4286
ge fu 4281
sol lte</w> 4279
s eines</w> 4277
thr il 4277
we b</w> 4274
fuhr er</w> 4272
sm iles</w> 4270
bekan nt</w> 4269
sonn tag</w> 4267
fo g</w> 4266
b loo 4263
pre sen 4263
vis ual</w> 4261
le it 4259
kaffe e 4258
tournam ent</w> 4258
re tro 4256
gu y</w> 4256
gan gs</w> 4252
schie d 4252
car ri 4250
ol d 4249
fuß gan 4249
stor y</w> 4247
ele men 4246
gu i 4242
plan et</w> 4241
hil ls</w> 4241
wunder schonen</w> 4241
lie be 4240
desig n 4237
be wol 4236
gen de</w> 4236
u es</w> 4235
fol k</w> 4235
g or 4233
archite cture</w> 4233
ol s</w> 4231
flie ßt</w> 4231
thro ws</w> 4231
sy stem</w> 4229
sto p</w> 4229
pt ur</w> 4229
cloth es</w> 4229
athle t</w> 4228
tr a</w> 4225
ballo ons</w> 4225
nachmit tag</w> 4221
in a</w> 4220
decor ative</w> 4219
motor cycle</w> 4219
c ers</w> 4218
re acts</w> 4218
ha ar 4216
pa ares</w> 4213
fer ne</w> 4212
stre am</w> 4209
wed ne 4208
he bt</w> 4207
whe el</w> 4207
la sst</w> 4206
dr itten</w> 4206
3d- illustration</w> 4206
ge macht</w> 4205
rin gs</w> 4204
fro n 4203
tu e 4203
zwei g</w> 4203
be findet</w> 4202
re public</w> 4196
on g 4196
var ious</w> 4196
luftball ons</w> 4196
feuer werk</w> 4195
for mer</w> 4193
blau e</w> 4193
pro vin 4192
ge - 4191
lich keit</w> 4190
wedne sday</w> 4187
dammer ung</w> 4186
t ar 4185
bel ow</w> 4181
slee ping</w> 4181
k rei 4177
be ste</w> 4177
air plane</w> 4175
ein la 4171
histor ischen</w> 4171
fig ure</w> 4170
p el</w> 4166
lan g 4166
tue sday</w> 4166
dol lar 4165
i eren</w> 4164
exp lo 4163
lu gt</w> 4160
ba y</w> 4156
sti sche</w> 4156
reci pe</w> 4155
presse konferenz</w> 4155
letz te</w> 4152
lo ver</w> 4150
cho col 4150
bo ur</w> 4147
ul lt</w> 4144
han gt</w> 4144
ho spit 4143
lusti ge</w> 4139
e cke</w> 4138
scor es</w> 4138
teen ag 4137
am s</w> 4135
po wer</w> 4135
su c 4133
e s 4132
her d</w> 4132
po st</w> 4130
verke hr 4130
anim ation</w> 4129
th ur 4127
retro - 4125
lo se</w> 4124
gen us</w> 4123
br un 4122
mitt wo 4122
li ed</w> 4120
nie dri 4120
hn t</w> 4116
dro ps</w> 4116
meere s 4112
re publi 4108
colle ge</w> 4107
lebensm ittel</w> 4105
skul ptur</w> 4104
costu me</w> 4104
on line</w> 4102
er tem</w> 4099
wa ff 4099
e ti 4094
ro ni 4094
ab sol 4094
ge par 4093
rug by 4093
come dy</w> 4093
se gel 4092
a x 4091
z in 4091
groß arti 4091
fun den</w> 4089
thur sday</w> 4087
00 0</w> 4086
t ted</w> 4084
country side</w> 4083
t ten</w> 4081
le gt</w> 4081
wer fen</w> 4081
g attung</w> 4079
ih m</w> 4077
b or</w> 4076
s old</w> 4074
qu ali 4073
ce ss</w> 4072
grau em</w> 4070
coa st 4069
her ren 4065
don ner 4065
an ni 4063
water color</w> 4063
arti sts</w> 4062
gab e</w> 4061
in vit 4060
konze pt</w> 4060
we gs</w> 4059
old ti 4059
ali si 4058
cre ated</w> 4054
pa ssa 4053
inst all 4052
cre am</w> 4051
schn itt 4051
chan ge</w> 4049
tab let 4048
film premiere</w> 4047
tur n 4046
el tern</w> 4045
gesch o 4044
she ep</w> 4044
fe el</w> 4042
pe a 4042
n ative</w> 4041
form ation</w> 4039
teil en</w> 4038
hear ts</w> 4038
ne ten</w> 4037
ti ps</w> 4036
i cal</w> 4035
au dien 4034
ze i</w> 4033
out doors</w> 4029
republi k</w> 4023
vis it 4021
st ol 4019
trau ri 4017
i ght</w> 4016
symbol s</w> 4016
for men</w> 4013
pe de 4012
ge wohn 4009
butter fly</w> 4009
masch ine</w> 4009
re ze 4008
gar ment</w> 4008
tri es</w> 4008
sch wen 4004
pla stic</w> 4004
pa sses</w> 4004
telef on</w> 4003
hol d</w> 4001
se m 4000
no ti 3999
w re 3998
tradition ellen</w> 3998
gemal de</w> 3998
g ar</w> 3997
dre h 3995
rain bow</w> 3995
il o 3994
styli sh</w> 3994
be side</w> 3992
smar t</w> 3992
ornam ent</w> 3992
person en</w> 3991
sho w 3990
f ont</w> 3986
spe e 3984
ren n 3984
ehe mal 3981
pa ck 3980
i ss 3978
din ge</w> 3978
tra vel 3977
geographi cal</w> 3977
pa ssing</w> 3972
res ort</w> 3972
pro fi 3968
bro ken</w> 3967
prote st</w> 3967
professi onal</w> 3966
air port</w> 3965
ce ption</w> 3964
schu hen</w> 3964
a mi 3963
dra ma</w> 3961
un ds</w> 3960
cy c 3960
ur ing</w> 3959
gen u 3959
i k 3958
shoul der</w> 3958
mer k 3957
bere iten</w> 3956
mini mal 3954
bal k 3951
neighbor hood</w> 3951
fi sche</w> 3950
dro p</w> 3950
s ent 3949
gel an 3947
kolle ktion</w> 3945
er fol 3941
besu cher</w> 3941
oni ert</w> 3939
blo wing</w> 3937
bab ys</w> 3937
sti ck</w> 3935
tun nel</w> 3935
religi o 3934
te u 3933
sho wer</w> 3932
su cht</w> 3931
pro vi 3931
wasser fall</w> 3931
unter wegs</w> 3930
pal men</w> 3930
ra ff 3929
wor d</w> 3928
klei dungs 3926
fu ß</w> 3925
har bour</w> 3925
schlie ß 3925
fi gh 3924
stam m</w> 3922
freit ag</w> 3915
cu sto 3911
dar stellung</w> 3910
gi ant</w> 3908
alt stadt</w> 3908
g all 3907
st isch</w> 3906
hal le</w> 3906
b le 3905
ko stu 3905
elekt ri 3905
wat ers</w> 3904
lux ur 3902
b are</w> 3901
rech ts</w> 3899
il li 3898
schr itt</w> 3898
le sen</w> 3897
cli p</w> 3893
restauran ts</w> 3893
lebensm itt 3893
li br 3891
kt es</w> 3891
typi cal</w> 3891
ma ssen</w> 3889
x i</w> 3886
mon th</w> 3886
sommer tag</w> 3886
l er 3884
cor n</w> 3884
ta fel</w> 3882
en er 3879
geb iet</w> 3877
di ch</w> 3875
ma ster</w> 3873
fin ish</w> 3872
kam in</w> 3872
a mic</w> 3869
dun k 3867
il t</w> 3863
c ent</w> 3861
par ents</w> 3860
rock y</w> 3860
passa gi 3860
vor bei</w> 3859
wochen ende</w> 3858
freun den</w> 3857
heli cop 3857
tur ned</w> 3855
balcon y</w> 3855
lo sen</w> 3854
ru ins</w> 3852
snow y</w> 3852
gi ves</w> 3851
e f 3850
to ps</w> 3849
graphi c</w> 3849
g ern</w> 3847
at ta 3846
tro pha 3846
tro phy</w> 3846
basketball spiel</w> 3846
practi ce</w> 3846
gr at 3845
po sing</w> 3844
ex er 3844
g ur 3840
ste el</w> 3840
la gen</w> 3838
albu m</w> 3833
o d 3832
va se</w> 3832
n ur 3824
beg le 3824
ein igen</w> 3820
scha ch 3818
ge off 3817
po st 3815
high way</w> 3815
rail way</w> 3815
th ers</w> 3814
con temporary</w> 3810
ex tra</w> 3808
heal thy</w> 3807
auf tritt</w> 3804
bi bli 3803
fahr zeug</w> 3802
kat zchen</w> 3802
a king</w> 3799
vie wed</w> 3797
je dem</w> 3794
gluck lichen</w> 3793
bild schirm</w> 3790
h ellen</w> 3789
me mber</w> 3787
wat ches</w> 3785
distri ct</w> 3785
inter net</w> 3784
chocol ate</w> 3782
da r</w> 3781
tradition elle</w> 3780
l auf</w> 3777
sti ft</w> 3776
regen schirm</w> 3776
e - 3775
au ge</w> 3772
poli zei</w> 3769
tri fft</w> 3768
jo b</w> 3767
web seite</w> 3766
clo sed</w> 3765
comm ander</w> 3764
tape te</w> 3764
sch wer 3763
vehi cles</w> 3760
i al</w> 3756
m ate</w> 3756
her um</w> 3756
gesch mu 3756
s ad</w> 3754
ru ral</w> 3753
u k</w> 3752
le gen</w> 3752
th ern</w> 3751
te ile</w> 3747
gr ill</w> 3746
hinter grund 3745
wil l 3744
uni form</w> 3744
relax ing</w> 3744
tro pfen</w> 3742
balk on</w> 3742
sommer lichen</w> 3738
mo o 3736
k is 3735
eigen t 3735
sp on 3732
ir ts</w> 3732
par king</w> 3731
la un 3730
pro gre 3730
inter national</w> 3730
vektor silhouette</w> 3729
call ed</w> 3728
p lo 3726
off en 3726
ge tran 3725
feuer we 3725
e ar</w> 3724
squ e</w> 3723
cli pping</w> 3720
rest ing</w> 3719
to m</w> 3718
wei l</w> 3718
gan g 3718
off enen</w> 3718
jour n 3717
m einen</w> 3714
sk irt</w> 3713
verwen den</w> 3712
al er</w> 3711
champion ship</w> 3711
we sten</w> 3709
e ds</w> 3708
e ast</w> 3707
vol le</w> 3707
tur ni 3706
fußball spiel</w> 3705
schran k</w> 3705
sho wn</w> 3704
over looking</w> 3704
mix ed</w> 3704
organisation sle 3703
horiz on 3698
crow ds</w> 3696
de ss 3695
ag es</w> 3695
glan zen 3695
pede stri 3695
cu st 3694
r ent</w> 3693
ba se</w> 3692
l k 3691
for ward</w> 3690
einfa ch</w> 3688
gy m</w> 3688
ver ste 3686
sk lei 3685
ten nis 3684
beoba chten</w> 3680
ho st</w> 3678
lin ed</w> 3678
flu ss 3678
hei m 3678
mp el</w> 3674
ru inen</w> 3672
ribb on</w> 3672
b and 3670
for t</w> 3670
con ne 3670
skiz ze</w> 3670
g arti 3669
einzi garti 3669
clou d</w> 3668
g ate</w> 3667
histor y</w> 3663
her aus 3661
sty les</w> 3661
exhi b 3660
gol dene</w> 3659
stor te</w> 3658
sch lei 3657
si de 3657
bu cht</w> 3657
we tter</w> 3657
hospit al</w> 3655
le g</w> 3653
co ol 3653
pre is</w> 3653
pul lover</w> 3651
a va 3650
zo gen</w> 3646
cust om</w> 3645
photograph y</w> 3644
gruß karte</w> 3644
shoo ting</w> 3642
wunder schone</w> 3639
ava il 3639
1 6 3635
le vel</w> 3635
grun er</w> 3635
go ver 3634
produ ct</w> 3633
hu hn 3630
whe at</w> 3628
nachbar schaft</w> 3628
den ti 3626
vol len</w> 3626
cock tail</w> 3624
an ten</w> 3623
de pict 3621
fin e</w> 3619
aus sieht</w> 3616
schla g</w> 3616
el te</w> 3615
wei t</w> 3612
kauf en</w> 3612
ein sam 3610
zu satz 3608
fru hen</w> 3608
nor d 3608
z ir 3607
avail able</w> 3606
gluck licher</w> 3605
bor der</w> 3605
klassi schen</w> 3604
lea ving</w> 3603
ro tes</w> 3602
ent wick 3601
sonnen brille</w> 3601
ge d 3600
pi an 3598
sa ys</w> 3598
1 7 3597
an y 3597
ie ty</w> 3596
sun light</w> 3596
t le</w> 3595
la wn</w> 3594
win zi 3592
o the 3591
z y</w> 3590
ru ht</w> 3590
rin ge</w> 3590
ation s 3588
feier tage</w> 3587
ne st</w> 3586
geri cht</w> 3586
gr and 3585
uni que</w> 3583
h ir 3582
hand y</w> 3582
amerikan ischer</w> 3582
ba sed</w> 3581
mir ror</w> 3581
h are</w> 3580
dire kt</w> 3580
st all</w> 3579
verla ssen</w> 3578
mu ssen</w> 3575
na hr 3573
poli zei 3573
ba gs</w> 3572
kon trol 3569
imp or 3567
la mp 3566
ge funden</w> 3566
bewe gt</w> 3564
por tr 3563
colo ur</w> 3563
schla gt</w> 3562
di g</w> 3561
to il 3561
el ten</w> 3560
fu ture</w> 3556
mo chte</w> 3556
bu d 3556
kunstl erin</w> 3556
bla ck 3555
l ten</w> 3554
silhouet ten</w> 3552
weihnach ten</w> 3550
brun nen</w> 3550
anti ken</w> 3549
bal d</w> 3548
ate mber 3548
trin ken</w> 3548
atember au 3548
il en</w> 3547
her de</w> 3545
con tro 3544
ff s</w> 3544
th re 3542
abstra kter</w> 3541
mu st</w> 3539
a cti 3535
ficti onal</w> 3535
se ts</w> 3532
tipp s</w> 3531
hal l</w> 3529
bere it 3529
ge farben 3528
spiel ers</w> 3528
wan de</w> 3528
dan n</w> 3528
ch al 3527
fin ish 3527
fan ta 3527
anti que</w> 3527
eg gs</w> 3523
graffit i</w> 3523
sen i 3522
mu tze</w> 3520
bibli othe 3520
g n 3519
su m 3518
theat re</w> 3518
zie gel 3517
foun tain</w> 3517
er ing</w> 3515
hei mat</w> 3515
thou se</w> 3515
cartoon- illustration</w> 3515
s af 3514
gol f 3513
ven ue</w> 3513
flow ing</w> 3512
tropha e</w> 3512
he it 3511
ein g</w> 3510
eng th</w> 3510
sch na 3509
de ity</w> 3509
ko mbin 3509
verand a</w> 3509
i sches</w> 3507
me chan 3504
sa iling</w> 3504
c r 3503
y er</w> 3503
te sten</w> 3499
be t</w> 3498
gluck liches</w> 3498
ck te</w> 3497
w on</w> 3491
gradu ation</w> 3491
le ad</w> 3490
tra vel</w> 3488
ex per 3488
- pop-kunstler</w> 3487
l unch</w> 3487
auf genommen</w> 3487
bl ur 3486
spie gel</w> 3486
quadr ati 3486
bu tt 3485
fru its</w> 3484
per spe 3483
illu min 3476
hat ten</w> 3475
po t</w> 3473
unter nehmen</w> 3473
tur i 3473
ne ck 3472
ba ch</w> 3471
e at</w> 3470
ven tion</w> 3469
person ality</w> 3468
genie ßt</w> 3468
le hr 3467
der ly</w> 3467
holz tisch</w> 3467
ci vil</w> 3462
za hl 3461
s .</w> 3460
t ation</w> 3459
ch ic</w> 3459
is st</w> 3457
schie ßt</w> 3456
helicop ter</w> 3456
fo ur 3452
bi er</w> 3452
zeit geno 3450
h it 3449
mar k</w> 3448
silhouet tes</w> 3448
l ernen</w> 3446
lo st</w> 3444
i um</w> 3443
ver bin 3443
n a</w> 3441
v ac 3440
si des</w> 3440
kar ten</w> 3440
bede u 3440
an zu 3439
g - 3437
ar t 3433
de velop 3433
hub schrau 3433
par a 3431
war men</w> 3431
biologi scher</w> 3429
st itu 3427
verkauf t</w> 3425
libr ary</w> 3422
bur ning</w> 3420
con cre 3419
han ger</w> 3419
su ch</w> 3416
bar n</w> 3415
blon de</w> 3415
kla ssen 3414
wett bewer 3414
concre te</w> 3414
prasen tiert</w> 3413
four th</w> 3413
w ent</w> 3412
w hole</w> 3412
pres ent</w> 3412
il y</w> 3409
sa w</w> 3409
fru chte</w> 3409
metalli c</w> 3407
men ade</w> 3406
zeitgeno ssi 3406
ten t</w> 3405
eleph ant</w> 3405
gall ery</w> 3405
pro menade</w> 3403
presen ts</w> 3403
herbst lichen</w> 3401
f lat 3400
ei sen 3400
cle an</w> 3398
feuerwe hr 3397
ti e</w> 3396
se es</w> 3396
w ers</w> 3392
mo gen</w> 3392
du sk</w> 3392
b ers</w> 3388
smo ke</w> 3387
k rie 3386
g on</w> 3386
fa r</w> 3384
be sit 3383
sol l</w> 3383
on ist</w> 3382
tra ck</w> 3382
a ged</w> 3380
de te</w> 3380
grun ge</w> 3380
dri ver</w> 3380
he iten</w> 3379
ge form 3377
or n 3376
flug hafen</w> 3375
dis cu 3374
in gre 3373
si cher</w> 3373
groß te</w> 3371
organisationsle iter</w> 3370
me al</w> 3367
ation al</w> 3367
vers ary</w> 3367
anni versary</w> 3367
la y</w> 3366
schla ft</w> 3365
o st 3361
ati ven</w> 3360
f eri 3359
ci l</w> 3358
hei ß 3357
eigen en</w> 3356
refle ction</w> 3352
di ent</w> 3351
fre i</w> 3349
versch wo 3349
ac ry 3347
e mer 3343
auto motive</w> 3342
gal ax 3341
symbol e</w> 3341
ex tre 3340
shor ts</w> 3339
lich keiten</w> 3338
bu cher</w> 3337
fo cus</w> 3337
dri ve</w> 3337
den ken</w> 3336
ya cht</w> 3336
re l</w> 3334
cli mb 3334
sag te</w> 3334
c ats</w> 3333
1 5 3333
el derly</w> 3333
ti es</w> 3331
ma g 3330
sh aring</w> 3329
le gs</w> 3327
wohn ungen</w> 3327
lacheln d</w> 3327
al pha 3326
tatowi erung</w> 3326
en ed</w> 3325
g ten</w> 3324
d it 3323
be cken</w> 3321
sand y</w> 3321
schneebedeck ten</w> 3321
gh ing</w> 3320
h its</w> 3319
pu tting</w> 3319
rei chen</w> 3318
oran gefarben 3317
pre siden 3315
mar ri 3314
pa ck</w> 3313
fla schen</w> 3313
hol en</w> 3313
sk ate 3311
shin e</w> 3311
f it 3310
sp lat 3310
re lea 3309
schu ler</w> 3309
p on 3308
er ed</w> 3308
an ten 3308
il ity</w> 3308
mi sche</w> 3308
tur es</w> 3308
verla sst</w> 3306
s band</w> 3305
a gen 3305
st ati 3305
g gy</w> 3304
it y 3303
b bles</w> 3302
lo ts</w> 3301
lie gen</w> 3301
kt u 3300
pa ss 3299
sti schen</w> 3297
gluck lich</w> 3295
blu h 3294
stei gen</w> 3294
mou th</w> 3293
reg al</w> 3292
vi ctory</w> 3289
mar ke</w> 3289
it es</w> 3288
kosten los</w> 3287
br ing</w> 3286
wan n</w> 3286
produ cer</w> 3286
bron ze</w> 3284
compo ser</w> 3284
k ni 3279
vi si 3277
cu tting</w> 3277
de st</w> 3276
sa al</w> 3276
ru stic</w> 3275
mon o 3275
t wo</w> 3274
fu gen</w> 3274
hochzeit sklei 3273
ste mpel</w> 3271
klei det</w> 3271
pie ces</w> 3270
auto bahn</w> 3269
glu h 3269
offi cial</w> 3266
kl aren</w> 3262
schwi mmt</w> 3262
ad mini 3261
progra mm</w> 3261
bau ten</w> 3260
akte ur</w> 3260
bil det</w> 3258
e state</w> 3257
ni chts</w> 3257
re ception</w> 3256
h in</w> 3255
ball s</w> 3252
wel le</w> 3252
ab schluss 3251
thou gh</w> 3250
geschen k</w> 3248
v ation</w> 3247
ne bli 3246
perfor mer</w> 3246
bibliothe k</w> 3246
we ars</w> 3245
tou ch</w> 3245
a s 3243
lo vely</w> 3242
con si 3242
kit ten</w> 3242
bewol kten</w> 3241
cru ise</w> 3240
vi a</w> 3239
kat eg 3239
me mor 3238
fa c 3237
n d</w> 3236
teen age</w> 3236
eri schen</w> 3235
elegan t</w> 3233
ei sho 3232
tech no 3232
sti mm 3231
gan ze</w> 3231
sand strand</w> 3230
play ed</w> 3229
schlu ss</w> 3229
gui de</w> 3229
hin zu 3228
ar te</w> 3227
tr ying</w> 3224
bi g 3224
tan zer</w> 3223
e ding</w> 3221
cour se</w> 3220
admini str 3220
ei l</w> 3219
audien ce</w> 3219
ba by 3217
s ne 3216
v s</w> 3215
entfer nt</w> 3215
ruck seite</w> 3214
parti ci 3213
er fin 3211
or ie</w> 3210
premi eren 3209
wor k 3209
pla ces</w> 3207
sonnen licht</w> 3206
b ten</w> 3205
a p 3203
be ard</w> 3203
da mit</w> 3202
li ste</w> 3201
no vel 3201
1 0</w> 3200
illustr ations</w> 3200
br and 3200
ur ban</w> 3199
lich em</w> 3198
with in</w> 3198
einfa che</w> 3197
visit ors</w> 3197
fruh lings 3196
in es</w> 3195
pro mi 3195
isoli erten</w> 3194
gel be</w> 3193
sky scra 3192
ro r 3190
p ile</w> 3189
f lei 3187
zen tr 3187
whe el 3187
bott les</w> 3187
b on 3186
k in</w> 3185
got theit</w> 3185
t on</w> 3184
se iten</w> 3183
gr and</w> 3183
kla sse</w> 3183
e p 3181
aben dessen</w> 3180
angel es</w> 3180
o b</w> 3179
p et 3179
mehr ere</w> 3178
re ve 3173
su spen 3173
li sten 3171
v s.</w> 3168
sta un 3168
musi cian</w> 3167
novel ist</w> 3166
bot tom</w> 3165
nach thi 3164
cat ch</w> 3164
wor kers</w> 3163
exp lor 3163
lieb lings 3162
la ger 3160
alle in</w> 3160
f es</w> 3159
spei se 3159
patter ns</w> 3159
ge spra 3157
r ein 3156
oran gen</w> 3156
hor en</w> 3155
donner stag</w> 3155
ma j 3154
re cor 3153
ur auffuhrung</w> 3153
b lin 3152
pp t</w> 3152
dan cer</w> 3150
stun ning</w> 3150
chi cken</w> 3149
je mand</w> 3147
writ ing</w> 3146
cla ss 3145
d dy</w> 3144
fa ces</w> 3144
tur ns</w> 3144
strei fen</w> 3144
allgem eine</w> 3144
da mp 3143
the me</w> 3143
gu te</w> 3143
hun des</w> 3143
lk w</w> 3143
au se</w> 3142
supp ort</w> 3142
impor tan 3142
op ti 3141
li c</w> 3140
m per 3139
perfor mt</w> 3137
priv at 3137
verschwo mm 3137
present ation</w> 3135
cam p</w> 3130
wolken krat 3130
stro m 3129
colo ur 3126
some one</w> 3126
ho h 3125
fi ed</w> 3125
hel fen</w> 3125
rou te</w> 3124
hu tte</w> 3124
engli sh</w> 3124
bro ad 3123
st off</w> 3121
wand ern</w> 3121
der te</w> 3120
mor gend 3120
aga in</w> 3120
s am</w> 3119
g ging</w> 3116
mar ch</w> 3115
er ne</w> 3114
sitz end</w> 3114
l y 3113
um gebung</w> 3113
stand ort</w> 3113
tan z 3109
abstra kten</w> 3108
eisho ck 3108
bil den 3107
servi ce</w> 3105
ligh ting</w> 3102
se tzen</w> 3101
poin ting</w> 3100
a stron 3099
di sku 3099
dunkl em</w> 3099
zeit ra 3098
inspi r 3097
s wa 3095
n arrow</w> 3095
p el 3095
le eren</w> 3095
enter tain 3095
it ali 3093
le ts</w> 3093
l ers</w> 3092
cor al</w> 3092
en vi 3091
shi ps</w> 3091
fro zen</w> 3090
no thing</w> 3090
b old</w> 3087
um p</w> 3085
rau m 3085
ck ten</w> 3084
the med</w> 3084
p hi 3083
lo ad</w> 3082
bl it 3080
bie tet</w> 3079
vorder grund</w> 3079
riesi gen</w> 3079
car ds</w> 3078
musi ker</w> 3077
fel d 3077
de ten</w> 3076
ro bo 3074
win kel</w> 3074
qu ality</w> 3074
rei se</w> 3074
k am</w> 3073
wi ssen</w> 3073
go th 3072
li es</w> 3069
ri ce</w> 3069
exhib ition</w> 3069
li ps</w> 3068
militar komm 3068
sp run 3067
u ally</w> 3066
luxur i 3066
sa gen</w> 3065
produ ction</w> 3065
supp or 3065
modern es</w> 3064
ag o</w> 3063
kat zen</w> 3063
schließ lich</w> 3063
neu er</w> 3062
pati o</w> 3062
schei be</w> 3061
schwarz es</w> 3060
z itat</w> 3058
di ge</w> 3058
su ße</w> 3058
hi g 3056
le ere</w> 3054
po wer 3054
fuß ball</w> 3054
jub elt</w> 3054
a pfel</w> 3051
f its</w> 3051
la bel</w> 3050
be am 3050
wel pe</w> 3047
b te</w> 3045
t ings</w> 3045
me ter</w> 3044
gar ette</w> 3042
blur red</w> 3042
sch lange</w> 3040
fi ktion 3039
astron au 3038
sch ur 3037
geb ra 3037
stra ight</w> 3035
g it 3033
zwe ite</w> 3033
s wing</w> 3032
vor stellung</w> 3032
ent ly</w> 3031
betra chtet</w> 3031
var iety</w> 3030
rou ght</w> 3029
mittwo ch</w> 3029
sta ined</w> 3028
har d- 3028
nam en</w> 3028
re mo 3026
eti ket 3025
ro n 3024
fin an 3024
ga ther 3024
shin y</w> 3022
fel s 3021
p tu 3019
photograp her</w> 3019
ra der</w> 3018
ex pe 3017
c ally</w> 3016
con stitu 3015
ser ved</w> 3015
sa ve</w> 3014
ac com 3014
sich er 3014
gezeich net</w> 3014
o es</w> 3012
wer be 3012
wal d 3010
por ch</w> 3010
celebr ating</w> 3010
so lar</w> 3008
bre ad</w> 3008
s elling</w> 3007
er - 3007
lo ck 3007
stu dy</w> 3007
dramati c</w> 3006
ri pe</w> 3005
fo li 3005
ce ss 3003
que en</w> 3000
colour ful</w> 3000
dec or</w> 2999
st op 2998
ra cing</w> 2997
land straße</w> 2996
weiß - 2995
accom mod 2995
do or 2994
de cken</w> 2991
pen sive</w> 2990
new spa 2990
vi erten</w> 2989
her r 2989
min i</w> 2989
uber ra 2988
s ly</w> 2987
spiel e</w> 2986
lau b</w> 2986
ste ad</w> 2985
e moti 2984
se arch</w> 2984
the ma</w> 2984
aus wahl</w> 2981
cre ative</w> 2981
decor ations</w> 2981
comple te</w> 2981
al most</w> 2979
hei ght</w> 2979
transpar ent</w> 2979
1 2 2978
hu sband</w> 2978
l ength</w> 2976
national flagge</w> 2976
ex ten 2975
plan eten</w> 2975
einfa chen</w> 2974
m b</w> 2973
st in 2973
bu y</w> 2967
bau t</w> 2966
re ad</w> 2964
stu cke</w> 2964
fore ground</w> 2964
za hlen</w> 2963
goth ic</w> 2963
dra w</w> 2961
st et</w> 2960
ad or 2959
wel pen</w> 2959
ele ment</w> 2958
present ed</w> 2957
har ve 2956
trau m</w> 2956
fre e 2954
pian o</w> 2953
k ette</w> 2952
or ch 2951
cour t</w> 2951
abend dammerung</w> 2951
cup cakes</w> 2951
th s</w> 2950
fri sche</w> 2950
o par 2949
spo t</w> 2948
for ce</w> 2946
hinter grun 2944
teil t</w> 2944
haupt stadt</w> 2944
al one</w> 2943
schil d 2943
g lau 2941
in vention</w> 2941
geschafts frau</w> 2940
pr o</w> 2940
an t 2938
ne u</w> 2938
residen tial</w> 2938
illustr ationen</w> 2937
tat too 2937
wel come</w> 2936
da ma 2935
ver gan 2933
wa sch 2932
we iter</w> 2932
sta hl 2932
kan al</w> 2931
k au 2930
hubschrau ber</w> 2929
wer ke</w> 2928
won der 2928
k n 2927
mittel alter 2927
promin ente</w> 2926
fa ir 2925
ama zing</w> 2925
- rock-kunstler</w> 2922
hn en 2922
gra u</w> 2921
geschafts leute</w> 2921
st ung</w> 2920
gra s 2920
wel che</w> 2920
el e</w> 2917
par ish</w> 2916
dri ves</w> 2916
pra sent 2916
schmu ck</w> 2916
ter min 2915
bewe gen</w> 2915
iso metri 2914
sh aus</w> 2913
refle kti 2912
nachthi mmel</w> 2911
sin ce</w> 2910
bo dies</w> 2908
soldi er</w> 2908
rei cht</w> 2907
wach st</w> 2907
modi scher</w> 2906
wor ds</w> 2905
ballo on</w> 2904
rei fen</w> 2903
kat ur</w> 2903
tan k</w> 2903
stron g</w> 2903
n ungen</w> 2902
gar dens</w> 2902
t ungen</w> 2901
sa y</w> 2901
tan zen</w> 2901
gh ts</w> 2900
lan des</w> 2898
il er</w> 2896
in stru 2895
besu ch</w> 2895
flie sen</w> 2895
5 0 2894
la s</w> 2894
mon tag</w> 2893
ki es</w> 2893
fruh stuck</w> 2893
ri des</w> 2890
kor per</w> 2890
wir t 2889
kari katur</w> 2889
um ge 2887
arri ving</w> 2887
can al</w> 2887
fabri c</w> 2886
al lo 2885
mi ssion</w> 2885
perfe kt</w> 2884
za hn 2879
re su 2878
milli onen</w> 2877
y et</w> 2876
dre ht</w> 2876
ligh thouse</w> 2876
wre ath</w> 2876
pre i 2874
ent worfen</w> 2873
wa it</w> 2872
schu tz 2872
haus ern</w> 2872
ri sing</w> 2871
home page</w> 2871
prei stra 2871
pa ssi 2870
mor gens</w> 2869
skul l</w> 2868
tra ctor</w> 2867
app ears</w> 2867
sum mit</w> 2865
or d 2862
pa pier 2862
mat eri 2862
lar gest</w> 2861
mess age</w> 2860
wei zen 2857
handgezeich nete</w> 2855
in se 2854
flo ck</w> 2854
rain y</w> 2854
mi kro 2852
gal erie</w> 2851
er staun 2850
war um</w> 2850
lich tern</w> 2850
cli ff</w> 2849
de ci 2848
at o 2847
blu ten 2847
gi raff 2846
mode - 2846
l ein 2843
in ten 2843
tr unk</w> 2842
ga ther</w> 2842
i red</w> 2841
gr y</w> 2841
el ing</w> 2839
be dro 2838
industri al</w> 2838
bud get</w> 2837
me sse</w> 2835
lea ds</w> 2835
sou l</w> 2835
spo tted</w> 2835
me die 2834
stei gt</w> 2834
fahrzeu ge</w> 2834
blan k</w> 2833
medie val</w> 2832
fest tag</w> 2830
al t</w> 2829
teen ager</w> 2828
spee ch</w> 2828
wand er 2827
we g 2826
hin auf</w> 2826
net tes</w> 2826
fo ku 2825
al ist</w> 2823
sat ell 2823
charak ter</w> 2823
art work</w> 2823
e te</w> 2821
pal a 2821
f ert</w> 2819
e du 2818
r es</w> 2818
e hr 2816
ur ban 2815
mi ght</w> 2815
comp let 2815
gele gen 2815
w ell 2814
ver tei 2813
stri ped</w> 2812
ver schne 2809
we ge</w> 2809
tra v 2809
her vor 2809
park platz</w> 2809
t ile</w> 2808
st off 2807
prepar ing</w> 2807
wor n</w> 2806
mei sten</w> 2804
gepar kt</w> 2803
u ten</w> 2802
v at 2802
prin ted</w> 2802
hinter hof</w> 2801
lacheln den</w> 2800
swe ar</w> 2798
menschen massen</w> 2798
ge zeigt</w> 2796
su bur 2796
finish ed</w> 2794
u ses</w> 2792
make up</w> 2791
in stead</w> 2790
gover nment</w> 2790
neu e 2789
e qui 2788
isoli erte</w> 2785
le opar 2783
gra phy</w> 2783
- symbol</w> 2782
c el 2782
to pf</w> 2781
ar m 2780
ge fa 2780
d ungen</w> 2778
lo bby</w> 2778
in cre 2777
medi cal</w> 2776
stu r</w> 2775
dunkel heit</w> 2775
clo thing</w> 2773
meister schaft</w> 2773
an lage</w> 2768
t ol 2767
stra hl 2767
milli on</w> 2767
tech ni 2767
wa hl 2766
class room</w> 2766
mi st</w> 2765
fo under</w> 2765
bru sh</w> 2765
uberqu eren</w> 2765
bess er</w> 2764
u - 2763
gre en 2762
sk i</w> 2761
voll stan 2760
u tion</w> 2759
in y</w> 2759
li st</w> 2759
be cher</w> 2759
me er 2759
ko ffer</w> 2758
hea ds</w> 2758
schla g 2757
plu s</w> 2757
tit led</w> 2756
feri en 2756
ti gt</w> 2753
vac ation</w> 2753
er stes</w> 2752
tri bu 2752
enga gement</w> 2752
ereig nis</w> 2752
ve ment</w> 2751
sy n 2749
cab in 2748
co mmer 2747
ta r</w> 2746
refle cted</w> 2746
ch lich</w> 2745
den t</w> 2745
w en</w> 2744
ex pre 2744
pfer de 2743
person al</w> 2743
to p- 2742
ca p</w> 2742
p ause</w> 2741
re itet</w> 2740
ten den</w> 2740
li on</w> 2739
ir on</w> 2738
lei cht</w> 2738
eishock ey 2738
wor t</w> 2737
steh end</w> 2736
lebensmitt eln</w> 2736
rosafar benen</w> 2734
wei de</w> 2733
an ts</w> 2732
leben s 2732
po ssi 2731
hi mm 2731
ren nt</w> 2731
uberqu ert</w> 2731
umar mt</w> 2731
begin nt</w> 2730
schmetter lin 2730
mo tor</w> 2729
an hanger</w> 2727
ka pu 2727
su chen</w> 2726
lear n</w> 2726
zwe i</w> 2725
h d</w> 2724
we t</w> 2724
motor rad</w> 2723
sa ck</w> 2721
fri sch</w> 2719
pump kin</w> 2719
vor bei 2718
ra mi 2716
ge fro 2716
geb or 2716
schn ur 2716
ta gen</w> 2714
sur pri 2714
at ors</w> 2712
vent ure</w> 2712
passen gers</w> 2712
depict ing</w> 2709
wi ssen 2708
bar o 2707
edu c 2707
e k</w> 2706
fruh ling 2705
ter race</w> 2703
mit tage 2703
k r 2702
fuß e</w> 2701
coo kies</w> 2701
t aus 2700
j ump</w> 2700
be wohn 2700
er wachsen 2699
fe eding</w> 2698
ex c 2698
bri dal</w> 2698
tele vision</w> 2698
py rami 2698
se eing</w> 2697
fen ster 2697
dien stag</w> 2697
sch w 2696
co mb 2696
soc cer 2696
displa yed</w> 2695
drin ks</w> 2694
et ten</w> 2693
fahr t 2693
g as</w> 2692
flugzeu g 2692
p an</w> 2691
gra iny</w> 2691
net z</w> 2691
men swear</w> 2690
holz ernen</w> 2690
begin n</w> 2689
schlei fe</w> 2689
1 4 2688
me et</w> 2688
for mal</w> 2688
zi eren</w> 2688
accommod ation</w> 2687
ra bb 2686
in ing</w> 2685
schwe ster</w> 2684
australi an</w> 2682
f s</w> 2681
a ktu 2680
ku sten 2680
gren ze</w> 2680
fel si 2679
nie der 2679
tren dy</w> 2679
m on</w> 2676
er halten</w> 2674
regen bogen</w> 2674
v an</w> 2673
spiel zeug</w> 2673
t ul 2671
nah m</w> 2669
vektor kunst</w> 2669
engin e</w> 2669
gel b</w> 2668
komp onist</w> 2668
commer cial</w> 2668
mi cro 2667
dro ne</w> 2667
um ri 2666
flu gel</w> 2666
ho o 2664
itt ed</w> 2664
bla sen</w> 2663
and eli 2662
tat en</w> 2662
ffe l</w> 2662
ck i 2661
g on 2660
pf lu 2660
erfin dung</w> 2660
importan t</w> 2660
fu tter 2659
f eln</w> 2658
it or</w> 2658
musik video 2657
spre chen</w> 2657
mono chro 2657
f ying</w> 2654
gra zing</w> 2654
scre en 2653
kis s</w> 2651
a ch 2650
re ef</w> 2650
man u 2650
u en</w> 2649
do ctor</w> 2649
shoo t</w> 2648
marti al</w> 2648
klassen zimmer</w> 2648
lo tu 2647
bur g</w> 2647
z elt</w> 2645
fe uch 2644
lan gu 2644
shin ing</w> 2644
p te 2643
k lo 2642
ste am</w> 2641
itar be 2641
tz te</w> 2641
hal lo 2640
cher ry</w> 2640
k a</w> 2639
swe ater</w> 2639
bo gen 2638
im pre 2637
holi days</w> 2637
o sau 2636
fan gt</w> 2636
gel ber</w> 2635
e ag 2634
wit ter 2634
app ar 2634
compu ter 2634
en des</w> 2633
mil k</w> 2633
gebra cht</w> 2633
k eln</w> 2632
nam ed</w> 2632
pan ts</w> 2632
fun ction</w> 2631
rau ch</w> 2630
kost um</w> 2630
di men 2628
din osau 2628
v ated</w> 2627
ou sly</w> 2627
ho ur</w> 2626
hei ßen</w> 2626
an kunft</w> 2625
di ger</w> 2625
we ch 2625
pre gn 2625
smo o 2625
s eln</w> 2624
n al</w> 2624
2 nd</w> 2624
sp at 2623
riesi ge</w> 2623
elefan ten</w> 2623
sh are</w> 2620
ga b</w> 2620
cy cli 2619
schwarz- weiß- 2619
bis schen</w> 2619
atmosp hare</w> 2619
par ts</w> 2618
fe der 2617
gh t 2617
gebir gs 2615
medi zin 2614
sprin gen</w> 2614
wi cht</w> 2613
allgem einer</w> 2613
reali stic</w> 2613
men tal</w> 2612
po uring</w> 2611
c ities</w> 2610
sal on</w> 2609
a sp 2608
archite ct</w> 2607
, 000</w> 2606
hub sche</w> 2606
be waff 2605
me da 2605
star ting</w> 2605
nie dlichen</w> 2605
kateg orie</w> 2604
t z</w> 2601
tan sicht</w> 2601
black board</w> 2601
bor d</w> 2599
climb ing</w> 2599
te mper 2598
ruck ansicht</w> 2598
ad ul 2597
gemal t</w> 2597
char ac 2595
sch op 2594
mon at</w> 2594
coast al</w> 2594
p sy 2593
sk el 2593
stra w 2592
gru ßt</w> 2592
leucht turm</w> 2592
at ure</w> 2590
ei ch 2590
se par 2590
ster n 2589
tal k</w> 2589
t lich</w> 2587
ne y</w> 2586
jah res 2586
mahl zeit</w> 2586
offent lichen</w> 2585
pen cil</w> 2584
ke ys</w> 2583
zeich entri 2583
ausge stellt</w> 2582
versu chen</w> 2582
back yard</w> 2581
qu al 2581
lat est</w> 2581
z te</w> 2580
su r</w> 2580
sk arte</w> 2580
roy al</w> 2580
neck lace</w> 2578
c ran 2577
k s 2576
groß buchstaben</w> 2575
down town</w> 2574
ge s 2573
aus zu 2572
feat ured</w> 2572
charak ter 2572
fen stern</w> 2571
m und</w> 2570
ste u 2570
fahr e</w> 2570
vor fuhrung</w> 2570
entspan nt</w> 2569
schu tt 2568
be hand 2567
se pte 2567
brau chen</w> 2567
di vision</w> 2566
to y</w> 2566
car t</w> 2565
na vy</w> 2564
tit el</w> 2563
langsam er</w> 2563
acti v 2563
ct ly</w> 2562
lea ve</w> 2562
mittage ssen</w> 2562
wor den</w> 2561
lau ghing</w> 2561
cli ffs</w> 2560
wahr schein 2559
listen ing</w> 2559
re cyc 2558
verkehr s 2558
cal m</w> 2557
atemberau ben 2557
sp ru 2555
ban kno 2553
ge ous</w> 2552
le bt</w> 2552
telef oniert</w> 2552
d ly</w> 2551
jahr lichen</w> 2551
tradition eller</w> 2551
vi du 2550
indi vidu 2550
unter schied 2549
fußball - 2549
gel a 2547
turn halle</w> 2547
p lau 2546
au gu 2545
far mer</w> 2545
ster nen</w> 2545
ar ds</w> 2544
ta xi</w> 2544
towar d</w> 2543
val ent 2543
da von</w> 2542
eroff nung</w> 2542
intere sting</w> 2542
super model</w> 2541
be come</w> 2540
stie fel</w> 2540
travel ing</w> 2540
inspir ation</w> 2540
in ve 2539
blei ben</w> 2538
j ag 2537
hau sti 2537
farben en</w> 2537
la ger</w> 2536
ge strei 2536
beleuch tung</w> 2536
zeichentri ck 2536
che mi 2534
mu sch 2533
ad ed</w> 2533
ke hr 2533
ki ssen</w> 2533
organisation s 2533
mach ine</w> 2533
en er</w> 2532
fel der</w> 2532
ma sk</w> 2531
sp in 2530
pf an 2530
cen tral</w> 2530
weit ere</w> 2530
photograph s</w> 2529
kir sch 2529
roa ds</w> 2529
newspa per</w> 2528
la ying</w> 2527
de in</w> 2525
cow boy</w> 2525
z one</w> 2524
th in</w> 2524
gro unds</w> 2523
spiel ern</w> 2522
jah re 2522
sp rit 2521
kunst werk</w> 2521
schnei den</w> 2520
- illustration</w> 2519
ver g 2519
glei ch 2519
pla ced</w> 2518
politi kers</w> 2518
wol len</w> 2518
den im</w> 2517
ge sam 2515
ha pp 2515
intere ss 2515
schiff es</w> 2515
fol k- 2513
quali fi 2513
hard- rock-kunstler</w> 2513
sig ni 2512
bur ger 2512
gal a</w> 2512
cal en 2512
atmosp here</w> 2511
1 st</w> 2510
la ven 2510
pi c 2510
car e</w> 2508
comm on</w> 2508
a di 2506
ar ly</w> 2506
sa il 2506
re ss</w> 2505
pro file</w> 2505
produ cts</w> 2505
weibli che</w> 2505
kti ve</w> 2504
e ment</w> 2503
con fe 2503
op ened</w> 2503
ser ve</w> 2501
hel met</w> 2501
app ro 2501
ar men</w> 2500
er o 2499
en gel 2499
sh irts</w> 2499
besit zer</w> 2499
p fe 2497
religi on</w> 2496
ik one</w> 2496
sk in</w> 2495
country -kunstler</w> 2495
r ung</w> 2494
sch ein</w> 2494
mo bel</w> 2494
vol le 2494
ein schließlich</w> 2493
be festi 2492
star ted</w> 2492
sche une</w> 2492
reis en</w> 2490
mar kt 2489
ro ws</w> 2488
li er</w> 2488
ne tz 2486
d ated</w> 2484
kreu z</w> 2483
fis her 2482
baum stamm</w> 2481
mor gen 2480
lie f</w> 2479
me eres</w> 2478
sal at</w> 2477
con tra 2476
bron ze 2476
rais ed</w> 2475
son s</w> 2474
bou ght</w> 2474
la mp</w> 2473
sle ep</w> 2472
shel f</w> 2472
bren nen 2472
herz form</w> 2471
cent ly</w> 2470
schlo ss</w> 2470
hallo ween</w> 2469
mon u 2468
dre ie 2468
li sting</w> 2467
num bers</w> 2467
in mitten</w> 2466
sta y</w> 2465
grau e</w> 2464
versamm eln</w> 2464
zu taten</w> 2463
spe ed</w> 2463
du sche</w> 2462
so li 2461
mat erial</w> 2460
horiz on</w> 2460
ch ern</w> 2459
di gt</w> 2459
to dd 2459
tran sport</w> 2459
rugby -spieler</w> 2459
sch lan 2458
squ ir 2458
inn ere</w> 2458
schmetter ling</w> 2458
preistra ger</w> 2458
pa sst</w> 2457
a pf 2456
er innen</w> 2456
spar kl 2456
roll stuhl</w> 2456
se cre 2455
vor ne</w> 2455
alter en</w> 2455
tradition elles</w> 2455
diam ond</w> 2455
ge tragen</w> 2454
w ish</w> 2453
ch el 2453
groß ten</w> 2453
lux u 2453
pain tings</w> 2452
uns eren</w> 2452
mu ral</w> 2451
archite kt 2451
dien ts</w> 2451
gelb em</w> 2451
an no 2450
m itarbe 2449
fa cing</w> 2449
blau es</w> 2447
christ liche</w> 2447
pregn ant</w> 2446
every thing</w> 2445
reze pt</w> 2445
b eln</w> 2443
re cently</w> 2443
ho tels</w> 2443
gor geous</w> 2443
che ss</w> 2442
tur ning</w> 2440
cre w</w> 2440
zen s</w> 2440
re de</w> 2438
bun gs 2435
thou ght</w> 2435
p pers</w> 2434
ti l</w> 2434
prepar es</w> 2434
gefro ren 2434
z eln</w> 2433
maj or</w> 2433
k ru 2432
pal ette</w> 2431
thin king</w> 2431
kranken haus</w> 2431
lich t 2430
ge won 2428
hau p 2428
pi c</w> 2426
m ol 2425
gu e</w> 2425
zie h 2425
nach sten</w> 2423
fol gt</w> 2423
bul l 2423
tu ral</w> 2422
schnee flo 2422
for der 2421
ex pensive</w> 2421
immobil ien</w> 2421
be zir 2420
re vi 2419
publi k 2417
sch ar 2415
beruhm theit</w> 2414
ear lier</w> 2413
ki d</w> 2413
elemen te</w> 2413
moo red</w> 2413
peri o 2412
ra t</w> 2411
car e 2411
tit le</w> 2411
ga st</w> 2410
rol l</w> 2410
stra hlen</w> 2409
war ts</w> 2408
seiten ansicht</w> 2408
zeitra ffer</w> 2408
se at</w> 2406
den er</w> 2406
surroun ding</w> 2406
t sche</w> 2405
per ched</w> 2405
ca si 2405
fri sur 2405
fri e 2404
spar ty</w> 2404
m als</w> 2403
fi schen</w> 2403
sun shine</w> 2403
stun de</w> 2403
universit y</w> 2403
tour nee</w> 2402
rol ling</w> 2402
co ws</w> 2401
sta at 2401
auf zu 2401
mask e</w> 2401
kli ppe</w> 2400
bil des</w> 2398
buil der</w> 2398
quar ters</w> 2397
cro wn</w> 2396
que sti 2396
frisur en</w> 2396
ow ner</w> 2395
fa ir</w> 2394
ri o 2393
sk ette</w> 2393
kreuz fahrt 2393
le ad 2391
ne ck</w> 2389
d at 2388
hei m</w> 2388
hub schen</w> 2388
pick ni 2388
hel m</w> 2387
co ins</w> 2386
men s</w> 2386
bil den</w> 2386
mu g</w> 2385
tattoo s</w> 2385
wra pped</w> 2384
st ones</w> 2383
ver mi 2383
train ings</w> 2383
sam en</w> 2383
har bor</w> 2383
s hal 2382
ber ges</w> 2380
to ten</w> 2379
ma y 2378
klei der 2377
komp le 2377
s w 2376
ro of 2376
hi m 2376
bli ch</w> 2376
gu lar</w> 2375
oran gen 2375
si chten</w> 2374
ele ss</w> 2374
ex o 2374
the dr 2373
cor por 2373
ingre dients</w> 2373
sk in 2371
gan z</w> 2371
an de 2370
wor ker</w> 2370
flugzeu gs</w> 2370
e del 2369
ci er</w> 2369
winter lichen</w> 2369
demon stran 2369
kin des</w> 2368
i kon 2367
ra dern</w> 2367
schach tel</w> 2367
lat er</w> 2366
stam p</w> 2366
snow fla 2365
der ed</w> 2364
teenag er 2364
komp let 2363
volle y 2362
ke pt</w> 2360
super market</w> 2360
sprun g 2360
he ben</w> 2358
sonnenunter gangs</w> 2358
butt on</w> 2358
fin al 2357
beruhm ten</w> 2357
appear ance</w> 2357
gi fts</w> 2356
sha de</w> 2356
bun ch</w> 2356
ha fen 2355
ar med</w> 2354
grun es</w> 2353
profe ssion</w> 2353
schn it 2352
ethni city</w> 2352
illumin ated</w> 2352
ak ers</w> 2351
and erer</w> 2350
coo king</w> 2350
ri ch</w> 2349
su gar</w> 2348
par ks</w> 2348
o pp 2347
an s 2346
su s</w> 2345
fri sur</w> 2345
calen dar</w> 2345
smo king</w> 2344
cand le</w> 2344
l one</w> 2343
mm ern</w> 2342
septe mber</w> 2338
r ally</w> 2337
an zahl</w> 2337
ru cke</w> 2337
kee per</w> 2337
demonstran ten</w> 2336
1 3 2335
re p 2335
prasent ation</w> 2335
k alten</w> 2334
demonstr ation</w> 2334
fac ility</w> 2332
or der</w> 2331
car ved</w> 2331
ke y 2331
cir ca</w> 2330
temp late</w> 2329
fi ght</w> 2327
tomat en</w> 2327
ti sch 2326
ess zimmer</w> 2326
a pri 2325
or ing</w> 2325
sand s</w> 2325
cock ta 2325
boo ten</w> 2324
gefu hl</w> 2324
wahrschein lich</w> 2324
an u 2323
ge ho 2323
su den</w> 2323
le aning</w> 2321
kleidungs stuck</w> 2321
m and 2318
fri sst</w> 2318
qu ite</w> 2317
pro blem</w> 2316
stu hle</w> 2316
alpha bet</w> 2316
el en</w> 2315
ver langsam 2315
entspan nen</w> 2315
tran spor 2314
mun zen</w> 2314
minimal i 2314
be se 2313
fotogra fen</w> 2313
bro t</w> 2312
gla mo 2311
ban ks</w> 2311
ka thedr 2311
c ub 2310
ba l</w> 2310
decor ation</w> 2310
b ath</w> 2309
le y</w> 2309
pop ul 2309
kli ppen</w> 2309
exper ien 2309
shar ed</w> 2308
wor ship</w> 2307
proje kt</w> 2307
west liche</w> 2307
cul tural</w> 2307
dess ert</w> 2307
giraff e</w> 2307
ge gend</w> 2306
colle ge- 2306
histor ical</w> 2305
kran z</w> 2305
pic ni 2305
ch allen 2304
be kommt</w> 2304
nor den</w> 2304
to ys</w> 2303
gemein sam</w> 2303
sel ten 2302
suspen sion</w> 2302
folk- rock-kunstler</w> 2302
cau ght</w> 2301
lat in</w> 2300
fotogra f</w> 2300
her unter 2299
kan in 2297
da zu</w> 2296
famil ien</w> 2296
dra l</w> 2294
ger in</w> 2293
bewe g 2293
bet on 2292
te e 2291
einkaufs zentrum</w> 2291
dollar s</w> 2291
be trie 2290
decor ating</w> 2290
gro w</w> 2289
war t</w> 2289
ca the 2289
mar ki 2289
run den</w> 2289
cathe dral</w> 2289
lo un 2287
po sters</w> 2287
fer ry</w> 2287
dar uber</w> 2286
ou gh</w> 2285
pre ss 2285
be e</w> 2284
kra ft 2284
cour ty 2284
comple x</w> 2283
d den</w> 2282
v ir 2282
p les</w> 2282
en ough</w> 2282
ad ded</w> 2282
me ter 2281
horiz ont</w> 2281
en es</w> 2280
mitt l 2280
zeich nungen</w> 2279
skel et 2279
mon key</w> 2278
journ alist</w> 2278
win kt</w> 2277
lan ger</w> 2276
pi ck</w> 2276
gewin n</w> 2276
kor allen 2275
a stro 2274
promi s</w> 2274
ev ents</w> 2273
wol f</w> 2273
every one</w> 2272
act ress</w> 2271
scar f</w> 2271
oldti mer</w> 2271
wheel chair</w> 2271
ie ur</w> 2270
ru les</w> 2269
we ges</w> 2269
orn ate</w> 2268
brau cht</w> 2267
19 6 2267
grafi sche</w> 2267
k ri 2265
o o 2265
la st 2264
schlu ssel</w> 2264
mode- woche</w> 2263
herren mode-woche</w> 2262
j e</w> 2261
schaf e</w> 2260
champag ne</w> 2260
langu age</w> 2260
mann schaft 2259
bur ger</w> 2259
leuch ten</w> 2259
r are</w> 2258
dre am</w> 2258
marri ed</w> 2258
hi p 2257
ki ck</w> 2257
tack le</w> 2257
besonder heit</w> 2255
ca sting</w> 2254
are as</w> 2254
verla ssen 2254
buch figur</w> 2253
bau ms</w> 2252
ster nen 2252
han geb 2251
s ung</w> 2250
rec ent</w> 2250
aus schnitt 2249
compet es</w> 2249
fel l</w> 2248
colo urs</w> 2248
colo ured</w> 2247
ho hle</w> 2246
hun de 2246
pati ent</w> 2246
r d</w> 2245
schi ed</w> 2245
u sual</w> 2244
ent schei 2244
stre cke</w> 2244
no ve 2242
b ung</w> 2241
ti red</w> 2241
ti de</w> 2240
is le</w> 2240
drin nen</w> 2240
p ment</w> 2239
cover ing</w> 2239
in i 2238
gen e</w> 2238
cy cles</w> 2238
glas ern</w> 2238
servi ert</w> 2238
pa ssen</w> 2237
ornam ents</w> 2237
tre ppen</w> 2236
hau t</w> 2236
hea ding</w> 2236
sp ro 2235
re ma 2234
5 0</w> 2233
mar ina</w> 2233
lon ely</w> 2233
thril ler</w> 2233
sho ps</w> 2232
clo se 2232
20 1 2232
t ale</w> 2231
u pper</w> 2231
re turn</w> 2231
ma ssive</w> 2231
act ually</w> 2231
sha pes</w> 2231
ruhi gen</w> 2231
o ms</w> 2230
ri ff</w> 2230
leucht end</w> 2230
suc cess 2229
o ft</w> 2228
si zed</w> 2228
sti sches</w> 2228
lehr er</w> 2228
bla u</w> 2227
hu geln</w> 2227
glo wing</w> 2227
wass ers</w> 2226
tea cher</w> 2226
con su 2225
sal ad</w> 2225
shoo ts</w> 2225
verla ssenen</w> 2224
aquar ium</w> 2224
ver offent 2222
fa ctory</w> 2222
hou t</w> 2222
komi sche</w> 2222
an nt</w> 2221
eg g</w> 2221
al ong 2220
sho wed</w> 2220
picni c</w> 2220
v as</w> 2219
ran de</w> 2219
kam pfen</w> 2219
along side</w> 2219
tr end</w> 2218
lie fer 2218
person en 2218
he u 2217
fol gen</w> 2217
enth ullt</w> 2217
ima ge 2216
.. ...</w> 2216
hangeb rucke</w> 2216
ri ses</w> 2215
ir e</w> 2215
deta iled</w> 2215
or te</w> 2214
sta pel</w> 2214
fa ct 2214
ob st</w> 2214
can vas</w> 2214
stei g</w> 2213
dra h 2212
gemu se 2212
nebli gen</w> 2212
eich horn 2212
inspiri ert</w> 2211
hand some</w> 2210
dan t</w> 2210
ei er</w> 2209
zu kunft</w> 2209
th um 2208
off net</w> 2208
braun en</w> 2208
h ul 2206
ci ous</w> 2206
ty p</w> 2206
amerikan ischen</w> 2206
langs am</w> 2206
courty ard</w> 2206
w ns</w> 2204
sto ck 2204
o ak</w> 2203
t an</w> 2202
cop y</w> 2202
gan gs 2200
fi x 2199
ed le</w> 2198
ho her</w> 2197
sk at 2197
to ber</w> 2196
rabb it</w> 2196
publik um</w> 2196
kathedr ale</w> 2196
blu m 2194
an gry</w> 2193
un it</w> 2193
re chten</w> 2193
mp f</w> 2193
hi king</w> 2192
geschafts mannes</w> 2192
ku hl 2191
kra wat 2190
begin nen</w> 2189
prepar e</w> 2189
squir rel</w> 2189
land er 2188
v als</w> 2187
over lay</w> 2187
kro te</w> 2187
einzi ge</w> 2187
we t 2186
- premiere</w> 2184
app roa 2184
fern se 2184
luxuri o 2184
wa gens</w> 2183
am ing</w> 2183
out line</w> 2183
tra cks</w> 2182
hel l</w> 2182
ken nen</w> 2181
sch wa 2177
schrift zug</w> 2177
ati ves</w> 2176
spra che</w> 2175
f and</w> 2174
leuch tet</w> 2174
thi ck</w> 2174
c ated</w> 2173
a p</w> 2173
li eren</w> 2173
ma chte</w> 2173
su it 2173
ligh t 2173
wal dern</w> 2172
mal er</w> 2172
welt karte</w> 2172
schrei ben</w> 2172
wa hlen</w> 2170
aquar ell 2170
todd ler</w> 2170
a do 2169
di ert</w> 2169
ra ther</w> 2169
schla gen</w> 2169
zei gte</w> 2168
tal ks</w> 2168
c ine 2167
lu pe</w> 2167
ter ed</w> 2167
bo y 2167
wei ght</w> 2167
ci se</w> 2167
e ve</w> 2166
ti onal</w> 2166
stat ement</w> 2166
scor e</w> 2166
com position</w> 2165
t- shirt</w> 2164
zu ge</w> 2163
gebau den</w> 2163
produ kte</w> 2163
d sch 2162
kro ne</w> 2162
down load</w> 2161
t iles</w> 2160
plat form</w> 2160
ro pe</w> 2159
of ten</w> 2159
mat te</w> 2158
gesich ts 2158
re tail</w> 2157
f loo 2156
arri ved</w> 2156
d ges</w> 2155
stri ch</w> 2155
archite kten</w> 2154
ent y</w> 2152
p it</w> 2151
aus gabe</w> 2151
ob st 2150
alter native</w> 2150
anno un 2150
cu e</w> 2149
grun der</w> 2149
19 5 2149
alisi ert</w> 2149
ati v</w> 2148
hin unter 2147
sch rit 2146
ati ver</w> 2146
bri cht</w> 2146
gluck wun 2146
wolkenkrat zer</w> 2146
se i</w> 2144
tran sport 2144
em blem</w> 2142
flei sch</w> 2142
stad tz 2141
do cu 2140
her aus</w> 2140
fra gen</w> 2140
geschen ke</w> 2140
bo und</w> 2138
foo ds</w> 2138
bei ge</w> 2138
le er 2137
neu gebor 2137
anim ated</w> 2137
a ssi 2135
kanin chen</w> 2135
di rt</w> 2133
au gen 2132
bi eren</w> 2132
administr ative</w> 2132
ali en</w> 2131
kur bis</w> 2131
schnee fall</w> 2130
schnei det</w> 2129
o hr 2127
in form 2127
whe els</w> 2127
eag le</w> 2127
t wi 2126
wir e</w> 2126
butter flies</w> 2126
ein satz</w> 2125
na ils</w> 2125
boo tes</w> 2125
tro du 2125
ver lie 2124
pu zz 2124
grat ul 2124
aus es</w> 2123
medi um</w> 2123
a sso 2121
di y</w> 2121
play ground</w> 2121
rol ler</w> 2121
s th 2120
or t 2120
pp ies</w> 2120
volk ern</w> 2120
c ate</w> 2119
go al 2119
ger a 2119
passen ger</w> 2119
farbenfro he</w> 2119
sta ff</w> 2118
inter est</w> 2117
dru ckt</w> 2117
kopf hor 2117
leopar d</w> 2117
at temp 2114
ko chen</w> 2114
ten der</w> 2114
geschen k 2113
ex peri 2112
klassi sche</w> 2112
tra ktor</w> 2110
sco pe</w> 2109
nation alen</w> 2108
b eine</w> 2107
ru b 2107
re hear 2106
politi cal</w> 2106
ger e 2106
nor thern</w> 2106
ks giving</w> 2106
p ru 2105
en s 2105
mi d 2104
spiel platz</w> 2104
ku sst</w> 2104
soccer spieler</w> 2104
sin k</w> 2102
ku he</w> 2102
k letter 2101
hau stur</w> 2101
con gratul 2100
mil es</w> 2100
do ku 2099
than ksgiving</w> 2099
festi ve</w> 2098
fischer boote</w> 2098
re al 2097
ph ilo 2097
golden er</w> 2097
soft ware</w> 2097
philo so 2097
a sten</w> 2096
au m</w> 2096
gr il 2096
schwarz- weiße</w> 2096
in trodu 2095
teil nehmer</w> 2095
schei ben</w> 2095
d ruck 2094
sch al</w> 2094
fi scher</w> 2094
p fla 2093
di r</w> 2093
rou g 2093
hoch wer 2092
sp rung</w> 2091
aquar ell</w> 2091
con ver 2090
stre ckt</w> 2090
gan gen</w> 2089
water mark</w> 2089
invit ation</w> 2088
b chen</w> 2087
mo sque</w> 2086
ku pp 2085
far m 2085
pra siden 2085
big gest</w> 2085
th row</w> 2084
schrei bt</w> 2084
kon tin 2083
door - 2083
a vo 2081
head phones</w> 2081
chee se</w> 2081
e e</w> 2080
s coo 2080
winter tag</w> 2080
fig uren</w> 2079
hand ge 2078
tt i</w> 2078
pl enty</w> 2078
li fe 2077
ho se</w> 2077
blo ck 2077
fischer boot</w> 2077
es stisch</w> 2077
krawat te</w> 2077
th roug 2074
ve ter 2074
bri ef 2074
throug hout</w> 2074
gesch rie 2073
ty pes</w> 2073
c alli 2072
gu ten</w> 2072
exer cise</w> 2072
wen iger</w> 2071
stam ps</w> 2071
schild krote</w> 2071
z ung</w> 2070
ke k 2070
panor amic</w> 2070
genu g</w> 2070
pala ce</w> 2070
dar an</w> 2069
vege tation</w> 2069
fla mmen</w> 2068
after party</w> 2068
cover s</w> 2067
belie b 2067
verschne iten</w> 2066
perspe ktive</w> 2065
s hr 2064
automobil industrie</w> 2064
samm elt</w> 2063
roman ti 2063
new ly</w> 2063
freund in</w> 2062
cabin ets</w> 2062
diagra mm</w> 2061
equi pment</w> 2060
ma ple</w> 2059
versu ch</w> 2059
head quarters</w> 2059
jahrhun der 2059
a sse</w> 2058
en try</w> 2057
de ckt</w> 2057
s ar 2056
organis men</w> 2056
wass ern</w> 2055
gesch ma 2055
gespra ch</w> 2055
lin ken</w> 2053
ep iso 2053
lacheln de</w> 2050
er enden</w> 2049
anti ke</w> 2049
farbi ge</w> 2049
mil ch</w> 2048
reno vi 2048
ma st</w> 2047
ne eds</w> 2046
dre ssing</w> 2046
rad fahrer</w> 2046
gi eren</w> 2045
unterstu tzung</w> 2045
sch einen</w> 2044
sau len</w> 2044
col um 2043
cho ose</w> 2043
astronau t</w> 2043
zie l</w> 2040
j et</w> 2039
scho ko 2039
contain er</w> 2039
revi val</w> 2039
in k</w> 2038
sta at</w> 2038
gra sen</w> 2038
basi c</w> 2038
gro ß</w> 2037
c is 2036
re pe 2036
wo hl</w> 2036
sit z</w> 2036
dra chen</w> 2036
ori es</w> 2035
regen wald</w> 2035
gescho ss</w> 2035
rol le</w> 2034
kopf es</w> 2034
bu bbles</w> 2033
fo ggy</w> 2033
sit u 2033
hol t</w> 2033
schn ell</w> 2033
19 .</w> 2033
hil ft</w> 2033
schoko la 2033
alter er</w> 2032
mo ves</w> 2031
poin ts</w> 2031
co w</w> 2030
ver lo 2030
re fer 2029
vier tel 2029
z y 2028
bemal ung</w> 2028
s eit</w> 2026
bu dd 2026
kur zen</w> 2026
langs ame</w> 2026
elekt ro 2024
blo cks</w> 2023
2 0</w> 2022
so cial</w> 2022
si mil 2021
wa shing</w> 2021
stie g</w> 2021
diagra m</w> 2021
verfu gt</w> 2021
si on 2020
dau er 2020
national park</w> 2020
schul ter</w> 2019
col lage</w> 2018
dru cken</w> 2018
emp lo 2018
win s</w> 2016
ad ler</w> 2016
or in</w> 2015
ra ys</w> 2013
lin ien 2013
attrakti ve</w> 2013
ur sprung 2012
a sk 2011
dsch un 2011
sk ies</w> 2010
back drop</w> 2010
pil o 2010
ru stik 2009
mann licher</w> 2009
tomat oes</w> 2009
qu iet</w> 2008
bloo ming</w> 2008
g ly</w> 2007
off nen</w> 2007
cheer ful</w> 2007
k rau 2006
hau ch</w> 2006
star ts</w> 2006
tan z</w> 2006
offi cers</w> 2006
foku s</w> 2005
k alli 2004
a u</w> 2004
f alli 2004
ha ften</w> 2004
pro mo 2004
he at</w> 2004
bl ing</w> 2004
ster ne</w> 2004
air line</w> 2004
baseball spiels</w> 2004
sold at</w> 2003
ar chen</w> 2002
sk am 2002
schil der</w> 2002
terra sse</w> 2002
effe ct</w> 2002
eisen bahn 2002
ol der</w> 2001
geb ie 2001
rou s</w> 2000
tan zt</w> 1999
ani mi 1999
glit z 1999
na il</w> 1998
mon archen</w> 1998
screen shot</w> 1998
presiden t</w> 1997
zi sten</w> 1996
yo ur 1996
bre aking</w> 1996
sem ble</w> 1995
au ßen</w> 1994
t one</w> 1993
e bene</w> 1992
cre ating</w> 1992
scri ption</w> 1992
fra ge</w> 1991
thou sands</w> 1991
tau cht</w> 1991
schwan g 1991
re min 1990
sch auf 1990
jun gle</w> 1990
wand ert</w> 1990
schul tern</w> 1990
fußgan ger</w> 1990
geschmu ckt</w> 1990
t ungs 1989
ei cht</w> 1989
ci ans</w> 1988
min u 1988
zer stor 1988
super markt</w> 1987
tru e</w> 1986
abge bildet</w> 1986
a isle</w> 1985
sie he</w> 1985
elect roni 1984
religio ser</w> 1984
wand erung</w> 1983
betra chten</w> 1983
car ries</w> 1982
figh ters</w> 1982
blo sso 1981
bie ten</w> 1981
speise saal</w> 1981
am a</w> 1980
w ly</w> 1979
la dies</w> 1979
k m</w> 1978
st ant</w> 1978
pa ig 1978
cam paig 1978
zit ro 1978
se ch 1977
fun kti 1977
confe tti</w> 1977
deta illi 1976
blan ket</w> 1976
etiket t</w> 1976
1 .</w> 1975
no tes</w> 1975
j anu 1974
mo m</w> 1974
ex tru 1974
hel le</w> 1974
ker ami 1974
histor ische</w> 1973
chal k</w> 1973
mei ster</w> 1972
verste ckt</w> 1972
charac ters</w> 1972
ge wasser</w> 1971
pf eil</w> 1970
organ ic</w> 1970
symbo li 1970
pla in</w> 1968
wer ing</w> 1968
gestal tung</w> 1968
m eines</w> 1967
grund stuck</w> 1967
- team</w> 1965
un til</w> 1965
religi ose</w> 1965
en em</w> 1964
vor bereit 1964
cri me</w> 1964
schlie ßt</w> 1964
pul ling</w> 1964
cab in</w> 1964
hair styles</w> 1964
le hnt</w> 1963
zeu gen</w> 1963
19 7 1962
dun en</w> 1961
dau er</w> 1961
ho sted</w> 1960
she et</w> 1960
reg n 1959
refle xi 1959
tie f</w> 1959
b rought</w> 1957
coun tries</w> 1957
zeich nen</w> 1957
ct ors</w> 1954
sk ates</w> 1954
war mt</w> 1954
bli ck 1954
ku gel</w> 1954
sne akers</w> 1954
ct ural</w> 1953
prin ts</w> 1953
wissen schaft 1953
mann schaften</w> 1952
your self</w> 1952
sci enti 1951
nove mber</w> 1951
new born</w> 1949
visi ble</w> 1948
be sti 1947
mu sh 1947
nen s</w> 1947
elekt roni 1945
ki ssing</w> 1944
gewin ner</w> 1944
ber ry</w> 1943
deli vers</w> 1943
g les</w> 1942
re por 1942
da fur</w> 1942
basketball spiels</w> 1942
s sig 1941
ver age</w> 1941
pol e</w> 1941
philoso p 1941
win dig 1940
fotografi eren</w> 1940
be gan 1938
gro wn</w> 1938
for t 1938
bedro oms</w> 1938
freit ag 1937
past ure</w> 1937
er stellen</w> 1936
nis se</w> 1936
mann liche</w> 1935
oli ve</w> 1935
weit erer</w> 1935
mi x</w> 1934
ge stern</w> 1934
lo wer</w> 1934
kam er 1933
ful lt</w> 1933
verg nu 1933
li ga</w> 1932
bu ying</w> 1932
gra b</w> 1932
gan ge</w> 1932
c ity 1931
k ern</w> 1931
abstra ktes</w> 1931
pop kunstlerin</w> 1931
b be</w> 1929
regi er 1929
z ten</w> 1928
gi ven</w> 1928
wal des</w> 1928
entertain er</w> 1928
moder ner</w> 1927
wettbewer b</w> 1927
eichhorn chen</w> 1927
ne tes</w> 1926
wer de</w> 1926
ar me</w> 1924
see brucke</w> 1924
st einen</w> 1923
di ble</w> 1923
kon stru 1923
uni on</w> 1923
un bekan 1922
su ite</w> 1922
of en</w> 1922
wand bild</w> 1922
farbi gen</w> 1922
universit at</w> 1922
no t 1921
zen den</w> 1921
al a</w> 1920
lo ws</w> 1920
an sichten</w> 1919
fi f 1919
bli cke</w> 1919
militarkomm ande 1918
manu fact 1918
ge wann</w> 1917
geschaf te</w> 1917
no te</w> 1916
be u 1915
po di 1915
lei ch 1915
fel des</w> 1915
rie sig 1915
klein kind</w> 1915
c o</w> 1914
spa ar</w> 1913
horizon tal</w> 1913
ger ade</w> 1912
cir cular</w> 1912
sch ale</w> 1911
lo gy</w> 1911
sta ck</w> 1911
sc ale</w> 1910
will kommen</w> 1910
da vor</w> 1909
vis iting</w> 1909
t rou 1908
stu d 1908
graphi cs</w> 1908
denk mal</w> 1908
augu st</w> 1908
- up</w> 1906
ser ving</w> 1906
fabri k</w> 1906
d eln</w> 1905
er halt</w> 1905
do od 1905
tu b</w> 1905
plat te</w> 1905
ful len</w> 1905
alter e</w> 1904
is er</w> 1903
part ner</w> 1903
s at</w> 1902
slo wly</w> 1902
da ily</w> 1901
restau ri 1901
saison premiere</w> 1901
so ur 1900
residen ts</w> 1900
gelan de</w> 1900
progra mme</w> 1899
e ter</w> 1898
mitarbe iter</w> 1898
progra mm 1897
simil ar</w> 1897
si ster</w> 1895
sp aten</w> 1895
fel dern</w> 1895
ss er</w> 1893
ent wur 1893
apri l</w> 1893
bri gh 1892
verwand eln</w> 1892
k nee</w> 1890
slee ve</w> 1890
carri age</w> 1889
ch ine 1888
na gel 1888
bemal t</w> 1888
begle itet</w> 1888
s wee 1887
ne hm 1887
dan k 1887
gewin nen</w> 1887
roman tischen</w> 1886
be satz 1885
me dit 1885
calli graphy</w> 1885
wh is 1884
star rt</w> 1884
samm eln</w> 1884
tribu te</w> 1883
sch wer</w> 1882
tu tor 1882
geburtstag storte</w> 1882
logo s</w> 1882
felsi gen</w> 1882
appar te 1882
grafi k</w> 1881
up on</w> 1880
gemein schaft</w> 1880
stre et 1879
lo ved</w> 1878
ul ti 1878
ne ben 1877
the iten</w> 1877
verkauf en</w> 1877
wonder ful</w> 1876
un gewohn 1875
al ready</w> 1875
stat ur</w> 1875
box es</w> 1875
theat er 1875
geschnit ten 1874
ge wassern</w> 1873
jo ined</w> 1873
ka p 1872
bil dern</w> 1871
son g</w> 1871
h ur 1870
sch win 1870
f ting</w> 1869
di sa 1869
do min 1869
ad dition</w> 1869
bra chte</w> 1869
schwarz- weiß</w> 1869
sch te</w> 1868
gri ff</w> 1868
ein richtung</w> 1867
en z</w> 1866
dre hen</w> 1866
tur tle</w> 1866
atten ding</w> 1866
fru chten</w> 1866
chan ce</w> 1866
ma i 1865
atten ded</w> 1865
ker ze</w> 1865
sw im</w> 1865
p in</w> 1864
dan cers</w> 1864
thre e</w> 1864
ar mb 1863
ck -kunstler</w> 1863
ki ckt</w> 1863
christ lichen</w> 1863
thro wing</w> 1863
i denti 1862
pa dd 1862
misch ung</w> 1862
gather ed</w> 1862
asso ci 1862
famil ies</w> 1861
mitg lied</w> 1861
u de</w> 1860
ka ja 1860
medi en</w> 1860
sand wi 1860
cau casi 1860
caucasi an</w> 1860
z z</w> 1859
coun ty</w> 1859
geschlo ssen</w> 1859
schneeflo cken</w> 1859
ff y</w> 1857
bre chen</w> 1857
under water</w> 1857
ger u 1856
produ zent</w> 1856
lo g</w> 1855
tatowi erungen</w> 1855
f ted</w> 1854
schauspiel erinnen</w> 1853
gen e 1852
kar to 1852
li ft</w> 1849
te en</w> 1849
fri ed</w> 1849
skin ny</w> 1849
mar schi 1848
moder ator</w> 1848
voll mond</w> 1848
i an</w> 1847
gesch windig 1847
sp ite</w> 1846
land kunstler</w> 1846
jah ri 1846
portr ats</w> 1846
dschun gel</w> 1846
r and 1845
f ran 1845
ck ets</w> 1845
bau stelle</w> 1844
sau ber 1844
install ation</w> 1844
un ve 1843
volk s 1842
be scha 1841
be in</w> 1840
biologi schen</w> 1840
lusti gen</w> 1840
schi en</w> 1839
tat sa 1839
pfan ne</w> 1839
ein zu 1837
ge fahr 1837
ha fte</w> 1837
fra med</w> 1837
fri schen</w> 1837
halb zeit</w> 1837
christ licher</w> 1836
strei ch 1836
ko s 1835
stor my</w> 1835
profi l</w> 1835
re lief</w> 1834
ei g 1834
ho urs</w> 1834
lo wen 1834
ver bringen</w> 1834
lat in 1834
mikro f 1833
f ou 1832
d ati 1832
mo sai 1832
vi ell 1832
viell eicht</w> 1832
ti ges</w> 1831
deta il 1831
er ende</w> 1830
is hing</w> 1830
br a</w> 1830
tu ch</w> 1830
cr o</w> 1830
kin s</w> 1829
gesch lagen</w> 1829
professi on 1829
pedestri ans</w> 1829
a horn 1828
ro le</w> 1828
me ets</w> 1828
kl ar 1828
bun tes</w> 1828
ka si 1828
tra ils</w> 1827
le b 1825
ha f 1825
ab zu 1825
o thers</w> 1824
ge st 1824
ver se</w> 1824
kau kasi 1824
pa d 1823
kon nten</w> 1823
hochzeit stag</w> 1823
bul l</w> 1823
icon ic</w> 1823
re ser 1821
sy mm 1821
zeit ung</w> 1821
tra t</w> 1820
got te 1820
bro ther</w> 1819
rei se 1818
cir cles</w> 1818
gin gs</w> 1816
ka se</w> 1816
monu ment</w> 1816
m na 1815
nah men</w> 1815
op ens</w> 1815
weizen feld</w> 1815
en ter</w> 1814
bo t</w> 1814
bo tan 1814
anten ne</w> 1814
in te 1813
verlei ht</w> 1813
loun ge</w> 1813
ken n 1812
se arch 1811
fe eling</w> 1811
bet t 1811
snow man</w> 1811
kreuz ung</w> 1811
lo a 1810
trau ben</w> 1810
appear ed</w> 1810
offi ci 1809
enth ul 1809
kur z</w> 1808
snowfla kes</w> 1808
campaig n</w> 1808
spi r 1807
stadtz entrum</w> 1807
cat ching</w> 1806
m all</w> 1805
for ms</w> 1804
abschluss feier</w> 1804
let ters</w> 1802
in iti 1801
ge wach 1801
gra ben</w> 1801
so on</w> 1801
arri vals</w> 1801
blumen strauß</w> 1801
s al</w> 1800
c ation</w> 1800
fun k 1800
success ful</w> 1800
s rich 1799
ima gin 1799
elemen ten</w> 1799
hochzeitsklei der</w> 1799
co con 1798
fe bru 1798
u ms</w> 1797
stil l 1797
cer amic</w> 1797
kostu m 1797
te ste</w> 1796
tz ten</w> 1796
stran des</w> 1796
ri chten</w> 1795
plan s</w> 1795
d on</w> 1794
wur zeln</w> 1794
glei chen</w> 1794
bilden den</w> 1794
mo sa 1793
mu s</w> 1793
interess an 1793
lin er</w> 1792
du e</w> 1792
innen hof</w> 1792
diam anten</w> 1792
gy mna 1792
in seln</w> 1791
fla mes</w> 1791
bra in</w> 1791
lit er 1791
wol ke</w> 1790
be ein 1789
aus flug</w> 1789
out door- 1789
kur ze</w> 1789
su ch 1788
fire fighters</w> 1788
turni er</w> 1788
h mt</w> 1787
re par 1787
schu h</w> 1787
jahr s 1787
selb st 1787
ho ff 1786
br ings</w> 1786
hand made</w> 1786
t a</w> 1785
ver bun 1785
gen der</w> 1785
begin ning</w> 1785
no se</w> 1784
glu ck</w> 1784
ma ss</w> 1783
na gel</w> 1783
fuß boden</w> 1783
ali sche</w> 1783
pf ar 1782
sty p</w> 1781
sk op</w> 1780
wen ig</w> 1780
formi gen</w> 1780
lo s- 1779
poli zisten</w> 1779
bab ly</w> 1779
hintergrun des</w> 1779
engel -premiere</w> 1779
los- engel-premiere</w> 1779
bau er</w> 1778
mati c</w> 1778
pro bably</w> 1777
gesch u 1777
pea ce</w> 1777
da d</w> 1776
tex turi 1776
glo ssy</w> 1776
custo mers</w> 1776
s ers</w> 1775
be at</w> 1775
pu ts</w> 1775
mil l</w> 1775
seri ous</w> 1775
psy che 1775
sel ts 1774
chan ging</w> 1774
west licher</w> 1774
ge farb 1773
hi elt</w> 1773
tro ffen</w> 1773
dun es</w> 1772
a ste</w> 1771
de al</w> 1771
mann lichen</w> 1771
hil fe</w> 1771
ung lau 1771
bewaff nete</w> 1771
s end</w> 1770
schwar m</w> 1770
pur cha 1770
basi s</w> 1770
ge heim 1769
geb oren</w> 1769
me dal</w> 1768
natur liche</w> 1767
enti re</w> 1767
fu tter</w> 1766
kolle gen</w> 1766
pedestri an</w> 1766
an ato 1765
ro man</w> 1765
ge misch 1765
pan e 1765
wh i 1764
develop ment</w> 1764
g let 1763
sol lten</w> 1763
com for 1763
form ed</w> 1763
mensch lichen</w> 1763
fußgan ger 1763
bel l</w> 1762
ati v 1761
br il 1761
fe dern</w> 1760
resu lt</w> 1760
1 5</w> 1759
je wel 1759
d ere</w> 1758
ma cro</w> 1758
ti ve</w> 1758
for mat</w> 1758
sho e</w> 1758
stri pes</w> 1758
bot schaft</w> 1758
komplet t</w> 1758
m eless</w> 1757
so zi 1757
sha des</w> 1757
hair style</w> 1757
erinn ert</w> 1756
letter ing</w> 1756
wan ted</w> 1755
disku tieren</w> 1755
bezir k</w> 1755
an wesen</w> 1754
la d 1754
beruhm theiten</w> 1754
s wi 1752
cro sses</w> 1752
blo om</w> 1751
farbenfro hen</w> 1751
git arri 1751
mu stern</w> 1750
gu ter</w> 1750
ren der</w> 1750
alter n 1750
zu cker 1748
ce ment</w> 1748
hun den</w> 1748
quar ter 1748
constitu tional</w> 1748
lotu s</w> 1748
ne ter</w> 1747
ga ve</w> 1747
ak ro 1747
mit einander</w> 1747
can y 1747
vier tels</w> 1747
radi o</w> 1747
wel traum</w> 1746
pin sel</w> 1746
organisations grunder</w> 1746
psyche del 1746
a we 1745
spiel erin</w> 1745
v ul 1744
spi ri 1744
fro g</w> 1744
dar steller</w> 1744
geographi sche</w> 1744
0 th</w> 1743
tru cks</w> 1743
19 th</w> 1743
sli de</w> 1743
tie f 1743
pump kins</w> 1743
panor ama</w> 1743
dunk le</w> 1743
foli age</w> 1743
li ves</w> 1742
urlau b 1742
app les</w> 1741
leben s</w> 1741
scen es</w> 1741
be grußt</w> 1740
per len</w> 1740
war ning</w> 1740
sig ned</w> 1740
moun tain 1740
key board</w> 1740
c attle</w> 1739
ch em</w> 1739
un t</w> 1739
kor per 1739
gemein de</w> 1739
geh ir 1739
ge fangen</w> 1738
hin ten</w> 1738
pe an</w> 1738
euro pean</w> 1738
awe some</w> 1738
e sc 1737
al ed</w> 1737
sin ging</w> 1737
inclu des</w> 1737
euro pa 1737
feuerwehr leute</w> 1737
in tri 1736
bli cken</w> 1736
ornam ental</w> 1736
i ges</w> 1735
ne o</w> 1735
gu itar 1735
in die</w> 1734
it te</w> 1734
le der</w> 1734
pan els</w> 1734
men u</w> 1733
apart ments</w> 1733
e hren</w> 1732
k il 1732
mal ers</w> 1732
slo pe</w> 1732
him self</w> 1732
kampf t</w> 1731
pro ce 1730
exer cis 1730
back stein 1729
syn th 1729
fe ath 1728
ko mo 1728
ad verti 1728
sub je 1728
do me 1727
roo ts</w> 1727
st eine</w> 1726
me at</w> 1726
wei st</w> 1726
blo use</w> 1726
hub sches</w> 1725
zer bro 1724
kee ping</w> 1724
einsam er</w> 1724
sig n 1723
den ke</w> 1722
ne ws</w> 1721
ja zz</w> 1721
bewohn er</w> 1721
min e</w> 1720
team mates</w> 1720
straßen rand</w> 1720
stun den</w> 1720
bene ath</w> 1720
coun ter</w> 1719
verlei hen</w> 1718
in de 1717
pu b</w> 1717
kur bis 1717
shal low</w> 1717
ba st 1716
gesich tet</w> 1716
wa cht</w> 1715
de fe 1715
ar zt</w> 1714
de spite</w> 1714
ke it 1714
buchsta be</w> 1714
cha in</w> 1714
vorder seite</w> 1713
secre t</w> 1713
weit eres</w> 1711
hochzeits zeremonie</w> 1711
cap tured</w> 1711
bo den 1710
mar ks</w> 1710
auto gra 1710
rei fe</w> 1710
viel zahl</w> 1710
ea ster</w> 1709
ethni c</w> 1709
turni ers</w> 1709
is lands</w> 1708
eri sche</w> 1708
mat ching</w> 1708
close up</w> 1708
wa its</w> 1707
su ßen</w> 1707
ku h</w> 1707
so il</w> 1706
offi cer</w> 1706
gie ßen</w> 1706
ein hei 1705
dre i 1705
f lan 1704
wal der</w> 1704
iss ue</w> 1703
may be</w> 1703
mil ch 1702
lok alen</w> 1702
un be 1701
getran k</w> 1701
cycli st</w> 1701
ta ste</w> 1700
ste ckt</w> 1700
e ssen 1699
froh liche</w> 1699
schauf en 1699
de pre 1698
ag ul 1698
stu dent 1698
gesich ter</w> 1698
side walk</w> 1697
volley ball</w> 1697
mar sch</w> 1696
bla zer</w> 1696
dro hne</w> 1695
rich tet</w> 1695
an k 1694
se agul 1694
gir l 1694
stor age</w> 1694
ki cks</w> 1694
teil ung</w> 1694
vege table</w> 1694
ow l</w> 1694
imp ro 1694
t ch</w> 1693
st a</w> 1693
einkauf en</w> 1693
verti cal</w> 1693
offizi ellen</w> 1693
re d 1692
lin k</w> 1692
fri se 1692
bei den</w> 1692
natur lichen</w> 1692
stad te</w> 1691
blum chen</w> 1691
play off 1690
ear rings</w> 1690
re t 1689
ge wal 1689
arti kel</w> 1689
schla fen</w> 1688
stair case</w> 1687
han del</w> 1686
grap es</w> 1686
re it 1685
min d</w> 1685
skyscra pers</w> 1685
corpor ate</w> 1685
zo g</w> 1684
kontrol liert</w> 1684
do me</w> 1683
archite ctural</w> 1683
arran ged</w> 1683
sp ent</w> 1682
mo ss</w> 1682
pi cking</w> 1682
ac cor 1682
sci ence</w> 1682
dau men</w> 1681
erd beeren</w> 1681
spiri t</w> 1681
shi eld</w> 1680
n ar 1679
stri ck 1679
ex i 1678
rau me</w> 1678
nu n</w> 1678
1 00</w> 1677
fu turi 1677
za hlt</w> 1677
weibli chen</w> 1677
spiel feld</w> 1676
buch er 1676
t win</w> 1675
ub ung</w> 1675
cartoon- stil</w> 1675
techno logi 1675
d or</w> 1674
bli che</w> 1674
hu gging</w> 1674
man sion</w> 1673
dama ged</w> 1673
ad ding</w> 1672
pfer des</w> 1672
wich tig 1672
extre me</w> 1672
lo ck</w> 1671
he x 1671
nahr ung</w> 1671
ch tung</w> 1670
mi sty</w> 1670
pro ble 1670
kon kur 1670
stat t</w> 1670
karto ff 1670
st att 1669
sch lit 1669
ro ad 1669
mi d</w> 1669
ir s</w> 1669
gel t</w> 1669
recor d</w> 1669
be ds</w> 1668
spe c 1667
ador able</w> 1667
co in</w> 1666
geometri sche</w> 1666
skate board</w> 1666
f alle</w> 1665
kauf t</w> 1665
spi der</w> 1664
war ms</w> 1664
sele ction</w> 1664
ener gy</w> 1664
her zens</w> 1663
un usual</w> 1662
oli ven 1662
che f 1662
19 3 1662
la cki 1661
boar der</w> 1661
to ten 1660
sil ber</w> 1660
verwen dung</w> 1660
r ental</w> 1659
app lau 1659
some times</w> 1659
po ols</w> 1658
et ri 1658
jump s</w> 1658
erfol grei 1658
th aus</w> 1657
sel ves</w> 1657
5 th</w> 1656
acce ss</w> 1656
bl ed</w> 1655
pu ck</w> 1655
bru ch</w> 1655
g fal 1654
am u 1652
ni ght 1652
provin ce</w> 1652
off er</w> 1651
gemu ster 1651
g in</w> 1650
tepp i 1650
ver trau 1649
hi ke</w> 1649
sha dows</w> 1649
konig in</w> 1649
ang les</w> 1649
skam er 1649
neu tr 1648
latin -pop-kunstler</w> 1648
ge stur 1647
um welt 1647
busine s 1647
athle ten</w> 1647
patter ned</w> 1647
lu gen</w> 1646
aus sicht 1646
wil den</w> 1646
ausschnitt pfad</w> 1646
t onen</w> 1645
wi cket</w> 1645
pi e</w> 1645
sou thern</w> 1645
podi um</w> 1644
ju ice</w> 1643
li sted</w> 1642
kon tra 1642
schiff e</w> 1641
g an</w> 1640
stand ard</w> 1640
light ning</w> 1640
ma je 1639
mon d 1639
fan cy</w> 1639
star k 1639
b end</w> 1638
la bor 1638
ir es</w> 1638
ten de</w> 1638
fri scher</w> 1638
pal me</w> 1638
la id</w> 1637
che st</w> 1637
dekor ationen</w> 1637
fron tansicht</w> 1637
ap p</w> 1637
gi e</w> 1635
geb ro 1635
lie fert</w> 1634
geschaf t 1634
at op</w> 1633
sch mer 1633
ger au 1633
rock - 1633
lan e</w> 1632
stie feln</w> 1632
schied srich 1632
ein s</w> 1631
bun del</w> 1631
chi ps</w> 1631
present ing</w> 1631
ow ned</w> 1631
fernse her</w> 1631
neu tral</w> 1630
explo sion</w> 1630
grun dri 1629
cro p</w> 1629
woo d 1629
mannschaft skamer 1629
b unter</w> 1628
go at</w> 1628
ca ve</w> 1627
bi es</w> 1626
atur en</w> 1626
einfa ches</w> 1626
to te</w> 1625
lauf er</w> 1625
eigent um</w> 1625
l on</w> 1624
han gs</w> 1624
zau ber 1624
ged range</w> 1623
fin ally</w> 1622
din nen</w> 1622
che er</w> 1621
micro phone</w> 1621
meda ille</w> 1621
inter ieur</w> 1620
nu tzen</w> 1620
experien ce</w> 1620
ter asse</w> 1619
mar ine</w> 1618
run den 1618
hun dre 1618
passagi er 1618
geschma ck</w> 1618
ga ste 1617
net work</w> 1617
hundre ds</w> 1617
bi ker</w> 1616
sp ater</w> 1615
lo ser</w> 1615
priv aten</w> 1615
aben teu 1615
a ss 1614
boo k 1614
kno pf</w> 1614
schrit te</w> 1613
lo ffel</w> 1612
zi er 1612
t tern</w> 1610
p ted</w> 1610
wal k 1609
ster - 1609
nu ts</w> 1609
thril ler 1609
sin gt</w> 1608
sp end</w> 1607
beruhm te</w> 1607
musch eln</w> 1607
sp ul 1606
tra y</w> 1606
isoli ertem</w> 1606
zahl en 1606
regn erischen</w> 1606
mo ck</w> 1605
ad ds</w> 1605
fair y</w> 1605
sta in 1604
b ats</w> 1603
ri dge</w> 1603
con test</w> 1603
nahtlo s</w> 1603
mod ells</w> 1603
acry lic</w> 1603
stimm ung</w> 1603
ei scre 1602
war e 1601
gre et 1601
schen kt</w> 1601
qui ck</w> 1601
graffit is</w> 1601
symbol en</w> 1600
d ort</w> 1599
hi dden</w> 1599
af fen</w> 1599
par chen</w> 1599
ren ch</w> 1599
pfer den</w> 1599
st eri 1598
li p</w> 1598
pre season</w> 1598
pin ned</w> 1598
wand erer</w> 1598
qualifi k 1598
ge spielt</w> 1597
gel ie 1597
boar ds</w> 1597
hal skette</w> 1596
vor lage</w> 1596
possi ble</w> 1596
iti g</w> 1595
ster y</w> 1595
stan den</w> 1595
m aus</w> 1594
stat uen</w> 1594
zwe ites</w> 1594
mikrof on</w> 1594
g lat 1593
3 rd</w> 1593
zeich en- 1593
leg gings</w> 1593
stu fen</w> 1592
sto red</w> 1592
hintergrund vektor</w> 1592
morgend lichen</w> 1592
vir tu 1592
up per 1591
braut jung 1591
kek se</w> 1591
g li 1590
sp rech 1590
wild blumen</w> 1590
intere sse</w> 1589
w ert</w> 1588
th west</w> 1588
desig ners</w> 1588
wol lte</w> 1588
lo aded</w> 1587
ti ed</w> 1587
ab ends</w> 1587
jo g 1587
form ing</w> 1587
schlaf zimmer 1587
passagi ere</w> 1587
symm etri 1587
p ou 1586
fer tig 1586
min ute</w> 1586
make -up</w> 1586
n auti 1585
re den</w> 1585
mann schafts 1585
land ing</w> 1585
ehemal igen</w> 1585
ges ell 1585
vi er</w> 1584
rie sen 1584
sh ell</w> 1583
eleph ants</w> 1583
we gen</w> 1582
wal ked</w> 1580
kun d 1580
ite ms</w> 1580
acce ss 1580
gewon nen</w> 1580
bu cket</w> 1579
jahrhunder ts</w> 1579
an gel</w> 1578
en semble</w> 1578
ru hen</w> 1578
flow s</w> 1578
lacheln der</w> 1578
magaz in</w> 1578
reflekti ert</w> 1578
episo de</w> 1578
ka pit 1577
rich tigen</w> 1577
saf t</w> 1577
du cks</w> 1576
kie fern</w> 1576
be steht</w> 1575
app li 1575
dekor ative</w> 1575
geburtstag sparty</w> 1575
ck y</w> 1574
- wasser 1573
op s</w> 1573
sper son</w> 1573
lo co 1572
began n</w> 1572
ex clu 1571
ruck sack</w> 1571
mosa ic</w> 1571
mu d</w> 1570
bar s</w> 1570
refle cting</w> 1570
akti en 1570
großarti ge</w> 1570
en gra 1569
vektor bild</w> 1569
ober teil</w> 1569
stag abend</w> 1569
p ir 1568
go tische</w> 1568
dar stellt</w> 1568
itali an</w> 1568
crick eter</w> 1567
hit ting</w> 1567
po ol 1566
re co 1565
pan zer</w> 1565
sitz ung</w> 1565
mannschaftskamer aden</w> 1565
gewin nt</w> 1564
se ment</w> 1562
cur ly</w> 1562
ru sty</w> 1561
ev ol 1561
feld weg</w> 1561
s win 1560
for dert</w> 1560
ten s</w> 1560
mann ern</w> 1560
ro sti 1559
cre ation</w> 1559
metall kunstler</w> 1559
contro ls</w> 1559
di shes</w> 1558
mm ert</w> 1558
tur quo 1558
ga - 1558
pan el</w> 1558
perfe kte</w> 1558
18 th</w> 1558
pr al 1558
envi ron 1558
turquo ise</w> 1558
p fu 1557
ku tsche</w> 1557
unterstu tz 1557
tra g</w> 1555
cur tains</w> 1555
ktion s 1555
gebir ge</w> 1555
we hen</w> 1554
aus druck</w> 1554
nie d 1554
lan de 1553
stat es</w> 1553
jo ck 1553
t end</w> 1552
re ality</w> 1552
quo te</w> 1552
men te</w> 1551
he st</w> 1551
bil li 1551
flo ors</w> 1551
studi o 1551
mo us</w> 1550
flu geln</w> 1550
vo geln</w> 1550
stil isi 1550
spla sh</w> 1550
heit s 1550
sicher heit</w> 1550
i ri 1549
er ster</w> 1549
li ve 1549
nah ert</w> 1549
han ge 1549
kti onen</w> 1549
verschie dener</w> 1549
de stro 1548
pf le 1548
car ry</w> 1547
lin e- 1546
ju gend 1546
schu tzen</w> 1546
hell em</w> 1546
wra p</w> 1546
elefan t</w> 1546
a ctive</w> 1545
na vi 1545
par is</w> 1545
bri des 1545
pul led</w> 1545
tau chen</w> 1545
costu mes</w> 1545
re i</w> 1544
fo x</w> 1544
mat ten</w> 1544
bru der</w> 1544
schwimm becken</w> 1544
ehemal ige</w> 1544
relea sed</w> 1544
straw berries</w> 1544
g ert</w> 1543
1 6</w> 1543
ze ss 1543
18 .</w> 1543
in scription</w> 1542
sta ges</w> 1542
ze bra</w> 1542
ss y 1541
fa hnen 1541
zi garette</w> 1541
off ers</w> 1541
contro l</w> 1541
educ ational</w> 1541
mm ers</w> 1540
er se 1539
al pine</w> 1539
film plakat</w> 1539
cra zy</w> 1539
mun ze</w> 1539
ck ens</w> 1538
ta statur</w> 1538
scoo ter</w> 1538
upper case</w> 1538
1 00 1537
ge hort</w> 1537
pro moti 1537
bla st</w> 1537
celebr ations</w> 1537
bel on 1537
over head</w> 1537
taus ende</w> 1536
li e</w> 1535
be came</w> 1535
rea ds</w> 1535
ver fass 1534
kro n 1534
schauspiel ers</w> 1534
ge zogen</w> 1533
ck en 1533
clo set</w> 1533
ke hr</w> 1533
engin e 1533
perio de</w> 1533
schnee mann</w> 1532
termin al</w> 1532
de stin 1531
ball er 1531
sun flower</w> 1531
glitz ern 1531
ho pe</w> 1529
stell te</w> 1529
schnee sturm</w> 1529
la chen</w> 1528
wil de</w> 1528
dri ed</w> 1528
al o 1527
tre at</w> 1527
over lay 1527
luftball on</w> 1527
s l 1526
j ar</w> 1526
w uch 1526
pa cked</w> 1526
back pack</w> 1526
lamp e</w> 1526
rub ber</w> 1526
spiel zeu 1525
arri val</w> 1525
uberra sch 1525
ssi ver</w> 1524
kreuzfahrt schiff</w> 1524
b it 1523
k ilo 1523
ob ser 1523
prin zess 1523
fre ssen</w> 1522
tage s 1522
geometri schen</w> 1522
overlay -wasser 1522
k na 1521
re spon 1521
fe sten</w> 1521
ex klu 1521
programm s</w> 1520
pla stik 1519
ty po 1519
pra ying</w> 1519
tin te</w> 1518
feier lichkeiten</w> 1518
and eres</w> 1517
po lar</w> 1517
fa vo 1517
schau kel</w> 1517
run d 1517
rich tige</w> 1517
hal s</w> 1516
lin gs</w> 1516
costu mer</w> 1516
is la 1515
verwand elt</w> 1515
da y 1514
foo d 1514
sou ven 1514
rich tig</w> 1514
b att 1513
fri ed 1513
cand y</w> 1513
than k</w> 1513
tablet - 1513
na se</w> 1512
pf t</w> 1512
jet ty</w> 1512
staat s 1512
feath ers</w> 1512
u ts</w> 1511
li ppen</w> 1511
nach ste</w> 1511
freun dinnen</w> 1511
blei sti 1510
foto - 1510
mann er 1509
ge troffen</w> 1508
ell ed</w> 1508
19 8 1508
b elt</w> 1507
col oni 1507
classi cal</w> 1507
jub il 1507
ing - 1507
m mi 1506
cho o 1506
skyscra per</w> 1506
on ds</w> 1505
mp ro 1505
dre ams</w> 1505
vol un 1505
tie fe</w> 1505
auf merk 1504
hun der 1504
arran gement</w> 1504
kupp el</w> 1504
budd hi 1504
sp uren</w> 1503
unser es</w> 1503
fun ded</w> 1502
flor alen</w> 1502
city scape</w> 1502
le mon</w> 1501
so wie</w> 1501
ci garette</w> 1501
char ity</w> 1501
rain forest</w> 1501
shoul ders</w> 1501
portr at 1501
or din 1500
braun e</w> 1500
winzi gen</w> 1500
e dition</w> 1499
ol dest</w> 1499
na h</w> 1499
hin zu</w> 1499
zerbro chen 1499
o k 1498
fin gers</w> 1498
ger aten</w> 1498
sol ution</w> 1498
ka sten</w> 1498
klassi scher</w> 1498
se cur 1497
stu cken</w> 1497
fuhr ung 1497
ob wohl</w> 1497
glei ch</w> 1497
il la</w> 1496
a da 1495
er ho 1495
tropi sche</w> 1495
fotografi en</w> 1495
mar ble</w> 1494
innen stadt</w> 1493
mau ern</w> 1493
eigent um 1493
flugzeu ge</w> 1492
et h</w> 1491
an la 1490
ho bby</w> 1490
ta gs</w> 1490
spa ce 1490
mad els</w> 1490
kom position</w> 1490
spiegel t</w> 1490
glanzen den</w> 1490
fif th</w> 1490
t form</w> 1489
ca ct 1489
mann chen</w> 1489
cheer leader</w> 1489
sta gs 1488
land wirt 1488
co mbin 1487
pen gu 1487
sor gen</w> 1487
schwe ben</w> 1487
ma id</w> 1486
ter t</w> 1486
win ger</w> 1486
dra gon</w> 1486
wasser tropfen</w> 1486
acce sso 1486
passi ert</w> 1486
rep li 1486
goal keeper</w> 1486
mu sc 1485
war m 1485
wur fel</w> 1485
uber all</w> 1485
sco red</w> 1485
provin z</w> 1485
j en 1483
pen dant</w> 1483
wieder kehr 1483
schran ke</w> 1483
ne ar 1482
leder jacke</w> 1482
o ster 1481
loo se</w> 1481
monochro me</w> 1481
smoo th</w> 1481
we l</w> 1480
atten tion</w> 1480
stri king</w> 1480
mini ature</w> 1480
spit zen 1480
di plo 1479
bi er 1479
gele gt</w> 1479
ma xi 1478
organis m</w> 1478
wieder bele 1478
b ist</w> 1477
ide al</w> 1477
kletter t</w> 1477
t ell</w> 1476
pe ts</w> 1476
off ene</w> 1476
schna pp 1476
extru ded</w> 1476
d ran 1475
vol les</w> 1475
pri ce</w> 1475
aut ors</w> 1475
cur rent</w> 1475
i erte</w> 1474
m ile</w> 1474
spiel te</w> 1474
pul l</w> 1474
hig hest</w> 1474
n den</w> 1473
zu schau 1473
mon ths</w> 1473
je man 1473
eu le</w> 1473
coast line</w> 1473
loco motive</w> 1473
ge wicht</w> 1472
ste ep</w> 1472
mpro du 1472
po ten 1471
pro ze 1471
ste te</w> 1471
dar in</w> 1471
lu sh</w> 1470
cocon ut</w> 1470
re tri 1469
si ert</w> 1469
pa ct</w> 1469
aus seh 1469
stat ues</w> 1469
e ben</w> 1468
er weise</w> 1468
den kt</w> 1468
cur ring</w> 1468
stein ernen</w> 1468
st in</w> 1466
spo on</w> 1466
ge sti 1465
ti re</w> 1465
auf kle 1465
b at</w> 1464
k rit 1464
p a</w> 1464
discu ss</w> 1464
jun gs</w> 1463
blei stift</w> 1463
gra de</w> 1462
associ ation</w> 1462
wei bchen</w> 1461
dan ger 1461
oper ation</w> 1461
golden es</w> 1461
champag ner</w> 1461
noti z 1461
memor ial</w> 1461
u ps</w> 1460
se tt 1460
do m</w> 1460
zu bereiten</w> 1460
lead ers</w> 1460
w rest 1459
ro i 1459
be zieh 1459
var i 1459
schlag zeu 1459
mo vement</w> 1458
po cket</w> 1458
see ds</w> 1458
galax y</w> 1458
ck el</w> 1457
schie bt</w> 1457
schiedsrich ter</w> 1457
f y</w> 1456
lo sung</w> 1456
ju ly</w> 1456
hochzeit storte</w> 1456
schaf ft</w> 1455
rei ch 1455
isometri c</w> 1455
f ein 1454
te ddy</w> 1454
fil l</w> 1454
pro u 1453
politi sche</w> 1453
prin cess</w> 1453
x is</w> 1452
stol z</w> 1452
st or</w> 1451
ge wur 1451
dor fes</w> 1451
mog lich</w> 1451
c ell</w> 1450
am o 1450
ca ge</w> 1450
portra its</w> 1450
volun te 1450
b ly</w> 1449
k nu 1449
ja zz 1449
spie geln</w> 1449
bea ches</w> 1449
ye ster 1448
lon don</w> 1448
emplo ye 1448
an ker</w> 1447
the ke</w> 1447
schn ell 1447
buch ern</w> 1447
cat ches</w> 1447
war me</w> 1446
herbst tag</w> 1446
ho tel 1445
wan ne</w> 1445
diam onds</w> 1445
toil et</w> 1445
expe cted</w> 1445
complet ely</w> 1445
farm house</w> 1445
de but</w> 1444
sty led</w> 1444
silhouet ted</w> 1444
itali en 1444
sparkl ing</w> 1444
2 .</w> 1443
zeichen- stempel</w> 1443
fußball spielers</w> 1442
ty ping</w> 1442
ma sco 1441
hei rat 1441
country -pop-kunstler</w> 1441
chef trainer</w> 1441
b es</w> 1440
wie sen</w> 1440
er reichen</w> 1439
moun ted</w> 1439
star ken</w> 1438
apf el 1438
adul t</w> 1437
spe ak</w> 1436
rema ins</w> 1436
gewach shaus</w> 1436
sport wagen</w> 1435
vergan gen 1435
burger steig</w> 1435
en dem</w> 1434
tra iler</w> 1434
hu tten</w> 1434
i erung</w> 1433
er hal 1433
zeit lupe</w> 1433
lar ger</w> 1433
ern te</w> 1433
wu s 1433
schmu cken</w> 1433
residen ce</w> 1433
gren zen</w> 1433
aus zeichnung</w> 1432
fra mes</w> 1432
go o 1432
unter neh 1432
sau ce</w> 1432
business woman</w> 1432
pati enten</w> 1432
emb roi 1432
near by</w> 1432
p ale</w> 1431
re spe 1431
ran ch</w> 1431
fig ures</w> 1431
stro ke</w> 1431
proje kt 1431
frei er</w> 1431
to pf 1429
sli ce</w> 1429
ski er</w> 1429
verfass ungs 1429
eiscre me</w> 1428
speci ally</w> 1427
trei ben</w> 1427
b ol 1426
fashi on 1426
star ke</w> 1426
displa ys</w> 1426
jour ney</w> 1426
dol l</w> 1425
mess er</w> 1425
e ben 1424
f lau 1424
ho meless</w> 1424
pol y 1424
gru sel 1424
rais ing</w> 1424
ei en</w> 1423
sho ppers</w> 1421
pin gu 1421
feder al</w> 1421
f ie 1420
pro be</w> 1420
schwe bt</w> 1420
suppor ters</w> 1420
overlay-wasser zeichen-stempel</w> 1420
an we 1419
por t 1419
y ond</w> 1418
be yond</w> 1418
scha del</w> 1418
cine ma</w> 1418
si ght</w> 1417
la cht</w> 1417
le uten</w> 1417
ver kleidet</w> 1417
techno logy</w> 1417
e qu 1416
g keit</w> 1416
bro w 1416
zie ge</w> 1416
glan z 1416
p fo 1415
qu elle</w> 1415
can o 1415
enjo yed</w> 1415
ment ary</w> 1415
re curring</w> 1414
app ear</w> 1414
sli ding</w> 1414
grei ft</w> 1414
cockta ils</w> 1414
cany on</w> 1414
bo rough</w> 1413
bri ef</w> 1413
skul p 1413
schwang ere</w> 1413
- party</w> 1412
ge se 1412
ru ckt</w> 1412
con fli 1412
refer ee</w> 1412
di ges</w> 1411
the m 1411
splat z</w> 1411
walk way</w> 1411
grafi ken</w> 1410
schrift steller</w> 1410
unterschied licher</w> 1409
de ut 1408
fre sh 1408
mo ved</w> 1407
styli zed</w> 1407
eroffnungs nacht</w> 1407
hinzu fugen</w> 1407
an fang</w> 1406
ob dach 1406
yester day</w> 1406
flu ffy</w> 1405
dire cted</w> 1405
head ed</w> 1405
invit ations</w> 1405
1 8</w> 1404
v end 1404
ter i 1404
p te</w> 1403
ko motive</w> 1403
tu lips</w> 1403
dekor iert</w> 1403
lusti ger</w> 1403
schwan z</w> 1403
geschrie ben</w> 1403
mo use</w> 1402
satell ite</w> 1402
ha ired</w> 1401
water ing</w> 1401
cho ice</w> 1401
p ts</w> 1400
de sk 1400
lie ge 1400
immobil ie</w> 1400
ro nment</w> 1399
handgezeich neten</w> 1399
sonn tag 1399
huhn er</w> 1399
envi ronment</w> 1399
a ku 1398
4 th</w> 1398
at ur</w> 1398
rei hen</w> 1398
them selves</w> 1398
to ols</w> 1397
ver han 1397
ha ft</w> 1397
ca sin 1397
sun flowers</w> 1397
ke hrt</w> 1397
che cking</w> 1397
sel ben</w> 1397
it self</w> 1396
di cht</w> 1396
lager feuer</w> 1396
stu hlen</w> 1395
pal ast</w> 1395
sli m</w> 1395
s ent</w> 1394
f our</w> 1394
pun kte</w> 1394
schokola de</w> 1394
ge fan 1393
to ast</w> 1393
out fits</w> 1393
cup cake</w> 1393
favo ur 1393
expre ssion</w> 1392
me tro 1391
ab han 1391
fuß en</w> 1391
ruck kehr</w> 1391
k ab 1390
te dd 1390
su ß</w> 1390
sha ke</w> 1390
spre ad</w> 1390
suc cess</w> 1390
green house</w> 1390
korallen riff</w> 1390
ver ein 1389
po pro 1389
bauern haus</w> 1389
coloni al</w> 1389
ver pack 1388
sti scher</w> 1388
vor bereitet</w> 1388
kre ative</w> 1388
schul ter 1388
wit ter</w> 1387
te eth</w> 1387
mu cke</w> 1387
ag ri 1387
erei en</w> 1387
tomat o</w> 1387
contin ent</w> 1387
k nie 1386
lo ft</w> 1386
fu hlen</w> 1386
bo se 1386
confli ct</w> 1386
cam el</w> 1385
ali schen</w> 1385
gemein de 1385
bedeu tet</w> 1385
1 4</w> 1384
son dern</w> 1384
1 2</w> 1383
hel ping</w> 1383
intri cate</w> 1383
pe ak</w> 1382
ga sse</w> 1382
quo tes</w> 1382
geoff net</w> 1382
vertei diger</w> 1382
ch andeli 1381
ge setzt</w> 1381
ge kleidet</w> 1381
s afe</w> 1380
la bor</w> 1380
no te 1380
gar t 1380
progre ssive</w> 1380
himm els</w> 1380
pfar rei</w> 1380
cur tain</w> 1379
rot ating</w> 1379
atta ched</w> 1379
b ble</w> 1378
al ing</w> 1378
ra sen 1378
su ally</w> 1378
zi erte</w> 1378
glas fenster</w> 1378
benu tzen</w> 1378
provi de</w> 1378
m in</w> 1377
blu hen</w> 1377
vi ce</w> 1377
gru ppen</w> 1377
laun dry</w> 1377
be sie 1376
po sted</w> 1376
unter kunft</w> 1376
kol oni 1376
garten s</w> 1376
kin o</w> 1375
custo mer</w> 1375
architekt on 1375
komo dien 1375
si s</w> 1374
lo ses</w> 1374
astro no 1374
mi ssing</w> 1373
far mers</w> 1373
dra wings</w> 1373
mobil telefon</w> 1373
mehr eren</w> 1373
formi ge</w> 1373
figh ting</w> 1373
vergan genen</w> 1373
tedd y 1373
be her 1372
hi bis 1372
sin gen</w> 1372
vor her</w> 1372
den ce</w> 1371
bli chen</w> 1371
the mati 1371
suß es</w> 1371
auf en</w> 1370
gelb es</w> 1370
trav elling</w> 1370
spin ne</w> 1370
promoti onal</w> 1370
ti erte</w> 1369
wohn zimmer 1369
mittelalter lichen</w> 1369
3 0</w> 1368
ho l</w> 1368
con du 1368
fol low</w> 1368
1 1</w> 1367
ar me 1367
ne tter</w> 1367
bre aks</w> 1367
lusti ges</w> 1367
rosafar ben 1367
o sten</w> 1366
kinder zimmer</w> 1366
shel ves</w> 1366
tack led</w> 1366
refle ctions</w> 1365
complet ed</w> 1365
exclu sive</w> 1365
in spe 1364
li ved</w> 1363
de ath</w> 1363
pi pe</w> 1363
blo g 1363
hil l 1363
t old</w> 1362
it age</w> 1362
wa shed</w> 1362
ber i 1362
mal kunstler</w> 1362
wan ts</w> 1362
champi on</w> 1362
pi ert</w> 1361
land ung</w> 1361
einzi gen</w> 1361
kie fern 1361
li p 1360
schon sten</w> 1360
mar ath 1359
trock enen</w> 1359
to tal</w> 1358
bi ene</w> 1358
bre ed</w> 1358
pin k 1358
rea ching</w> 1358
cact us</w> 1358
in ch</w> 1357
at ory</w> 1357
sho ts</w> 1357
sc ent</w> 1357
ren nens</w> 1357
stret ching</w> 1357
ste ms</w> 1356
wit ch</w> 1355
ub e</w> 1355
smart phones</w> 1355
umar men</w> 1355
h ats</w> 1354
do ts</w> 1354
her um 1354
pen alty</w> 1354
dunk ler</w> 1354
f elt</w> 1353
di schen</w> 1353
ne on</w> 1353
ne ath</w> 1353
tr ends</w> 1353
gen t 1353
hal ter</w> 1353
aus schnitt</w> 1353
her itage</w> 1353
pra kti 1353
fle cken</w> 1353
than ks</w> 1353
gluh bir 1353
kron leuch 1353
p se</w> 1352
lo kal 1352
all em</w> 1352
sun gen</w> 1352
glo ves</w> 1352
r ty</w> 1351
p hin 1351
zeit schrift</w> 1351
religio sen</w> 1351
fisher man</w> 1351
e sta 1350
g ul 1350
ssen e</w> 1350
di ag 1349
fall enden</w> 1349
heal th</w> 1349
o tt 1348
bade wanne</w> 1348
under neath</w> 1348
mask ott 1348
schwen ken</w> 1348
busines sperson</w> 1348
de part 1347
fri sches</w> 1347
nur se</w> 1347
esta bli 1347
lo ving</w> 1346
star ry</w> 1346
luft aufnahmen</w> 1346
u re 1345
en ge</w> 1345
bi ssen</w> 1345
girl friend</w> 1345
ver bess 1344
qu ilt</w> 1344
kon fli 1344
s la 1343
str a</w> 1343
tatsa chlich</w> 1343
zu gang</w> 1342
bel a 1342
eroff net</w> 1342
ch ers</w> 1341
baro que</w> 1341
student in</w> 1341
el ed</w> 1340
wa chen</w> 1340
win ds</w> 1340
gan se 1340
wild life</w> 1340
flau schi 1340
g low</w> 1339
pre vi 1339
fi ghter</w> 1339
sk or 1339
rau men</w> 1339
weit er 1339
dinosau ri 1339
urban en</w> 1338
hu man 1337
ma in 1336
wa sche</w> 1336
einfa cher</w> 1336
enjo ys</w> 1336
minu tes</w> 1336
quarter back</w> 1336
abhan gi 1336
men tal 1335
lan gem</w> 1335
stu die</w> 1335
sm aller</w> 1335
trau m 1335
wolken verhan 1335
access ories</w> 1335
celebr ities</w> 1334
enth alt</w> 1334
materi als</w> 1334
il ls</w> 1333
pat rio 1333
stell ten</w> 1333
gesun d 1333
spec ta 1333
con vers 1332
gesch la 1332
ic y</w> 1332
subur b</w> 1332
u pp 1331
son g 1331
wer bung</w> 1331
produ kt</w> 1331
schop fer</w> 1331
jewel ry</w> 1330
ha st</w> 1329
geri chtet</w> 1329
popro ck-kunstler</w> 1329
dru cke</w> 1328
ahn lich</w> 1328
entfer nen</w> 1328
hoh en 1328
o k</w> 1327
en a</w> 1327
al em</w> 1327
stur ms</w> 1327
schlu cht</w> 1327
promin enz</w> 1327
besonder heiten</w> 1327
g le 1326
re stored</w> 1326
ru t 1326
af fe</w> 1326
me ans</w> 1326
me ters</w> 1326
wil li 1326
scen ic</w> 1326
colum ns</w> 1326
sandwi ch</w> 1326
h ed</w> 1325
w ling</w> 1325
er ts</w> 1325
si ons</w> 1325
sho re 1325
win kel 1325
cam ping</w> 1325
hub sch</w> 1325
stret ch</w> 1325
opp or 1325
f ung</w> 1324
ei che</w> 1324
her self</w> 1324
bor ders</w> 1324
vis its</w> 1324
lon ger</w> 1324
oppor tun 1324
ge witter 1323
bau ern</w> 1323
clo ser</w> 1323
prote cted</w> 1323
co mi 1322
pa th 1322
schu t 1322
snow fall</w> 1322
di t</w> 1321
ver letz 1321
ligh ted</w> 1321
rol len</w> 1321
dol ly</w> 1321
geschnit ten</w> 1321
bu ches</w> 1320
zi erten</w> 1320
kon i 1320
incre dible</w> 1320
gefroren en</w> 1320
secur ity</w> 1320
re turns</w> 1319
gab en</w> 1319
reci pes</w> 1319
zu g 1318
bi cycles</w> 1318
blosso ms</w> 1318
ma kro 1317
ru g</w> 1317
sta chel 1317
ber n</w> 1317
stu cks</w> 1317
logi cal</w> 1317
fol ge</w> 1317
install ed</w> 1317
agen cy</w> 1317
- stil</w> 1316
o ven</w> 1316
de scri 1316
am phi 1316
ung sm 1316
kreis en</w> 1316
masco t</w> 1316
o m 1315
mi e 1315
wh ale</w> 1315
roman ce</w> 1315
qual it 1315
er st 1314
re ach</w> 1314
re member</w> 1314
suit case</w> 1314
abo ard</w> 1313
ethni zitat</w> 1313
puzz le</w> 1313
e tage</w> 1312
u fern</w> 1312
end lich</w> 1312
under ground</w> 1312
holz boden</w> 1311
konig lichen</w> 1311
stark em</w> 1311
sta p 1310
her o</w> 1310
the ast</w> 1310
sa ge</w> 1310
cu ps</w> 1310
prepar ed</w> 1310
dome stic</w> 1310
ho sen</w> 1309
co st</w> 1309
cu pi 1309
sor ts</w> 1309
krei de</w> 1309
pop - 1308
accor ding</w> 1308
vergangen heit</w> 1308
e i</w> 1307
u k- 1307
lan der</w> 1307
stad ten</w> 1307
dun e</w> 1307
star k</w> 1307
grap h</w> 1307
cul ture</w> 1307
braun em</w> 1307
multi ple</w> 1307
ha y</w> 1306
brau n</w> 1306
gei st</w> 1306
pro bieren</w> 1304
spe aking</w> 1304
hor ror</w> 1304
blumen muster</w> 1304
prasen tieren</w> 1304
gie ßt</w> 1304
mu m</w> 1303
mini - 1303
kee ps</w> 1303
geform t</w> 1303
konze pt 1302
a qu 1301
de ser 1300
grun ge- 1300
enter ing</w> 1300
gitarri st</w> 1300
rei che</w> 1299
schwi eri 1299
bloo d</w> 1299
uk- premiere</w> 1299
to wers</w> 1298
cro ssed</w> 1298
cli mb</w> 1298
herbst blatter</w> 1298
dru mmer</w> 1298
roman cier</w> 1298
einzel handel</w> 1298
hafen s</w> 1298
exklu si 1298
golden em</w> 1297
fa ce 1296
por tion</w> 1296
land lichen</w> 1296
dar k 1296
ka y 1296
transpar ent 1296
einla dungen</w> 1296
any one</w> 1296
r ently</w> 1295
geschaf fen</w> 1295
pan ning</w> 1295
dramati st</w> 1295
at ely</w> 1294
in j 1293
ra ces</w> 1293
se ating</w> 1293
ter rit 1293
and a</w> 1293
pla kat 1293
produ ktion</w> 1293
belie ve</w> 1293
neue sten</w> 1293
t zi 1292
cla im 1292
industri e 1292
wunder schones</w> 1292
bluh enden</w> 1292
grundri ss</w> 1292
1 7</w> 1291
be il 1291
sti cks</w> 1291
ferien haus</w> 1291
reflexi on</w> 1291
da chte</w> 1290
s se 1289
le iter</w> 1289
qu il 1289
vol u 1289
cre ator</w> 1289
pflan zt</w> 1289
kaf er</w> 1289
fro sch</w> 1288
zen de</w> 1288
finan cial</w> 1288
c in 1287
g ungen</w> 1287
komm erzi 1287
typi sche</w> 1287
leit ung</w> 1287
e bbe</w> 1286
pri mar 1286
cur rently</w> 1286
partici p 1286
stor es</w> 1285
diti ons</w> 1285
grau er</w> 1285
pil low</w> 1285
sna ke</w> 1285
futter t</w> 1285
gent le 1285
phin s</w> 1285
d einen</w> 1284
fa s 1283
vektor kunst 1283
straßen bahn</w> 1283
net te</w> 1283
atta ck</w> 1283
k ts</w> 1282
wa che</w> 1282
ve t</w> 1282
vol can 1282
dol phins</w> 1282
gebir g 1282
chemi cal</w> 1282
d andeli 1281
er scheint</w> 1281
ad van 1281
fri sch 1281
umbrel las</w> 1281
broad casting</w> 1280
remo te</w> 1280
erwachsen e</w> 1280
detailli erte</w> 1280
transport ation</w> 1279
c ell 1278
be finden</w> 1278
veranstal tungen</w> 1278
bemal te</w> 1278
plau dert</w> 1278
guitar ist</w> 1278
prinzess in</w> 1278
favour ite</w> 1278
an zei 1277
pa ired</w> 1277
schie ßen</w> 1277
steh enden</w> 1277
relea se</w> 1277
ge geben</w> 1276
cra sh</w> 1276
ment ar 1276
emer gen 1276
laven der</w> 1276
ra w</w> 1275
baum stu 1275
geschen ken</w> 1275
begle iten</w> 1275
si x 1274
da men</w> 1274
le st</w> 1274
geh ullt</w> 1274
sicht bar</w> 1274
e ps</w> 1273
z wil 1273
mush rooms</w> 1273
land sca 1272
beg ins</w> 1272
oc tober</w> 1272
accesso ires</w> 1272
la bel 1271
win dy</w> 1271
inter views</w> 1271
suß er</w> 1271
tri cks</w> 1270
sur vi 1270
natur lich</w> 1270
recei ves</w> 1270
beleuch tet</w> 1270
verfu gung</w> 1270
ti ght</w> 1269
bu tter</w> 1269
vi ert</w> 1269
vektor nahtloses</w> 1269
. 00 1268
ereig ni 1268
heraus forder 1268
europa premiere</w> 1268
ri pp 1267
national mannschaft</w> 1267
j erse 1266
ge e 1266
par iser</w> 1266
wor th</w> 1266
gesch ir 1266
boar d 1266
retri ever</w> 1266
be wahr 1265
dar gestellt</w> 1265
produ ce</w> 1265
west lichen</w> 1265
sub way</w> 1265
de mo 1264
le erer</w> 1264
po v</w> 1264
19 20 1264
co unter 1263
trou sers</w> 1263
pou red</w> 1263
8 0 1262
ar ts</w> 1262
sch ub 1262
li qu 1262
sti eren</w> 1262
so cks</w> 1262
kunst galerie</w> 1262
film schauspieler</w> 1262
p c</w> 1261
ar z 1261
se ated</w> 1261
besatz ung</w> 1261
ei sk 1260
lo cks</w> 1260
tra m</w> 1260
vi br 1260
buro gebaude</w> 1260
volks fest</w> 1260
emergen cy</w> 1260
vektor muster</w> 1259
zwei ge</w> 1259
be jubelt</w> 1258
hand elt</w> 1258
gru ppen 1258
shor es</w> 1258
schluss el 1258
5 .</w> 1257
in schrift</w> 1257
re tt 1257
clo sing</w> 1257
hel ps</w> 1257
decor ate</w> 1257
hon or</w> 1257
umar m 1257
lear ning</w> 1257
apparte ment</w> 1257
in formation</w> 1256
li ppen 1256
cen sus</w> 1256
galax ie</w> 1256
d ating</w> 1255
li am 1255
unter kun 1255
kranken schwester</w> 1255
b einen</w> 1254
par liam 1254
sur f</w> 1254
nu sse</w> 1254
segel boot</w> 1254
hip ster</w> 1254
magi c</w> 1253
verschwomm enem</w> 1253
in ner</w> 1252
er geb 1252
ent decken</w> 1252
ste tho 1252
clo wn</w> 1252
schran ken</w> 1252
be vor 1251
wa schen</w> 1251
ex po 1251
cli ck</w> 1251
soli d</w> 1251
ra p</w> 1250
gesch wi 1250
com par 1250
high lights</w> 1250
a ct</w> 1249
fro st</w> 1249
ff ed</w> 1249
fru her</w> 1249
bet ten</w> 1249
kurbis se</w> 1249
u fer 1248
ar ded</w> 1248
pi g</w> 1248
pickni ck</w> 1248
fre ude</w> 1247
traditi on</w> 1247
wei chen</w> 1246
fin alen</w> 1246
stro l 1246
effe kt</w> 1246
be wun 1245
ma is 1245
all s</w> 1245
inter section</w> 1245
verti k 1245
einla dung</w> 1245
fiktion ale</w> 1245
electroni c</w> 1245
fre ie</w> 1244
schla ge</w> 1244
schre it</w> 1244
5 00 1243
pat ro 1243
hochwer tige</w> 1243
al um 1242
lat ernen</w> 1242
tie fen</w> 1242
exc ited</w> 1242
subje ct</w> 1242
g one</w> 1241
ru f</w> 1241
ent deck 1241
ck ly</w> 1240
gel s</w> 1240
flu r</w> 1240
d aten</w> 1239
er weit 1239
st ly</w> 1239
be wal 1239
pa ste</w> 1239
stru g 1239
past a</w> 1239
seiten linie</w> 1239
teenager madchen</w> 1239
a sk</w> 1238
el se</w> 1238
kunst werke</w> 1238
kan te</w> 1238
cre ek</w> 1238
tablet t</w> 1238
schmetterlin ge</w> 1238
asp halt</w> 1238
ex tra 1237
vin ey 1237
reih en 1237
verbin det</w> 1237
kap elle</w> 1237
an mu 1236
rea son</w> 1236
farben e</w> 1236
erfol g</w> 1236
schri ften</w> 1235
tul pen</w> 1235
fi cial</w> 1234
lin e 1234
schu ppen</w> 1234
qu arti 1233
tor e</w> 1233
seni or 1233
dekor ativen</w> 1232
e ded</w> 1231
gh ters</w> 1231
lei stung</w> 1231
gener ation</w> 1231
m uni 1230
g l 1230
ro t- 1230
tan k 1230
beru hr 1230
dy na 1230
mensch liche</w> 1230
carri ed</w> 1230
muni ci 1230
ma chten</w> 1229
vor han 1229
bahn - 1229
rosafar bene</w> 1229
banan a</w> 1229
soft -rock-kunstler</w> 1229
elektri sche</w> 1229
ar ena</w> 1228
militar ischen</w> 1228
ma ge</w> 1227
se mp 1227
fi c</w> 1227
stra w</w> 1227
gla mou 1227
stro m</w> 1227
konstru ktion</w> 1227
r s</w> 1226
i phone</w> 1226
dau ghters</w> 1226
geburt stags 1226
en ded</w> 1225
di sea 1225
wol l 1225
any thing</w> 1225
cran e</w> 1225
am ong 1224
8 0</w> 1223
ar my</w> 1223
sk irts</w> 1223
win ding</w> 1223
schir m 1223
minimal ist</w> 1223
k ne 1222
we ite</w> 1222
bi enen</w> 1222
gezeich nete</w> 1222
lok alisiert</w> 1222
consu mer</w> 1222
g um 1221
zu stellen</w> 1221
unter halten</w> 1221
ober en</w> 1221
viol et 1221
vorbereit ung</w> 1221
f itted</w> 1220
th a 1220
gre ets</w> 1220
up coming</w> 1220
verbun den</w> 1220
transparent em</w> 1220
b arri 1219
ma ssi 1219
kt em</w> 1219
gu n</w> 1219
schwimm bad</w> 1219
shel ter</w> 1219
c aus 1218
be er 1218
regen tropfen</w> 1218
kra ft</w> 1218
cha pel</w> 1218
quad rat</w> 1218
inspiri erte</w> 1218
quadrati schen</w> 1218
gefa ß</w> 1218
n ter</w> 1217
z ent 1217
p fi 1217
ma il 1217
stu mp</w> 1217
war ds</w> 1216
he els</w> 1216
inter nationalen</w> 1216
sau men</w> 1216
kran k 1216
kli cken</w> 1216
rel ation 1216
to t 1215
is ed</w> 1215
flo w</w> 1215
jock ey</w> 1215
er end</w> 1214
mu tter 1214
wohn zimmers</w> 1214
com fort</w> 1214
zo om</w> 1214
band an 1214
polizei beam 1214
blit z</w> 1214
gum mi 1214
c g</w> 1213
in tel 1213
weihnachts baums</w> 1213
heil igen</w> 1213
approa ching</w> 1213
gene h 1213
kund gebung</w> 1213
re is</w> 1212
teil weise</w> 1212
among st</w> 1212
al co 1211
ru sti 1211
fil men</w> 1211
offent liche</w> 1211
blei bt</w> 1211
erinn ern</w> 1211
zentr alen</w> 1211
s wer 1210
sa il</w> 1210
del ic 1210
sie d 1210
zun e 1210
kn itted</w> 1210
appro ach</w> 1210
expo sure</w> 1209
si zes</w> 1208
ga st 1208
pra si 1208
fest gemacht</w> 1208
see ms</w> 1208
scar y</w> 1208
bedeu tung</w> 1208
mo wen</w> 1207
ta schen</w> 1207
let tern</w> 1207
schi cken</w> 1207
stil volle</w> 1207
recei ved</w> 1207
bu ses</w> 1206
gra ss 1206
sonnen blumen</w> 1206
constru cted</w> 1206
gewitter wolken</w> 1206
6 0 1205
li ber 1205
pa is 1205
ag ing</w> 1205
ligh tly</w> 1205
my steri 1205
rusti kal 1205
color ing</w> 1204
schmu ck 1204
befesti gt</w> 1204
funk eln 1204
kam en</w> 1203
sand dunen</w> 1203
water front</w> 1203
schutt elt</w> 1203
convers ation</w> 1203
z el</w> 1202
flie ge</w> 1202
schre itet</w> 1202
ti scher</w> 1201
pa ar 1201
spe k 1201
ite te</w> 1201
neue ste</w> 1201
u mp 1200
bir th</w> 1200
stro h 1200
sou p</w> 1200
dark ness</w> 1200
ar mel 1199
ge ssen</w> 1199
de ce 1199
ben den</w> 1199
origin ale</w> 1199
ed itor</w> 1199
aktien vektor</w> 1199
l un 1198
lo wer 1198
lan ges</w> 1198
jo in</w> 1198
pul ls</w> 1198
d ates</w> 1197
po e 1197
sto pp 1197
sche un 1197
lok ale</w> 1197
ri pped</w> 1196
defen sive</w> 1196
sour ce</w> 1196
bescha dig 1196
aufkle ber</w> 1196
a ker</w> 1195
z ern</w> 1195
en gel</w> 1195
on line- 1195
ei ther</w> 1195
ver ruckt</w> 1195
sa van 1195
film aufnahmen</w> 1195
differ ence</w> 1195
sam keit</w> 1194
uber pru 1194
radi o 1194
winzi ge</w> 1194
strahl end</w> 1194
eishockey spieler</w> 1194
de p 1193
me tr 1193
tab lets</w> 1193
ig keiten</w> 1193
schwarz- weißes</w> 1193
pais ley</w> 1193
st it 1192
wei sen</w> 1192
dis ab 1192
f rench</w> 1191
ch at 1191
ma ch</w> 1191
bi e</w> 1191
choo sing</w> 1191
vibr ant</w> 1191
wahr zeichen</w> 1190
pf er</w> 1190
fin als</w> 1190
rei ß 1190
vogel perspektive</w> 1190
ar gu 1189
mi ss</w> 1189
lin ke</w> 1189
gel en 1189
rela x</w> 1189
hal l 1188
le ck 1187
ent gegen</w> 1187
pol it 1187
magi cal</w> 1187
kronleuch ter</w> 1187
auf wan 1186
mon a 1186
besu chs</w> 1186
schla mm</w> 1186
kombin ation</w> 1186
vektorkunst -illustration</w> 1186
entru ms</w> 1185
inst itu 1185
kartoff eln</w> 1185
z wie 1184
fu hlt</w> 1184
hinter en</w> 1184
cock pit</w> 1184
zun ge</w> 1184
tennis spieler</w> 1184
surpri sed</w> 1184
kra fte</w> 1183
by rin 1183
sku chen</w> 1183
obje ct</w> 1183
p unk</w> 1182
4 0 1182
an gular</w> 1182
geo grafische</w> 1182
zit ate</w> 1182
b arti 1181
a chten</w> 1181
la byrin 1181
ad venture</w> 1181
pra cht 1181
coo k</w> 1181
zusatz lich</w> 1181
it em</w> 1180
sta cked</w> 1180
tal lest</w> 1180
vis ited</w> 1180
sor gt</w> 1180
reser vo 1180
h es</w> 1179
u si 1179
ra ke 1179
sp inning</w> 1179
ma xi</w> 1179
bre iten</w> 1179
u- bahn- 1179
er wartet</w> 1178
unter wasser 1178
vor hang</w> 1178
charakter e</w> 1178
dire ction</w> 1177
pen c 1177
trau me</w> 1177
inclu ded</w> 1177
jag d</w> 1177
pfla ster 1177
fa den</w> 1176
ca ses</w> 1176
sonnen schein</w> 1176
lil y</w> 1176
scul p 1176
quali fying</w> 1176
stud ying</w> 1176
casin o</w> 1176
comp ete</w> 1175
hochzeit semp 1175
reve aled</w> 1175
illustr ated</w> 1174
cu ts</w> 1174
air liner</w> 1174
olymp ische</w> 1174
cle aning</w> 1174
herbst - 1174
mini atur 1174
f at</w> 1173
d eine</w> 1173
ver ruck 1173
ne bel 1173
zu stand</w> 1173
displa ying</w> 1173
up - 1173
ani me</w> 1173
pilo t</w> 1173
an blick</w> 1172
li mit 1172
sa ß</w> 1172
lau b 1172
positi ve</w> 1172
t il 1171
fe ss 1171
tur bin 1171
wen ige</w> 1171
st ir 1170
di rty</w> 1170
ru der 1170
ball en</w> 1170
sh ells</w> 1170
ku ss</w> 1170
app e 1170
teil te</w> 1170
himm el 1170
betrie b</w> 1170
gestur es</w> 1170
g ates</w> 1169
le eres</w> 1169
sel l</w> 1169
hel ped</w> 1169
constitu ent</w> 1169
baller ina</w> 1169
er gan 1168
ge worfen</w> 1168
hor ror 1168
pop corn</w> 1168
geh weg</w> 1168
kie fer</w> 1168
sto pped</w> 1167
tatowi eren</w> 1167
freund schafts 1167
elektri schen</w> 1167
zentr ale</w> 1167
e specially</w> 1166
leuch tenden</w> 1166
beson dere</w> 1166
komple x 1166
t i</w> 1165
ge sau 1165
jun e</w> 1165
3 0 1164
le v 1164
sta u</w> 1164
ku hlen</w> 1164
nahtlo ser</w> 1164
magaz ins</w> 1164
sp un 1163
ge trock 1163
organ isi 1163
panor ama 1163
er kunden</w> 1162
en det</w> 1162
be ars</w> 1162
bo hnen</w> 1162
tour is 1162
fer tig</w> 1162
pict ure 1162
glan z</w> 1162
schnei de 1162
fau x</w> 1162
contra st</w> 1162
exo tic</w> 1162
veroffent lich 1162
flo wering</w> 1161
swe at 1161
physi cal</w> 1161
bat ter 1161
schutt eln</w> 1161
questi on</w> 1161
au ction</w> 1160
po tato 1160
san ft</w> 1160
shin es</w> 1160
froh lich</w> 1160
toil ette</w> 1160
regier ungs 1160
potato es</w> 1160
on y</w> 1159
rau cht</w> 1159
dar unter</w> 1159
ster ling</w> 1159
destin ation</w> 1159
ch or</w> 1158
fron t 1158
stain less</w> 1158
geb un 1157
stat te</w> 1157
fig ur 1157
crow ded</w> 1157
san gerin</w> 1157
ornam enten</w> 1157
reservo ir</w> 1157
pa vil 1156
kurz lich</w> 1156
re move</w> 1155
be ans</w> 1155
fra g 1155
uber flu 1155
regi erung</w> 1155
basketball mannschaft</w> 1155
einzigarti ge</w> 1155
entwick lung</w> 1155
verlo bungs 1155
picture sque</w> 1155
te es</w> 1154
tri ko 1154
merk male</w> 1154
ti sches</w> 1153
tra ger</w> 1153
auf bau</w> 1153
pf ei 1153
haupt straße</w> 1153
er schaffen</w> 1152
ge ko 1152
co m</w> 1152
ne eded</w> 1152
mm ed</w> 1152
den n</w> 1152
inspiri eren</w> 1152
schneebedeck te</w> 1152
ti on 1151
and er 1151
po site</w> 1151
part ner 1151
maskott chen</w> 1151
ko pier 1150
op posite</w> 1150
banan as</w> 1150
militarkomm and 1150
adul ts</w> 1150
u sually</w> 1149
ge horen</w> 1149
nach denk 1149
vin e</w> 1149
dau ert</w> 1149
frei willi 1149
ge back 1148
fuhr te</w> 1148
klassi sches</w> 1148
tutor ial</w> 1148
comfor table</w> 1148
ra mp</w> 1147
bal an 1147
win ters</w> 1147
car go</w> 1147
glo bal</w> 1147
in t</w> 1146
stu ck 1146
hei r 1146
posi erte</w> 1146
chan ged</w> 1146
komi schen</w> 1146
ehe frau</w> 1146
17 .</w> 1146
f on 1145
o hren</w> 1145
ausge stat 1145
musik festivals</w> 1145
bede cken</w> 1145
niedri gen</w> 1145
thum bs</w> 1145
un abhangi 1144
ge spen 1144
de di 1144
so cken</w> 1144
hal tung</w> 1144
wunder schoner</w> 1144
fruhling stag</w> 1144
komple x</w> 1144
so ci 1143
tex ten</w> 1143
flag gen 1143
pun kten</w> 1143
hochzeitsklei d</w> 1143
boo ts 1142
spo ts</w> 1142
froh liches</w> 1142
limit ed</w> 1142
re fu 1141
vol kes</w> 1141
pu ppies</w> 1141
zwei gen</w> 1141
remo ved</w> 1141
kapu zen 1141
ste cken</w> 1140
cur ren 1140
typi schen</w> 1140
kalli graphi 1140
bose wicht</w> 1140
perfe kten</w> 1139
erd geschoss</w> 1139
irgend wo</w> 1139
rock- kunstlers</w> 1139
chandeli er</w> 1139
hand les</w> 1138
ce - 1138
ig em</w> 1138
sor ten</w> 1138
glamo rous</w> 1138
do ktor</w> 1137
met all</w> 1137
di eren</w> 1136
gi pf 1136
nah me</w> 1136
prote sters</w> 1136
perfe ctly</w> 1136
li gen 1135
sta hl</w> 1135
con fi 1135
wer ken</w> 1135
pat rou 1135
celebr ated</w> 1135
gele genen</w> 1135
ow ners</w> 1135
er war 1134
ck ter</w> 1134
fo der 1134
ex posed</w> 1134
unter schie 1134
ful l 1134
haupt quarti 1134
ed ler</w> 1134
situ ated</w> 1134
fe der</w> 1133
fe hl 1133
lebensmitt el 1133
entwick elt</w> 1133
gemeinde festes</w> 1133
j am</w> 1132
in ches</w> 1132
me - 1132
wet tei 1132
ra ce 1131
ge halten</w> 1131
sonnen strahlen</w> 1131
min er 1131
verfu g 1131
inde pen 1131
er kl 1130
re gular</w> 1130
sto od</w> 1130
ohr ringe</w> 1130
goo ds</w> 1130
sal t</w> 1129
schmu tzi 1129
bedeck te</w> 1129
meer blick</w> 1129
live - 1129
p ure</w> 1128
mi e</w> 1128
wa sh</w> 1128
ir gen 1128
ze bra 1128
hoch ste</w> 1128
spra y</w> 1128
fisher men</w> 1128
ba sil 1127
bo un 1127
dien en</w> 1127
zimm ern</w> 1127
hon ey</w> 1127
u hr 1126
po w 1126
slo pes</w> 1126
gemu t 1125
provi ded</w> 1125
song writer</w> 1125
en gen</w> 1124
ger ne</w> 1124
servi ces</w> 1124
schwer metallkunstler</w> 1124
ger ate</w> 1123
stur zt</w> 1123
conver ted</w> 1123
wor ked</w> 1122
fußball team</w> 1122
konz entri 1122
v a</w> 1121
di vi 1121
mo beln</w> 1121
stro ll</w> 1121
c rying</w> 1120
ra st</w> 1120
mo hn 1120
sti ck 1120
sty le 1120
char ming</w> 1120
instru ctions</w> 1120
lo wen</w> 1119
bu g</w> 1119
fi ve</w> 1119
sti k</w> 1119
sig h 1119
lay out</w> 1119
well en 1119
di ed</w> 1118
fil mprodu 1118
sen se</w> 1118
ea stern</w> 1118
zeitgenossi sche</w> 1118
kni fe</w> 1118
rustik alen</w> 1118
spek ta 1118
si ck</w> 1117
co tt 1117
stre ssed</w> 1117
film kostum 1117
kur s</w> 1117
m ur 1116
un known</w> 1116
gri zz 1116
retro- stil</w> 1116
me ilen</w> 1115
pa y</w> 1115
gen annt</w> 1115
son gs</w> 1115
sig ning</w> 1115
car ni 1115
pe ar 1115
ph ra 1115
emp fang</w> 1115
bezieh ung</w> 1115
ra p-kunstler</w> 1114
be iten</w> 1114
tra g 1114
fa ke</w> 1114
pu tzt</w> 1114
dire ctly</w> 1114
space craft</w> 1114
gentle man</w> 1114
ta gs 1113
par ty 1113
arti ficial</w> 1113
qu a 1113
gold -</w> 1113
gather ing</w> 1113
hausti er</w> 1113
ganse blumchen</w> 1113
er scheinen</w> 1112
hel ler</w> 1112
tor wart</w> 1112
seri e</w> 1112
presiden tial</w> 1112
ter ns</w> 1111
gen tly</w> 1111
mon tag 1111
engli sche</w> 1111
heil i 1111
tennis spielerin</w> 1111
intel ligen 1111
4 0</w> 1110
ein fuhrung</w> 1110
fu chs</w> 1110
ficti on- 1110
reco g 1110
p lea 1109
it aten</w> 1109
ser y</w> 1109
bren nt</w> 1109
banan en</w> 1109
ne ts</w> 1108
car d 1108
ed it 1108
l li 1107
er st</w> 1107
ho sts</w> 1107
lat erne</w> 1107
star ring</w> 1107
res cue</w> 1107
ptu al</w> 1107
harve st</w> 1107
card board</w> 1107
f j 1106
sch lau 1106
viel fal 1106
life style</w> 1106
teddy bar</w> 1106
i ce 1105
k nei 1105
fla ches</w> 1105
fin ales</w> 1105
kar ten 1105
rei chlich</w> 1105
cti onal</w> 1105
champi ons</w> 1105
ord net</w> 1105
glamo ur</w> 1105
marschi eren</w> 1105
heili gen 1105
ter ri 1104
team kollegen</w> 1104
erhal tlich</w> 1104
for k</w> 1103
unter en</w> 1103
bel i 1103
za pfen</w> 1103
stadt park</w> 1103
conce ptual</w> 1103
kleider schrank</w> 1103
brigh tly</w> 1103
er reicht</w> 1102
re ly</w> 1102
be wachsen 1102
ie - 1102
hi ding</w> 1102
zu gen</w> 1102
fil ling</w> 1102
stein erne</w> 1102
bemal ten</w> 1102
du ck</w> 1101
hor se 1101
deli ver 1101
smoo th 1101
behand elt</w> 1101
individu al</w> 1101
ge we 1100
pe aks</w> 1100
perfor med</w> 1100
pu shing</w> 1100
tra mp 1099
tro ops</w> 1099
dri ve 1099
mel one</w> 1099
z ard</w> 1098
be e 1098
komm uni 1098
stan de</w> 1098
e sel</w> 1097
da pper</w> 1097
kat zen 1097
sea side</w> 1097
tropi scher</w> 1097
explor e</w> 1097
195 0s</w> 1097
sa ying</w> 1096
bade zimmer 1096
viol etten</w> 1096
herunter laden</w> 1096
press ure</w> 1096
ort lichen</w> 1096
sculp tures</w> 1096
er kennen</w> 1095
fa ch 1095
pro posed</w> 1095
reali stische</w> 1095
exhi bit</w> 1095
tipp t</w> 1095
hit ze</w> 1095
challen ge</w> 1095
baumstu mpf</w> 1095
ku ssen</w> 1094
video spiel 1094
militarkommande ur</w> 1094
se it 1093
de ze 1093
su ppe</w> 1093
plan ted</w> 1093
bun t 1093
lay er</w> 1093
ener gie</w> 1093
fj or 1093
in stal 1092
li shed</w> 1092
sh i</w> 1092
be sich 1091
be verage</w> 1091
zu ges</w> 1091
war dro 1091
ent deckt</w> 1091
pi cked</w> 1091
schla ger</w> 1091
oper ating</w> 1091
recei ver</w> 1091
sei l</w> 1091
obje cts</w> 1091
großarti g</w> 1091
schnur r 1091
floo ded</w> 1091
drive way</w> 1091
t w 1090
c lin 1090
ha b 1090
tri angle</w> 1090
bene fit</w> 1090
ham mer</w> 1090
prasiden ten</w> 1090
kerami k 1090
geschwindig keit</w> 1090
3 .</w> 1089
zie gel</w> 1089
kla vier</w> 1089
materi alien</w> 1089
fa sst</w> 1088
dr itte</w> 1088
football - 1088
fluss ufer</w> 1088
offici als</w> 1088
e cu 1087
le af 1087
spi ral</w> 1087
co al</w> 1087
ru sh</w> 1087
ss om</w> 1087
mon des</w> 1087
hand tasche</w> 1087
blo ssom</w> 1087
dramati ker</w> 1087
conne cted</w> 1087
luxu s 1087
spiegel ung</w> 1086
incre a 1086
ch at</w> 1085
is ing</w> 1085
bil ls</w> 1085
isoli ertes</w> 1085
pin e 1085
boar ding</w> 1085
ham mock</w> 1085
technologi e</w> 1085
specta cular</w> 1085
bo ten</w> 1084
ste ak</w> 1084
fin ster 1084
box ing</w> 1084
rein deer</w> 1084
claim ed</w> 1084
da men 1083
bi kes</w> 1083
bru st</w> 1083
luxurio sen</w> 1083
renovi erung</w> 1083
skulp turen</w> 1083
liqu id</w> 1083
m - 1082
4 .</w> 1082
sha king</w> 1082
dis cover</w> 1082
inform ationen</w> 1082
janu ary</w> 1082
dece mber</w> 1082
re ct 1081
po ts</w> 1081
flo oring</w> 1081
snow boarder</w> 1081
gela ssen</w> 1081
wiederbele bungs 1081
amo unt</w> 1081
mo chten</w> 1080
bal ance</w> 1080
ph in</w> 1080
tur me</w> 1080
schu h 1080
hun derte</w> 1080
nu mmer</w> 1080
nahtlo sen</w> 1080
nur sery</w> 1080
e ats</w> 1079
ba bies</w> 1079
pa s 1079
ca pped</w> 1079
ja cht</w> 1079
bou ti 1079
mus ste</w> 1079
boy friend</w> 1079
filmprodu zent</w> 1079
i erten</w> 1078
be es</w> 1078
restauran t 1078
robo t</w> 1078
ho f 1077
se il 1077
star t 1077
nor mal 1077
so ap</w> 1076
fir men 1076
stur mer</w> 1076
behin der 1076
perspe ctive</w> 1076
a iss 1075
la bra 1075
sil y</w> 1075
ren aiss 1075
jo y</w> 1075
cur ved</w> 1075
spei sen</w> 1075
illustr ator</w> 1074
sc rat 1074
tur kis 1074
geschaf ten</w> 1074
contin u 1074
logo schild</w> 1074
sch ung</w> 1073
ur er</w> 1073
lan terns</w> 1073
train s</w> 1073
bere its</w> 1073
plak ate</w> 1073
lieb ling 1073
questi ons</w> 1073
2 00 1072
gen eri 1072
kon ig</w> 1072
auß ere</w> 1072
rech te 1072
tou ches</w> 1072
eroffnungs zeremonie</w> 1072
gesun de</w> 1072
trei bt</w> 1072
in vol 1071
su shi</w> 1071
war n 1071
pro cess</w> 1071
fin ishing</w> 1071
liebe spaar</w> 1071
gesell schaft</w> 1071
w r 1070
ha hn</w> 1070
af ro 1070
bau ch</w> 1070
pe di 1070
gu ys</w> 1070
neu jahrs 1070
glau ben</w> 1070
196 0s</w> 1070
a po 1069
li sten</w> 1069
famil i 1069
sty ling</w> 1069
gewal t</w> 1069
v ent</w> 1068
a cou 1067
pro to 1067
so und</w> 1067
fußball ball</w> 1067
schla fen 1067
zen ten</w> 1067
fashion able</w> 1067
w ron 1066
li fting</w> 1066
we ath 1066
ub en</w> 1066
fir ma</w> 1066
20 th</w> 1066
akro sse</w> 1066
mi scher</w> 1065
fo cu 1065
k lettern</w> 1064
er richtet</w> 1064
ge denk 1064
bil l</w> 1064
ga bel</w> 1064
plat ze</w> 1064
nu ss</w> 1064
eigen e</w> 1064
bul b</w> 1064
schrift stell 1064
shore line</w> 1064
e ye 1062
k erin</w> 1062
fußball trainer</w> 1062
reno vated</w> 1062
b auf 1061
plan ting</w> 1061
stand ar 1061
athle tes</w> 1061
prote sts</w> 1061
mittelalter liche</w> 1061
aufmerk samkeit</w> 1061
ch mal</w> 1060
re ste</w> 1060
bu sh</w> 1060
man chmal</w> 1060
ell em</w> 1060
diti onal</w> 1060
sie ger 1060
spazier gan 1060
lein wanden</w> 1060
k te 1059
er hell 1059
stu ffed</w> 1059
ea sily</w> 1059
lacheln des</w> 1059
institu tion</w> 1059
re presenting</w> 1058
pi ge 1058
char man 1058
beg an</w> 1058
glet scher</w> 1058
schaufen ster</w> 1058
e mor 1057
p anda</w> 1057
am y</w> 1057
ru stung</w> 1057
ger at</w> 1057
kti ven</w> 1057
west kuste</w> 1057
past el</w> 1057
disea se</w> 1057
ub ungen</w> 1056
wor ten</w> 1056
sa x 1056
mad chen 1056
atur es</w> 1056
reze pte</w> 1056
r ent 1055
al though</w> 1055
regi ster</w> 1055
lad der</w> 1055
af fe 1054
rau ch 1054
gla cier</w> 1054
schi chten</w> 1054
schnur sen 1054
wissenschaft ler</w> 1054
l ens</w> 1053
ch ir 1053
re sorts</w> 1053
lin ge</w> 1053
fern sehen</w> 1053
qui ckly</w> 1053
cyc ling</w> 1053
dimen sion 1053
febru ary</w> 1053
acou stic</w> 1053
gen au</w> 1052
vie wing</w> 1052
tu te</w> 1052
swa ying</w> 1052
bra cel 1051
erstaun liche</w> 1051
bracel et</w> 1051
sch er 1050
be arded</w> 1050
her vor</w> 1050
fre ies</w> 1050
gre ich</w> 1050
bull do 1050
philosop her</w> 1050
bu ste</w> 1049
do cks</w> 1049
auf treten</w> 1049
the men 1049
go ats</w> 1049
flu ssig 1049
film t</w> 1049
h art</w> 1048
in die 1048
la b 1048
se its</w> 1048
sta - 1048
po ppy</w> 1048
do kt 1048
rau ms</w> 1048
gesich ts</w> 1048
seni oren</w> 1048
ziegel wand</w> 1048
straw berry</w> 1048
veroffent licht</w> 1048
kopfhor er</w> 1048
ge brau 1047
co di 1047
practi cing</w> 1047
einsam en</w> 1047
lande bahn</w> 1047
hange matte</w> 1047
cano e</w> 1047
wiederbelebungs struktur</w> 1047
h en 1046
hi ker</w> 1046
sen s</w> 1046
3d- darstellung</w> 1046
residen z</w> 1046
qualit ativ</w> 1046
y - 1045
mo t 1045
ati c</w> 1045
ab schnitt</w> 1045
ko kos 1045
sa fe 1045
bluh ende</w> 1045
marki ert</w> 1045
1 . 1044
ma ma</w> 1044
lo us</w> 1044
ten ni 1044
gu tes</w> 1044
digit ales</w> 1044
won der</w> 1044
genu tzt</w> 1044
amu sement</w> 1044
b ells</w> 1043
re cht</w> 1043
si eren</w> 1043
bri cks</w> 1043
bar er</w> 1043
comm emor 1043
durch qu 1043
mitglie dern</w> 1043
tot ally</w> 1043
wi d 1042
mal erischen</w> 1042
lau gh</w> 1042
sol o</w> 1042
pri me</w> 1042
fernseh programm</w> 1042
elegan ten</w> 1042
bene fits</w> 1042
po sen</w> 1041
bre ite</w> 1041
einzel ne</w> 1040
skat et</w> 1040
zahlen symbols</w> 1040
al kunstler</w> 1039
al arm</w> 1039
berg stei 1039
oper a</w> 1039
wick elt</w> 1039
fresh ly</w> 1039
hu g</w> 1038
schon em</w> 1038
19 4 1038
sou l 1038
deser ted</w> 1038
wron g</w> 1038
al ko 1037
ou ter</w> 1037
fi r</w> 1037
regi e</w> 1037
kirsch bluten</w> 1037
hill side</w> 1037
bandan na</w> 1037
gel aden</w> 1036
produ ktions 1036
sou thwest</w> 1036
spo t 1036
besonder en</w> 1036
sei den 1036
fit ness</w> 1036
hochzeitsemp fang</w> 1036
wardro be</w> 1036
fin ding</w> 1035
histor ischer</w> 1035
recei ving</w> 1035
verlie bt</w> 1035
mon ster</w> 1034
land schaften</w> 1034
run ners</w> 1034
plat tform</w> 1034
nation ale</w> 1034
geschafts leuten</w> 1034
chan ges</w> 1034
kunstl ern</w> 1034
glanzen de</w> 1034
mi gran 1033
be din 1033
de ca 1033
vor teile</w> 1033
spa ces</w> 1033
d einem</w> 1032
g ation</w> 1032
en ters</w> 1032
unter schied</w> 1032
vektor grafik</w> 1032
eg al</w> 1032
re du 1031
ver schmu 1031
sen s 1031
sprin g 1031
ski ern</w> 1031
farbi ger</w> 1031
spen ding</w> 1031
klu b</w> 1031
mag ni 1031
turbin es</w> 1031
. .</w> 1030
in genie 1030
rea sons</w> 1030
defin ition</w> 1030
six th</w> 1030
board walk</w> 1030
lan det</w> 1029
no min 1029
hand ler</w> 1029
cra shing</w> 1029
geform te</w> 1029
gebro chen 1029
dun nen</w> 1028
u s 1027
in ie</w> 1027
ta schen 1027
auf gestellt</w> 1027
ab schluss</w> 1027
yo un 1027
ele vated</w> 1027
spar en</w> 1027
baum stam 1027
gang sta</w> 1027
ein gangs 1026
ei ser 1026
sea son 1026
hochzeits fotos</w> 1026
s aus 1025
ra ise</w> 1025
k einen</w> 1024
m iti 1024
al tar</w> 1024
sch atten 1024
he ck</w> 1024
ci dent</w> 1024
du ty</w> 1024
go ssen</w> 1024
ger et 1024
kra n</w> 1024
mona stery</w> 1024
we il 1023
mu sk 1023
nach richten</w> 1023
tri ck</w> 1023
tran siti 1023
motor rad 1023
geschlo ssenen</w> 1023
n ation</w> 1022
an an 1022
ge wol 1022
bau arbeiter</w> 1022
ex ce 1022
ex ecu 1022
ad ditional</w> 1022
she p 1022
ssa al</w> 1022
atemberauben den</w> 1022
beher ber 1022
sch ra 1021
li k 1021
pu g</w> 1021
glei se</w> 1021
gang sta- 1021
bogen brucke</w> 1021
dood le</w> 1021
wr ite</w> 1021
be mer 1020
wa ist</w> 1020
do sten</w> 1020
fla me</w> 1020
nam es</w> 1020
anten nen 1020
jahres zeit</w> 1020
p end 1019
fahr rader</w> 1019
gru ßen</w> 1019
plat zes</w> 1019
pflan z 1019
20 .</w> 1019
valent in 1019
chir ur 1019
h ung</w> 1018
e ze</w> 1018
er baut</w> 1018
spi rit 1018
su its</w> 1018
temp els</w> 1018
water falls</w> 1018
beg in</w> 1018
eig net</w> 1018
safe ty</w> 1018
h aufen</w> 1017
k ie</w> 1017
an wei 1017
it ely</w> 1017
mo ments</w> 1017
pa go 1017
auf tr 1017
ca pture</w> 1017
mon ats</w> 1017
sto ve</w> 1017
isoli erter</w> 1017
plat ziert</w> 1017
arch a 1017
schie ß 1017
gei ge</w> 1017
design erin</w> 1017
sail boat</w> 1017
kopfhor ern</w> 1017
rake te</w> 1017
finster nis</w> 1017
erhell t</w> 1017
ta ssen</w> 1016
train iert</w> 1016
gru pp 1016
ausge zeichnet</w> 1016
er fahr 1015
di ffi 1015
on y 1015
je cted</w> 1015
char ge</w> 1015
pra yer</w> 1015
vat ers</w> 1015
diffi cul 1015
e cli 1014
ge fallt</w> 1014
zu falli 1014
whe ther</w> 1014
weg wei 1014
at tered</w> 1013
se g 1013
pro m</w> 1013
sport ver 1013
ak a 1013
form ationen</w> 1013
roman tische</w> 1013
lay ers</w> 1013
riesig er</w> 1013
delic ate</w> 1013
tw ist</w> 1013
pi x 1012
cro pped</w> 1012
ahn elt</w> 1012
be que 1011
off ering</w> 1011
film festivals</w> 1011
verbin dung</w> 1011
marri age</w> 1011
s p</w> 1010
ein same</w> 1010
br it 1010
nu tz 1010
model le</w> 1010
mel on</w> 1010
mensch licher</w> 1010
e chte</w> 1009
f tigen</w> 1009
sp ur 1009
ru ft</w> 1009
op y</w> 1009
wild bahn</w> 1009
eroffn ung 1009
chine se</w> 1009
lin ing</w> 1008
17 th</w> 1008
kombin iert</w> 1008
touch ing</w> 1007
glei che</w> 1007
lip stick</w> 1007
g ling</w> 1006
er mog 1006
la den 1006
ri der</w> 1006
co de</w> 1006
musi cians</w> 1006
spe ct 1006
sna ck</w> 1006
gur tel</w> 1006
ad mi 1005
hor n</w> 1005
slee ves</w> 1005
zeitgenossi schen</w> 1005
psychedel ic</w> 1005
agri cultural</w> 1005
munici pal 1005
her stellung</w> 1004
sa che</w> 1004
lauf e</w> 1004
cou ples</w> 1004
ed len</w> 1004
progre ssiver</w> 1004
mai ds</w> 1004
te stelle</w> 1003
vie w 1003
unter geh 1003
hoch sten</w> 1003
sie ger</w> 1003
tren digen</w> 1003
neugebor enes</w> 1003
di chten</w> 1002
for dern</w> 1002
ke ts</w> 1002
cro codi 1002
tren nt</w> 1002
kul tur 1002
be it 1001
tre at 1001
tri angles</w> 1001
cre ates</w> 1001
chi ckens</w> 1001
vollstan dige</w> 1001
phra se</w> 1001
fuß weg</w> 1000
wind mill</w> 1000
oc ca 1000
pet als</w> 1000
zuschau er</w> 1000
p per 999
pre ise</w> 999
sh ares</w> 999
sonni ger</w> 999
bele bten</w> 999
every day</w> 999
deli very</w> 999
explor ing</w> 999
occa sion</w> 999
di verse</w> 998
ssi ert</w> 998
cro ss 998
tab by</w> 998
blue skunst 998
szen erie</w> 998
liebe s 998
s lightly</w> 997
be stimm 997
k an</w> 996
sch ad 996
per gol 996
se tzung</w> 996
zu ge 996
zeu ge</w> 996
cti c</w> 996
groß em</w> 996
oze ans</w> 996
ton gue</w> 996
oldti mer 996
mi ssi 995
ver folgt</w> 995
sto ßen</w> 995
sol ar 995
stil vollen</w> 995
note book</w> 995
s wan 994
auf ger 994
lie genden</w> 994
sand als</w> 994
konze ptu 994
dess erts</w> 994
sternen himmel</w> 994
i mm 993
er kun 993
ba ked</w> 993
me aning</w> 993
wieder hol 993
work shop</w> 993
lower case</w> 993
sch orn 992
be tet</w> 992
letz ter</w> 992
straßen szene</w> 992
separ ate</w> 992
gra ssy</w> 991
politi kern</w> 991
che ap</w> 991
atemberau bend</w> 991
schw eren</w> 991
hall way</w> 991
sch ab 990
bil dungs 990
sh u 990
ze hn 990
dre sser</w> 990
tri ed</w> 990
cre dit</w> 990
cra cked</w> 990
alli g 990
mea sur 990
be kleidung</w> 989
me d 989
win digen</w> 989
armb and</w> 989
labyrin th</w> 989
v eil</w> 988
ch tes</w> 988
ro rt</w> 988
gel ander</w> 988
stri ke</w> 988
shar k</w> 988
geho ben</w> 988
ma is</w> 987
pre ssing</w> 987
fil me</w> 987
.. ..</w> 987
tei g</w> 987
hochzeits feier</w> 987
krit zel 987
panorama blick</w> 987
ba c 986
ir y</w> 986
ne arly</w> 986
tri ump 986
kor allen</w> 986
comm u 986
movi es</w> 986
f ed</w> 985
di sche</w> 985
con ditions</w> 985
gel o 985
uni denti 985
hard ware</w> 985
buro s</w> 985
einzel nen</w> 984
ge fal 983
se wing</w> 983
dra ht</w> 983
plan en</w> 983
geburtstag skuchen</w> 983
destro yed</w> 983
se ats</w> 982
ent ur 982
tri bal</w> 982
sp lit</w> 981
gro c 981
sport anlage</w> 981
fun ften</w> 981
cli ent</w> 981
iz ed</w> 981
wander weg</w> 981
loo ping</w> 980
ger y</w> 980
195 0er</w> 980
tablet- computer</w> 980
label s</w> 980
zune hmen</w> 980
an ces</w> 979
di stant</w> 979
ssi gen</w> 979
ful lten</w> 979
ski fahrer</w> 979
sci en 979
profi - 979
anwei sungen</w> 979
c able</w> 978
ter min</w> 978
pf ing 978
ku li 978
del fine</w> 978
vil la 978
hy bri 978
sna cks</w> 978
liefer wagen</w> 978
adverti sing</w> 978
pfing stro 978
ra thaus</w> 977
la p</w> 977
se itig</w> 977
fu ttern</w> 977
sit com</w> 977
ja gt</w> 977
blo wn</w> 977
origin al 977
regisse urs</w> 977
bese tzung</w> 977
notiz buch</w> 977
pow der</w> 977
in en 976
ci p 976
nor mal</w> 976
reg ale</w> 976
can opy</w> 976
schlit ten</w> 976
swin ging</w> 976
illu stri 975
konferen z 975
vogel s</w> 975
provi des</w> 975
deci ded</w> 975
w ri 974
ti ons</w> 974
wa vy</w> 974
ver wal 974
flo ats</w> 974
wand elt</w> 974
chan nel</w> 974
brin ging</w> 974
abenteu er</w> 974
jerse y</w> 974
chat ting</w> 974
sto ß</w> 973
bar es</w> 973
za hne</w> 973
ingre dient</w> 973
be zeichnet</w> 972
pol lu 972
zie gen</w> 972
finan z 972
lein wand</w> 972
on ne</w> 971
la ck</w> 971
me ga 971
roun ded</w> 971
high - 971
defin itely</w> 971
side en</w> 971
gangsta- rap-kunstler</w> 971
po ppies</w> 970
dre har 970
gebur t</w> 970
ehe mann</w> 970
bene fi 970
defin iti 970
verlassen es</w> 970
congratul ated</w> 970
drehar beiten</w> 970
u hren</w> 969
au ssa 969
cre me</w> 969
che fs</w> 969
cheer leaders</w> 969
relation ship</w> 969
disab led</w> 969
h li 968
i dent 968
v itat</w> 968
ein gezeichnet</w> 968
ver witter 968
sand alen</w> 968
offent lichkeit</w> 968
partici pants</w> 968
avo ca 968
organis ms</w> 967
di stin 966
ge ar</w> 966
pro f 966
cu b</w> 966
tri m</w> 966
don key</w> 966
einkaufs wagen</w> 966
search ing</w> 966
volunte ers</w> 966
arme l</w> 966
unidenti fied</w> 966
ball on</w> 965
fre ih 965
schi cht</w> 965
flor ale</w> 965
dramati schen</w> 965
kurz em</w> 965
golf platz</w> 965
unterstutz er</w> 965
ereigni sses</w> 965
e pic</w> 964
mi ete</w> 964
tr un 964
stu ff</w> 964
univer se</w> 964
ziegel mauer</w> 964
butt ons</w> 964
anzei ge</w> 964
spun kt</w> 964
c m</w> 963
pa pers</w> 963
do cked</w> 963
kon su 963
wohn bereich</w> 963
sten s</w> 963
gri d</w> 963
offizi elle</w> 963
still leben</w> 963
bril len</w> 963
in ti 962
sp u 962
coun t</w> 962
kno chen</w> 962
home made</w> 962
care er</w> 962
einhei mische</w> 962
danger ous</w> 962
en velop 961
be ute</w> 961
sta aten</w> 961
dun ne</w> 961
winter landschaft</w> 961
dor f 961
res cu 961
mittl eren</w> 961
er hebt</w> 960
ba ss</w> 960
der zeit</w> 960
kari k 960
meda il 960
e ur 959
be ere</w> 959
kun de</w> 959
glo ck 959
teenag ers</w> 959
partici pat 959
al tem</w> 958
on s 958
be treten</w> 958
ste pp 958
grun de</w> 958
ori um</w> 958
trau ung</w> 958
ange ordnet</w> 958
wich tig</w> 958
5 00</w> 957
wh ite 957
pa ckt</w> 957
gen er</w> 957
car ving</w> 957
star ing</w> 957
dan ken</w> 957
dig ung</w> 957
box en</w> 957
renn fahrer</w> 957
l ungen</w> 956
ter ing</w> 956
mo ose</w> 956
cou ra 956
loc als</w> 956
kal ender</w> 956
leg al</w> 956
krei se</w> 956
zusatz liche</w> 956
soul -kunstler</w> 956
se al</w> 955
ung sk 955
cha o 955
hon oring</w> 955
6 0</w> 954
ho hl 954
pa are</w> 954
wi der</w> 954
play off</w> 954
kon zi 954
star ker</w> 954
ven ten</w> 954
rot wein</w> 954
maß ige</w> 954
jahre stag</w> 954
schnurr bart</w> 954
ecli pse</w> 954
wh il 953
fla mme</w> 953
wel cher</w> 953
bro ke</w> 953
gefu gt</w> 953
schmetterlin gen</w> 953
wrest ler</w> 953
carni val</w> 953
si del 952
ze ile</w> 952
flu cht</w> 952
produ ced</w> 952
brau che</w> 952
fernseh moderator</w> 952
huhn er 952
penc ils</w> 952
whil st</w> 952
hou sing</w> 951
dien st</w> 951
vent h</w> 951
big ger</w> 951
m te</w> 950
in su 950
ro ts</w> 950
mi gr 950
win dra 950
bar be 950
pil ze</w> 950
kie sel 950
einzigarti gen</w> 950
activ ity</w> 950
er b 949
al itat</w> 949
ge wand</w> 949
ta ille</w> 949
sti cking</w> 949
ko sten</w> 949
mon itor</w> 949
fahrzeu gen</w> 949
e benen</w> 948
- design</w> 948
i schem</w> 948
st ert</w> 948
ra h 948
be ten</w> 948
da iry</w> 948
gra v 948
sin e</w> 948
hau be</w> 948
orangefarben e</w> 948
skelet on</w> 948
s quar 947
sit es</w> 947
pf und</w> 947
ce ful</w> 947
pat ch</w> 947
damp f 947
scien ce- 947
g ged</w> 946
ein mal</w> 946
ein iger</w> 946
ei ern</w> 946
ei sen</w> 946
wa ke</w> 946
ver mei 946
geb er</w> 946
kaffee tasse</w> 946
er na 945
ri g</w> 945
win ners</w> 945
bi ert</w> 945
bri dges</w> 945
dar y</w> 945
pha se</w> 945
viol in</w> 945
geschwi ster</w> 945
la w</w> 944
lo we</w> 944
illustr ations 944
vor saison 944
ju red</w> 944
hei ße</w> 944
cap tain</w> 944
weath ered</w> 944
o ko 943
be schri 943
tra f</w> 943
pa pa 943
ss lich</w> 942
beherber gt</w> 942
pergol a</w> 942
spi ces</w> 941
auf stieg</w> 941
br iti 941
sna il</w> 941
gor illa</w> 941
k it</w> 940
el f</w> 940
mo we</w> 940
ben s</w> 940
lea st</w> 940
beson ders</w> 940
benefi z 940
r o</w> 939
ri ver 939
to pus</w> 939
and ers</w> 939
boo t 939
dr itt 939
weit eren</w> 939
stadt bild</w> 939
inclu de</w> 939
elegan te</w> 939
emoti onal</w> 939
pyrami d</w> 939
il ien</w> 938
sp ur</w> 938
per ha 938
stu ten</w> 938
modi sche</w> 938
eur o</w> 938
ar rows</w> 937
ri ss</w> 937
colle cting</w> 937
buch autor</w> 937
be dur 936
ti p</w> 936
kan u</w> 936
lei den 936
fur nis 936
sna p</w> 936
relax ed</w> 936
oo oo 936
ank le</w> 936
y ou 935
2 5</w> 935
in jured</w> 935
ma themati 935
ver klei 935
man gro 935
stu hl 935
her ausge 935
absol venten</w> 935
noti zen</w> 935
teu ersten</w> 935
trav els</w> 935
prasi dent 935
e ta 934
te ter</w> 934
ko di 934
gi eri 934
den se</w> 934
kar ri 934
fore sts</w> 934
jahri gen</w> 934
at en 933
da m</w> 933
ba ge</w> 933
to d</w> 933
me ti 933
plan tage</w> 933
ruck en 933
rol ls</w> 933
shar p</w> 933
gestal tet</w> 933
prasiden t</w> 933
c af 932
a stra</w> 932
en or 932
te st 932
wi se</w> 932
vis u 932
journ ali 932
face book</w> 932
c ist</w> 931
di se</w> 931
fu gt</w> 931
bath rooms</w> 931
combin ation</w> 931
di ri 930
se qu 930
gro ws</w> 930
kun gen</w> 930
schne cke</w> 930
chen den</w> 930
vo rort</w> 930
sea sons</w> 930
frie den 930
6 th</w> 929
al ters</w> 929
me mber 929
do se</w> 929
prote ct</w> 929
fernseh produzent</w> 929
rehear sal</w> 929
perha ps</w> 929
n de</w> 928
be gluckwun 928
mo hn</w> 928
wo chen</w> 928
hau t 928
plan ning</w> 928
farb ung</w> 928
bren n 928
ang st</w> 928
brennen de</w> 928
science- fiction- 928
be ams</w> 927
pa stell 927
let zt</w> 927
thro nt</w> 927
kru g</w> 927
begluckwun scht</w> 927
a ther</w> 926
ta pe</w> 926
vie h</w> 926
ex pan 926
com pass</w> 926
froh es</w> 926
pel z 926
197 0s</w> 926
ufer promenade</w> 926
re view</w> 925
bal let 925
flo at</w> 925
tur ms</w> 925
tape ten</w> 925
green ery</w> 925
m lich</w> 924
se ssel</w> 924
aus blicke</w> 924
carto ons</w> 924
pil lows</w> 924
kosten lose</w> 924
acry l</w> 924
ok tober</w> 924
ma h 923
schu tz</w> 923
kro kodi 923
ange gangen</w> 923
bankno tes</w> 923
geheim nis 923
an geln</w> 922
ge fuhrt</w> 922
lan den</w> 922
pho to 922
tri bun 922
logo -symbol</w> 922
kostu men</w> 922
lippen stift</w> 922
ar ab 921
ber flache</w> 921
je mals</w> 921
pol ar 921
cool e</w> 921
power ed</w> 921
seagul ls</w> 921
metro polit 921
ge g 920
pol len</w> 920
oli ven</w> 920
rest s</w> 920
zie mlich</w> 920
berg landschaft</w> 920
design - 920
schlagzeu ger</w> 920
scha den</w> 919
pon y</w> 919
gras bewachsen 919
9 0s</w> 918
ar ed</w> 918
ti gung</w> 918
lie bt</w> 918
fahr enden</w> 918
za hn</w> 918
rol lt</w> 918
cran es</w> 918
nehm erin</w> 918
playoff s</w> 918
schmer zen</w> 918
co zy</w> 917
sta che</w> 917
kin ds</w> 917
regen schir 917
scen ery</w> 917
gli mp 917
d ding</w> 916
1 3</w> 916
ch se</w> 916
to a 916
sy mp 916
schi enen</w> 916
flie ß 916
automobil en</w> 916
comm uni 916
zo o 916
bed ruck 916
oni eren</w> 916
w a</w> 915
sin gs</w> 915
land mark</w> 915
kre ation</w> 915
nam ens</w> 915
musik festival</w> 915
form ations</w> 915
fur ther</w> 915
gegen seitig</w> 915
handgezeich netes</w> 915
surf brett</w> 915
mand ala</w> 915
unve iled</w> 915
konzi piert</w> 915
e chten</w> 914
ele vation</w> 914
bun gal 914
rea gieren</w> 914
fahrzeu g 914
rel ated</w> 914
lamp s</w> 914
pflu ckt</w> 914
musk eln</w> 914
n erin</w> 913
lu cky</w> 913
tre ss</w> 913
bro cken</w> 913
contain ing</w> 913
surf ers</w> 913
flat s</w> 913
steu er</w> 913
erkl art</w> 913
lo vers</w> 912
mat ter</w> 912
land haus</w> 912
musik alische</w> 912
anti qu 912
schur ken</w> 912
ask ed</w> 912
e scape</w> 911
mi eten</w> 911
ma ps</w> 911
coo ked</w> 911
außen ansicht</w> 911
cockta il 911
college- fußballspiels</w> 911
hou se 910
je well 910
pump s</w> 910
contin ues</w> 910
in no 909
ch im 909
wei den 909
zu kun 909
sti gen</w> 909
bru cken</w> 909
kur ve</w> 909
mun dung</w> 909
gest ure</w> 909
interessan te</w> 909
landwirt schaft 909
n ut</w> 908
pa in</w> 908
br illi 908
unter sucht</w> 908
bir ch</w> 908
kle in</w> 908
gesun des</w> 908
gelegen heiten</w> 908
klo ster</w> 908
repe at</w> 908
wegwei ser</w> 908
ra bat 907
lie ß</w> 907
nach richt</w> 907
flu t</w> 907
politi cians</w> 907
bet on</w> 907
sat in</w> 907
pil ls</w> 907
hock ey 907
tit el 907
stadt teil</w> 907
stran de</w> 907
compo site</w> 907
kostu me</w> 907
impre ssion</w> 907
atemberauben de</w> 907
recog ni 907
jun i</w> 906
wohn haus</w> 906
exercis es</w> 906
kar o 905
tru ppen</w> 905
stadi ons</w> 905
vit aten</w> 905
versamm elten</w> 905
anan as</w> 905
ru ssi 904
tra kt 904
sa ils</w> 904
film standort</w> 904
dun g 904
zel ten</w> 904
laun ched</w> 904
wech sel 904
verkehrs schild</w> 904
shep herd</w> 904
or che 903
de gre 903
man i 903
ste pped</w> 903
far bt</w> 903
profe ss 903
grei fen</w> 903
g un 902
in v 902
ver folgen</w> 902
dandeli on</w> 902
soci al 902
un dated</w> 901
fi g</w> 901
sk ating</w> 901
ku geln</w> 901
hor ns</w> 901
wil der</w> 901
plan tation</w> 901
bun tem</w> 901
sal mon</w> 901
kro nen</w> 901
lieb te</w> 901
niedri ger</w> 901
gefa hr</w> 901
dedi cated</w> 901
ti res</w> 900
wo bei</w> 900
come dy 900
maß ig</w> 900
schur ke</w> 900
umwelt schutz 900
jen igen</w> 900
t ine</w> 899
ver si 899
fri schem</w> 899
uni versu 899
tau ben</w> 899
grand mother</w> 899
geschenk box</w> 899
y ards</w> 898
wa l</w> 898
wee ks</w> 898
nor dlichen</w> 898
weihnachts lichter</w> 898
verleih ung</w> 898
olymp ischen</w> 898
romanti sches</w> 898
tank stelle</w> 898
ge gossen</w> 897
lo cken</w> 897
bi gen</w> 897
run ner</w> 897
tri o</w> 897
fashi oned</w> 897
wasser oberflache</w> 897
p le 896
mo ther 896
play ful</w> 896
con verti 896
ori ent 896
kle bt</w> 896
kontrol le</w> 896
brautjung fern</w> 896
barbe cue</w> 896
b o</w> 895
sil k</w> 895
pu ddle</w> 895
comp eting</w> 895
leben digen</w> 895
beru hrt</w> 895
surf ing</w> 895
bauf un 895
converti ble</w> 895
ma i</w> 894
bo ss</w> 894
pa irs</w> 894
pf ir 894
steh ende</w> 894
blon den</w> 894
pickni ck 894
lowen zahn</w> 894
cott on</w> 894
se venth</w> 893
ru he</w> 893
fi x</w> 893
ce man</w> 893
sol len</w> 893
fahrzeu gs</w> 893
loa ding</w> 893
greet ings</w> 893
in f 892
we h 892
pa ssed</w> 892
mar mor 892
sor gfal 892
orangefarben er</w> 892
promo te</w> 892
vergnu g 892
marath on</w> 892
li g</w> 891
auf s</w> 891
wor te</w> 891
vorder en</w> 891
my self</w> 891
pick up</w> 891
16 .</w> 891
quadrati sche</w> 891
wettbewer bs</w> 891
ulti mate</w> 891
lei st 890
schi ffen</w> 890
scho ol 890
coo kie</w> 890
t wil 889
ad ver 889
robo ter</w> 889
cycli sts</w> 889
twil ight</w> 889
gra sses</w> 888
wer ks</w> 888
gh s</w> 888
fore ver</w> 888
ehr en 888
attemp t</w> 888
lik ely</w> 888
re solution</w> 887
la kes</w> 887
ge wich 887
lat te</w> 887
stran ge</w> 887
gescho ssen</w> 887
allo wed</w> 887
sch were</w> 886
na ge</w> 886
wat ched</w> 886
sonnen blume</w> 886
gluhbir ne</w> 886
t in</w> 885
ra il</w> 885
ta iled</w> 885
str ate 885
dinosau r</w> 885
brides maids</w> 885
ge fahren</w> 884
ver wir 884
cam p 884
simp ly</w> 884
resu l 884
jewell ery</w> 884
in flu 883
th ol 883
ta kt</w> 883
rin gen</w> 883
bio - 883
ty pe 883
hy m 883
recor ding</w> 883
bankno ten</w> 883
z ol 882
ge trie 882
war ming</w> 882
lich sten</w> 882
eigen es</w> 882
modi schen</w> 882
fi ktion</w> 881
zu bereitet</w> 881
et ten 881
tre ppen 881
gel d 881
scar ed</w> 881
scri pt</w> 881
er lau 880
et wa</w> 880
ft em</w> 880
fernseh figur</w> 880
emb racing</w> 880
be schaf 879
je ep</w> 879
sur fen</w> 879
wun schte</w> 879
roo ster</w> 879
bedeck ten</w> 879
gesam te</w> 879
embroi dered</w> 879
spekta kul 879
h o</w> 878
bu sch</w> 878
gin gen</w> 878
flie gende</w> 878
rea ches</w> 878
rol led</w> 878
stur mischen</w> 878
poin ted</w> 878
render ed</w> 878
heiß luftballon</w> 878
etiket ten</w> 878
freitag abend</w> 878
beein druck 878
fas zin 878
beit ra 878
sto re 877
schn elle</w> 877
fol ding</w> 877
fol ded</w> 877
flor ist</w> 877
moti v 877
gesun den</w> 877
leit ungen</w> 877
discu ssing</w> 877
y ers</w> 876
urlau bs</w> 876
gran ite</w> 876
flugzeug modell</w> 876
musc les</w> 876
di c</w> 875
ba s 875
suß igkeiten</w> 875
stret ched</w> 875
hym ne</w> 875
e ss</w> 874
o hr</w> 874
ein fahrt</w> 874
di ves</w> 874
bi l</w> 874
ran g</w> 874
sam stag 874
dun kel</w> 874
oper n 874
markt stand</w> 874
li mou 873
ri dor</w> 873
to pped</w> 873
sta ble</w> 873
han de 873
lap tops</w> 873
kit tens</w> 873
wieder holen</w> 873
klar em</w> 873
pfu tze</w> 873
heirat et</w> 873
curren cy</w> 873
ch in 872
ch eln</w> 872
se mi 872
cu shi 872
contin ue</w> 872
swa n</w> 872
educ ation</w> 872
ware house</w> 872
hal t 871
her zo 871
unterkun ft 871
er hoh 870
ver stei 870
her steller</w> 870
servi eren</w> 870
impre ssive</w> 870
be et</w> 869
ver lor 869
bar en 869
dreh buchautor</w> 869
s ma 868
f ers</w> 868
hi kers</w> 868
mode schopfer</w> 868
ser ves</w> 868
fis hes</w> 868
power ful</w> 868
activ ities</w> 868
kontra st</w> 868
patro l</w> 868
an them</w> 867
re gel 867
br aten</w> 867
lin k 867
mar k 867
schi ck 867
3d- rendering</w> 867
toten kopf</w> 867
prou d</w> 867
k ell 866
br at 866
ga sten</w> 866
ger ung</w> 866
rock et</w> 866
holz erne</w> 866
publi shing</w> 866
over view</w> 866
bere ch 866
sau le</w> 866
sket ches</w> 866
announ ced</w> 866
unterschie dlichen</w> 866
spaziergan ger</w> 866
er kli 865
mu ster 865
dri ven</w> 865
ya chten</w> 865
schwen kend</w> 865
progre ss</w> 865
fran zo 865
frise ur</w> 865
h eri 864
on o 864
mo os</w> 864
fla ch 864
down - 864
farbi gem</w> 864
show room</w> 864
gestrei ften</w> 864
imagin e</w> 864
passagier flugzeug</w> 864
bal let</w> 863
wei zen</w> 863
op tion</w> 863
ger man</w> 863
kur ven 863
meere su 863
glit ter</w> 863
zitro ne</w> 863
sch wei 862
se ele</w> 862
to wel</w> 862
wi der 862
stru kt 862
besu chte</w> 862
plat es</w> 862
ac cent</w> 862
water melon</w> 862
haupt schlafzimmer</w> 862
schwarz-weiß- foto</w> 862
ro wing</w> 861
ra y</w> 861
la go 861
ba mbo 861
bal anci 861
pro ben</w> 861
nach tansicht</w> 861
pol ka</w> 861
oli ves</w> 861
vege tar 861
schauspiel ern</w> 861
exten sion</w> 861
identi fi 861
lago on</w> 861
bambo o</w> 861
9 9</w> 860
sp al 860
vi es</w> 860
eri en</w> 860
mon arch 860
tur t 860
plan es</w> 860
star tet</w> 860
kul tur</w> 860
botan ical</w> 860
opportun ity</w> 860
race car</w> 860
wir st</w> 859
unter geht</w> 859
wen det</w> 859
high lighted</w> 859
spielzeu g 859
i gt</w> 858
ho ly</w> 858
teil nehmen</w> 858
stan ge</w> 858
tv- programm</w> 858
oldtimer - 858
e que 857
r all 857
i son</w> 857
in um</w> 857
de cker</w> 857
mo od</w> 857
bal ken</w> 857
fahr er 857
stri an</w> 857
fruh morgend 857
verlangsam t</w> 857
viney ard</w> 857
eque strian</w> 857
ste ilen</w> 856
sor te</w> 856
sche me</w> 856
elefan ten 856
squar es</w> 856
f s 855
fu hr</w> 855
vektor hintergrund</w> 855
cam els</w> 855
schil des</w> 855
fruh jahr</w> 855
origin alen</w> 855
lil ies</w> 855
hear t 855
passen den</w> 855
reno vation</w> 855
reve al</w> 855
ord nung</w> 855
re bound</w> 854
ge fullt</w> 854
we ste</w> 854
pro zent</w> 854
aus rustung</w> 854
kt us</w> 854
anim ations 854
tau be</w> 854
trauri ger</w> 854
zebra s</w> 854
t iled</w> 853
k nie</w> 853
in - 853
st ation 853
sp ag 853
ti erten</w> 853
yo ga- 853
teen ie- 853
mog lichkeiten</w> 853
terra ssen 853
kontin ent</w> 853
cell phone</w> 853
geneh mi 853
re tten</w> 852
son der 852
fra cht 852
ra n</w> 851
flu gel 851
gh an 851
hand schuhen</w> 851
ac comp 851
spezi ellen</w> 851
regi onal</w> 851
musik gruppe</w> 851
mei ste</w> 851
stein mauer</w> 851
work out</w> 851
comb ine</w> 851
196 0er</w> 851
chine si 851
difficul t</w> 851
er zeu 850
re ich</w> 850
mi cal</w> 850
mo ps</w> 850
bur st</w> 850
sle ev 850
braut kleid</w> 850
qualifik ations 850
hotel zimmer</w> 850
sp a</w> 849
se mb 849
le s 849
and ern</w> 849
fe ed</w> 849
fe min 849
arti cle</w> 849
sin n</w> 849
ell inie</w> 849
sy stems</w> 849
sol e</w> 849
cle an 849
oc cupi 849
franzo si 849
meeresu fer</w> 849
s wir 848
a verage</w> 848
7 0 848
nach ster</w> 848
hock er</w> 848
premieren fest</w> 848
netz werk</w> 848
gewon nen 848
pine apple</w> 848
wri st</w> 848
da cht</w> 847
ver stre 847
fla chen 847
ph s</w> 847
innen architektur</w> 847
zo m 847
mini ster</w> 847
nie mand</w> 847
bea ds</w> 847
schwen kt</w> 847
synth pop</w> 847
in flat 846
ge eignet</w> 846
fe ather</w> 846
blu ht</w> 846
lin ear</w> 846
kan di 846
bri s</w> 846
itar y</w> 846
dis covered</w> 846
akti vitaten</w> 846
an ce 845
ver ur 845
ha i</w> 845
pa ges</w> 845
sho pper</w> 845
hand le</w> 845
dra ws</w> 845
over all</w> 845
dol phin</w> 845
spo ke</w> 845
park bank</w> 845
valent ine</w> 845
2 0s</w> 844
an lagen</w> 844
au ges</w> 844
ho fs</w> 844
glo bal 844
up date</w> 844
neigh bo 844
sem i</w> 844
wahl kampf 844
plau dern</w> 844
sch li 843
ge wesen</w> 843
da mm</w> 843
land schaft 843
motor rader</w> 843
ornam ente</w> 843
verkauf s 843
16 th</w> 843
u- bahn</w> 843
caf es</w> 843
wol le</w> 842
environ mental 842
un esc 841
di cken</w> 841
do mini 841
con stell 841
pu ppen</w> 841
lap top- 841
tal ent</w> 841
bilden der</w> 841
possi bly</w> 841
comb ined</w> 841
labor atory</w> 841
koloni al 841
unesc o</w> 841
z entrums</w> 840
re chte</w> 840
re search</w> 840
de ter</w> 840
fa bu 840
stu dien 840
sig nage</w> 840
kan ne</w> 840
tran sit</w> 840
wichtig sten</w> 840
knei pe</w> 840
entur m</w> 840
land ern</w> 839
kam el</w> 839
herbst liche</w> 839
brennen den</w> 839
bouti que</w> 839
mi ss 838
bu st</w> 838
um schlag</w> 838
dro hnen 838
ern sth 838
vintage - 838
will st</w> 838
orangefarben em</w> 838
zy lin 838
ch tete</w> 837
pro of</w> 837
ka ktus</w> 837
winter wald</w> 837
unterstu tzen</w> 837
rail road</w> 837
will komm 837
surpri se</w> 837
inve st 837
poe try</w> 837
k eller</w> 836
ch ts 836
sti cker</w> 836
sh auses</w> 836
ste adi 836
neu gieri 836
hip-ho p- 836
luxur ious</w> 836
ikon en</w> 836
day time</w> 836
k enden</w> 835
ch - 835
si ze 835
po ps</w> 835
fa hig 835
unter nehmer</w> 835
ski gebiet</w> 835
benu tzte</w> 835
contain er 835
trauri g</w> 835
hausti ere</w> 835
fußganger brucke</w> 835
kay ak</w> 835
m ten</w> 834
wa g 834
mo bil</w> 834
che cken</w> 834
dan ke</w> 834
bauern markt</w> 834
ethni sche</w> 834
stop s</w> 834
zwie beln</w> 834
social ite</w> 834
h oni 833
t ell 833
po or</w> 833
pa pa</w> 833
im pact</w> 833
foto termin</w> 833
recei ve</w> 833
farbenfro her</w> 833
fuhrung stor</w> 833
z ar 832
pa vement</w> 832
blu t 832
histor isches</w> 832
grafi schen</w> 832
marti alkunstler</w> 832
gelegen heit</w> 832
previ ous</w> 832
ne g 831
man ni 831
con e</w> 831
cam er 831
attrakti ven</w> 831
scienti st</w> 831
senior en- 831
stam me 830
some where</w> 830
wein glaser</w> 830
es man</w> 830
kuhl schrank</w> 830
belieb testen</w> 830
unterneh mens</w> 830
dinosauri er</w> 830
p x</w> 829
pla id</w> 829
woo d- 829
farb tu 829
außen seite</w> 829
funkti oniert</w> 829
gesund heit</w> 829
militarkommand anten</w> 829
t oned</w> 828
un ited</w> 828
li zard</w> 828
vi vi 828
ad ju 828
auß er</w> 828
schwi mmer</w> 828
surf board</w> 828
gehir n</w> 828
verfug bar</w> 828
fro sty</w> 827
bil l 827
mar sh 827
aut ono 827
geri ssen</w> 827
frei zeit 827
cab ri 827
einge bet 827
selten e</w> 827
lander spiel</w> 827
wood land</w> 827
su g 826
clo th</w> 826
act ing</w> 826
subur ban</w> 826
umri ss</w> 826
altern ativer</w> 826
baufun ktion</w> 826
b ones</w> 825
t at</w> 825
se as</w> 825
ha sen</w> 825
con es</w> 825
pi ste</w> 825
tur k 825
auto fahrer</w> 825
hel den</w> 825
ess bereich</w> 825
rett ungs 825
s afar 824
ru tsche</w> 824
nah en</w> 824
unter halb</w> 824
min imal</w> 824
vin ta 824
photograph ers</w> 824
trainin g 824
indi an</w> 824
hul le</w> 824
whis key</w> 824
keit s 824
k ite</w> 823
au n</w> 823
de hn 823
pre view</w> 823
lieb ha 823
behand lung</w> 823
haf tes</w> 823
fahnen mast</w> 823
depart ment</w> 823
umarm ung</w> 823
aufwan digen</w> 823
ar a</w> 822
bu ck 822
me an</w> 822
for ces</w> 822
wal led</w> 822
.. ....</w> 822
militar ische</w> 822
mahl zeiten</w> 822
fruhlings blumen</w> 822
inse kten</w> 822
leer zeichen</w> 822
entwur fe</w> 822
projekt bildes</w> 822
pla ins</w> 821
fi ktiven</w> 821
sk on 821
ve ssel</w> 821
schu lab 821
arbeit s 821
ra ck</w> 820
ge ha 820
ge worden</w> 820
ge pflanzt</w> 820
mal t</w> 820
innen ansicht</w> 820
getran ke</w> 820
leck ereien</w> 820
l erin</w> 819
de bu 819
sel y</w> 819
fruh stuck 819
pl un 819
kaffee tisch</w> 819
her r</w> 818
rau mes</w> 818
let in</w> 818
star ten</w> 818
fun ktion 818
baum zweig</w> 818
video spiel</w> 818
physi k 818
remin ds</w> 818
hin wei 817
ball ons</w> 817
wen igen</w> 817
reg alen</w> 817
arm eln</w> 817
dood les</w> 817
bergstei ger</w> 817
ge bet</w> 816
lu g 816
vol lig</w> 816
rei g 816
ren e 816
spit zen</w> 816
cat walk</w> 816
call ing</w> 816
rabat t</w> 816
di p</w> 815
ge sto 815
zi vil 815
wor l 815
fla min 815
uber reicht</w> 815
kno ws</w> 815
schlaf zimmers</w> 815
inse cts</w> 815
size - 815
k lar</w> 814
me sh</w> 814
all er 814
haus ge 814
herb s</w> 814
an al 813
te sy</w> 813
bo b</w> 813
ou ting</w> 813
war mer</w> 813
ni ve 813
stra p 813
sha kes</w> 813
oni es</w> 813
proje cts</w> 813
cot tages</w> 813
exercis ing</w> 813
w hose</w> 812
ei gh 812
ver mahl 812
ver brachte</w> 812
der eli 812
geschi ckt</w> 812
develop ed</w> 812
inte gr 812
type writer</w> 812
dereli ct</w> 812
er schien</w> 811
an chor</w> 811
le bte</w> 811
gra in</w> 811
wen dung</w> 811
tu t</w> 811
komp li 811
prepar ation</w> 811
kranken haus 811
wor ter</w> 810
cu is 810
bar k</w> 810
ern te 810
baseball spiel</w> 810
regen bogen 810
repe ating</w> 810
viertel final 810
mu de</w> 809
ub t</w> 809
auf fahrt</w> 809
br unch</w> 809
shi pping</w> 809
schur ken 809
treat ment</w> 809
bedur f 809
inflat able</w> 809
re vol 808
be an 808
mu ff 808
pla cing</w> 808
her stellt</w> 808
hu ts</w> 808
schlu s 808
viol ette</w> 808
glimp se</w> 808
a sleep</w> 807
fa ced</w> 807
lan tern</w> 807
basketball schieß 807
anwe send</w> 807
freih eit</w> 807
l eine</w> 806
di ving</w> 806
da cher</w> 806
ent gegen 806
pu sh</w> 806
bun t</w> 806
natur liches</w> 806
cour tesy</w> 806
gegen uber</w> 806
gaste zimmer</w> 806
500 px</w> 806
safar i</w> 806
la g 805
fra gt</w> 805
studi os</w> 805
sprit zer</w> 805
buddhi st</w> 805
c it 804
w th</w> 804
arti stic</w> 804
emp fan 804
damp flo 804
broad ca 804
recyc led</w> 804
lag une</w> 804
u n</w> 803
an kommt</w> 803
se em</w> 803
wa i 803
fu sed</w> 803
ko pi 803
sil l</w> 803
feuer stelle</w> 803
gover n 803
roof top</w> 803
appli ances</w> 803
t ube</w> 802
ri ders</w> 802
ol gemalde</w> 802
gan z 802
bi ge</w> 802
gu ss</w> 802
bre eze</w> 802
spla shing</w> 802
net ten</w> 802
klein buchstaben</w> 802
nieder geschlagen</w> 802
unbekan nten</w> 802
ergeb nis</w> 802
ti gte</w> 801
gan s</w> 801
ca sh</w> 801
[...]
