. 2338503
the 2173258
a 1810821
, 1771948
in 1425786
of 1052125
der 1019354
auf 777793
die 747599
on 744031
und 649673
and 640656
person 636963
mit 563722
with 516677
ein 465931
- 411059
einem 386767
to 381544
im 374752
an 346699
at 333553
for 313862
eine 308884
den 303124
das 294321
einer 292682
: 288846
des 278969
von 273130
dem 269931
fur 239161
during 235729
eines 220814
is 205901
zu 202295
am 176522
wahrend 174431
background 171135
! 169981
ist 166385
from 164721
sie 164565
hintergrund 158469
this 154552
white 153601
actor 148424
aus 144475
by 143806
einen 141295
premiere 136687
' 134149
illustration 133925
sich 133853
bei 130079
artist 127758
man 123137
s 115276
as 111624
uber 110100
schauspieler 106815
player 105629
up 101835
his 100827
view 98728
image 98545
um 95933
team 92676
football 92264
vor 87334
# 86815
nach 83062
weißem 81893
was 81548
i 81414
als 80806
city 79622
her 78362
woman 76914
stadt 75040
that 74498
frau 74282
es 73586
buhne 72507
against 71131
? 70870
day 70444
ich 70321
blick 69911
it 69849
vector 69720
young 69602
you 69589
are 68796
stage 67701
game 67682
over 67176
wie 66183
ball 66065
mann 66024
hand 65769
durch 63740
film 63310
black 62595
gegen 62585
show 61660
out 61358
zum 61111
after 60097
beach 59988
zur 59829
people 59352
wird 59260
tree 58875
red 57130
girl 56539
festival 56288
their 55719
model 54911
playing 54881
kann 54720
blue 54196
your 54100
night 53401
attends 53052
sind 51732
photo 51715
hat 51346
water 50809
home 50176
performs 49635
strand 49486
room 49186
house 49157
wurde 48592
isolated 48319
new 48069
old 47956
bild 47797
all 47561
er 47314
... 47179
beautiful 47047
be 46811
fashion 46747
fußballspieler 46663
match 45707
into 45664
madchen 45558
park 45190
through 44697
rock 44473
straße 44409
junge 44363
looking 43445
portrait 43424
like 43411
-- 43245
car 43092
first 42918
ihre 42815
musical 42651
my 42190
sky 41766
tritt 41204
design 40943
art 40757
front 40569
may 40463
close 40087
sports 39834
sitting 39538
menschen 39376
time 39316
world 39084
so 39077
event 38952
green 38865
tag 38750
or 38511
werden 38250
made 38161
teil 37820
have 37715
style 37704
look 37461
oder 37119
just 37082
one 37011
haus 36919
dress 36525
vom 36493
set 36417
road 35677
building 35626
foto 35612
wedding 35598
has 35474
kommt 34918
contain 34715
portrat 34585
wasser 34549
winter 34543
paar 34455
himmel 34435
street 34327
isoliert 33869
war 33838
off 33527
can 33389
small 33233
little 33214
wenn 33103
flowers 33042
how 32786
silhouette 32400
down 32160
beim 32135
instrument 31902
american 31785
sein 31762
sunset 31720
pop 31370
back 31358
sea 31093
country 30981
dog 30886
dass 30765
nacht 30697
some 30693
field 30628
besucht 30612
trees 30598
family 30581
shot 30175
pattern 30127
diese 29985
ihren 29983
table 29890
business 29789
party 29737
snow 29713
sitzt 29646
sonnenuntergang 29588
will 29467
attend 29450
see 29405
unter 28990
river 28968
spiels 28783
christmas 28711
walking 28533
before 28449
top 28357
ihr 28154
wir 28131
wall 28111
seen 28030
flag 27834
ihrem 27634
make 27602
wind 27595
boy 27492
steht 27447
vektorillustration 27433
couple 26976
haben 26841
love 26800
happy 26731
while 26577
along 26566
we 26389
around 26356
halt 26340
light 26322
summer 26270
holding 26200
baby 26152
lauft 25877
spielen 25785
wooden 25774
forest 25710
arrives 25648
garden 25640
under 25544
baum 25253
muster 25187
cute 25154
he 25147
sign 24983
map 24976
fans 24933
our 24917
dieses 24816
ersten 24710
welt 24690
large 24609
zeigt 24522
they 24503
which 24473
walks 24467
jungen 24441
standing 24319
spiel 24290
but 24289
not 24207
spielt 24160
these 24052
its 23760
logo 23728
nicht 23647
biological 23567
weißen 23484
auto 23437
kunstler 23436
what 23426
glass 23422
awards 23323
more 23308
hands 22883
high 22843
dieser 22765
tv 22636
< 22344
looks 22336
text 22319
soccer 22246
side 22194
nahaufnahme 22190
aber 22014
diesem 21921
musikinstrument 21916
who 21889
seine 21880
about 21869
week 21869
training 21712
she 21711
entlang 21655
ihrer 21623
outside 21565
year 21541
meer 21465
nahe 21328
nimmt 21312
mountain 21285
garten 21281
politician 21248
when 21151
> 21123
morning 21084
kleinen 20936
unk 20818
seinem 20806
aerial 20759
statue 20756
sehen 20753
hund 20651
land 20622
baseball 20601
fluss 20569
vintage 20565
basketball 20420
character 20399
enthalten 20392
concert 20367
hair 20294
pink 20184
seamless 20183
part 20180
near 20169
food 20163
long 20073
wald 20032
form 19970
bridge 19958
kitchen 19947
line 19934
held 19813
yellow 19785
schnee 19746
inside 19664
roten 19658
sun 19633
holiday 19540
book 19499
group 19481
window 19431
picture 19354
painting 19319
living 19313
seiner 19310
gold 19298
weg 19296
; 19289
athlete 19260
boat 19245
veranstaltung 19220
feld 19209
cartoon 19151
lake 19114
stock 19114
live 19078
other 19076
animal 19048
way 18889
were 18853
-@@ 18785
großen 18709
popkunstler 18696
tourist 18580
property 18551
clouds 18530
full 18490
most 18490
there 18488
cat 18476
grass 18362
species 18316
modern 18281
runway 18273
familie 18218
town 18204
dark 18146
biologische 18089
heart 18033
horse 17953
no 17852
big 17826
große 17802
colorful 17745
get 17716
session 17702
stil 17701
celebrates 17631
smiling 17572
free 17564
sand 17532
children 17485
second 17454
alten 17446
wearing 17403
area 17227
actors 17224
floor 17133
wolken 16969
spieler 16949
if 16876
hard 16830
head 16787
flower 16786
abstract 16777
alle 16777
many 16770
3d 16737
blumen 16724
spielend 16687
ice 16686
kleine 16664
camera 16655
restaurant 16634
running 16586
leaves 16565
laptop 16556
guitar 16533
posiert 16522
leben 16424
pool 16421
kinder 16396
tragt 16365
take 16236
face 16220
konnen 16208
katze 16172
sportmannschaft 16141
neuen 16115
cake 16043
geht 16021
gebaude 16000
nachdem 15982
autumn 15981
kuche 15977
machen 15919
feiert 15917
fenster 15841
laufsteg 15841
women 15792
bride 15791
seinen 15788
players 15787
spring 15723
mannes 15687
season 15687
next 15659
tisch 15653
politiker 15649
open 15586
symbol 15531
been 15521
walk 15479
icon 15468
attraction 15443
fall 15419
macht 15407
gruppe 15400
kind 15384
mountains 15347
spezies 15339
color 15336
sale 15309
above 15299
video 15272
gras 15255
sonne 15225
round 15208
poses 15176
gitarre 15173
schone 15148
goal 15145
behind 15043
tor 15027
space 14959
jeans 14903
do 14892
beinhalten 14877
boden 14831
right 14800
market 14783
gesehen 14746
being 14721
here 14704
fahrt 14702
skyline 14690
wurden 14656
child 14642
liebe 14583
braut 14553
neue 14531
office 14497
junger 14475
kamera 14450
schwarzem 14449
oben 14419
landscape 14409
us 14409
school 14364
touristenattraktion 14291
me 14286
had 14283
would 14217
modenschau 14163
schonen 14121
neben 14113
men 13964
last 13935
award 13924
sitzen 13917
grunen 13900
music 13883
kunst 13882
gehen 13874
tennis 13861
band 13848
traditional 13802
bedroom 13781
covered 13743
blauen 13737
left 13732
autos 13698
mutter 13665
another 13606
blauem 13511
sunny 13506
kleid 13500
different 13457
each 13453
poster 13445
festivals 13434
karte 13432
computer 13391
showing 13346
using 13324
fußballmannschaft 13311
farbe 13217
bar 13212
half 13197
flying 13174
across 13161
du 13129
best 13105
pferd 13084
together 13079
ceremony 13074
end 13070
hotel 13054
& 13046
also 13044
kleines 12987
bed 12975
cars 12963
industry 12961
life 12949
work 12937
having 12873
place 12793
luftaufnahme 12778
blues 12757
konzert 12754
gibt 12749
friends 12705
weiße 12701
un@@ 12696
uns 12669
raum 12665
kommen 12643
zeit 12627
baume 12626
schwarzen 12621
seite 12619
birthday 12583
nehmen 12445
mother 12427
train 12406
where 12396
kuste 12338
automobile 12309
orange 12293
bright 12282
working 12263
coast 12257
brucke 12247
lights 12236
kleiner 12215
coffee 12184
hinter 12151
students 12126
village 12122
stehen 12099
wand 12090
island 12074
hauses 12066
einige 12012
location 11986
kopf 11877
shirt 11854
female 11823
hause 11815
action 11776
landschaft 11774
drawn 11762
ship 11749
auch 11705
alte 11641
opening 11607
m 11601
early 11593
frauen 11592
$ 11588
crowd 11549
main 11548
buildings 11531
bis 11521
very 11461
evening 11452
jahr 11446
door 11398
shows 11385
zwischen 11385
flagge 11361
card 11329
than 11329
ge@@ 11325
anderen 11315
girls 11306
ihres 11297
sonnigen 11254
immer 11252
treten 11222
farben 11197
national 11197
streets 11190
felsen 11182
metal 11174
schaut 11169
used 11162
final 11127
fire 11104
good 11103
sieht 11095
boot 11062
preisverleihung 11054
erste 11053
bluten 11027
baseballspieler 10994
licht 10985
go 10973
ver@@ 10952
between 10948
teppich 10933
riding 10924
reihe 10919
taking 10917
star 10912
fun 10882
letter 10870
organisation 10861
outdoor 10819
fotos 10810
inning 10795
sportteam 10795
blickt 10791
featuring 10771
studio 10761
motion 10750
now 10746
fußballer 10741
wohnzimmer 10729
play 10724
rain 10718
pretty 10708
stand 10708
hochzeit 10694
hande 10690
ende 10687
insel 10686
carpet 10661
spaziert 10657
start 10657
habe 10655
spazieren 10643
painted 10637
besuchen 10611
celebrity 10604
ins 10558
sehr 10556
hatte 10555
meine 10544
buch 10526
fresh 10500
onstage 10490
zuruck 10490
away 10484
golden 10475
perform 10458
kids 10402
trainingseinheit 10377
straßen 10376
slow 10366
stone 10331
fish 10328
only 10326
photos 10302
them 10287
ocean 10236
structure 10235
digital 10234
gesicht 10230
halten 10128
essen 10118
drawing 10116
bilder 10075
air 10066
any 10042
mich 10024
freien 9997
baumen 9990
zweiten 9985
classic 9961
state 9956
detail 9943
colors 9934
filming 9934
verkauf 9932
wood 9929
fishing 9919
much 9907
making 9906
phone 9905
great 9904
fahne 9898
performance 9898
taken 9850
rote 9847
noch 9840
bank 9826
still 9813
mein 9790
mensch 9769
station 9769
path 9745
interior 9738
zimmer 9731
etwas 9729
police 9671
boys 9659
diesen 9644
bergen 9634
director 9627
indoor 9625
shape 9621
celebrate 9606
could 9605
flat 9573
every 9556
floral 9549
bathroom 9542
t 9535
smartphone 9524
manner 9510
feiern 9497
church 9491
display 9468
ready 9463
matches 9447
4k 9446
geschaftsmann 9446
mannschaft 9443
musikinstruments 9398
weiß 9397
junges 9392
number 9362
want 9337
takes 9335
region 9327
waves 9326
pose 9323
type 9319
center 9285
bus 9231
going 9223
series 9222
herbst 9221
cup 9209
built 9206
wild 9204
use 9186
plants 9173
makes 9158
pair 9155
military 9152
paper 9085
an@@ 9072
hier 9068
schild 9063
bewegung 9054
moon 9054
boats 9047
sunrise 9046
filmfigur 9027
collection 9018
shoes 9009
ab 9004
schlafzimmer 8995
images 8993
cover 8989
madchens 8989
shopping 8957
nur 8954
studenten 8917
banner 8915
mehr 8892
site 8890
eyes 8873
deck 8847
blueskunstler 8843
dining 8825
morgen 8817
store 8808
coach 8802
platz 8799
rahmen 8789
schwarze 8783
cricket 8768
olympic 8767
box 8749
groom 8741
hockey 8741
kirche 8730
hot 8724
innenraum 8717
low 8716
got 8705
pflanzen 8701
augen 8678
farm 8676
scoring 8659
comedian 8642
movie 8639
lying 8625
tochter 8619
plant 8616
alles 8608
businessman 8589
colored 8583
ring 8582
roof 8578
gray 8556
stars 8553
male 8551
woche 8532
circle 8519
stands 8511
arrive 8494
liegt 8490
too 8480
sits 8444
past 8436
glasses 8433
weihnachtsbaum 8391
lapse 8375
fuhrt 8368
modewoche 8357
walls 8350
urlaub 8348
sommer 8334
andere 8332
runs 8331
jahren 8329
fotografiert 8306
letzten 8292
towards 8291
viele 8291
hut 8282
ohne 8279
leader 8274
vogel 8261
lot 8244
driving 8239
hafen 8238
landkarte 8222
ab@@ 8219
square 8219
sonnenaufgang 8218
glas 8217
watch 8213
hanging 8206
even 8201
branch 8191
photograph 8183
aktion 8167
ground 8167
apartment 8162
daughter 8160
scene 8157
frame 8152
bett 8141
tour 8138
tragen 8138
er@@ 8116
late 8091
schatten 8083
zusammen 8072
markt 8067
royalty 8067
eating 8065
ten 8047
tropical 8045
waren 8021
archivbild 8013
regen 8006
fan 7987
spricht 7986
need 7978
pass 7977
traffic 7970
located 7966
außerhalb 7957
suit 7936
houses 7924
singer 7914
middle 7913
wine 7913
brown 7893
warm 7860
pictured 7823
/ 7796
ein@@ 7778
animals 7769
western 7743
shop 7713
komiker 7710
footballer 7708
tablet 7700
simple 7692
volker 7689
herz 7686
moving 7665
natural 7650
langen 7620
badezimmer 7619
besten 7604
empty 7594
getting 7588
touristen 7586
purple 7585
century 7575
nahtloses 7566
stuck 7553
wo 7546
lacheln 7539
theater 7529
buro 7528
rosa 7528
jetzt 7511
today 7508
well 7505
texture 7501
swimming 7497
dogs 7496
brautigam 7491
ort 7483
cut 7471
genießen 7461
grey 7443
race 7440
arbeit 7439
entrance 7435
eye 7434
rugby 7433
industrie 7430
designer 7406
funny 7405
construction 7379
cafe 7374
be@@ 7360
museum 7343
bird 7330
sofa 7329
details 7318
holz@@ 7307
tattoo 7303
amerikanische 7299
hugel 7289
rocks 7284
truck 7267
tourists 7258
special 7256
gut 7247
luft 7240
alter 7236
bench 7235
tur 7226
voller 7222
heute 7211
preisverleihungen 7209
touchdown 7206
surface 7201
beauty 7187
growing 7187
weißer 7184
pond 7182
general 7165
re 7156
private 7143
found 7137
lachelt 7129
dach 7118
ufer 7090
waving 7087
local 7082
schon 7080
golfer 7071
senior 7070
kreis 7061
geschaft 7051
lines 7051
run 7048
father 7043
bear 7037
both 7033
talking 7018
parade 7010
struktur 7008
plays 7007
bunten 7005
bag 7004
te 7002
few 7000
own 6985
roter 6978
herzen 6973
paint 6973
leather 6971
dabei 6967
find 6947
nahtlose 6947
inneren 6936
press 6931
großer 6909
example 6908
bottle 6907
waiting 6889
arbeitet 6866
third 6859
re@@ 6852
ihn 6849
ideas 6841
wirft 6836
tower 6832
couch 6818
idea 6794
pitch 6793
reading 6788
ihnen 6785
hemd 6763
lange 6763
board 6747
original 6745
wellen 6744
meinem 6736
put 6734
cricketspieler 6733
auf@@ 6729
dressed 6721
beispiel 6719
trail 6713
fahren 6710
birds 6706
darauf 6703
spaß 6696
heavy 6682
bereit 6679
short 6678
him 6662
version 6660
members 6656
schauen 6652
christian 6651
never 6644
halfte 6643
vater 6640
vektor 6630
chair 6623
hinunter 6621
schwarzer 6590
arbeiten 6583
meadow 6580
mitte 6579
grune 6568
mir 6565
photographed 6556
designed 6555
category 6554
feature 6547
hoch 6546
fallen 6544
saturday 6543
finden 6527
neues 6526
concept 6523
storm 6523
silver 6521
fahrrad 6511
ve 6508
soft 6503
anzug 6500
religious 6498
zug 6496
hauser 6475
single 6473
kaffee 6468
aus@@ 6445
abstrakte 6431
fliegen 6428
mag 6412
shore 6412
freunde 6411
grunem 6391
friday 6384
cool 6372
nice 6371
laufen 6369
quarter 6366
palm 6345
spitze 6339
flugzeug 6333
conference 6321
hohe 6320
modernen 6320
centre 6318
unsere 6309
interview 6308
aircraft 6303
kleider 6294
villa 6289
weltpremiere 6288
fast 6287
zeigen 6286
fence 6276
ahead 6274
wife 6273
) 6270
ozean 6269
took 6269
bevor 6265
moment 6262
public 6248
saison 6243
tiere 6243
aussehen 6242
website 6242
stadium 6241
add 6226
windows 6224
kampf 6217
digitale 6215
dish 6210
hip 6195
wide 6195
gebaudes 6188
horses 6186
looked 6182
lassen 6179
basket 6174
meiner 6173
gluckliche 6160
bau 6152
blute 6147
visit 6145
hop 6124
konnte 6123
ever 6116
gets 6115
tasse 6114
fruit 6094
plate 6087
globe 6083
haar 6076
then 6075
campus 6072
ancient 6071
nature 6059
without 6057
trip 6054
jedes 6052
jacket 6047
something 6042
setting 6029
lady 6023
berg 6022
clear 6015
kuchen 6007
things 6006
verschiedenen 5999
sunday 5988
double 5987
performing 5983
weht 5983
schuss 5980
textur 5968
screen 5967
easy 5966
abend 5962
rund 5954
fest 5950
know 5949
dinner 5947
keine 5947
menge 5934
rotem 5924
aussicht 5912
homes 5912
celebration 5906
sportler 5905
same 5901
decorated 5898
links 5886
vegetables 5879
ansicht 5870
schule 5868
company 5864
author 5861
umgeben 5857
exterior 5844
brick 5842
flight 5841
famous 5833
hill 5831
winner 5828
mobile 5818
schauspielerin 5813
meeting 5808
bunte 5805
piece 5803
create 5802
blattern 5801
wear 5795
pictures 5794
zeremonie 5791
jeden 5786
among 5782
drinking 5771
haare 5770
schuhe 5761
watching 5737
wiese 5733
sieg 5720
vielen 5718
films 5717
desert 5715
enjoying 5710
range 5709
zeichnung 5703
sport 5697
unten 5693
posieren 5689
filmregisseur 5688
decke 5686
kein 5675
berge 5672
runde 5670
friend 5665
real 5663
musikkunstler 5660
brand 5658
tier 5656
eingang 5644
holds 5643
help 5640
jahrhundert 5633
son 5626
handen 5625
sanger 5620
outfit 5614
kindern 5610
boxer 5603
cross 5602
really 5600
bowl 5592
fliegt 5582
volk 5581
monarch 5573
holz 5570
bringen 5564
gift 5559
automobil-modell 5554
leaf 5554
shadow 5554
afternoon 5550
money 5545
perfect 5531
boots 5530
tee 5525
teller 5504
teams 5486
warten 5479
class 5475
noble 5473
because 5470
geschichte 5469
come 5465
views 5463
always 5454
onto 5453
bin 5447
historic 5447
menschenmenge 5446
winning 5422
years 5422
goes 5421
zeichen 5421
ganzen 5420
those 5414
ausstellung 5411
file 5410
luxury 5402
backstage 5397
vehicle 5393
jeder 5388
edge 5384
bouquet 5383
bicycle 5372
organization 5357
gemuse 5356
chef 5352
designs 5350
en 5349
selected 5345
zuhause 5331
north 5325
arm 5320
~ 5316
pflanze 5315
coat 5309
done 5299
ausgewahlt 5297
treffen 5294
rendering 5280
puppy 5275
benutzt 5272
try 5271
battle 5263
feiertag 5248
keep 5246
think 5240
plan 5238
olympiateilnehmer 5234
dance 5227
uber@@ 5221
tes 5220
temple 5208
hunde 5207
earth 5204
rhythm 5200
wohnung 5197
point 5193
retro 5193
wieder 5190
wirklich 5186
pitches 5184
popular 5184
bedeckt 5172
indem 5170
draußen 5169
selbst 5161
south 5152
blauer 5150
natur 5150
better 5143
doing 5143
books 5141
schoner 5140
trainer 5134
pier 5133
cold 5126
drink 5123
magazine 5122
papier 5115
bauen 5114
human 5102
verwendet 5086
signs 5079
enjoy 5073
golf 5071
rennen 5071
branches 5070
name 5067
dresses 5065
huge 5064
schließen 5063
verschiedene 5063
£ 5062
trug 5057
sah 5056
großes 5049
hardrock-kunstler 5048
following 5044
freund 5039
coming 5038
d 5038
tea 5035
soldaten 5032
gipfel 5031
league 5031
speaks 5031
inspired 5030
desk 5028
fireworks 5026
arms 5022
cloudy 5020
project 5014
ter 5013
feuer 5010
schiff 4998
dunklen 4993
mal 4992
tun 4970
should 4967
hangen 4965
spaziergang 4962
surrounded 4962
print 4961
nachts 4959
romantic 4957
korb 4956
beer 4954
tall 4952
wuste 4951
gown 4949
fireplace 4947
los 4941
features 4939
launch 4931
flusses 4925
grund 4921
sohn 4921
unser 4908
in@@ 4904
tages 4902
valley 4901
erde 4900
falling 4900
greeting 4900
smile 4900
textured 4895
lila 4890
linie 4887
geburtstag 4883
surfer 4883
viel 4877
sketch 4876
clock 4873
row 4862
tropischen 4862
size 4849
basketballspieler 4845
rucken 4843
mond 4842
dollar 4837
schwarz 4832
footage 4817
jahre 4816
drehort 4807
fruhling 4807
feier 4804
step 4803
shaped 4793
leading 4790
ride 4788
linien 4786
said 4778
why 4778
liest 4776
give 4764
ceiling 4762
wartet 4756
rhythmus- 4752
crossing 4751
sicht 4749
szene 4749
distance 4743
jede 4743
attractive 4739
rockkunstler 4734
angle 4732
ziehen 4720
screening 4706
unserem 4696
doors 4689
dorf 4687
castle 4685
electric 4683
football-spieler 4683
student 4683
trinkt 4677
en@@ 4676
wallpaper 4676
finger 4670
% 4665
samstag 4664
cottage 4658
blatt 4651
sculpture 4642
floating 4640
favorite 4639
reiten 4636
yoga 4632
flags 4628
musik 4625
models 4612
personlich 4610
steps 4608
once 4603
known 4591
goldenen 4588
weekend 4585
modell 4584
page 4583
plane 4581
capital 4580
games 4575
rasen 4575
erzielt 4573
figur 4569
bad 4567
several 4564
oil 4561
hip-hop-kunstler 4560
rest 4559
corner 4558
hohen 4555
nie 4553
mauer 4549
springt 4549
versucht 4545
ware 4545
furniture 4540
altes 4538
icons 4538
jumping 4538
blatter 4518
fiction 4517
beobachtet 4516
breakfast 4516
build 4514
muss 4514
pizza 4514
dancing 4510
filled 4508
waterfall 4508
guests 4503
sweet 4503
weißes 4503
festes 4501
wore 4499
dry 4498
friendly 4496
flasche 4479
s@@ 4477
grauen 4475
program 4473
comic 4466
lieben 4461
konzerts 4456
prior 4455
period 4453
banners 4452
boote 4445
umbrella 4443
glaser 4442
tempel 4434
guard 4432
bauernhof 4429
media 4428
casual 4426
hit 4425
moderne 4425
monday 4422
manager 4421
stuhl 4419
unserer 4419
body 4413
parked 4410
zieht 4407
schonheit 4404
rear 4400
reagiert 4395
schreibtisch 4394
date 4392
does 4390
oberflache 4379
tiger 4378
uhr 4376
vor@@ 4376
fields 4374
super 4369
community 4368
wave 4358
including 4356
brille 4353
competition 4353
facade 4351
planet 4351
teich 4351
wer 4350
dead 4349
elements 4348
hole 4345
haaren 4344
break 4341
west 4340
um@@ 4339
annual 4338
deep 4327
candles 4326
grun 4325
pine 4323
fuhren 4320
geometric 4320
ll 4320
flachen 4318
kunstlers 4315
nebel 4315
sunglasses 4314
busy 4313
guest 4312
did 4311
decorative 4308
bekommen 4305
baumes 4304
sure 4301
zoo 4301
balloons 4299
gelben 4297
3d-illustration 4295
pitcher 4295
stadion 4294
wachsen 4294
seines 4292
soldiers 4290
tiny 4282
folk 4280
tournament 4278
days 4274
jahres 4274
carrying 4273
abbildung 4271
architecture 4270
hof 4268
chairs 4267
giving 4266
stairs 4259
rot 4258
visual 4258
feet 4257
sleeping 4257
weather 4254
geben 4246
abandoned 4245
wunderschonen 4245
call 4242
e 4239
sollte 4234
3 4226
fog 4225
kleidern 4224
lebensmittel 4221
motorcycle 4220
beste 4219
web 4219
dritten 4216
yard 4211
allen 4210
former 4209
various 4209
tuesday 4201
turn 4199
win 4192
guy 4191
woods 4191
garage 4184
befindet 4183
abbild 4180
roses 4180
smiles 4175
republic 4172
recipe 4168
below 4164
zentrum 4164
kerzen 4160
clothes 4158
wednesday 4157
hills 4155
wheel 4153
genus 4150
geld 4148
comedy 4146
airplane 4145
port 4145
athlet 4144
sit 4143
tips 4143
reacts 4142
sonntag 4137
aller 4134
figure 4133
works 4133
historischen 4130
plakat 4130
check 4128
feuerwerk 4119
countryside 4117
written 4117
blog 4116
ferne 4113
college 4111
throws 4111
mantel 4103
watercolor 4102
dies 4096
stylish 4096
comes 4094
vintage@@ 4091
bow 4087
thursday 4087
outdoors 4080
plastic 4080
sheep 4075
personen 4069
flug 4064
sagt 4063
story 4063
schwimmen 4061
finale 4060
flaggen 4057
pressekonferenz 4055
costume 4051
online 4050
scores 4050
eis 4049
geographical 4048
idee 4047
voll 4047
bekannt 4035
ihm 4030
snowy 4028
tunnel 4028
gattung 4027
month 4025
passing 4024
professional 4019
hearts 4009
a@@ 4004
sommertag 4003
ornament 3997
rechts 3995
bahnhof 3992
shower 3992
suche 3992
traditionellen 3992
sold 3990
fließt 3988
palmen 3984
blaue 3983
power 3981
lustige 3979
font 3975
cream 3974
bay 3971
beside 3971
practice 3969
protest 3964
neighborhood 3963
butterfly 3959
airport 3957
resort 3957
stop 3952
artists 3950
created 3949
letzte 3949
smart 3940
fußballspiels 3935
stream 3935
unterwegs 3934
freitag 3933
restaurants 3933
passes 3932
dich 3930
fisch 3930
shoulder 3929
tasche 3929
wanden 3923
haupt@@ 3920
let 3919
genre 3914
wochenende 3914
* 3913
lit 3911
pferde 3909
typical 3904
feel 3896
gives 3889
giant 3886
harbour 3886
block 3885
fallt 3884
loch 3883
altstadt 3881
balcony 3881
vase 3870
wasserfall 3870
besucher 3869
gaste 3869
auftritt 3868
wasser@@ 3867
arten 3862
c 3862
vorbei 3860
filmpremiere 3859
bringt 3858
finish 3858
broken 3857
rainbow 3854
schones 3850
district 3844
internet 3844
babys 3841
dinge 3841
hang 3841
chocolate 3839
ed 3839
zu@@ 3839
highway 3837
extra 3835
kamin 3833
ruins 3830
uk 3829
trophy 3828
fit 3827
garment 3826
rocky 3826
sammlung 3826
master 3821
katzchen 3815
polizei 3814
vektorsilhouette 3812
hold 3811
steel 3811
lesen 3806
regenschirm 3803
rosen 3797
championship 3796
relaxing 3792
architektur 3791
blowing 3790
freunden 3790
healthy 3790
autor 3782
watches 3771
wheat 3771
commander 3769
ecke 3765
pfad 3765
verkehr 3765
international 3764
railway 3763
wunderschone 3761
base 3756
contemporary 3754
dock 3751
weil 3751
goldene 3750
balkon 3748
basketballspiel 3748
offenen 3748
schritt 3747
bereitet 3746
custom 3744
skirt 3744
forward 3743
traditionelle 3743
clipping 3736
metall@@ 3735
called 3732
tapete 3726
waters 3722
aussieht 3720
bike 3720
foot 3720
parking 3720
paares 3719
clip 3718
mitglieder 3717
bewegt 3715
jedem 3713
sommerlichen 3711
zaun 3711
deer 3710
ideen 3708
grauem 3707
1 3703
vehicles 3703
ent@@ 3701
da 3693
photography 3690
verwenden 3689
resting 3688
lasst 3685
fly 3682
crowds 3681
fassade 3681
glucklichen 3679
shown 3679
mode 3678
club 3677
sad 3677
leaving 3675
history 3674
uniform 3674
werfen 3667
drama 3666
einfach 3666
gym 3666
ast 3665
nachbarschaft 3665
hospital 3661
ribbon 3659
level 3658
sonnenbrille 3658
ging 3653
system 3653
rotes 3651
trifft 3651
auge 3648
mixed 3648
says 3645
eggs 3644
feiertage 3642
available 3639
east 3639
product 3638
cloud 3630
fruhen 3629
chic 3622
beobachten 3612
hangt 3610
rural 3610
meinen 3609
schussel 3607
cocktail 3605
gruner 3605
stellen 3604
verlassen 3602
handy 3598
stall 3598
lugt 3597
lawn 3596
unique 3595
overlooking 3594
animation 3593
future 3591
ruinen 3589
mochte 3588
gefunden 3584
silhouettes 3583
treppe 3583
klassischen 3577
deity 3576
gluckliches 3575
heimat 3569
border 3562
herum 3561
malerei 3558
antique 3554
album 3553
luftballons 3547
bucht 3545
mirror 3543
abstrakter 3542
antiken 3538
sunlight 3534
travel 3529
must 3527
eltern 3526
preis 3526
viertel 3525
fruits 3523
fictional 3518
schießt 3517
job 3509
fountain 3507
direkt 3506
denen 3502
gericht 3502
drops 3501
leg 3501
grill 3499
personality 3498
section 3497
barn 3496
holztisch 3496
went 3492
republik 3490
theatre 3489
mussen 3486
fuhrer 3483
lunch 3482
skizze 3480
burning 3478
such 3475
graffiti 3473
flache 3472
lost 3471
metallic 3471
aufgenommen 3470
dann 3470
glucklicher 3468
arbeiter 3465
tie 3464
change 3463
bier 3462
legs 3462
eat 3461
library 3461
schlaft 3460
weihnachten 3460
won 3459
sagte 3455
tal 3454
automotive 3453
hatten 3452
smoke 3449
veranda 3449
genießt 3448
based 3445
wetter 3444
helicopter 3443
blonde 3440
cartoon-illustration 3437
kaufen 3435
nest 3434
sailing 3429
led 3421
trinken 3420
apple 3419
gallery 3415
lead 3415
whole 3414
hellen 3412
skulptur 3407
ers 3404
post 3403
flughafen 3402
viewed 3402
bring 3401
elderly 3401
anniversary 3400
sandy 3398
tipps 3398
schlagt 3394
fourth 3392
frei 3383
bildschirm 3382
fußballspiel 3381
herbstlichen 3379
gen 3376
putting 3376
official 3373
civil 3372
elephant 3370
fahrzeug 3370
cruise 3368
ways 3367
hits 3366
parents 3366
schwimmt 3363
move 3362
graduation 3359
fuß 3358
akteur 3355
schaffen 3346
via 3345
biologischer 3342
grunge 3342
amerikanischer 3341
producer 3341
cats 3338
schneebedeckten 3337
concrete 3336
verlasst 3335
clean 3331
dusk 3329
rustic 3326
ung 3326
drive 3325
einigen 3325
mouth 3321
lovely 3320
flowing 3318
lachelnd 3318
driver 3311
reflection 3311
far 3309
konzept 3309
organisationsleiter 3309
teilen 3306
brunnen 3305
lots 3305
gute 3302
scheint 3300
verkauft 3300
ganze 3298
wears 3295
hall 3293
soll 3293
bronze 3292
st 3289
played 3288
turm 3288
mogen 3287
teenage 3287
kitten 3284
visitors 3283
focus 3280
kollektion 3280
vs 3280
two 3276
victory 3276
schrift 3275
mehrere 3273
kinder@@ 3272
king 3272
pile 3272
eigenen 3270
sandstrand 3270
cutting 3266
gold@@ 3264
composer 3263
estate 3263
gang 3263
herd 3262
autobahn 3260
damit 3259
within 3256
unternehmen 3255
bucher 3251
fische 3251
yacht 3250
bags 3248
kostenlos 3248
sonnenlicht 3244
grußkarte 3237
vs. 3235
stern 3234
2 3231
satz 3231
blume 3230
helfen 3229
angeles 3226
trying 3223
elegant 3222
key 3221
nichts 3221
support 3221
formen 3219
ruckseite 3219
di@@ 3218
isolierten 3212
colour 3211
test 3211
einfache 3210
trophae 3210
lernen 3207
riesigen 3204
tanzer 3203
urban 3202
beard 3201
guide 3200
dancer 3197
liegen 3195
audience 3193
glucklich 3193
bit 3192
serien 3190
zweig 3190
word 3188
gelbe 3185
ob 3184
umgebung 3184
graphic 3182
reception 3180
novelist 3178
sicher 3178
bottom 3174
großte 3174
stunning 3172
allgemeine 3169
hundes 3169
gottheit 3168
touch 3168
service 3167
abendessen 3166
patterns 3166
kleidung 3160
march 3155
allein 3153
donnerstag 3153
exhibition 3153
posing 3151
themed 3150
bart 3146
sees 3144
camp 3140
closed 3140
pointing 3140
gate 3135
illustrations 3134
chicken 3132
nothing 3131
tatowierung 3131
performt 3130
theme 3128
someone 3127
t@@ 3127
grand 3124
musician 3122
pieces 3122
narrow 3121
welpe 3121
bottles 3120
came 3119
lkw 3118
orangen 3117
dunklem 3116
leeren 3114
schuler 3113
lichter 3112
ern 3110
save 3110
cast 3108
fußball 3107
track 3105
bewolkten 3102
entfernt 3101
suße 3099
betrachtet 3098
ing 3096
leere 3096
thing 3095
almost 3090
swing 3090
photographer 3086
dekoration 3085
catch 3082
bold 3081
course 3081
urauffuhrung 3081
wesen 3080
frozen 3079
isst 3078
symbole 3078
variety 3077
meal 3074
sides 3073
workers 3072
again 3070
celebrating 3070
patio 3068
sitzend 3065
shorts 3061
gebaut 3058
planeten 3058
times 3058
queen 3056
shiny 3055
thema 3053
colourful 3049
quality 3048
english 3046
transparent 3046
bibliothek 3045
draw 3045
porch 3044
study 3043
welpen 3036
decor 3034
jacke 3028
less 3028
husband 3027
court 3025
creative 3024
pro 3024
dramatic 3023
mittwoch 3022
vordergrund 3022
webseite 3022
zweite 3022
read 3020
katzen 3018
rooms 3017
abstrakten 3016
sharing 3016
blurred 3009
frische 3009
bauten 3006
rice 3003
route 3003
host 3002
neuer 3002
bach 3001
modernes 2999
buy 2998
height 2996
shooting 2994
straight 2994
tafel 2994
residential 2993
schlange 2991
wandern 2990
mates 2989
selling 2988
turned 2988
liche 2985
10 2982
gothic 2982
hoch@@ 2979
einfachen 2978
force 2978
schwarzes 2978
sagen 2971
auswahl 2967
strong 2967
foreground 2966
invention 2966
alone 2965
balloon 2959
geschaftsfrau 2959
silhouetten 2958
abenddammerung 2957
gardens 2957
g 2956
stein@@ 2954
amazing 2953
grau 2952
neu 2952
stained 2952
e@@ 2948
wohnungen 2948
nationalflagge 2947
coral 2945
prominente 2944
mini 2943
wissen 2943
blank 2938
lage 2937
length 2937
since 2936
welcome 2935
presents 2930
warum 2928
lined 2927
drives 2926
hauptstadt 2925
nachthimmel 2925
saw 2924
places 2919
wachst 2918
lace 2917
landstraße 2917
spotted 2913
decorations 2911
summit 2911
label 2910
lichen 2910
weihnachts@@ 2909
prasentiert 2907
ripe 2905
weiter 2902
trunk 2901
medical 2900
canal 2899
montag 2898
largest 2893
meisten 2893
piano 2893
musiker 2890
klasse 2887
vacation 2886
arriving 2884
falls 2883
gemacht 2882
solar 2882
perfekt 2881
bereich 2880
rainy 2880
streifen 2879
bewegen 2878
festtag 2876
medieval 2876
lachelnden 2875
schleife 2873
bald 2872
speech 2872
besser 2870
de@@ 2869
spiegel 2869
landes 2868
b 2862
tem 2862
instead 2860
leads 2860
lighthouse 2860
soul 2859
em 2858
parish 2856
namen 2852
writing 2852
kunden 2851
sets 2851
say 2850
strauß 2849
appears 2847
faces 2847
fruhstuck 2847
bodies 2845
l 2845
soldier 2845
menschenmassen 2844
karikatur 2842
rides 2840
rosafarbenen 2840
complete 2838
fruchte 2838
wein 2837
heads 2835
presentation 2829
yet 2829
homepage 2828
hutte 2823
skull 2823
might 2822
uberquert 2821
gezeigt 2820
flock 2815
o@@ 2813
industrial 2812
tanzen 2809
tractor 2809
entworfen 2808
founder 2808
learn 2808
per 2808
fabric 2806
millionen 2806
symbols 2806
striped 2805
tank 2804
nettes 2803
uberqueren 2803
handgezeichnete 2802
k 2802
cupcakes 2801
preparing 2800
wreath 2800
cliff 2798
wande 2797
gather 2796
besuch 2795
teenager 2794
vektor@@ 2789
artwork 2788
erte 2788
venue 2788
geschaftsleute 2787
lighting 2787
de 2784
leicht 2784
parkplatz 2782
weit 2782
g@@ 2781
welle 2778
dunkelheit 2777
position 2777
classroom 2775
hinauf 2775
message 2775
budget 2769
worn 2769
zahl 2767
iron 2765
seiten 2765
frisch 2762
government 2762
personal 2761
reflected 2760
buchstaben 2755
geparkt 2755
motorrad 2755
words 2753
umarmt 2751
bietet 2749
zeichnet 2749
ruht 2744
klaren 2741
engagement 2740
ereignis 2740
rennt 2740
welche 2739
clothing 2738
i@@ 2738
bridal 2736
spot 2734
erstes 2732
k@@ 2727
production 2726
drone 2723
geschenk 2721
plus 2721
reise 2720
meet 2719
rising 2717
ski 2716
age 2715
unter@@ 2710
displayed 2709
makeup 2708
ra@@ 2708
modischer 2707
wagen 2707
hinterhof 2706
ate 2705
regenbogen 2705
important 2704
cherry 2699
erhalten 2699
grainy 2699
accommodation 2698
printed 2698
komponist 2696
vektorkunst 2696
arch 2693
depicting 2691
turen 2691
lebensmitteln 2689
million 2689
present 2689
warmen 2688
wet 2687
rough 2686
menswear 2685
pouring 2685
tent 2682
beginnt 2678
pumpkin 2678
trendy 2677
television 2675
fuße 2674
terrace 2674
telefon 2673
doctor 2672
passengers 2670
jump 2667
cap 2666
cookies 2666
architect 2664
sten 2664
gelb 2662
milk 2660
realistic 2660
titled 2659
dienstag 2655
5 2654
apfel 2652
a-@@ 2647
pencil 2647
drinks 2645
grazing 2645
shining 2644
erfindung 2643
holzernen 2643
ago 2642
wings 2641
bau@@ 2640
royal 2638
fine 2636
chen 2634
elefanten 2633
commercial 2632
kiss 2632
d@@ 2631
rauch 2631
zwei 2631
rise 2629
uses 2627
lobby 2626
x 2625
cities 2623
gemalde 2621
atmosphere 2619
hebt 2619
share 2619
toward 2618
atmosphare 2617
engine 2617
allgemeiner 2613
hand@@ 2611
großbuchstaben 2609
machine 2609
balls 2608
aged 2606
featured 2606
stick 2604
backyard 2603
everything 2602
reifen 2602
legt 2601
ruckansicht 2599
niedlichen 2598
hour 2596
gas 2595
ankunft 2591
darstellung 2590
function 2590
hd 2590
leave 2590
laughing 2588
blackboard 2586
born 2585
cart 2585
pullover 2585
riesige 2585
sturm 2585
element 2583
navy 2582
enden 2581
kanal 2580
anhanger 2579
calm 2579
heißen 2578
armen 2577
hotels 2577
klassenzimmer 2577
mittagessen 2577
reitet 2577
climbing 2576
marke 2576
necklace 2575
coastal 2571
gelber 2570
versuchen 2570
ausgestellt 2569
talk 2569
australian 2568
denim 2566
el@@ 2566
farmer 2564
monat 2563
hubsche 2562
motor 2562
telefoniert 2561
interesting 2558
martial 2558
bord 2557
turnhalle 2557
mahlzeit 2553
zutaten 2553
isolierte 2552
products 2552
downtown 2550
cards 2549
herzform 2549
weitere 2549
country-kunstler 2544
cowboy 2542
starting 2541
feeding 2540
jemand 2540
reef 2540
gemalt 2536
kid 2536
leuchtturm 2535
traditioneller 2535
profile 2534
westen 2534
bleiben 2532
central 2532
politikers 2532
holidays 2531
hubschrauber 2531
fahrzeuge 2530
spielzeug 2530
davon 2528
entspannt 2527
supermodel 2526
brauchen 2525
regal 2521
tile 2521
christliche 2520
pause 2517
sternen 2517
titel 2514
offentlichen 2513
vierten 2513
lion 2512
wollen 2512
raised 2511
newspaper 2510
shoot 2510
net 2509
sweater 2501
beginn 2500
kam 2500
richtung 2500
pregnant 2497
recently 2497
legen 2496
listing 2496
tieren 2496
stay 2495
flies 2494
krankenhaus 2494
latest 2494
ge 2493
illustrationen 2492
toy 2492
bisschen 2489
list 2489
religion 2489
retro-@@ 2489
vorne 2488
erten 2487
y 2487
hard-rock-kunstler 2486
performer 2484
photographs 2483
einschließlich 2482
frauen@@ 2482
mask 2482
mural 2481
become 2478
named 2478
laying 2477
traveling 2477
bought 2476
gelbem 2475
kostum 2473
dreht 2471
inmitten 2471
laden 2471
rand 2471
5@@ 2469
winterlichen 2468
durch@@ 2467
started 2467
skin 2466
transport 2463
able 2462
mund 2462
cliffs 2460
steam 2460
weide 2460
baumstamm 2458
großten 2458
inspiration 2458
diamond 2457
meeres 2457
pan 2453
versammeln 2453
ganz 2450
eren 2448
preistrager 2448
surrounding 2448
gifts 2447
weibliche 2446
speed 2445
rezept 2444
halloween 2442
lamp 2440
crown 2438
hubschen 2437
roads 2436
common 2432
burg 2431
sonnenuntergangs 2431
member 2430
eroffnung 2427
material 2427
cows 2426
koffer 2426
major 2426
wrapped 2426
zusammen@@ 2426
klippe 2425
finished 2424
bogen 2423
presented 2420
4@@ 2419
care 2419
schmetterling 2418
wait 2418
writer 2418
armed 2417
mug 2416
opened 2416
traditionelles 2415
rings 2414
coins 2413
rugby-spieler 2413
facing 2412
taxi 2412
ft 2410
listening 2410
order 2410
toten 2410
pot 2408
thought 2408
bunch 2407
seeing 2407
alteren 2406
illuminated 2404
sucht 2404
harbor 2403
mist 2403
rollstuhl 2403
crew 2402
schuhen 2400
sunshine 2399
paintings 2397
appearance 2395
einander 2394
prepares 2391
grunes 2388
title 2387
bare 2386
earlier 2386
kalten 2386
unseren 2386
2nd 2383
nachmittag 2383
schen 2383
gorgeous 2382
grenze 2382
thinking 2381
scheune 2380
brush 2378
wege 2378
laub 2377
demonstranten 2376
moored 2376
helmet 2375
smoking 2374
cooking 2373
ferry 2373
weise 2373
westliche 2373
numbers 2371
bilden 2370
horizon 2369
grow 2367
gemeinsam 2366
@ 2365
bekommt 2365
ingredients 2362
ar@@ 2361
dazu 2360
lich 2359
enough 2357
springen 2357
3@@ 2356
trainings 2354
flugel 2352
historical 2352
cathedral 2351
perched 2351
university 2351
ger 2350
langsamer 2350
nachsten 2350
stellt 2350
beruhmtheit 2349
zuruck@@ 2348
zeitraffer 2347
tattoos 2345
neck 2344
facility 2343
getragen 2343
wheelchair 2343
button 2342
supermarket 2342
gab 2341
esszimmer 2340
ethnicity 2340
circa 2339
n 2339
gala 2338
stamp 2338
worship 2337
kleidungsstuck 2336
kunstwerk 2336
innen 2335
korper 2335
later 2335
stoff 2335
seitenansicht 2333
suspension 2333
alphabet 2332
carved 2332
suden 2331
profession 2328
toys 2327
dessert 2326
leuchtend 2326
template 2326
beruhmten 2325
gefuhl 2325
september 2325
sugar 2324
schafe 2322
blaues 2321
innere 2321
candle 2320
norden 2320
wahrscheinlich 2320
langsam 2319
setzt 2319
nebligen 2318
rally 2318
tables 2318
ruhigen 2316
self 2316
berges 2315
frisst 2314
monkey 2313
fahrer 2312
bread 2311
leute 2311
leaning 2310
stein 2307
anderer 2304
graue 2304
kreuz 2304
return 2304
everyone 2302
hausern 2301
reisen 2300
rich 2300
dein 2299
fenstern 2299
ausge@@ 2298
winkt 2297
detailed 2296
complex 2295
ornate 2295
rare 2293
al@@ 2291
decoration 2291
handsome 2291
je 2290
lichtern 2289
calendar 2288
division 2287
caught 2286
entspannen 2286
nahm 2286
zelt 2285
banks 2284
lang 2284
mission 2283
ste 2282
amerikanischen 2281
anzahl 2281
daruber 2281
dollars 2281
jahrlichen 2280
kept 2279
langer 2279
teacher 2279
fell 2278
..... 2276
hugeln 2275
einzige 2273
hin 2271
quite 2271
bath 2270
tackle 2270
demonstration 2269
besonderheit 2268
marina 2268
tide 2268
publikum 2267
6@@ 2266
parts 2265
actress 2264
horizont 2264
latin 2264
" 2263
blau@@ 2263
canvas 2263
einkaufszentrum 2263
kick 2261
owner 2260
beginnen 2259
salad 2257
thin 2257
enthullt 2256
showed 2256
traktor 2256
colours 2255
picnic 2255
events 2254
hangebrucke 2254
promis 2254
sch@@ 2254
massive 2250
ungen 2249
coloured 2248
immobilien 2248
talks 2248
zukunft 2248
p@@ 2247
upper 2247
worker 2247
familien 2246
patient 2246
actually 2244
shade 2244
waldern 2243
obst 2242
wort 2242
steigt 2240
trend 2239
champagne 2238
inspiriert 2238
posters 2237
rede 2237
rules 2236
journalist 2235
giraffe 2232
seat 2232
expensive 2231
glowing 2231
thick 2230
tiles 2229
toddler 2227
lieblings@@ 2225
aquarium 2224
married 2223
fangt 2222
overlay 2221
drinnen 2219
herrenmode-woche 2219
oak 2219
geschaftsmannes 2218
schneiden 2218
shoots 2218
shared 2217
language 2216
gast 2214
lonely 2214
zeiten 2214
decorating 2213
alternative 2211
angry 2209
courtyard 2208
oldtimer 2208
factory 2207
heading 2207
mutze 2207
tracks 2206
areas 2205
offnet 2203
political 2203
wolf 2203
haut 2202
retail 2201
punkt 2197
interest 2196
dream 2195
wire 2195
folk-rock-kunstler 2194
v 2194
7@@ 2193
platform 2193
kathedrale 2192
fischerboot 2190
butterflies 2189
prepare 2187
malen 2186
t-shirt 2186
copy 2184
fight 2184
shapes 2184
esstisch 2183
scarf 2183
recent 2182
search 2182
added 2181
rande 2181
competes 2180
download 2180
messe 2179
though 2179
outline 2177
foods 2174
goldener 2173
kochen 2173
rechten 2173
se@@ 2173
rabbit 2172
schwarz-weiße 2172
3d-@@ 2170
lies 2170
ornaments 2170
4 2169
animated 2167
eagle 2167
eve 2167
racing 2167
hoher 2166
klippen 2166
weltkarte 2165
ri@@ 2164
suchen 2164
score 2163
kissen 2161
rope 2161
pen 2158
wish 2158
shelf 2157
schloss 2156
guten 2155
heraus 2154
2@@ 2153
komische 2152
playground 2152
roll 2152
stones 2152
shops 2150
u@@ 2149
unit 2149
beige 2148
composition 2146
kindes 2146
blau 2142
ausgabe 2141
egg 2141
rolling 2141
stiefel 2141
hohle 2139
lauf 2138
lehrer 2138
often 2136
alongside 2135
watermark 2133
miles 2132
projekt 2132
thriller 2131
zeigte 2131
cheese 2130
o 2130
fliesen 2129
wolkenkratzer 2128
served 2125
stamps 2125
arrived 2124
automobilindustrie 2124
winkel 2124
nails 2123
northern 2123
promenade 2123
pick 2122
statement 2121
morgens 2120
la@@ 2119
builder 2118
schneidet 2118
schal 2117
invitation 2116
dir 2115
verlassenen 2114
fischen 2113
needs 2113
wassers 2113
schnell 2111
buchfigur 2110
gegend 2110
headquarters 2109
rather 2109
unterstutzung 2109
biggest 2107
liches 2106
sei 2103
weniger 2101
passenger 2099
teilnehmer 2099
dirt 2098
helm 2098
panoramic 2098
foggy 2097
netz 2096
teile 2096
frisur 2095
einsatz 2094
hiking 2094
schneefall 2094
squirrel 2093
abge@@ 2092
leopard 2092
medium 2092
tournee 2092
druck 2091
equipment 2090
fischerboote 2090
administrative 2088
mobel 2088
farbenfrohe 2087
formal 2086
maple 2086
aquarell 2085
braucht 2085
throughout 2085
exercise 2084
liste 2084
vegetation 2083
versuch 2082
fragen 2081
gewasser 2080
palette 2080
sches 2079
schriftzug 2079
steigen 2079
klassische 2078
staff 2077
tomaten 2076
genug 2075
kaninchen 2075
throw 2075
spiel@@ 2074
hell 2073
schau 2072
ta@@ 2072
astronaut 2071
tomatoes 2071
revival 2070
soccerspieler 2069
newly 2067
sprechen 2067
haustur 2064
milch 2063
pet 2063
president 2063
tries 2063
familien@@ 2061
until 2061
points 2060
sink 2060
produkte 2059
wintertag 2059
baseballspiels 2058
basic 2058
officers 2058
groß 2056
festive 2053
krawatte 2053
f@@ 2052
tage 2052
attraktive 2051
hairstyles 2051
weges 2051
lachelnde 2050
pre@@ 2050
ch@@ 2049
ladies 2049
logos 2048
choose 2047
palace 2047
serviert 2047
sprache 2047
elemente 2046
fahre 2046
kissing 2044
stapel 2044
backdrop 2043
effect 2043
freundin 2041
verfugt 2040
antike 2039
mom 2039
thanksgiving 2038
linken 2036
zahlen 2036
le@@ 2034
container 2033
plenty 2033
treppen 2033
thousands 2032
baren 2031
runden 2031
ships 2031
denken 2030
nationalpark 2030
wheels 2030
pulling 2029
salat 2029
delivers 2028
rises 2028
seit 2028
mosque 2027
moves 2027
frisuren 2026
lebt 2026
fischer 2025
diy 2024
flammen 2024
geschmuckt 2024
offnen 2024
setzen 2024
types 2024
flugzeugs 2021
mannlicher 2020
notes 2020
organismen 2020
ro@@ 2020
bubbles 2019
regenwald 2019
entry 2018
van 2018
cabin 2017
daran 2016
diagram 2015
langsame 2015
alterer 2013
hauch 2012
spiele 2012
headphones 2011
helle 2011
religioser 2011
cabinets 2010
schachtel 2009
besitzer 2008
hilft 2008
lo@@ 2008
true 2008
grasen 2007
older 2007
religiose 2007
saulen 2005
betrachten 2004
drop 2004
skies 2004
newborn 2003
sleeve 2003
ting 2003
braunen 2002
emblem 2002
19. 2001
bemalung 2000
ert 2000
blooming 1999
quiet 1998
monarchen 1997
cow 1996
tanz 1995
6 1994
drachen 1994
f 1992
schultern 1992
ts 1992
visiting 1992
washing 1992
afterparty 1990
corn 1990
lose 1987
abgebildet 1986
horizontal 1983
tanzt 1983
schulter 1981
screenshot 1981
at@@ 1980
kurzen 1980
stuhle 1980
confetti 1979
fotografieren 1979
starts 1979
crime 1978
ding 1978
weiterer 1978
winter@@ 1978
1st 1976
abstraktes 1976
beine 1976
graphics 1976
rays 1975
similar 1974
creating 1973
siehe 1973
versteckt 1972
moderner 1971
salon 1971
heat 1970
organic 1970
skates 1970
ungs@@ 1970
sheet 1969
verschneiten 1969
arrow 1968
ebene 1967
countries 1966
bereiten 1965
herde 1965
pfeil 1965
dauer 1964
scher 1963
supermarkt 1963
außen@@ 1962
kusst 1962
licher 1962
olive 1962
volkern 1962
sneakers 1961
blanket 1960
fabrik 1960
geschenke 1960
ange@@ 1958
gelande 1958
stehend 1956
universitat 1956
ated 1955
stelle 1955
yourself 1955
glasern 1954
dafur 1953
social 1953
airline 1952
lower 1951
gesprach 1950
km 1950
geburtstagstorte 1949
mischung 1948
residents 1948
soldat 1948
aisle 1947
schwer 1947
verkaufen 1944
placed 1943
bedrooms 1941
kurbis 1941
meines 1939
rolle 1939
tief 1938
carries 1934
native 1933
pasture 1933
saisonpremiere 1933
daily 1932
popkunstlerin 1931
prasentation 1931
rent 1931
circular 1928
kleinkind 1928
song 1928
felsigen 1927
programme 1927
u 1927
fußganger 1925
throwing 1923
mannliche 1920
werde 1920
cheerful 1919
note 1919
collage 1918
buying 1914
covers 1914
dancers 1914
erhalt 1913
li@@ 1912
verwandeln 1910
etikett 1909
fotograf 1909
letters 1909
given 1907
gebauden 1906
slowly 1906
characters 1905
gewann 1904
mitarbeiter 1903
10@@ 1902
chalk 1902
davor 1902
wanderung 1902
christlichen 1901
skinny 1901
tatowierungen 1901
joined 1898
holen 1897
entertainer 1895
gathered 1895
jungle 1895
schnitt 1895
breaking 1894
erstellen 1893
fair 1893
hosted 1893
gebiet 1892
knee 1892
lehnt 1892
p 1891
brot 1889
eichhornchen 1889
blocks 1888
probably 1888
august 1887
wahl 1887
oft 1886
sister 1886
brought 1885
calligraphy 1885
farbige 1885
starrt 1885
attending 1884
stack 1884
flaschen 1883
historische 1883
warmt 1883
7 1882
romantischen 1882
altere 1881
kerze 1880
konnten 1879
november 1879
pedestrians 1877
grab 1876
schneeflocken 1876
kickt 1875
three 1875
mix 1874
biologischen 1873
april 1872
christlicher 1872
9@@ 1871
haus@@ 1871
innenhof 1869
swim 1869
wandbild 1868
chance 1867
schwarz-weiß 1867
carriage 1866
vielleicht 1866
weizenfeld 1866
addition 1865
gewassern 1863
underwater 1862
hours 1861
ikone 1860
families 1859
relief 1859
wenig 1859
pin 1858
speisesaal 1858
bull 1857
snowman 1857
sche 1856
topf 1855
trauben 1855
begleitet 1854
county 1854
kategorie 1854
partner 1854
problem 1853
charakter 1852
edle 1852
nose 1851
grounds 1850
jet 1850
ru@@ 1850
stil@@ 1850
diamanten 1849
covering 1848
mall 1848
schauspielerinnen 1847
wonderful 1846
standort 1845
already 1844
hort 1844
log 1844
halbzeit 1843
seebrucke 1843
shed 1843
boxes 1842
regisseur 1842
spaten 1842
buntes 1841
upon 1841
wing 1841
gemeinschaft 1840
verbringen 1840
dschungel 1838
gestern 1838
turning 1838
farbigen 1835
hilfe 1835
gewinnen 1834
zone 1834
shirts 1833
natur@@ 1832
catching 1831
feeling 1831
landkunstler 1831
wandert 1831
arme 1830
blumenstrauß 1830
others 1830
willkommen 1830
8@@ 1829
fried 1829
teen 1828
kuhe 1827
mitten 1827
fleisch 1826
framed 1826
sollten 1826
nail 1823
brings 1822
mannlichen 1822
campaign 1821
erinnert 1821
iconic 1821
antenne 1820
attended 1820
ceramic 1820
einge@@ 1820
hochzeitstag 1820
te@@ 1820
bemalt 1819
due 1819
flames 1819
worden 1819
blumen@@ 1817
jubelt 1817
kette 1817
posed 1816
appeared 1814
format 1813
lounge 1813
stadtzentrum 1813
turtle 1812
vollmond 1811
loved 1810
meets 1810
nagel 1810
gewinn 1809
turns 1809
viertels 1809
ere 1808
panorama 1808
beruhmtheiten 1807
spielplatz 1807
verleiht 1807
formation 1806
gerade 1806
sammeln 1806
european 1805
medien 1805
zeitung 1805
plans 1804
damaged 1802
organisationsgrunder 1802
dunkle 1800
hunden 1798
puts 1798
50 1797
brett 1796
jazz 1796
ur@@ 1795
peace 1794
warning 1792
leder@@ 1791
shades 1791
deal 1790
kurze 1790
lustigen 1790
officer 1789
wanted 1789
circles 1786
ges 1786
polizisten 1786
radio 1786
case 1785
teammates 1785
lebens 1784
spielern 1784
z@@ 1784
scenes 1783
singing 1782
aufnahme 1780
ink 1780
lettering 1780
meisterschaft 1780
bildenden 1779
geschafte 1779
kurz 1779
stormy 1778
cattle 1777
hochzeitskleider 1777
pedestrian 1777
sußen 1777
tribute 1777
fotografen 1776
dad 1775
meat 1775
trails 1775
caucasian 1774
daumen 1774
opens 1773
schließt 1773
ti@@ 1772
frischen 1771
handmade 1771
naturliche 1771
ornamental 1771
westlicher 1771
beleuchtung 1770
gezeichnet 1770
munzen 1770
successful 1770
constitutional 1769
fully 1769
bloom 1768
entire 1767
inseln 1767
monument 1766
baustelle 1765
pfanne 1765
result 1765
schiffes 1764
firefighters 1762
grundstuck 1762
anwesen 1761
los-engel-premiere 1761
roots 1761
stripes 1761
visible 1759
architekten 1757
diagramm 1757
crosses 1756
interieur 1756
malers 1756
snowflakes 1756
8 1754
arrivals 1754
macro 1754
19th 1753
einsamer 1752
mass 1752
brother 1751
chess 1750
pub 1750
booten 1749
fußboden 1749
gebracht 1749
serious 1749
weiteres 1748
maybe 1747
captured 1745
n@@ 1744
brain 1743
kreuzung 1742
tops 1742
abschlussfeier 1741
gefangen 1740
m@@ 1738
scale 1738
ted 1738
dunes 1737
includes 1737
secret 1737
her@@ 1736
matching 1736
miteinander 1736
weltraum 1736
basis 1735
perlen 1735
feuerwehrleute 1734
vegetable 1734
beginning 1733
weiblichen 1733
aufge@@ 1732
roman 1732
dressing 1731
gießen 1730
20 1728
blouse 1728
customers 1728
wilden 1728
apartments 1727
ausschnittpfad 1727
drehen 1727
felder 1727
shadows 1727
sommer@@ 1726
hintergrundes 1725
cave 1724
einkaufen 1724
geographische 1722
standard 1722
menschlichen 1721
schlagen 1721
drohne 1720
keyboard 1720
hubsches 1719
leder 1718
lives 1717
parks 1717
grapes 1716
straßenrand 1716
bildern 1715
finally 1715
himself 1715
portrats 1715
zeichnen 1714
coin 1712
pumpkins 1712
diskutieren 1711
slope 1710
twin 1710
easter 1709
panels 1709
aste 1708
bewaffnete 1708
gave 1708
selection 1708
halskette 1707
palme 1707
awesome 1706
sterne 1706
kranz 1705
maske 1705
medal 1705
spent 1705
vorderseite 1705
mustern 1704
role 1704
denke 1703
glossy 1703
owl 1703
sammelt 1703
farbenfrohen 1702
gewinner 1702
news 1702
stahl@@ 1702
vertical 1702
lone 1701
spider 1701
mit@@ 1700
render 1700
hugging 1699
beiden 1698
pferdes 1697
100 1696
becher 1696
fangen 1696
closeup 1695
fand 1695
hike 1695
indie 1695
reife 1695
soon 1695
menu 1694
stadte 1694
arranged 1693
beds 1693
keeping 1693
fancy 1692
hochzeitszeremonie 1692
kuh 1692
sidewalk 1692
misty 1691
erdbeeren 1690
frohliche 1690
hairstyle 1690
wohn@@ 1690
zeit@@ 1690
blazer 1689
schlafen 1689
frontansicht 1688
schale 1687
schreiben 1687
adorable 1684
geboren 1684
link 1684
mine 1684
offer 1684
denkmal 1683
ol 1683
foliage 1682
fokus 1681
nun 1681
beneath 1680
islands 1680
slide 1680
ziel 1680
gesichtet 1679
naturlichen 1679
adding 1678
app 1678
komplett 1678
staircase 1678
top-@@ 1678
verwendung 1678
bricht 1677
shallow 1677
spielfeld 1677
despite 1676
science 1675
energy 1674
picking 1674
findet 1673
kase 1673
serving 1673
c@@ 1672
ethnic 1672
skyscrapers 1672
glas@@ 1671
soil 1671
kicks 1670
patterned 1670
kontrolliert 1669
pinsel 1668
ehren 1667
kampfen 1667
cheer 1666
konigin 1666
kunst@@ 1666
nach@@ 1666
reden 1666
verleihen 1665
gesichter 1664
jumps 1664
landing 1664
eigentum 1663
herzens 1663
trucks 1663
earrings 1662
mansion 1662
w 1662
hin@@ 1661
ma@@ 1661
frog 1660
issue 1660
po@@ 1660
reflektiert 1660
meter 1659
record 1659
storage 1659
vielzahl 1659
architectural 1658
styles 1657
film@@ 1656
flows 1656
schmuck 1655
tagen 1655
gt 1654
lightning 1654
begrußt 1653
frischer 1653
juice 1653
spater 1653
bee 1652
tied 1652
goat 1651
tische 1651
y@@ 1651
lokalen 1650
baut 1649
ears 1649
einfaches 1649
skateboard 1649
spend 1649
unusual 1648
access 1647
asten 1647
lips 1647
offiziellen 1647
quick 1647
gluck 1646
zweites 1646
chain 1645
moss 1645
rental 1645
warms 1645
acrylic 1644
federn 1644
strandes 1644
fest@@ 1643
items 1643
dome 1642
hinten 1642
plain 1642
bundel 1636
l@@ 1636
puck 1636
tote 1635
außen 1634
t-@@ 1634
regnerischen 1633
taste 1633
terasse 1633
lift 1632
southern 1631
walder 1631
kreuzfahrtschiff 1630
network 1630
podium 1630
costumes 1628
elephants 1627
orte 1627
lugen 1626
geometrische 1625
microphone 1625
atop 1624
schreibt 1624
suite 1624
wicket 1624
passt 1623
sleep 1622
changing 1621
hintergrundvektor 1621
schrank 1621
latin-pop-kunstler 1620
reality 1620
stunde 1619
lachelnder 1618
rucksack 1618
einheit 1617
neutral 1617
bats 1616
hidden 1616
gedrange 1613
jar 1613
pinned 1613
passagiere 1612
krone 1611
released 1611
schlussel 1611
turquoise 1611
beton@@ 1610
lotus 1610
paris 1610
singt 1610
pack 1609
gewonnen 1608
leuchten 1608
wettbewerb 1607
minute 1606
preseason 1606
mosaic 1604
development 1603
shoe 1603
statuen 1603
mittel@@ 1602
nutzen 1602
dusche 1600
ehemalige 1600
fox 1600
au@@ 1599
gebirge 1598
elementen 1597
fruchten 1597
sometimes 1597
mind 1595
so@@ 1595
union 1594
hellem 1593
athleten 1592
celebrations 1592
ducks 1592
liefert 1592
walked 1591
controls 1590
tier@@ 1590
wehen 1590
z 1590
episode 1589
fullen 1588
privaten 1587
se 1587
gespielt 1585
italian 1585
schneesturm 1585
dort 1583
hitting 1583
experience 1582
roller 1581
explosion 1580
leggings 1580
scooter 1580
sunflower 1580
zebra 1580
alpine 1578
extreme 1578
dekorationen 1577
floors 1576
wollte 1576
bunter 1575
co@@ 1575
ensemble 1575
gewinnt 1575
dekorative 1574
installation 1574
uppercase 1574
herbst@@ 1573
rusty 1573
sp@@ 1573
vorstellung 1573
make-up 1572
province 1572
erster 1571
graffitis 1571
panzer 1570
spirit 1570
beruhmte 1569
bootes 1569
control 1568
festen 1568
ubung 1568
futter 1567
pull 1567
software 1567
contest 1566
ehemaligen 1566
interesse 1566
kampft 1566
perfekte 1566
verwandelt 1566
listed 1565
karten 1564
18. 1563
nahert 1563
nahtlos 1562
ansichten 1561
bieten 1561
ten@@ 1561
sen 1560
begann 1559
lachen 1559
schauspielers 1559
straßen@@ 1559
gehort 1558
wert 1558
blasen 1557
curly 1556
lederjacke 1555
wein@@ 1555
18th 1554
isoliertem 1554
crazy 1553
pro@@ 1553
to@@ 1553
dishes 1552
hinzu 1552
geburtstagsparty 1551
stucke 1551
tropische 1551
mid 1550
oberteil 1549
beat 1548
fifth 1548
vogeln 1546
darstellt 1545
hobby 1545
kiefern 1544
inscription 1543
provinz 1543
silber 1543
affen 1542
gestellt 1542
offers 1542
adds 1541
großartige 1541
jahrhunderts 1541
parchen 1541
scored 1541
splash 1541
fairy 1540
wildblumen 1540
ender 1539
enten 1539
ating 1538
educational 1538
wegen 1538
vektorbild 1537
floralen 1536
packed 1536
volleyball 1536
ones 1535
st@@ 1535
ha@@ 1534
inter@@ 1534
strawberries 1534
hundreds 1533
quote 1533
dried 1532
sowie 1532
blast 1530
bucket 1530
silber@@ 1530
wassertropfen 1530
zigarette 1530
panel 1529
machte 1527
besteht 1525
feldweg 1524
angel 1523
hals 1523
lush 1523
mannschaftskameraden 1523
pulled 1523
attention 1522
brechen 1522
carry 1522
dreams 1522
getrank 1522
mikrofon 1522
movement 1522
pe@@ 1522
rainforest 1522
schwimmbecken 1522
wrap 1522
bruder 1521
eier 1521
schnee@@ 1521
backpack 1520
cigarette 1519
gestaltung 1518
shoulders 1518
symbolen 1518
lippen 1517
elefant 1516
frage 1516
monochrome 1516
skyscraper 1515
tell 1515
wanderer 1515
klassischer 1514
bist 1513
mannern 1513
flugzeuge 1512
feathers 1509
fingers 1509
getroffen 1509
jetty 1509
zer@@ 1508
nachste 1507
b@@ 1506
charity 1506
gleichen 1506
bar@@ 1505
warme 1505
geometrischen 1504
nase 1504
uberall 1503
winzigen 1503
raising 1502
schildkrote 1502
became 1501
isometric 1501
unseres 1501
sing 1500
striking 1500
arrival 1499
dragon 1499
schweben 1499
sat 1498
closet 1497
schneemann 1496
steinernen 1496
con@@ 1495
kusten@@ 1495
cricketer 1494
extruded 1494
genommen 1494
reflecting 1494
maler 1493
pants 1493
schiedsrichter 1493
tone 1493
champagner 1492
enter 1492
kuppel 1491
ridge 1491
stufen 1491
x@@ 1491
yesterday 1491
frames 1490
ideal 1490
price 1490
pferden 1489
typing 1489
venture 1489
erreichen 1488
freundinnen 1488
overhead 1488
smooth 1488
statues 1488
apples 1487
era 1487
hangs 1486
curtains 1485
teddy 1485
coastline 1484
hope 1484
lacht 1483
residence 1483
wilde 1483
9 1482
candy 1482
goldenes 1481
madels 1481
passiert 1481
politische 1481
weight 1481
association 1480
lager 1479
praying 1479
beaches 1478
al 1477
sliding 1477
sparkling 1477
+ 1476
d-@@ 1476
sicherheit 1476
anderes 1475
filmplakat 1475
polar 1475
autors 1474
leuchtet 1474
tinte 1473
wahlen 1473
adult 1472
canyon 1471
lemon 1471
thank 1471
zeitlupe 1471
chest 1470
current 1470
highest 1470
loose 1470
marble 1469
spoon 1469
flugeln 1468
rubber 1468
toilet 1468
diamonds 1467
feldern 1467
hinzufugen 1467
schlag 1467
cheerleader 1466
magazin 1466
steckt 1466
stolz 1465
strecke 1464
bleistift 1463
cyclist 1463
discuss 1463
recurring 1463
remains 1463
costumer 1462
mo@@ 1462
organism 1461
pendant 1461
abends 1460
ms 1460
portraits 1460
ster 1460
verkleidet 1460
cartoon-stil 1459
radfahrer 1459
galaxy 1458
komposition 1458
obwohl 1458
speak 1458
fußballspielers 1457
lagerfeuer 1457
schwebt 1457
country-pop-kunstler 1455
bars 1454
debut 1454
innen@@ 1454
princess 1454
eroffnungsnacht 1453
mi@@ 1453
teeth 1453
bein 1452
r@@ 1452
erter 1451
klettert 1451
death 1450
patienten 1450
terminal 1450
cheftrainer 1449
displays 1449
passen 1449
walkway 1448
anker 1447
mitglied 1446
months 1446
steep 1446
verschiedener 1446
corporate 1445
homeless 1445
seeds 1445
coconut 1444
jungs 1444
safe 1444
tired 1443
bewohner 1442
mud 1442
peak 1442
states 1442
appear 1441
periode 1441
shoppers 1441
tet 1440
follow 1439
cell 1438
edition 1438
gasse 1438
grown 1438
winger 1438
funded 1437
quelle 1437
wolke 1437
feierlichkeiten 1436
waits 1436
tray 1435
over@@ 1434
skier 1434
stadt@@ 1434
waldes 1434
eis@@ 1433
lustiger 1433
memorial 1433
miniature 1433
businesswoman 1432
crop 1432
slice 1432
baum@@ 1431
oldest 1431
hochzeitstorte 1430
innenstadt 1430
sprung 1430
sunflowers 1430
bedeutet 1429
geoffnet 1429
pools 1429
schiebt 1429
silhouetted 1429
trailer 1429
h 1428
camel 1427
locomotive 1427
quotes 1427
weibchen 1427
nearby 1426
tischen 1426
cinema 1425
schenkt 1425
anfang 1424
berries 1424
enjoyed 1424
headed 1424
freier 1423
ruck@@ 1423
schem 1423
completely 1422
gra@@ 1422
suß 1422
sußes 1422
voll@@ 1422
larger 1421
ranch 1421
ruckkehr 1421
tools 1421
muscheln 1420
pocket 1420
federal 1419
sti@@ 1419
the@@ 1419
auszeichnung 1418
darin 1418
outfits 1418
four 1417
werbung 1417
dekoriert 1416
styled 1416
supporters 1416
grenzen 1415
outdoor-@@ 1415
pole 1415
stamm 1415
wins 1415
wurzeln 1415
glanzenden 1414
july 1414
journey 1413
burgersteig 1412
conflict 1412
pale 1412
quilt 1412
si@@ 1412
vorbereitet 1412
guter 1411
eiscreme 1410
farmhouse 1410
goalkeeper 1410
satellite 1410
forming 1409
stylized 1409
cityscape 1408
kopfes 1408
schmucken 1408
schriftsteller 1408
schwangere 1408
lane 1406
richtige 1406
allem 1405
cage 1405
curtain 1405
du@@ 1405
figuren 1405
greenhouse 1405
mehreren 1405
schwester 1405
zimmers 1405
fill 1404
neo 1404
invitations 1403
on@@ 1403
doll 1402
referee 1402
smaller 1402
beeren 1401
gewachshaus 1401
girlfriend 1401
classical 1400
cocktails 1400
gekleidet 1399
sondern 1399
eule 1398
offene 1398
typ 1398
cartoon-@@ 1397
drawings 1397
herbsttag 1397
operation 1396
travelling 1396
completed 1395
tausende 1395
bat 1394
mounted 1394
braune 1393
immobilie 1393
farmers 1392
customer 1391
laundry 1391
spiegelt 1391
bicycles 1390
fisherman 1390
reflections 1390
overlay-wasserzeichen-stempel 1389
rollen 1389
accessories 1388
horen 1388
technology 1388
zeichnungen 1388
breaks 1387
expression 1387
richtigen 1387
eiche 1386
schonsten 1386
stretching 1386
success 1386
ung@@ 1386
fluffy 1385
unterschiedlicher 1385
bauernhaus 1384
exclusive 1384
fotografien 1384
london 1384
multiple 1384
poprock-kunstler 1384
reaching 1384
tomato 1384
provide 1383
terrasse 1383
haired 1382
netter 1382
pets 1382
progressive 1382
toast 1382
ni@@ 1381
su@@ 1381
teilt 1381
buchstabe 1380
handgezeichneten 1380
laid 1380
choice 1379
fernseher 1379
figures 1379
kugel 1378
studentin 1378
2. 1377
kino 1377
super@@ 1377
bauer 1376
promotional 1376
security 1376
basketballspiels 1375
beyond 1375
botschaft 1375
cupcake 1375
kekse 1374
korallenriff 1374
trockenen 1374
catches 1373
gelbes 1373
huhner 1373
s-@@ 1373
tulips 1373
fußen 1372
mile 1372
verfugung 1372
brief 1371
ca 1371
colonial 1371
30 1370
kinderzimmer 1370
mobiltelefon 1369
rennens 1369
starke 1369
war@@ 1369
buchern 1368
mittelalterlichen 1368
neon 1367
platte 1366
spiegeln 1366
suitcase 1366
attached 1365
itself 1365
personen@@ 1365
wants 1365
watering 1365
zen 1365
breed 1364
fressen 1363
loft 1363
gloves 1362
total 1362
sent 1361
singen 1360
benutzen 1359
ho@@ 1359
mouse 1359
mucke 1359
prints 1359
directed 1358
helping 1357
sized 1357
studie 1357
zitat 1357
ahnlich 1356
borders 1356
minutes 1356
religiosen 1356
starry 1356
borough 1355
dessen 1355
ethnizitat 1355
reflexion 1355
cactus 1354
environment 1354
financial 1354
herself 1354
verteidiger 1354
recipes 1353
chips 1352
fighting 1352
wand@@ 1352
according 1351
intricate 1351
schafft 1351
underneath 1351
unterkunft 1351
arrangement 1349
gs 1349
ss@@ 1349
themselves 1349
geschmack 1348
goldenem 1348
installed 1348
osten 1348
profil 1348
tackled 1348
tete 1348
jewelry 1347
sorgen 1347
columns 1346
heritage 1346
starkem 1346
owned 1345
reach 1345
3rd 1343
hast 1343
health 1343
posted 1343
speaking 1343
dramatist 1342
land@@ 1342
or@@ 1342
affe 1341
decken 1341
frisches 1341
segelboot 1341
aboard 1340
dots 1340
wunderschones 1340
vergangenen 1339
15@@ 1338
geformt 1338
tatsachlich 1338
wildlife 1338
dunkel@@ 1337
ly 1337
umarmen 1337
winds 1337
smartphones 1336
bluhen 1335
ertes 1335
counter 1334
loving 1334
stretch 1334
ufern 1334
veranstaltungen 1333
langem 1332
returns 1332
bell 1331
champion 1331
enjoys 1331
businessperson 1330
cakes 1330
clown 1329
moved 1328
blicken 1327
rotating 1327
schul@@ 1327
typische 1327
begins 1326
closer 1326
hats 1326
nurse 1326
whale 1326
heben 1325
penalty 1324
scheibe 1324
bauern 1323
kreide 1323
leiter 1323
release 1323
sen@@ 1323
vorher 1323
dorfes 1322
ko@@ 1322
oven 1321
remember 1321
celebrities 1320
creator 1320
einzelhandel 1320
galerie 1320
keeps 1320
lustiges 1320
seated 1319
ze 1319
crossed 1318
eroffnet 1318
turnier 1318
einfacher 1317
pipe 1317
labor 1316
ale 1315
einzigen 1315
herbstblatter 1315
knopf 1315
shell 1315
buches 1314
checking 1314
underground 1314
sußer 1313
domestic 1312
dunkler 1312
schiffe 1312
alt 1310
missing 1310
besonderheiten 1309
continent 1308
fiktionale 1308
kon@@ 1308
longer 1308
naturlich 1308
protected 1308
schokolade 1308
malkunstler 1307
carried 1306
gartens 1306
anyone 1304
badewanne 1304
blumenmuster 1304
crash 1304
favourite 1304
frost 1304
grauer 1304
means 1304
mini-@@ 1304
sight 1304
stark 1304
told 1304
agency 1302
horror 1302
luftaufnahmen 1302
snowfall 1302
deinen 1301
hay 1301
suburb 1301
sonnenblumen 1300
verschwommenem 1300
15 1299
den@@ 1299
entering 1299
entfernen 1299
futtert 1299
hood 1299
phones 1299
scenic 1299
uk-premiere 1299
am@@ 1298
rap 1298
vorfuhrung 1298
doppel@@ 1297
licht@@ 1297
lived 1297
teenagermadchen 1297
blossoms 1296
geschaffen 1295
inch 1295
loffel 1295
palast 1295
schlucht 1295
seating 1295
spread 1294
thanks 1294
interviews 1293
produkt 1293
fahr@@ 1292
glow 1292
neuesten 1292
currently 1291
broadcasting 1290
electronic 1290
erscheint 1290
kreative 1290
materials 1290
schaukel 1290
vergangenheit 1290
ck@@ 1289
ter@@ 1289
12 1288
tail 1288
dolly 1287
incredible 1287
stunden 1287
towers 1287
accessoires 1286
etage 1286
inschrift 1286
prominenz 1286
taucht 1286
urbanen 1286
baroque 1285
romance 1284
sauce 1284
stiefeln 1284
bluhenden 1283
drummer 1283
fa@@ 1283
hubsch 1283
highlights 1282
koniglichen 1282
verbindet 1282
18@@ 1281
rows 1281
schwarm 1281
tram 1281
zoom 1281
fuhlen 1280
hose 1280
raw 1280
rug 1280
sandwich 1280
socks 1280
16 1279
decorate 1279
eln 1279
hochzeits@@ 1279
sail 1278
trousers 1278
camping 1277
gezogen 1277
ous 1277
possible 1277
windy 1277
leistung 1276
mu@@ 1276
prepared 1276
visits 1276
h@@ 1275
helps 1275
lokalisiert 1275
panning 1275
samen 1275
blood 1274
receives 1274
else 1273
mascot 1273
tra@@ 1273
mushrooms 1272
produce 1271
schadel 1271
for@@ 1270
learning 1270
pillow 1270
vektormuster 1270
believe 1269
ei 1269
endlich 1269
schritte 1269
ses 1269
hipster 1268
kurbisse 1268
puzzle 1268
transportation 1268
v@@ 1268
zugang 1268
stump 1267
tulpen 1267
geist 1266
gesch@@ 1266
poured 1265
prinzessin 1265
schilder 1265
reichen 1264
restored 1264
spielte 1264
trends 1264
finalen 1263
lander 1263
bo@@ 1262
solid 1262
volksfest 1262
aufzu@@ 1261
berg@@ 1261
dolphins 1261
militarischen 1261
olympische 1261
subject 1261
generation 1260
plaudert 1260
folgen 1259
orangen@@ 1259
stempel 1259
burogebaude 1258
filmschauspieler 1258
information 1258
cost 1257
dis@@ 1257
geschrieben 1257
landlichen 1257
loaded 1257
na 1256
stuhlen 1256
transparentem 1256
ernte 1255
geschenken 1255
holzboden 1255
alley 1254
army 1254
surf 1254
wahrzeichen 1254
arts 1253
lavender 1253
nahmen 1253
ziege 1253
beleuchtet 1251
ferienhaus 1251
it@@ 1251
mode@@ 1251
worth 1251
bleibt 1250
ear 1250
guitarist 1250
laufer 1250
elt 1249
krankenschwester 1249
begleiten 1248
luft@@ 1248
remote 1248
subway 1248
erfolg 1247
ger@@ 1247
inspirierte 1247
reason 1247
besatzung 1246
honor 1246
straw 1246
straßenbahn 1246
october 1245
schicken 1245
sin@@ 1245
stroke 1245
treiben 1245
vollen 1245
iphone 1244
retriever 1244
schwimmbad 1244
banana 1243
enge 1243
shield 1243
anything 1242
internationalen 1241
heiligen 1240
do@@ 1239
greets 1239
jockey 1239
attack 1238
closing 1238
filmen 1238
vektornahtloses 1238
weihnachtsbaums 1238
4th 1237
excited 1237
umbrellas 1237
asphalt 1236
creek 1236
daughters 1236
amongst 1235
creation 1235
minimalist 1235
tiefe 1235
14@@ 1234
see@@ 1234
igen 1233
join 1232
romancier 1232
da@@ 1231
damen 1231
druckt 1231
erinnern 1231
gezeichnete 1231
vektorkunst-illustration 1231
cg 1230
click 1230
cups 1230
ling 1230
scheiben 1230
bejubelt 1229
census 1229
marine 1229
popcorn 1229
europapremiere 1228
grundriss 1228
punkte 1228
raume 1228
himmels 1227
seitenlinie 1227
auto@@ 1226
befinden 1226
erwachsene 1226
menschliche 1226
quadratischen 1226
schutzen 1226
dargestellt 1225
direction 1225
maschine 1225
birth 1224
chemical 1224
conversation 1224
pariser 1224
pig 1224
rad 1224
sanft 1224
sk@@ 1224
fruher 1223
kunstgalerie 1223
regentropfen 1223
unterhalten 1223
braunem 1222
darunter 1222
ens 1222
magazins 1222
ripped 1222
strahlend 1222
sizes 1221
climb 1220
destination 1220
entdecken 1220
verbunden 1220
en-@@ 1219
serve 1219
wa@@ 1219
ausschnitt 1218
cook 1218
paisley 1218
belt 1217
eishockeyspieler 1217
remove 1217
filmaufnahmen 1216
starken 1216
handelt 1215
inner 1215
kuss 1215
befestigt 1214
dekorativen 1214
emergency 1214
kunstwerke 1214
langes 1214
object 1214
pov 1214
schreitet 1214
braun 1213
lokale 1213
quarterback 1213
tricks 1213
winding 1213
consumer 1212
mowen 1212
tradition 1212
vibrant 1212
festgemacht 1211
fuß@@ 1211
kapelle 1211
tablets 1211
besuchs 1210
buses 1210
flecken 1210
gehweg 1210
reads 1209
ste@@ 1209
stopped 1209
waterfront 1209
burger 1208
exotic 1208
fliege 1208
oberen 1208
offentliche 1208
schreit 1208
wohnzimmers 1208
,000 1207
blitz 1207
choosing 1207
constituent 1207
musik@@ 1207
pilot 1207
saumen 1207
tablett 1207
volle 1207
winzige 1207
einzigartige 1206
freude 1206
intersection 1206
schmetterlinge 1206
soft-rock-kunstler 1206
teilweise 1206
ad 1205
erin 1204
moglich 1204
sichtbar 1204
bildes 1203
cockpit 1203
glasfenster 1203
spinne 1203
lily 1202
magic 1202
pulls 1202
approach 1201
becken 1201
crane 1201
elektrische 1201
feldes 1201
miss 1201
vorbereitung 1201
wild@@ 1201
biker 1200
stacked 1199
1@@ 1197
portion 1197
staat 1197
surprised 1197
dammerung 1196
shores 1196
12@@ 1195
perfekten 1195
seems 1195
source 1195
spinning 1195
stift 1195
airliner 1194
fe@@ 1194
potatoes 1194
scary 1194
studying 1194
detaillierte 1193
ds 1193
vogelperspektive 1193
alen 1192
bi@@ 1192
gemeinde 1192
soup 1192
ebbe 1191
received 1191
signing 1191
unknown 1191
ausflug 1190
doktor 1190
klicken 1190
tatowieren 1190
elektrischen 1189
tight 1189
16@@ 1188
approaching 1188
especially 1188
kronleuchter 1188
coloring 1187
fitted 1187
rosafarbene 1187
sterling 1187
sanddunen 1186
shelter 1186
ask 1185
exposure 1185
neueste 1185
physical 1185
flow 1184
french 1184
sta@@ 1184
deine 1183
tiefen 1183
cargo 1182
difference 1182
landung 1182
schneebedeckte 1182
stilvolle 1182
gehullt 1181
gone 1180
anime 1179
schwarz-weißes 1179
spray 1179
verruckt 1179
chapel 1178
sa@@ 1178
defensive 1177
inspirieren 1177
stimmung 1177
compete 1176
entwicklung 1176
folgt 1176
instructions 1176
positive 1176
zentralen 1176
ken 1175
geografische 1174
kiefer 1174
question 1174
stores 1174
flur 1173
either 1172
modells 1172
traume 1172
visited 1172
editor 1171
klassisches 1171
services 1171
goods 1170
songwriter 1170
cleaning 1169
crowded 1169
hochzeitskleid 1169
lay 1169
denkt 1168
glanz 1168
thumbs 1168
maxi 1167
stecken 1167
tutorial 1167
tub 1166
upcoming 1166
anblick 1165
knitted 1165
ves 1165
hielt 1164
stainless 1164
tallest 1164
wunderschoner 1164
ation 1163
bedecken 1163
fishermen 1163
frosch 1163
marschieren 1163
mm 1163
charming 1161
june 1161
20@@ 1160
contrast 1160
gerne 1160
ohrringe 1160
tennisspieler 1160
san@@ 1159
sportwagen 1159
cause 1158
losen 1158
pushing 1158
eastern 1157
gewitterwolken 1157
regierung 1157
sense 1157
sonnenschein 1157
darkness 1156
gla@@ 1156
treat 1156
washed 1156
zeitgenossische 1156
1. 1155
dirty 1155
qualifying 1155
schuttelt 1155
comfort 1154
erschaffen 1154
reihen 1154
hauptstraße 1153
schlamm 1153
situated 1153
duck 1152
gestures 1152
heels 1152
pure 1152
snake 1152
ballerina 1151
per@@ 1151
adults 1150
bedeutung 1150
bezirk 1150
genannt 1150
hinteren 1150
tennisspielerin 1150
ente 1149
entwickelt 1149
frohlich 1149
hochwertige 1149
originale 1149
raucht 1149
socken 1149
leuchtenden 1148
opposite 1148
ornamenten 1148
retro-stil 1148
typischen 1148
fruhlingstag 1147
tauchen 1147
bears 1146
bosewicht 1146
ded 1146
gesetzt 1146
kurzlich 1146
adventure 1145
displaying 1145
greift 1145
logoschild 1145
steine 1145
aktienvektor 1144
babies 1144
fertig 1144
flowering 1144
gehoren 1144
komischen 1144
lowen 1144
mannchen 1144
wenige 1144
behandelt 1143
butter 1143
puppies 1143
rast 1143
rustikalen 1143
frohliches 1142
stroll 1142
volkes 1142
auction 1141
heller 1141
knife 1141
robot 1141
steinen 1141
ton 1141
zustand 1141
darsteller 1140
erkunden 1140
fat 1140
felt 1140
turniers 1140
global 1139
linke 1139
schwermetallkunstler 1139
40 1138
bedeckte 1138
filling 1138
jam 1138
metall 1138
included 1137
merkmale 1137
picturesque 1137
prasidenten 1137
sick 1137
layer 1136
leerer 1136
ruhen 1136
sell 1136
arena 1135
entdeckt 1135
erdgeschoss 1135
erung 1135
hal@@ 1135
marsch 1135
posierte 1135
shines 1135
helped 1134
brachte 1133
he@@ 1133
lu@@ 1133
seaside 1133
ehefrau 1132
provided 1132
slopes 1132
wash 1132
zusatzlich 1132
eroffnungszeremonie 1131
illustrator 1131
designers 1130
handles 1130
magical 1129
picknick 1128
punkten 1127
stadten 1127
directly 1126
fashionable 1126
gemeindefestes 1126
revealed 1126
gem 1125
kussen 1125
braut@@ 1124
brust 1124
champions 1124
chandelier 1124
englische 1124
biene 1123
hiding 1123
practicing 1123
spat@@ 1123
worked 1123
glamorous 1122
needed 1122
perfectly 1122
drucken 1121
gi@@ 1121
maskottchen 1121
baumstumpf 1120
honey 1120
schaufenster 1120
spacecraft 1120
leinwanden 1119
hiker 1118
relax 1118
serie 1118
th@@ 1118
challenge 1117
conceptual 1117
glamour 1117
harvest 1117
leeres 1117
boyfriend 1116
schranke 1116
shaking 1116
zeitschrift 1116
presidential 1115
beverage 1114
changed 1114
empfang 1114
erreicht 1114
fake 1114
gentleman 1114
hunderte 1114
triangle 1114
17. 1113
1950s 1113
kennen 1113
questions 1113
texten 1113
eats 1112
edler 1111
kauft 1111
quadrat 1111
additional 1110
erwartet 1110
shelves 1110
signed 1110
styling 1110
cultural 1109
dating 1109
fork 1109
casino 1108
entgegen 1108
faux 1108
dapper 1107
denn 1107
driveway 1107
eigene 1107
exhibit 1107
cardboard 1106
monats 1106
nieder@@ 1106
ofen 1106
operating 1106
glacier 1105
lampe 1105
perspective 1105
trains 1105
bananas 1104
bu@@ 1104
meerblick 1104
sangerin 1104
uben 1104
erscheinen 1103
liquid 1103
tore 1103
five 1102
herz@@ 1102
removed 1102
sculptures 1102
teamkollegen 1102
begin 1101
einzu@@ 1101
pfarrei 1101
exposed 1100
illustrated 1100
westlichen 1100
goats 1099
fußballteam 1098
haar@@ 1098
bush 1097
flooded 1097
lanterns 1097
aufmerksamkeit 1096
beans 1096
spiegelung 1096
verliebt 1096
1960s 1095
bemalte 1095
engel 1095
toilette 1095
boxing 1094
crying 1094
ganseblumchen 1094
gel@@ 1094
hammer 1094
sonnenstrahlen 1094
hochste 1093
manchmal 1093
nahtloser 1093
psychedelic 1093
achten 1092
freie 1092
keys 1092
ortlichen 1092
rezepte 1092
salt 1092
sushi 1092
wardrobe 1092
kleiderschrank 1091
le 1091
benefit 1090
bills 1090
finishing 1090
met 1090
slim 1090
unteren 1090
explore 1089
hitze 1089
spiral 1089
weichen 1089
meters 1088
nets 1088
sud@@ 1088
3d-darstellung 1087
artificial 1087
bees 1087
energie 1087
inches 1087
opera 1087
reichlich 1087
teilte 1087
17@@ 1086
blossom 1086
celebrated 1086
kutsche 1086
0 1085
brightly 1085
delivery 1085
manner@@ 1085
spectacular 1085
stadtpark 1085
der@@ 1084
garten@@ 1084
klein@@ 1084
no@@ 1084
proposed 1084
separate 1084
teddybar 1084
gte 1083
nuts 1083
performed 1083
rescue 1083
spots 1083
dritte 1082
erhaltlich 1082
klavier 1082
filmproduzent 1081
gabel 1081
mittelalterliche 1081
saß 1081
tippt 1081
violetten 1081
weiß@@ 1081
außere 1080
einrichtung 1080
kopfhorern 1080
realistische 1080
renovated 1080
athletes 1079
gathering 1079
gently 1079
geworfen 1079
haustier 1079
planting 1079
pastel 1078
sailboat 1078
shark 1078
wrong 1078
began 1077
klettern 1077
niedrigen 1077
protesters 1077
solo 1077
steinerne 1077
unterschied 1077
converted 1076
gold- 1076
ol@@ 1076
prime 1076
progressiver 1076
genau 1075
isch 1075
pa@@ 1075
snowboarder 1075
artikel 1074
bracelet 1074
ige 1074
protests 1074
disease 1073
erhellt 1073
hammock 1073
galaxie 1072
joy 1072
liebespaar 1072
militarkommandeur 1072
objects 1071
skatet 1071
soap 1071
auftreten 1070
fußballball 1070
glauben 1070
herunterladen 1070
konstruktion 1070
shoreline 1070
welt@@ 1070
bearded 1069
bogenbrucke 1069
curved 1069
grun@@ 1069
isoliertes 1069
pressure 1069
hug 1068
ramp 1068
steak 1068
december 1067
easily 1067
layout 1067
platziert 1067
putzt 1067
wurfel 1067
akrosse 1066
bananen 1066
gletscher 1066
kombiniert 1066
layers 1066
gangsta 1065
nacht@@ 1065
planted 1065
11 1064
gefallt 1064
gen@@ 1064
me@@ 1064
sturmer 1064
-stil 1063
flooring 1063
kundgebung 1063
landebahn 1063
renovierung 1063
dicht 1062
hangematte 1062
january 1062
messer 1062
pasta 1062
peaks 1062
quickly 1062
strom 1062
amount 1061
basketballmannschaft 1061
gten 1061
isolierter 1061
listen 1061
officials 1061
paste 1061
raumen 1061
seil 1061
vision 1061
fuhrte 1060
gesunde 1060
informationen 1060
nursery 1060
senioren 1060
starring 1060
wissenschaftler 1060
errichtet 1059
farb@@ 1059
flaches 1059
kante 1059
lifting 1059
mochten 1059
speisen 1059
spending 1059
wiederbelebungsstruktur 1059
agricultural 1058
deinem 1058
fußballtrainer 1058
kombination 1058
register 1058
tropischer 1058
zahlensymbols 1058
although 1057
feder 1057
landet 1057
nahtlosen 1057
shots 1057
geschaftsleuten 1056
reservoir 1056
troops 1056
besonderen 1055
hart 1055
touches 1055
ozeans 1054
totally 1054
ziegelwand 1054
bienen 1053
bricks 1053
erstaunliche 1053
wache 1053
deserted 1052
esel 1052
geschlossen 1052
kartoffeln 1052
panoramablick 1052
receiving 1052
stuffed 1052
ahnelt 1051
anweisungen 1051
auszu@@ 1051
elevated 1051
individual 1051
laufe 1051
pots 1051
stood 1051
bandanna 1050
einzelne 1050
flussufer 1050
picked 1050
sparen 1050
fahrrader 1049
sack 1049
sound 1049
canoe 1048
docks 1048
fernsehen 1048
fitness 1048
freshly 1048
lachelndes 1048
turbines 1048
ages 1047
comfortable 1047
lifestyle 1047
reindeer 1047
schien 1047
vorhang 1047
write 1047
connected 1046
crashing 1046
hinter@@ 1046
lebens@@ 1046
mar@@ 1046
saying 1046
dramatiker 1045
songs 1045
eleganten 1044
rot@@ 1044
snack 1044
southwest 1044
zwei@@ 1044
gewicht 1043
großartig 1043
institution 1043
owners 1043
suits 1043
tabby 1043
discover 1042
eins 1042
erbaut 1042
swaying 1042
tempels 1042
zier@@ 1042
bereits 1040
technologie 1040
trainiert 1040
veroffentlicht 1040
definition 1039
engen 1039
slightly 1039
werk 1039
balance 1038
grade 1037
grafiken 1037
musste 1037
phrase 1037
rush 1037
kopfhorer 1036
kraft 1036
markiert 1036
monastery 1036
runners 1036
schichten 1036
gleiche 1035
guys 1035
chickens 1034
lichem 1034
luxuriosen 1034
safety 1034
stag 1034
strawberry 1034
ber@@ 1033
großem 1033
keinen 1033
process 1033
raise 1033
zog 1033
active 1032
limited 1032
amusement 1031
diverse 1031
receiver 1031
fußweg 1030
vektorgrafik 1030
bildet 1029
hillside 1029
triangles 1029
ba@@ 1028
echte 1028
historischer 1028
jahreszeit 1028
lens 1028
mama 1028
prayer 1028
sonniger 1028
strich 1028
tire 1028
decided 1027
delicate 1027
einsame 1027
hochsten 1027
pay 1027
sandals 1027
14 1026
appartement 1026
boardwalk 1026
0@@ 1025
aufnahmen 1025
enters 1025
marriage 1025
meilen 1024
sturzt 1024
20th 1023
benefits 1023
hell@@ 1023
unidentified 1023
winters 1023
17th 1022
ates 1022
cable 1022
geraten 1022
herum@@ 1022
lied 1022
sieger 1022
spaces 1022
teten 1022
zuge 1022
abschluss 1021
cropped 1021
notebook 1021
panda 1021
universe 1021
doodle 1020
vorteile 1020
konig 1019
schuh 1019
abschnitt 1018
february 1018
grassy 1018
letzter 1018
1950er 1017
altar 1017
aufgestellt 1017
einsamen 1017
fir 1017
hosen 1017
nen 1017
zuges 1017
moments 1016
ne@@ 1016
weg@@ 1016
beziehung 1015
gutes 1015
occasion 1015
paired 1015
swinging 1015
heraus@@ 1014
nation 1014
pi@@ 1014
sache 1014
breite 1013
capture 1013
chefs 1013
fisch@@ 1013
industrie@@ 1013
laugh 1013
sonnen@@ 1013
betreten 1012
hervor 1012
malerischen 1012
materialien 1012
mobeln 1012
regular 1012
stove 1012
whether 1012
wohnbereich 1012
ant 1011
ben 1011
dramatischen 1011
elf 1011
handtasche 1011
ladder 1011
stilvollen 1011
produktion 1010
tongue 1010
anzu@@ 1009
hardware 1009
skiern 1009
spuren 1009
docked 1008
waschen 1008
bemalten 1007
hallway 1007
lock 1007
monster 1007
par@@ 1007
teig 1007
waist 1007
hochzeitsempfang 1006
kamen 1006
pug 1006
sleeves 1006
musikfestivals 1005
geige 1004
geschlossenen 1004
labyrinth 1004
relationship 1004
richtig 1004
rider 1004
schuppen 1004
sportanlage 1004
stuff 1004
zitate 1004
constructed 1003
desserts 1003
labels 1003
armband 1002
bauarbeiter 1002
egal 1002
flame 1002
geburtstagskuchen 1002
hochzeitsfotos 1002
neugeborenes 1002
shares 1002
tribal 1002
baked 1001
credit 1001
romantische 1001
beute 1000
craft 1000
genutzt 1000
gitarrist 1000
neu@@ 1000
normal 1000
tan 1000
travels 1000
donkey 999
einzigartigen 999
honoring 999
4. 998
buch@@ 998
conditions 998
cub 998
delfine 998
jemals 998
powder 998
schlitten 998
wiesen 998
bluhende 997
qu@@ 997
shells 997
snacks 997
tri@@ 997
menschlicher 996
rakete 996
trendigen 996
waterfalls 996
zeitgenossischen 996
zunge 996
ausgezeichnet 995
everyday 995
gun 995
rund@@ 995
channel 994
ei@@ 994
kreisen 994
poppy 994
trick 994
gangsta-rap-kunstler 993
qualitativ 993
representing 993
sharp 993
chinese 992
moose 992
offering 992
organisms 992
regie 992
zusatzliche 992
acoustic 991
filme 991
gießt 991
homemade 991
trim 991
zuschauer 991
died 990
disabled 990
exploring 990
gesichts 990
tor@@ 990
buros 989
couples 989
nette 989
split 989
workshop 989
digitales 988
finding 988
fuhlt 988
geformte 988
musicians 988
na@@ 988
pin@@ 988
planen 988
einheimische 987
preise 987
rader 987
twist 987
edlen 986
papier@@ 986
bass 985
betet 985
least 985
nearly 985
oktober 985
riesiger 985
send 985
dangerous 984
traum 984
ereignisses 983
flats 983
housing 983
philosopher 983
buttons 982
cycling 982
definitely 982
resorts 982
mandala 981
names 981
pencils 981
skulpturen 981
atemberaubend 980
beinen 980
ehemann 980
expected 980
jersey 980
kuhlen 980
tablet-computer 980
zahne 980
chatting 979
combination 979
armel 978
cheap 978
cheerleaders 978
flamme 978
formed 978
genden 978
probieren 978
reasons 978
skeleton 978
skifahrer 978
atemberaubenden 977
erhebt 977
item 977
nahrung 977
outer 977
poppies 977
schwenken 977
spices 977
strike 977
tried 977
belebten 976
filmfestivals 976
lipstick 976
sch 976
20. 975
alarm 975
golfplatz 975
hochzeitsfeier 975
prom 975
seats 975
tees 975
dichten 974
ex@@ 974
vollstandige 974
wildbahn 974
ankle 973
destroyed 973
geschwindigkeit 973
grid 973
gu@@ 973
schicht 973
sewing 973
vorort 973
code 972
ebenen 972
end@@ 972
kauf 972
knochen 972
looping 972
petals 972
text@@ 972
unterstutzer 972
violin 972
funften 971
grunde 971
offentlichkeit 971
regen@@ 971
sixth 971
angeordnet 970
bridges 970
einzelnen 970
lowercase 970
mor@@ 970
ns 970
provides 970
welcher 970
enthalt 969
heck 969
lets 969
pilze 969
beherbergt 968
ingredient 968
kaffeetasse 968
movies 968
pyramid 968
windigen 968
hunde@@ 967
morgendlichen 967
treibt 967
gewand 966
mischen 966
seal 966
szenerie 966
einkaufswagen 965
injured 965
politikern 965
straßenszene 965
duty 964
wider 964
besetzung 963
career 963
fugen 963
gegossen 963
verbindung 963
volunteers 963
bringing 962
ckt 962
glanzende 962
groß@@ 962
playoff 962
prasident 962
stillleben 962
wonder 962
auffuhrung 961
besonders 961
cuts 961
gegeben 961
kalender 961
vogels 961
ca@@ 960
dam 960
liga 960
review 960
windmill 960
ke@@ 959
mittleren 959
pfund 959
augen@@ 958
ballon 958
blown 958
epic 958
fernsehmoderator 958
jahrestag 958
relaxed 958
buntem 957
casting 957
charge 957
distant 957
notizen 957
spar@@ 957
umge@@ 957
aufbau 956
creates 956
einiger 956
facebook 956
schranken 956
stau 956
winners 956
aufkleber 955
brennt 955
client 955
geschaften 955
sternenhimmel 955
teenagers 955
congratulated 954
embroidered 954
hu@@ 954
rau@@ 954
ziegelmauer 954
abzu@@ 953
bio@@ 953
cm 953
ends 953
erkennen 953
gluhbirne 953
sandalen 953
schnurrbart 953
wavy 953
abenteuer 952
advertising 952
canopy 952
einmal 952
quadratische 952
bigger 951
captain 951
dreharbeiten 951
fahrzeugen 951
fang 951
gewalt 951
sticking 951
uferpromenade 951
ziegen 951
ziemlich 951
kosten 950
locals 950
min@@ 950
ties 950
frischem 949
include 949
niemand 949
pferde@@ 949
schutz 949
arrows 948
nummer 948
pollen 948
rolls 948
scheinen 948
vogel@@ 948
weiteren 948
euro 947
gesundes 947
sings 947
wichtig 947
miniatur@@ 946
schweren 946
sticks 946
westkuste 946
yards 946
anzeige 945
carving 945
composite 945
containing 945
continues 945
cracked 945
fashioned 945
kehrt 945
niedriger 945
staaten 945
vine 945
floats 944
holt 944
nordlichen 944
notizbuch 944
frei@@ 943
juni 942
participants 942
rathaus 942
tiert 942
unveiled 942
1970s 941
ausblicke 941
bathrooms 941
elegante 941
er-@@ 941
perhaps 941
pressing 941
sal@@ 941
worte 941
brucken 940
chat 940
kinds 940
rests 940
touching 940
weist 940
mast 939
meaning 939
pillows 939
whilst 939
cartoons 938
eclipse 938
fernsehproduzent 938
kit 938
planning 938
testen 938
beton 937
eingezeichnet 937
gefaß 937
grafische 937
hosts 937
seagulls 937
bulb 936
dune 936
gesunden 936
starker 936
lieferwagen 935
ohr 935
powered 935
sho@@ 935
teuersten 935
usually 935
angst 934
außenansicht 934
fernseh@@ 934
statt 934
verlassenes 934
bill 933
kanu 933
national@@ 933
ps 932
ssen 932
stadtbild 932
traf 932
versammelten 932
asked 931
emotional 931
gruppen 931
ischer 931
ohren 931
ziegel 931
13 930
bezeichnet 930
dairy 930
kopf@@ 930
offizielle 930
alters 929
erklart 929
geschwister 929
ales 928
bei@@ 928
cozy 928
farbiger 928
gurtel 928
kreation 928
kurzem 928
matter 928
zi@@ 928
angeln 927
kirschbluten 927
kostenlose 927
option 927
reis 927
truppen 927
wald@@ 927
heiße 926
promote 926
scenery 926
schutz@@ 926
sonnenblume 926
thront 926
we@@ 926
florale 925
powerful 925
schwanz 925
staring 925
theke 925
brauche 924
further 924
gorilla 924
kostumen 924
landmark 924
futtern 923
landhaus 923
maps 923
absolventen 922
orangefarbener 922
stes 922
bluten@@ 921
moglichkeiten 921
rounded 921
allowed 920
astra 920
interessante 920
laptops 920
wrestler 920
ananas 919
resolution 919
sails 919
schmetterlingen 919
untersucht 919
wanderweg 919
fußball@@ 918
german 918
griff 918
kontrast 918
patch 918
surfbrett 918
float 917
hinunter@@ 917
laternen 917
gehalten 916
sand@@ 916
lowe 915
tapeten 915
verkehrsschild 915
acryl 914
angegangen 914
automobilen 914
kittens 914
paare 914
radern 914
repeat 914
uhren 914
playoffs 913
puddle 913
reagieren 913
schlagzeuger 913
weiter@@ 913
winterlandschaft 913
3. 912
cookie 912
coole 912
dense 912
jagd 912
silk 912
stepped 912
tape 912
vaters 912
wohnhaus 912
flucht 911
flut 911
musikfestival 911
ne 911
sorte 911
tip 911
wi@@ 911
attempt 910
ballet 910
broke 910
lippenstift 910
schwenkend 910
snail 910
surfen 910
activity 909
collecting 909
gegenseitig 909
geschenkbox 909
possibly 909
basketball@@ 908
races 908
strand@@ 908
tur@@ 908
wasseroberflache 908
adler 907
echten 907
grows 907
protect 907
residenz 907
schießen 907
snap 907
wilder 907
culture 906
herstellung 906
tailed 906
bridesmaids 905
cooked 905
pony 905
satin 905
skating 905
steuer 905
exercises 904
formations 904
impression 904
mohn 904
parkbank 904
sitz 904
taille 904
undated 904
gesture 903
liebt 903
marks 903
miete 903
trio 903
aufs 902
blu@@ 902
forms 902
lowenzahn 902
nationalen 902
ruhe 902
verlangsamt 902
landschaften 901
minister 901
originalen 901
topped 901
accent 900
aufstieg 900
banknotes 900
eigenes 900
rotwein 900
tauben 900
vektorhintergrund 900
25 899
beams 899
berglandschaft 899
greenery 899
irgendwo 899
mais 899
mops 899
twilight 899
anthem 898
jeep 898
mai 898
online-@@ 898
prozent 898
rocket 898
shine 898
verfolgen 898
wieder@@ 898
dedicated 897
folded 897
pills 897
politicians 897
posen 897
recording 897
rehearsal 897
1960er 896
altem 896
elevation 896
kurve 896
musikalische 896
vies 896
food@@ 895
gerat 895
lamps 895
sollen 895
sses 895
steinmauer 895
tankstelle 895
vi@@ 895
compass 894
monitor 894
combine 893
damm 893
dandelion 893
escape 893
etiketten 893
geburt 893
kloster 893
sitzung 893
unterstutzen 893
vorbei@@ 893
watched 893
handgezeichnetes 892
latte 892
runner 892
serves 892
competing 891
dachte 891
etwa 891
fuhr 891
surfing 891
vorlage 891
baby@@ 890
gelander 890
hutten 890
lie 890
maus 890
schurken 890
tod 890
ton@@ 890
bound 889
forever 889
gingen 889
mal@@ 889
mondes 889
torwart 889
zweigen 889
marktstand 888
munze 888
3d-rendering 887
anders 887
college-fußballspiels 887
equestrian 887
ften 887
halle 887
perspektive 887
r 887
rendered 887
watermelon 887
gear 886
orangefarbene 886
vorderen 886
wobei 886
zubereitet 886
atemberaubende 885
car@@ 885
lakes 885
landern 885
reveal 885
schauspielern 885
sport@@ 885
back@@ 884
holy 884
pergola 884
unterschiedlichen 884
wasche 884
carnival 883
patrol 883
searching 883
simply 883
strange 883
fi@@ 882
stadtteil 882
suburban 882
surfers 882
barbecue 881
freitagabend 881
hauptschlafzimmer 881
muskeln 881
olympischen 881
original@@ 881
servieren 881
besuchte 880
convertible 880
flugzeugmodell 880
klein 880
lucky 880
romantisches 880
trauung 880
tu@@ 880
workout 880
ben@@ 879
camels 879
gesamte 879
halb 879
klarem 879
retten 879
salmon 879
seasons 879
fiktion 878
moos 878
passed 878
pp@@ 878
reicht 878
grandmother 877
mt 877
brautkleid 876
glitter 876
kontrolle 876
leinwand 876
mieten 876
pc 876
programm 876
weihnachtslichter 876
16. 875
bluht 875
feed 875
hikers 875
pickup 875
progress 875
rooster 875
seventh 875
signage 875
500 874
begluckwunscht 874
fuhrung 874
outing 874
zelten 874
brennende 873
ch 873
cranes 873
discovered 873
drehbuchautor 873
hung 873
kten 873
modelle 873
spatgotische 873
turme 873
fliegende 872
imagine 872
mon@@ 872
related 872
roboter 872
ruft 872
seele 872
steilen 872
surprise 872
synthpop 872
gestreiften 871
konzipiert 871
weeks 871
changes 870
fu@@ 870
herbstliche 870
kamel 870
oliven 870
pit 870
plantation 870
ultimate 870
wal@@ 870
30@@ 869
herstellt 869
renovation 869
viewing 869
weathered 869
ended 868
fen 868
fernsehfigur 868
plastik@@ 868
premierenfest 868
scheme 868
activities 867
birch 867
dives 867
environmentalist 867
friseur 867
pu@@ 867
zitrone 867
© 867
5th 866
attraktiven 866
fishes 866
kafer 866
traurig 866
wichtigsten 866
launched 865
brautjungfern 864
pain 864
schwarz-weiß-foto 864
verleihung 864
ad@@ 863
filmstandort 863
gehirn 863
hotelzimmer 863
locks 863
schurke 863
straßenschild 863
announced 862
mowe 862
railroad 862
16th 861
kultur 861
modeschopfer 861
mood 861
muscles 861
schlafzimmers 861
anlage 860
ethnische 860
geschnitten 860
ic 860
standen 860
unterhalb 860
warehouse 860
wrist 860
50@@ 859
driven 859
flu@@ 859
jewellery 859
plates 859
proben 859
schaden 859
sub@@ 859
update 859
boden@@ 858
currency 858
gates 858
malt 858
pfutze 858
trauriger 858
botanical 857
forces 857
man@@ 857
photographers 857
rowing 857
shepherd 857
spaziergange 857
sturmischen 857
13@@ 856
cafes 856
farbenfroher 856
minimal 856
shopper 856
stellte 856
streckt 856
vineyard 856
ched 855
pumps 855
semi 855
sessel 855
tisches 855
dinosaur 854
elle 854
els 854
playful 854
rollt 854
wegweiser 854
extension 853
horizontale 853
papa 853
preview 853
racecar 853
schwere 853
unesco 853
blonden 852
dacher 852
front@@ 852
handle 852
ische 852
meeresufer 852
boutique 851
cone 851
fer@@ 851
grußt 851
impressive 851
kontinent 851
militar@@ 851
myself 851
rei@@ 851
schonem 851
verfolgt 851
18 850
and@@ 850
brennenden 850
cottages 850
discussing 850
florist 850
luxurious 850
martialkunstler 850
prasentieren 850
schwenkt 850
cu@@ 849
eisenbahnbrucke 849
granite 849
ran 849
regional 849
reich 849
swan 849
treatment 849
kuhlschrank 848
lands 848
speziellen 848
wirst 848
bubble 847
detailaufnahme 847
gefahren 847
kite 847
ty 847
heißluftballon 846
highlighted 846
karriere 846
somewhere 846
urlaubs 846
benutzte 845
cellphone 845
derzeit 845
ivy 845
lebendigen 845
receive 845
stucken 845
tige 845
chten 844
gern 844
indian 844
kreise 844
marathon 844
squares 844
starten 844
alternativer 843
kayak 843
mean 843
meiste 843
namens 843
passagierflugzeug 843
ringe 843
rooftop 843
bauernmarkt 842
cotton 842
krachen 842
ober@@ 842
poor 842
projektbildes 842
schi@@ 842
bio-@@ 841
grafik 841
holzerne 841
poetry 841
produced 841
tribune 841
checken 840
skigebiet 840
ubt 840
wenigen 840
wiederholen 840
ikonen 839
k-@@ 839
korallen 839
lizard 839
ok 839
reaches 839
swans 839
toned 839
anwesend 838
bamboo 838
ck 838
ckte 838
farbigem 838
knie 838
under@@ 838
welches 838
artistic 837
dunkel 837
kneipe 837
loss 837
plaudern 837
segeln 837
behandlung 835
mehr@@ 835
nachtansicht 835
showroom 835
surfboard 835
abzeichen 834
bauch 834
marine@@ 834
mude 834
oberhalb 834
opportunity 834
plaid 834
polka 834
research 834
schriftstellers 834
teilnehmen 834
tube 834
catwalk 833
forests 833
fototermin 833
schnecke 833
southeast 833
breiten 832
diving 832
drei@@ 832
embracing 832
gefullt 832
greetings 832
eps 831
musikgruppe 831
olives 831
ornamente 831
pages 831
scared 831
vintage-@@ 831
ful 830
hulle 830
kan@@ 830
lagoon 830
landerspiel 830
rebound 830
seltene 830
socialite 830
strahlen 830
unbekannten 830
wer@@ 830
gemeinsamen 829
goals 829
pavement 829
string 829
weizen 829
beads 828
penguins 828
previous 828
ur 828
win@@ 828
feuerstelle 827
haustiere 827
nachster 827
rechte 827
recycled 827
wo@@ 827
19@@ 826
500px 826
daytime 826
erstreckt 826
essbereich 826
fallenden 826
gotische 826
herbs 826
laboratory 826
rabatt 826
transit 826
warmer 826
comune 825
depth 825
gewesen 825
historisches 825
mitgliedern 825
splashing 825
sußigkeiten 825
towel 825
...... 824
aufwandigen 824
bunt 824
dolphin 824
draws 824
fruhjahr 824
geeignet 824
ischen 824
leine 824
rolled 824
safari 824
sh@@ 824
vollig 824
cones 823
frosty 823
grasses 823
kurs 823
load 823
militarkommandanten 823
sportmannschaften 823
continue 822
innenansicht 822
pic 822
pie 822
truly 822
vieh 822
bildender 821
herr 821
liebling@@ 821
pineapple 821
u-bahn 821
yachten 821
attempts 820
ce 820
deren 820
honig 820
stops 820
stre@@ 820
auges 819
linear 819
schau@@ 819
scientist 819
ss 819
totenkopf 819
aktivitaten 818
bikes 818
difficult 818
overall 818
verfugbar 818
witch 818
wolkenverhangenen 818
article 817
doodles 817
lagune 817
men@@ 817
reminds 817
schlussel@@ 817
-symbol 816
drum 816
hemden 816
inflatable 816
lovers 816
typewriter 816
ankommt 815
bronze@@ 815
damage 815
fall@@ 815
leerzeichen 815
lilies 815
orangefarbenem 815
overview 815
push 815
sage 815
talent 815
taube 815
geworden 814
großmutter 814
motorrader 814
participate 814
woodland 814
combined 813
geschossen 813
limousine 813
preparation 813
random 813
shipping 813
sorgt 813
valentine 813
vergessen 813
ziert 813
außenseite 812
dete 812
fruhmorgens 812
leckereien 812
spazierganger 812
taping 812
all@@ 811
average 811
dates 811
feather 811
insekten 811
kleinbuchstaben 811
knows 811
projects 811
willst 811
yachts 811
anchor 810
asleep 810
ig 810
armeln 809
erzeugen 809
gegenuber 809
glimpse 809
impact 809
irgendwann 809
stages 809
zeile 809
calling 808
calls 808
cken 808
lang@@ 808
minuten 808
education 807
fiktiven 807
proud 807
raumes 807
sketches 807
tippen 807
appliances 806
einkaufstuten 806
fruhlingsblumen 806
gepflanzt 806
introduced 806
mixing 806
mysterious 806
wassermelone 806
brilliant 805
funktioniert 805
gesundheit 805
graph 805
hasen 805
lifts 805
pinke 805
primary 805
schildes 805
tre@@ 805
wake 805
winterwald 805
ausrustung 804
bedeckten 804
department 804
dose 804
fahrradern 804
komplex 804
mesh 804
temples 804
umriss 804
veil 804
zuvor 804
angriff 803
beliebtesten 803
bergsteiger 803
designated 803
huts 803
innenarchitektur 803
jagt 803
matte 803
suppe 803
walled 803
brunch 802
courtesy 802
illusion 802
jemanden 802
lining 802
seem 802
verlangsamte 802
directions 801
einladungen 801
gender 801
nationalmannschaft 801
studios 801
effekt 800
engraved 800
gerettet 800
baking 799
cash 799
mm@@ 799
sto@@ 799
tags 799
ziellinie 799
zwiebeln 799
cuisine 798
dip 798
frohlicher 798
getranke 798
objekt 798
w@@ 798
außer 797
bob 797
finales 797
grain 797
mate 797
signiert 797
tiled 797
violette 797
entwurfe 796
kostume 796
regisseurs 796
shakes 796
sticker 796
tires 796
verpackung 796
zebras 796
ballons 795
calf 795
dunne 795
folge 795
fuhrungstor 795
nationalhymne 795
protective 795
taschen 795
whiskey 795
electricity 794
metallischen 794
riders 794
umarmung 794
weihnachtskarte 794
dar@@ 793
feels 793
heilige 793
motorcycles 793
platten 793
schlager 793
attraktiver 792
boss 792
gesellschaft 792
militarische 792
tastatur 792
tut 792
belonging 791
buddhist 791
indie-rock-kunstler 791
locken 791
twitter 791
vektorsymbol 791
apart 790
archivfoto 790
bathtub 790
fordern 790
nachricht 790
nahen 790
subspecies 790
teal 790
whose 790
avocado 789
bowling 789
checks 789
dicken 789
fahnenmast 789
graben 789
mahlzeiten 789
paradise 789
rustikale 789
allow 788
asking 788
beten 788
gastezimmer 788
gefallen 788
hamburger 788
kiefernwald 788
ließ 788
modische 788
niedergeschlagen 788
shrine 788
tern 788
ursprunglich 788
40@@ 787
arbeit@@ 787
auffahrt 787
blicke 787
blind 787
chose 787
dern 787
kicking 787
manufacturing 787
raster 787
reiter 787
sisters 787
ked 786
lime 786
olgemalde 786
picks 786
seemed 786
1930er 785
abend@@ 785
dre@@ 785
kugeln 785
qualitat 785
vektors 785
verlieren 785
ative 784
duke 784
handchen 784
insects 784
kran 784
lap 784
verbrachte 784
weinberg 784
appeal 783
backsteinmauer 783
flo@@ 783
januar 783
parrot 783
pri@@ 783
roofs 783
windschutzscheibe 783
ausgestattet 782
avoid 782
bedingungen 782
chen@@ 782
dough 782
erschien 782
felsige 782
flug@@ 782
fußgangerbrucke 782
gestaltet 782
schwarz-weißen 782
star@@ 782
besondere 781
daten 781
dramatische 781
kostenlosen 781
stadions 781
tieres 781
vorgestellt 781
broadcast 780
bunny 780
cancer 780
drivers 780
ka@@ 780
kt 780
labrador 780
wildflowers 780
ku@@ 779
pfluckt 779
report 779
baseballspiel 778
dekorieren 778
diet 778
handler 778
katzen@@ 778
kindergarten 778
kuchen@@ 778
nachrichten 778
tanzerin 778
ally 777
autofahrer 777
boards 777
dreaming 777
fitting 777
modernem 777
of@@ 777
par 777
skizzen 777
60 776
dust 776
gesichtsausdruck 776
kaffeetisch 776
rack 776
staying 776
trockene 776
ubungen 776
wind@@ 776
alteste 775
bark 775
einladung 775
ff@@ 775
freies 775
haufen 775
hintergrundbild 775
layered 775
nautical 775
percent 775
publishing 775
stahl 775
torn 775
beamte 774
kte 774
passenden 774
punk 774
singles 774
textures 774
whisky 774
beruhrt 773
exercising 773
lantern 773
tackel 773
transparenten 773
unternehmens 773
wascht 773
dated 772
establishing 772
freiheit 772
hinzugefugt 772
naturliches 772
published 772
schulabschluss 772
terraced 772
vest 772
ze@@ 772
capped 771
fuchs 771
meals 771
pyramide 771
seagull 771
sliced 771
visitor 771
checkt 770
neujahrs@@ 770
roasted 770
verliert 770
ward 770
winken 770
approaches 769
metro 769
sheer 769
australische 768
breeze 768
caused 768
farbtupfer 768
geoffneten 768
leadsanger 768
spacious 768
strande 768
wunschen 768
becomes 767
bug 767
dejected 767
direct 767
distressed 767
finals 767
gehirns 767
hinaus 767
oversized 767
woven 767
1,@@ 766
bucherregal 766
campfire 766
cht 766
cubes 766
fabulous 766
fernsehprogramm 766
helles 766
mundung 766
sauberen 766
tough 766
uberrascht 766
wasserfalle 766
attraktives 765
bel@@ 765
bronzestatue 765
fort 765
kasten 765
nightclub 765
offnung 765
stand@@ 765
tundra 765
basement 764
deiner 764
verandern 764
wettbewerbs 764
advert 763
bust 763
cycle 763
duo 763
foyer 763
jogging 763
kalligraphien 763
ler 763
madchen@@ 763
ugly 763
athletic 762
basteln 762
containers 762
drei 762
großere 762
jungsten 762
verlassene 762
charaktere 761
curious 761
engineer 761
feuchten 761
graduates 761
outskirts 761
parallel 761
thumb 761
turbine 761
vorgarten 761
wallet 761
warming 761
dig 760
irgendetwas 760
loses 760
mat@@ 760
militarkommandeurs 760
originally 760
unterkunftstyp 760
value 760
zweige 760
aussichtspunkt 759
basketballteam 759
carefully 759
entscheiden 759
loves 759
schicke 759
textes 759
tool 759
uberreicht 759
wahlt 759
abendkleid 758
accents 758
backen 758
dribbles 758
lupe 758
magnifying 758
meister 758
metropolitan 758
militarischer 758
occupied 758
routine 758
tulip 758
wunschte 758
clubs 757
demonstrators 757
kunstlerin 757
marking 757
raus 757
selbst@@ 757
17 756
drittes 756
endes 756
ertem 756
exit 756
fahrzeugs 756
gemeinden 756
kleidungsstucke 756
kummert 756
pint 756
presseraum 756
probe 756
reiche 756
trocknen 756
10th 755
blickwinkel 755
desktop 755
forget 755
gilt 755
grilled 755
rail 755
reisfeld 755
sites 755
verbinden 755
blows 754
einfahrt 754
nebeneinander 754
probleme 754
professor 754
schwimmer 754
baumzweig 753
einfuhrung 753
employees 753
engaged 753
ke 753
laterne 753
luxuriose 753
pound 753
privat@@ 753
retired 753
schnappschuss 753
texturiertes 753
thrown 753
ausschau 752
geschirr 752
likely 752
muddy 752
violet 752
zes 752
addresses 751
ahnliches 751
duchess 751
fact 751
lip 751
locked 751
marked 751
mechanic 751
oldtimer-@@ 751
rundenspiels 751
bulldog 750
consider 750
formalen 750
heim 750
opted 750
personlichen 750
planets 750
rivers 750
sed 750
stretches 750
sudwesten 750
digen 749
entschied 749
goldmedaille 749
reveals 749
spiegelbild 749
doppelbett 748
geschmuckten 748
hervor@@ 748
mauern 748
raum@@ 748
script 748
taxis 748
amerikanisches 747
dezember 747
grave 747
hardwood 747
huhner@@ 747
kalte 747
les 747
repeating 747
untergeht 747
brauner 746
enen 746
independence 746
ks 746
lau@@ 746
mannschaften 746
alligator 745
chimney 745
gefuhrt 745
herzogin 745
ity 745
liberty 745
netten 745
regale 745
replica 745
seniorin 745
starren 745
tracking 745
aurora 744
bandern 744
bildungseinrichtung 744
clash 744
dinosaurier 744
gebet 744
platze 744
prominenten 744
gesprache 743
politikerin 743
studded 743
umgibt 743
wunder 743
anlasslich 742
backgrounds 742
cameras 742
crocodile 742
flieger 742
fun@@ 742
gedanken 742
multicolored 742
mutter@@ 742
stra@@ 742
universum 742
vessel 742
betritt 741
hide 741
hute 741
ju@@ 741
jubilaum 741
phase 741
postcard 741
zahlt 741
bahnsteig 740
freundlich 740
glitzernden 740
regionen 740
motherboard 739
westwood 739
ausdruck 738
backs 738
gedenken 738
hamster 738
ribbons 738
stils 738
zentrale 738
badge 737
derelict 737
det 737
schwane 737
angeboten 736
bahn 736
ckten 736
confident 736
defender 736
dichter 736
eiern 736
einzel@@ 736
jahres@@ 736
letztes 736
lord 736
nummern 736
spitzen@@ 736
sts 736
verstecken 736
aktivitat 735
aufgeregt 735
cra@@ 735
damen@@ 735
developed 735
gerate 735
jars 735
kajak 735
klebt 735
musters 735
produktionsfirma 735
saving 735
scientists 735
versammelt 735
wirbt 735
blockiert 734
bomber 734
data 734
datum 734
gestikuliert 734
ings 734
knoten 734
pins 734
surgery 734
considered 733
horns 733
monkeys 733
niedrige 733
steering 733
trikot 733
verziert 733
werkzeuge 733
ceo 732
ent 732
leichten 732
malerische 732
medizinische 732
mostly 732
schwimmenden 732
stu@@ 732
thatched 732
tiges 732
mosaik 731
musikvideo-performer 731
options 731
sting 731
werbe@@ 731
westwood-premiere 731
1980s 730
clutch 730
evolution 730
footpath 730
frohlichen 730
handtuch 730
mint 730
prince 730
tau@@ 730
wander@@ 730
weste 730
bauwerk 729
bla@@ 729
brandung 729
dach@@ 729
dances 729
dropped 729
einstellung 729
gelbliche 729
hochzeiten 729
kisses 729
saule 729
stories 729
sword 729
valentinstag 729
versus 729
battles 728
blogger 728
bra@@ 728
braten 728
eisenbahn 728
fjord 728
geschafts 728
liebte 728
merry 728
pra@@ 728
reisende 728
1.@@ 727
ahneln 727
gebirgskette 727
grund@@ 727
injury 727
losung 727
multi@@ 727
roadside 727
skiing 727
sonnenaufgangs 727
tv-genre 727
wiegt 727
chalkboard 726
danke 726
dot 726
erzielen 726
leichte 726
politik 726
sommers 726
tagsuber 726
tute 726
vergnugen 726
verloren 726
1920er 725
daisies 725
geschickt 725
trat 725
unterarten 725
wagon 725
weihnachtsdekoration 725
besetzt 724
device 724
electrical 724
kurzer 724
lebte 724
rescued 724
supplies 724
unbe@@ 724
unterwasser@@ 724
dunen 723
gende 723
machten 723
orbit 723
pops 723
returned 723
synthpop-kunstler 723
angebot 722
auszeichnungen 722
barbed 722
beef 722
betrieb 722
boxen 722
kar@@ 722
reh 722
schmalen 722
smallest 722
typen 722
unterstutzt 722
algen 721
climbs 721
fusion 721
anruf 720
bro@@ 720
charm 720
chip 720
erwachsenen 720
hau@@ 720
knew 720
rectangular 720
regions 720
sitzgelegenheiten 720
80 719
bun 719
burn 719
dimension 719
ell 719
fantastic 719
feuer@@ 719
hen 719
hintergrundkonzept 719
kleinem 719
masse 719
painter 719
passieren 719
penguin 719
shutters 719
verbringt 719
benz 718
fensterbank 718
modedesignerin 718
purchased 718
videos 718
diamant 717
facial 717
growth 717
mer@@ 717
orchard 717
steg 717
stolen 717
weihnacht@@ 717
artisten 716
dient 716
entitled 716
highly 716
lava 716
quadratischer 716
racer 716
tender 716
ati@@ 715
e-@@ 715
engraving 715
fee 715
identity 715
il@@ 715
islamic 715
mach 715
schnursenkel 715
vorhange 715
warnschild 715
zuerst 715
6th 714
bildung 714
cricketspielers 714
fre@@ 714
hauptbuhne 714
hibiscus 714
stilvoll 714
studieren 714
tropfen 714
vivid 714
zubereiten 714
baren@@ 713
condition 713
donned 713
drying 713
happily 713
iris 713
lauf@@ 713
ruhige 713
seafront 713
tig 713
bushes 712
collar 712
fingern 712
foul 712
fruh 712
olympiateilnehmerin 712
out@@ 712
punch 712
purchase 712
familienzimmer 711
lockeren 711
stadtrand 711
stisch 711
worter 711
ans 710
ches 710
futuristic 710
likes 710
slices 710
target 710
werkstatt 710
wirtschaft 710
berggipfel 709
cubs 709
generated 709
lackierung 709
lastwagen 709
liebhaber 709
nachtlichen 709
spectators 709
virtual 709
1970er 708
extended 708
fahrenden 708
levels 708
matrosen 708
mum 708
sahen 708
tan@@ 708
blaubeeren 707
clearly 707
dreh@@ 707
gung 707
happiness 707
mercedes 707
bergkette 706
buffet 706
buste 706
computers 706
freundliche 706
genossen 706
graues 706
hear 706
heim@@ 706
messages 706
unterricht 706
werbeveranstaltung 706
handbag 705
herbst-@@ 705
vendors 705
anchored 704
bemalen 704
cyclists 704
februar 704
flare 704
handschrift 704
purpose 704
wochen 704
basketballschießwart 703
chte 703
faced 703
fullt 703
hafens 703
iger 703
schalen 703
schnabel 703
showcase 703
slip 703
sse 703
style@@ 703
defense 702
fleck 702
hai 702
niedliche 702
scissors 702
sektion 702
tigen 702
traurigen 702
ys 702
becoming 701
dentist 701
eindruck 701
geschnitzt 701
legte 701
offenem 701
paints 701
schutteln 701
wiederkehrenden 701
zt 701
crews 700
hero 700
puppen 700
scattered 700
schwarz-weiß-@@ 700
suspended 700
crawling 699
employee 699
icy 699
kaktus 699
rockband 699
sel@@ 699
souvenirs 699
volcano 699
creme 698
fed 698
großeren 698
tap 698
aler 697
connecting 697
freundlicher 697
geschichten 697
hocker 697
humans 697
sternen@@ 697
umfasst 697
wasserfalls 697
zugefrorenen 697
.000 696
architektonische 696
aussah 696
felsformationen 696
greet 696
higher 696
japanese 696
memory 696
mustache 696
rein@@ 696
run@@ 696
sumpf 696
hoodie 695
hoop 695
kameras 695
schwert 695
starfish 695
wunderschon 695
carrots 694
clay 694
foto@@ 694
gasten 694
montiert 694
overcast 694
polished 694
schlangelt 694
sportliga 694
stepping 694
textile 694
verlobungsring 694
wetteifern 694
autumnal 693
dunks 693
fro@@ 693
ghost 693
kriecht 693
metallische 693
mittelpunkt 693
poet 693
returning 693
stayed 693
struck 693
texte 693
wacht 693
gesagt 692
makeover 692
sleek 692
felsbrocken 691
fohlen 691
hunting 691
nah 691
portals 691
temporary 691
durchquert 690
museums 690
smoothie 690
traditionellem 690
trash 690
weiche 690
chi@@ 689
everywhere 689
gelblichen 689
kaufer 689
manufacturer 689
parken 689
segelt 689
sobald 689
stile 689
tru@@ 689
unterschiedliche 689
aktuellen 688
ene 688
handgezeichneter 688
heu 688
jobs 688
kleinere 688
kocht 688
leitfaden 688
marching 688
peek 688
alcohol 687
brautkleider 687
cabinet 687
exklusiven 687
schornstein 687
transform 687
typisches 687
apfeln 686
crab 686
dauerhafte 686
drawers 686
fruh@@ 686
metres 686
potential 686
riesiges 686
schriftzuge 686
stromen 686
bluhender 685
drew 685
ellen 685
envelope 685
gelegt 685
glory 685
graduate 685
plakate 685
problems 685
ruined 685
umweltschutzer 685
wei@@ 685
whistle 685
alteres 684
definitiv 684
lodge 684
properties 684
skelett 684
stem 684
wahlkampfveranstaltung 684
animiert 683
fan@@ 683
ga@@ 683
gekommen 683
rutsche 683
answer 682
dauert 682
euch 682
hi@@ 682
kirschen 682
slides 682
telescope 682
vegan 682
wicker 682
wur@@ 682
zusatzlichen 682
buro@@ 681
herstellen 681
jugendliche 681
marmor 681
passend 681
sehe 681
sorgfaltig 681
wool 681
beruhmt 680
kunde 680
menschen@@ 680
mp@@ 680
seasonal 680
telephone 680
bakery 679
et@@ 679
go@@ 679
kaukasische 679
prozess 679
sechsten 679
tunnels 679
turkey 679
vintagestil 679
ebenfalls 678
fulle 678
gotteshaus 678
lays 678
niederlage 678
offices 678
premium 678
strikes 678
wendet 678
wintermorgen 678
ats 677
frucht 677
holzbrett 677
lesson 677
measuring 677
mens 677
moglichkeit 677
ren@@ 677
wildnis 677
wolkenkratzern 677
applying 676
behalter 676
cherries 676
dribbelt 676
flacher 676
greeted 676
ish 676
jumper 676
maisfeld 676
schonste 676
signal 676
brautigams 675
feld@@ 675
hinzuzufugen 675
jahrliche 675
luxurioses 675
partially 675
rugged 675
sari 675
wasserloch 675
abseits 674
businessmen 674
flash 674
han@@ 674
ken@@ 674
krieg 674
lokaler 674
paid 674
stange 674
tuch 674
verkehrszeichen 674
activist 673
bestehen 673
bestehend 673
dahinter 673
dame 673
erleben 673
felswand 673
newest 673
selective 673
15th 672
act 672
bunk 672
cur@@ 672
dampflokomotive 672
eingebettet 672
mull 672
palms 672
reflective 672
schnelle 672
tv-@@ 672
vast 672
banknote 671
charme 671
deckel 671
erganzen 671
heimischen 671
schmuckt 671
speaker 671
staates 671
traurige 671
astronauten 670
bt 670
eighth 670
kinderwagen 670
nord@@ 670
schach 670
schafherde 670
tanz@@ 670
entscheidung 669
erd@@ 669
fte 669
gefeiert 669
gon 669
kur@@ 669
leerem 669
medizinischen 669
offered 669
prey 669
protestieren 669
putt 669
traumen 669
farms 668
fruhlingshaften 668
gs@@ 668
indoors 668
industriellen 668
kleben 668
konflikt 668
rugbyspieler 668
schreibmaschine 668
spitzen 668
verletzt 668
bild@@ 667
ersetzt 667
krafte 667
minimalistischen 667
oval 667
overnight 667
reise@@ 667
stable 667
static 667
verandert 667
wor@@ 667
kollegen 666
recht 666
saft 666
shake 666
1930s 665
bauarbeiten 665
bewegungen 665
cabrio 665
feierte 665
ikonischen 665
joke 665
rasse 665
sun@@ 665
verkehrs@@ 665
fensters 664
fighter 664
futterung 664
gan@@ 664
grew 664
herausforderung 664
horrorfilm 664
ierten 664
lich@@ 664
mushroom 664
riff 664
ruhig 664
transformed 664
vielfalt 664
wahre 664
blueskunstlers 663
bones 663
dachern 663
focused 663
gentle 663
glanzend 663
harvested 663
komfort 663
trade 663
wettkampf 663
feuerwehrmann 662
santa 662
setzte 662
spur 662
stalls 662
barely 661
boho 661
iceberg 661
pen@@ 661
represent 661
schlecht 661
sozialen 661
tickets 661
tief@@ 661
tones 661
amid 660
ball@@ 660
groups 660
hoffnung 660
kopfe 660
stammt 660
.@@ 659
adjacent 659
ceilings 659
checkered 659
junction 659
publicity 659
statesman 659
turms 659
vectors 659
versch@@ 659
vollstandig 659
allows 658
believed 658
gratis 658
kern 658
ments 658
uniforms 658
vendor 658
absolutely 657
erenden 657
finds 657
luftballon 657
modelliert 657
nestled 657
physiker 657
rink 657
tage@@ 657
tennis@@ 657
tv-programm 657
12th 656
binoculars 656
gleich 656
oriental 656
pflucken 656
trage 656
badezimmers 655
flair 655
foto-sharing-webseite 655
gruppierung 655
musikfest 655
ons 655
stray 655
tale 655
aufgeht 654
blizzard 654
burnt 654
detached 654
documents 654
facts 654
funktion 654
kreises 654
majestic 654
nusse 654
orchid 654
ran@@ 654
weite 654
wrought 654
50th 653
administrativen 653
bru@@ 653
gathers 653
greek 653
hervorgehoben 653
kurz@@ 653
leuchtende 653
morgenlicht 653
ordnung 653
schiffen 653
ster@@ 653
zieren 653
ak@@ 652
alive 652
basierend 652
flavor 652
loop 652
membership 652
offiziell 652
pear 652
rennfahrer 652
span@@ 652
sweatshirt 652
teaching 652
timber 652
vorder@@ 652
warnt 652
wohnen 652
aid 651
doppelzimmer 651
emotionen 651
furnished 651
gelassen 651
handgelenk 651
jahreszeiten 651
os 651
polish 651
sample 651
seriously 651
ski@@ 651
teamed 651
acres 650
diskutiert 650
fiel 650
grocery 650
kopierraum 650
locker 650
tanks 650
turtles 650
weinglaser 650
arrangiert 649
fluttering 649
gingerbread 649
grasbewachsenen 649
meisterschaften 649
th 649
bares 648
blueberries 648
eisbar 648
gelegenheit 648
geschaftigen 648
holzhaus 648
lan@@ 648
lief 648
nachtklub 648
sonnenbrillen 648
weißkopfseeadler 648
betrachter 647
bushaltestelle 647
erosion 647
piste 647
sporting 647
easier 646
eidechse 646
flashing 646
gegangen 646
kummern 646
matten 646
pathway 646
premierenfeier 646
seashore 646
tro@@ 646
weint 646
wunsche 646
ced 645
darum 645
described 645
firefighter 645
holztur 645
ner 645
polizei@@ 645
squad 645
verschwommenen 645
zerstort 645
bewundern 644
breeds 644
heutigen 644
interpretation 644
lag 644
nebula 644
nights 644
peeking 644
perfume 644
sc@@ 644
staub 644
strick@@ 644
texturen 644
treppenhaus 644
violettem 644
cluster 643
dove 643
estuary 643
fellow 643
geschlagen 643
heaven 643
korper@@ 643
ladung 643
ou@@ 643
steadicam 643
ters 643
wurf 643
baskets 642
bewacht 642
crisp 642
crops 642
fired 642
follows 642
guckt 642
medals 642
pigeons 642
babydusche 641
contains 641
dental 641
fliegenden 641
milan 641
seas 641
spiegelungen 641
sudosten 641
adoption 640
clearing 640
eisen@@ 640
embrace 640
heißluftballons 640
lin@@ 640
neutralen 640
trotz 640
uberreste 640
vier@@ 640
bahnhofs 639
bequem 639
cted 639
flattert 639
großbritannien 639
hint 639
karton 639
lampen 639
lifted 639
messy 639
parliamentary 639
reflexionen 639
barrel 638
cking 638
dan@@ 638
erende 638
exactly 638
flusse 638
gefrorenen 638
kofferraum 638
kritzeleien 638
len 638
maze 638
werke 638
backerei 637
breath 637
fluss@@ 637
fugt 637
har@@ 637
iert 637
jung@@ 637
kor@@ 637
kunstlern 637
premierenparty 637
profi-boxer 637
rad@@ 637
tassen 637
unglaublich 637
younger 637
altesten 636
außenbereich 636
diejenigen 636
dienst 636
extrem 636
gehege 636
heit 636
komponisten 636
konigliche 636
krankheit 636
marker 636
schlafzimmern 636
sported 636
za@@ 636
zeichentrickillustration 636
aktor 635
ambulance 635
angeblich 635
climber 635
dunnen 635
erinnerung 635
fal@@ 635
fliese 635
glam 635
gradient 635
gymnastik 635
keramik@@ 635
kompass 635
schwan 635
suburbs 635
installiert 634
joins 634
lenkrad 634
neugeborenen 634
potato 634
procession 634
sitze 634
teachers 634
werkzeug 634
banknoten 633
betten 633
bowls 633
cor@@ 633
examples 633
frying 633
gears 633
harvesting 633
juli 633
kommode 633
sleeps 633
tilt 633
comics 632
compact 632
except 632
ged 632
gleich@@ 632
j 632
landliche 632
modischen 632
oldtimers 632
praktiziert 632
seafood 632
spin 632
stethoscope 632
tights 632
zusatzliches 632
armchair 631
erganzung 631
grat 631
jagged 631
kai 631
riot 631
ver 631
clad 630
documentary 630
filmed 630
flussigkeit 630
hohlen 630
j@@ 630
kreis@@ 630
law 630
sonnenfinsternis 630
blei@@ 629
cing 629
freundes 629
greifen 629
landscaping 629
peacock 629
pours 629
rettet 629
spritzer 629
terrain 629
anleitung 628
blossoming 628
bridesmaid 628
darstellen 628
delivered 628
enthullung 628
gemischte 628
spruce 628
theaters 628
verfassungsmaßige 628
villen 628
begrußen 627
holes 627
systems 627
touristin 627
cks 626
cloth 626
horseback 626
ppen 626
privacy 626
valentines 626
vines 626
barfuß 625
exterieur 625
gravel 625
klar 625
mailander 625
masks 625
motorway 625
ruhiger 625
sitz@@ 625
stress 625
tribe 625
15. 624
aufwarmen 624
außenaufnahme 624
blow 624
canals 624
content 624
geese 624
geometrisches 624
hauptstrasse 624
informal 624
ker@@ 624
kusse 624
produkten 624
textilien 624
weihnachtszeit 624
weird 624
zahn@@ 624
banane 623
bein@@ 623
cowboys 623
enclosed 623
hexe 623
ki@@ 623
knall 623
plan@@ 623
rundes 623
schwarz-weißer 623
strapless 623
ungewohnliche 623
boarding 622
bohemian 622
elektro@@ 622
holzzaun 622
muscle 622
pf@@ 622
rs 622
saison@@ 622
schriftstil 622
sudlichen 622
trainers 622
behalten 621
bungalow 621
carrier 621
drehung 621
geographischen 621
involved 621
nudeln 621
pollution 621
projekte 621
rufen 621
waldweg 621
wed 621
branding 620
busch 620
colleagues 620
dekorativer 620
evil 620
firm 620
funky 620
ierte 620
lab 620
samstagabend 620
tracht 620
youth 620
12. 619
abgelegenen 619
actual 619
ching 619
commuters 619
doorway 619
erleuchtet 619
fließenden 619
fuhrers 619
hugs 619
koi 619
kuhne 619
pilz 619
react 619
reflect 619
schwingt 619
silky 619
strip 619
trendiges 619
upside 619
vektorsilhouetten 619
wutend 619
cardigan 618
debris 618
dreieck 618
gene 618
mini@@ 618
swims 618
themen@@ 618
twins 618
vermeiden 618
wiegen 618
25@@ 617
andern 617
attractions 617
basiert 617
bullen 617
canadian 617
collected 617
holzbrucke 617
lagen 617
londoner 617
offener 617
outlined 617
privater 617
tucked 617
west@@ 617
.00 616
burned 616
crafts 616
erzahlt 616
existing 616
fernsehshow 616
g-@@ 616
nein 616
notice 616
reclaimed 616
schurkenstaat 616
tabletten 616
6. 615
anziehen 615
array 615
beladen 615
eingesetzt 615
eisen 615
haken 615
hungry 615
minimalistisches 615
muscular 615
spa 615
sphere 615
suede 615
sur@@ 615
cheers 614
fruhmorgendlichen 614
gewurze 614
passage 614
7th 613
championships 613
greatest 613
komodienfilms 613
maschinen 613
originelle 613
parliament 613
sturms 613
surround 613
territory 613
tutorium 613
umgewandelt 613
weddings 613
corridor 612
dung 612
erstaunlichen 612
faust 612
loading 612
naher 612
planned 612
prarie 612
regalen 612
selbstportrat 612
worten 612
absolviert 611
alkohol 611
cd 611
dar 611
deten 611
fold 611
glanzender 611
olmalerei 611
orangensaft 611
organisiert 611
reflects 611
schrein 611
stilvolles 611
stromt 611
avenue 610
elte 610
entwurf 610
farbene 610
formige 610
haften 610
kamele 610
managed 610
ringen 610
vergleich 610
verließ 610
barer 609
braunes 609
continued 609
ct 609
einzelner 609
hanger 609
kimono 609
kopft 609
peaceful 609
wrapping 609
zeitgenossischer 609
70 608
70@@ 608
brothers 608
design@@ 608
dri@@ 608
drums 608
ely 608
keller 608
mermaid 608
ninth 608
postete 608
tages@@ 608
tents 608
touristenattraktionen 608
ber 607
cally 607
emerald 607
fires 607
longest 607
octopus 607
temperaturen 607
transportiert 607
burst 606
dew 606
marmor@@ 606
pfeiler 606
remain 606
thigh 606
alien 605
ballen 605
compound 605
crest 605
flip 605
oranges 605
riesen@@ 605
sagten 605
summers 605
tooth 605
ub@@ 605
videospiel 605
cal 604
cape 604
eigentumswohnung 604
gebirgsfluss 604
muster@@ 604
neckline 604
qualifikation 604
raises 604
solution 604
texting 604
tr@@ 604
60@@ 603
bone 603
chaos 603
erzeugt 603
hirsch 603
kla@@ 603
landmarks 603
luxus 603
modellathlet 603
nutzt 603
ostereier 603
pearl 603
proudly 603
seiten@@ 603
spirits 603
anbau 602
auflosung 602
barefoot 602
consisting 602
kalb 602
karierten 602
kulissen 602
moschee 602
population 602
statte 602
ticket 602
unterhalt 602
allee 601
cooler 601
gesamten 601
handschuhen 601
model@@ 601
pflege 601
wunderbare 601
ag@@ 600
executive 600
richtungen 600
schildkroten 600
skater 600
twisted 600
unicorn 600
9th 599
bid 599
bite 599
climate 599
farbiges 599
gazebo 599
juicy 599
knien 599
luck 599
turnschuhen 599
feder@@ 598
fin@@ 598
glaube 598
headset 598
meereswellen 598
rucken@@ 598
winterlicher 598
21 597
75 597
baumhaus 597
benannt 597
brides 597
crochet 597
dreiecken 597
empire 597
fantasy 597
fe 597
fle@@ 597
ker 597
plat@@ 597
shrubs 597
speichern 597
sponsored 597
zucker 597
fisches 596
fortress 596
joint 596
municipalities 596
pendler 596
physikalischen 596
schiffstyp 596
spielers 596
wasserhahn 596
weihnachtsbaume 596
bonbons 595
decision 595
dynamic 595
mach@@ 595
rocking 595
schick 595
tarmac 595
tat 595
cane 594
cricketteam 594
depressed 594
dj 594
gre@@ 594
herzog 594
ost@@ 594
paved 594
pfeife 594
plattform 594
polizeiauto 594
spritze 594
tourism 594
umrisse 594
weiden 594
aufrichtig 593
bogen@@ 593
certain 593
copper 593
followed 593
hol@@ 593
pigs 593
schmuck@@ 593
schwarz-@@ 593
sinn 593
sol@@ 593
umschlag 593
ursprungliche 593
beaded 592
brands 592
ces 592
englischen 592
haircut 592
kampfes 592
plu@@ 592
verfassungsrepublik 592
verkaufer 592
ying 592
beak 591
digitalen 591
gelangen 591
grandfather 591
haltung 591
harten 591
hate 591
isometrisches 591
kill 591
kommerziellen 591
papers 591
promotion 591
schienen 591
accepts 590
bander 590
bored 590
bre@@ 590
burns 590
elten 590
eyed 590
fo@@ 590
genehmigung 590
jemandem 590
schlusspfiff 590
stopping 590
tanzflache 590
tomorrow 590
aren 589
barge 589
bewaldeten 589
cent 589
erweiterung 589
fischt 589
fragment 589
fruhlings@@ 589
kurven 589
marktplatz 589
paddle 589
rat 589
schleppt 589
trunks 589
wichtigste 589
13th 588
aten 588
augenbrauen 588
benches 588
bonfire 588
erlaubt 588
gebunden 588
geoffnete 588
lions 588
paddeln 588
sonnigem 588
beenden 587
einsames 587
extremely 587
fiber 587
listens 587
pianist 587
spotlight 587
teleskop 587
texts 587
usual 587
14. 586
fernsehserien 586
pastor 586
speculative 586
stethoskop 586
turban 586
twice 586
worried 586
14th 585
assigned 585
can@@ 585
cheering 585
fights 585
kurbissen 585
megaphone 585
muffins 585
nah@@ 585
orten 585
risk 585
schieben 585
tears 585
teilung 585
ups 585
ved 585
wechsel 585
zed 585
blush 584
ethnischer 584
filmcharakter 584
fordert 584
freedom 584
gefahr 584
la 584
presenting 584
rehe 584
sichtweise 584
balken 583
bekleidung 583
grizzly 583
heard 583
hugels 583
radeln 583
rennstrecke 583
skifahren 583
stehlen 583
switch 583
t-shirts 583
catholic 582
column 582
constellation 582
culinary 582
dige 582
erstaunlich 582
fenster@@ 582
gar@@ 582
helfer 582
indi@@ 582
kampf@@ 582
nagel@@ 582
neuem 582
wal 582
wilderness 582
10. 581
8th 581
begonnen 581
essential 581
fanden 581
haarschnitt 581
onen 581
spezielle 581
danger 580
guess 580
haupteingang 580
morgensonne 580
pairs 580
renn@@ 580
repair 580
reserve 580
schematic 580
seltsame 580
wach@@ 580
zeichentrickfigur 580
clinic 579
eingerichtet 579
gemusterte 579
mittlerer 579
newlyweds 579
performers 579
savanne 579
snowstorm 579
sters 579
-design 578
abendlicht 578
belly 578
eller 578
fein@@ 578
fla@@ 578
gemusterten 578
leinen 578
lilac 578
officially 578
papagei 578
politischen 578
segelboote 578
silbernen 578
united 578
unveiling 578
uppigen 578
zte 578
advantage 577
animierte 577
doppelt 577
gastehaus 577
graze 577
ikonische 577
lichts 577
messen 577
partial 577
person@@ 577
premier 577
scht 577
sturz 577
temperatures 577
umliegenden 577
vertikale 577
100@@ 576
1920s 576
blur 576
erklimmen 576
experimental 576
flugelspieler 576
metallischer 576
precious 576
wort@@ 576
abendhimmel 575
cked 575
dropping 575
mel@@ 575
offen 575
skateboarder 575
sorten 575
umrahmt 575
verbessern 575
abteilung 574
carrot 574
cheetah 574
cke 574
draht 574
endless 574
eng 574
friedhof 574
fur@@ 574
gefarbte 574
geschenkt 574
kanals 574
markets 574
rinde 574
rushing 574
ska 574
spi@@ 574
stander 574
vote 574
billboard 573
happens 573
hr@@ 573
indigenous 573
massiven 573
nadeln 573
package 573
physicist 573
sudkuste 573
surft 573
zodiac 573
hybrid 572
kg 572
knot 572
pirate 572
sieger@@ 572
stro@@ 572
teilnimmt 572
vergnugungspark 572
yed 572
glockenturm 571
heel 571
hockt 571
killed 571
results 571
ss18 571
tiger@@ 571
bur@@ 570
eroffnungs@@ 570
huten 570
jacht 570
strandnahe 570
wann 570
beschadigt 569
blattes 569
digitaler 569
effort 569
eigenheim 569
fear 569
gemuse@@ 569
gluten 569
lastwagens 569
memories 569
multi 569
nectar 569
pinguine 569
privates 569
removing 569
zitronen 569
zten 569
aufgabe 568
bunker 568
connect 568
dicke 568
emp@@ 568
liegend 568
privatsphare 568
rapper 568
rutscht 568
weiblicher 568
200 567
dachboden 567
defeated 567
defends 567
folie 567
freeway 567
insect 567
postkarte 567
restoration 567
schatten@@ 567
ban@@ 566
del@@ 566
dro@@ 566
edges 566
effects 566
erdbeere 566
feste 566
festtages 566
gravur 566
harte 566
lustig 566
milch@@ 566
uniformen 566
verkleidung 566
® 566
caps 565
document 565
gekauft 565
golf@@ 565
ing-@@ 565
motorhaube 565
polo 565
popkunstlers 565
raumschiff 565
stauraum 565
tierte 565
waffe 565
auszusehen 564
datiert 564
feuers 564
flugzeugen 564
med 564
monaten 564
bales 563
bartiger 563
besiegt 563
biographical 563
blend 563
edible 563
erzielte 563
farbung 563
highlight 563
karussell 563
leash 563
massen 563
obere 563
stausee 563
stern@@ 563
sweeping 563
trench 563
tuxedo 563
carousel 562
ethnischen 562
glocke 562
grob 562
haarfarbe 562
jeansjacke 562
mr 562
opener 562
pop-rock-kunstler 562
renaissance 562
rot-@@ 562
schwerer 562
sohnes 562
stoßen 562
tasten 562
telling 562
wandgemalde 562
weidet 562
appearing 561
bessere 561
eigentlich 561
einzigartig 561
ener 561
filmt 561
flights 561
forum 561
frohes 561
kno@@ 561
krankenwagen 561
lack 561
nahern 561
schoß 561
sells 561
shortly 561
stucks 561
theaterschauspieler 561
tin 561
transparente 561
waage 561
5. 560
aneinander 560
autogramme 560
beliebte 560
besitz 560
coaches 560
collect 560
condo 560
flach 560
fra@@ 560
globus 560
herrenhaus 560
hielten 560
ite 560
mil@@ 560
schlaf@@ 560
spenden 560
wonderland 560
agent 559
balconies 559
beautifully 559
bitten 559
chrome 559
cting 559
fern 559
footprints 559
heavily 559
honored 559
lokomotive 559
mes 559
pflaster 559
rosafarbener 559
schulter@@ 559
springtime 559
toter 559
werben 559
beats 558
bows 558
che 558
diver 558
friendship 558
fruhlings 558
herbstblattern 558
hubscher 558
mond@@ 558
pupils 558
rock@@ 558
versuchte 558
vierte 558
welcoming 558
wichtige 558
ackerland 557
anlass 557
eisbahn 557
herbstfarben 557
hochzeitspaar 557
konferenz 557
nationale 557
realistisches 557
ser@@ 557
wrote 557
ar 556
dampf 556
depicts 556
erwachsener 556
escalator 556
fakten 556
ferris 556
freundschaftsspiel 556
gelandewagen 556
kunstdruck 556
landerspiels 556
lemons 556
rennwagen 556
situation 556
snowflake 556
stoff@@ 556
tests 556
aquarellmalerei 555
arzt 555
centerpiece 555
dampfzug 555
microscope 555
bump 554
cher 554
clever 554
flughafens 554
focal 554
garderobe 554
iges 554
kaffeebohnen 554
persons 554
placing 554
romantischer 554
sitcom 554
volcanic 554
ali@@ 553
burogebaudes 553
ernahrung 553
hairdresser 553
lernt 553
proof 553
senioren-paar 553
waschmaschine 553
bewundert 552
cre@@ 552
dealership 552
doctors 552
dollar@@ 552
fountains 552
garland 552
geehrt 552
gerichte 552
imax 552
oster@@ 552
sportverband 552
tells 552
touchline 552
trans@@ 552
treffens 552
tuten 552
♥ 552
13. 551
ders 551
folgenden 551
mango 551
mechanical 551
meerjungfrau 551
post@@ 551
24 550
autographs 550
gluhend 550
hel@@ 550
kreatives 550
replaced 550
waschkuche 550
anbetung 549
ausprobieren 549
beech 549
clowns 549
embellished 549
nachbarn 549
offenes 549
rolltreppe 549
sau@@ 549
saved 549
sled 549
strukturen 549
tic 549
traum@@ 549
bands 548
baufunktion 548
charging 548
curve 548
emerging 548
foundation 548
huhnchen 548
ir@@ 548
kapuze 548
koala 548
morgen@@ 548
sales 548
schmetterlings 548
schools 548
schwierig 548
trauriges 548
cartoon-vektorillustration 547
deutsche 547
entschieden 547
foam 547
genen 547
interception 547
kli@@ 547
krug 547
passport 547
pipes 547
schwangeren 547
sided 547
vogue 547
wurst 547
aktuelle 546
briefmarke 546
china 546
confused 546
drove 546
handschuh 546
herbstlicher 546
kreuz@@ 546
mannschaftsfoto 546
pensive 546
schneidebrett 546
semifinal 546
superhero 546
swimmer 546
volume 546
absolut 545
acre 545
booties 545
brach 545
congratulations 545
einzigartiges 545
halben 545
produktlinie 545
seed 545
selben 545
tomb 545
treffer 545
ve@@ 545
vorbereiten 545
athletin 544
gardener 544
gemusegarten 544
hafte 544
learned 544
meister@@ 544
pedigreed 544
sockel 544
tin@@ 544
vanity 544
countertops 543
curves 543
filmfestival 543
performen 543
ppt 543
schadels 543
schere 543
schulkinder 543
solltest 543
terrassen 543
zahnarzt 543
arched 542
brave 542
daisy 542
explorer 542
festlichen 542
fruhjahrsmodenschau 542
gefarbten 542
muschel 542
resident 542
rettung 542
sophisticated 542
steuert 542
anzusehen 541
cla@@ 541
eimer 541
erwarten 541
examining 541
garlic 541
halbe 541
losing 541
paradies 541
patriotic 541
peas 541
philosophen 541
tochtern 541
24@@ 540
7. 540
alpha 540
beispiele 540
burger@@ 540
campsite 540
druck@@ 540
equipped 540
geschafts@@ 540
herrn 540
hinterlasst 540
ine 540
schar 540
stimme 540
tv-produzent 540
typography 540
weißt 540
zeiger 540
dauer@@ 539
drill 539
habitat 539
haft 539
halbfinale 539
naturlicher 539
partys 539
pastell@@ 539
piggy 539
planes 539
regierungs@@ 539
standig 539
strength 539
tranen 539
treated 539
winged 539
wolken@@ 539
27 538
barren 538
bergstraße 538
contact 538
fahrgaste 538
gefarbt 538
handwritten 538
herbstmodenschau 538
hoping 538
interiors 538
lachs 538
naturally 538
on-@@ 538
parties 538
passion 538
poker 538
rushes 538
skulls 538
uberleben 538
vo@@ 538
zauns 538
architektonischen 537
beruhren 537
braute 537
doppelte 537
fri@@ 537
gartner 537
geschnittene 537
geste 537
happen 537
locations 537
motorroller 537
novel 537
personliche 537
platzes 537
schiff@@ 537
ursprunglichen 537
dra@@ 536
drangen 536
duft 536
fischmarkt 536
fli@@ 536
gegeneinander 536
kitchens 536
lapsus 536
participating 536
purse 536
raums 536
remaining 536
sailors 536
signature 536
smell 536
spritzt 536
suitable 536
tiara 536
tierarzt 536
tisch@@ 536
toll 536
umgebaut 536
versteigert 536
baums 535
blut 535
eyebrows 535
feuerwerkskorper 535
foal 535
geteilt 535
kampagne 535
leer 535
len@@ 535
lieblings-@@ 535
ruderboot 535
saubere 535
schaukeln 535
schneesturms 535
silence 535
stic 535
streichholz 535
1940s 534
after-party 534
erst@@ 534
familiar 534
gott 534
handschuhe 534
hornern 534
manischen 534
paddock 534
ren 534
walkers 534
anatomy 533
benen 533
coats 533
cru@@ 533
grasfeld 533
numerous 533
pelzmantel 533
plaza 533
pointer 533
teammatten 533
tolles 533
wires 533
busses 532
ceremonial 532
collections 532
connects 532
counting 532
embroidery 532
express 532
forced 532
kapitan 532
kraftwerk 532
meditation 532
northwest 532
ostlichen 532
paw 532
photographing 532
schlechte 532
siehst 532
stamped 532
vulkan 532
waste 532
applied 531
banke 531
beam 531
bulldogge 531
erfolgreich 531
fist 531
halb@@ 531
herren 531
industrielle 531
laub@@ 531
masken 531
perlen@@ 531
pur@@ 531
rauen 531
regeln 531
sei@@ 531
sweets 531
szenen 531
unglaubliche 531
verletzung 531
villages 531
ary 530
blooms 530
charcoal 530
eisberg 530
freundlichen 530
krokodil 530
literally 530
missed 530
prairie 530
schnappt 530
sonder@@ 530
straßenmarkt 530
subtle 530
trapped 530
bohnen 529
elk 529
freundschaft 529
gol@@ 529
hauptquartier 529
im@@ 529
kragen 529
raumt 529
refreshing 529
sofort 529
stehenden 529
tartan 529
tigers 529
90 528
adorned 528
emotions 528
falle 528
farbenen 528
fiktionalen 528
forscher 528
herzstuck 528
incident 528
jazzkunstler 528
marktes 528
measure 528
spaghetti 528
wan 528
weekly 528
bash 527
booth 527
bootsfahrt 527
creepy 527
exciting 527
hello 527
jahre@@ 527
liefern 527
meditating 527
motor@@ 527
renoviert 527
sahne 527
willow 527
,@@ 526
clears 526
corals 526
crystals 526
dolls 526
ehe 526
entfernung 526
fort@@ 526
grabs 526
mess@@ 526
nuclear 526
ostkuste 526
performances 526
replace 526
ssed 526
ving 526
windmills 526
beamten 525
demolition 525
finanz@@ 525
garnelen 525
kafig 525
kampfkunstler 525
leadership 525
lighter 525
mothers 525
rostiges 525
sausages 525
sonnenschirm 525
supporting 525
ven 525
volles 525
abgerissen 524
chart 524
eisenbahn@@ 524
fits 524
flood 524
luftbild 524
marshmallows 524
metalloberflache 524
ning 524
revolution 524
scriptwriter 524
solo@@ 524
tischdekoration 524
balle 523
dive 523
dunkeln 523
krater 523
particles 523
peony 523
schneebedeckter 523
tasting 523
vektorillustrationsvektor 523
wagens 523
whales 523
abschluss@@ 522
angels 522
angles 522
arbeits@@ 522
auktion 522
brennen 522
bulbs 522
ci@@ 522
college-basketballspiels 522
erhielt 522
fels 522
gefilmt 522
gesten 522
heißer 522
kreuzfahrt 522
leitet 522
pat@@ 522
reif 522
barocke 521
blockieren 521
disaster 521
eroffnungsabend 521
fiery 521
fußballs 521
greens 521
ped 521
q 521
reprasentiert 521
revealing 521
riesenrad 521
scales 521
stische 521
teils 521
u-bahn-station 521
unbekannter 521
wunsch 521
arbeitete 520
beendet 520
breit 520
entertainment 520
knight 520
lavendel 520
lebendige 520
obdachlose 520
obdachloser 520
satelliten 520
soziale 520
spazierengehen 520
stilisierte 520
tonen 520
umzug 520
veteran 520
vorschau 520
akustikgitarre 519
anschauen 519
chihuahua 519
containerschiff 519
dur@@ 519
genoss 519
gluckwunschkarten 519
hohem 519
luggage 519
schwimm@@ 519
start@@ 519
streetart 519
studioportrat 519
trocken@@ 519
waffen 519
wurdest 519
.0000 518
creamy 518
dotted 518
enclosure 518
eres 518
finger@@ 518
guided 518
kal@@ 518
kreuzfahrtschiffes 518
manche 518
mock 518
silberne 518
sit@@ 518
solar@@ 518
worst 518
checked 517
falten 517
formigen 517
getriebe 517
kokosnuss 517
lebensstil 517
montage 517
protecting 517
vermieten 517
zeltplatz 517
ziegel@@ 517
broadcaster 516
experiment 516
feminine 516
frachtschiff 516
geburtstagsfeier 516
gesund 516
heiraten 516
ig@@ 516
kommenden 516
modedesigner 516
plot 516
schwimmende 516
sporty 516
trouble 516
zubereitung 516
200@@ 515
arches 515
balanciert 515
band@@ 515
bison 515
chase 515
ernahren 515
fractal 515
freiwillige 515
gabe 515
glaubt 515
honour 515
is@@ 515
konzeptuelle 515
pfannkuchen 515
produziert 515
regierungsagenturen 515
typischer 515
arbeitsplatz 514
barber 514
bend 514
buds 514
cher@@ 514
discussion 514
faden 514
governmental 514
hautnah 514
judge 514
komodienfilm 514
lackiert 514
loschen 514
paddy 514
strohhut 514
verlangsamen 514
zerbrochenen 514
ankommen 513
axt 513
flauschige 513
friseursalon 513
happened 513
kes 513
klare 513
mussten 513
sandwiches 513
sommerabend 513
steal 513
towering 513
70s 512
ations@@ 512
ganse 512
haup@@ 512
id 512
itat 512
pride 512
raindrops 512
reifer 512
skills 512
sons 512
testing 512
treats 512
trendige 512
ziegeln 512
abstrakt 511
beschaftigt 511
contour 511
darts 511
freundschaftsspiels 511
frieden 511
indierock-kunstler 511
karten@@ 511
laughs 511
machines 511
outstretched 511
paddling 511
pearls 511
schlacht 511
seilbahn 511
startet 511
sterben 511
stillen 511
tourismus 511
transitional 511
wahrheit 511
auswirkungen 510
bedient 510
eco 510
gig 510
inviting 510
joggt 510
kapuzenpullover 510
limit 510
ned 510
shouts 510
skiers 510
teil@@ 510
temperature 510
wachstum 510
cobbled 509
ersetzen 509
gras@@ 509
hahn 509
inspire 509
nebliger 509
neubau 509
paaren 509
pralinen 509
strolling 509
vertikalen 509
address 508
cruising 508
entirely 508
environmental 508
kreditkarte 508
kunstwerken 508
nektar 508
onions 508
paws 508
schla@@ 508
blutenblattern 507
bor@@ 507
festliche 507
gemusesorten 507
gin 507
haunted 507
holzhintergrund 507
justice 507
mirrors 507
misch@@ 507
pour 507
pray 507
rockkunstlers 507
scharfen 507
seniors 507
swept 507
wohnhauses 507
zen@@ 507
crow 506
elementary 506
functional 506
gerufen 506
gestalten 506
kreuzt 506
laden@@ 506
ombre 506
stoffe 506
term 506
unterhaltung 506
zehn 506
22 505
anatomie 505
dusty 505
eleganz 505
geoffnetem 505
getreide 505
mph 505
musikvideoprogramms 505
nutzung 505
pfingstrosen 505
repariert 505
schlosses 505
seitenprofil 505
sli@@ 505
superhelden 505
ven@@ 505
yachthafen 505
aufgrund 504
brautpaar 504
countrykunstler 504
cushion 504
demolished 504
einheimischen 504
freiheitsstatue 504
gefertigt 504
gemischt 504
gemutlich 504
geschnitzte 504
holly 504
liner 504
nden 504
ss17 504
stadtstraße 504
trainieren 504
triple 504
winde 504
abschlussball 503
chasing 503
dice 503
erfahrung 503
fries 503
journal 503
nr. 503
stimmen 503
zerbrochene 503
blitze 502
blumchen 502
ie@@ 502
kers 502
knitting 502
montagabend 502
overgrown 502
ragt 502
telefone 502
thrillerfilm 502
toe 502
wooded 502
antwort 501
assorted 501
autohaus 501
bauern@@ 501
brand@@ 501
captures 501
ce@@ 501
drache 501
erzahlen 501
fruhlingssommer 501
geometrischer 501
gewohnlich 501
medaille 501
previously 501
sector 501
strandhutten 501
tablette 501
truth 501
tt@@ 501
wel@@ 501
80s 500
accident 500
bassist 500
baumstamme 500
bestimmt 500
bonsai 500
draped 500
expect 500
festung 500
flechten 500
getrennt 500
herunter 500
ieren 500
intended 500
lehnen 500
recycling 500
uberpruft 500
vier 500
advice 499
dingen 499
donated 499
eben 499
elegance 499
flach@@ 499
großvater 499
holzbank 499
huddle 499
ie 499
logs 499
mehl 499
nordlichter 499
nu@@ 499
patientin 499
reisenden 499
schenken 499
sidelines 499
snapped 499
sort 499
up@@ 499
wascheleine 499
whatever 499
whiteboard 499
19 498
außeren 498
brautstrauß 498
decks 498
gemutlichen 498
handheld 498
heartland 498
hinein 498
hohlraum 498
oberseite 498
pinguin 498
polarlichter 498
screaming 498
souvenir 498
velvet 498
beliebter 497
besseren 497
boasts 497
coal 497
defeat 497
eigentumer 497
geschlossene 497
geschnittenen 497
kopie 497
legal 497
professionellen 497
salute 497
sausage 497
schulen 497
sending 497
tackles 497
1980er 496
battery 496
englisch 496
entrepreneur 496
hersteller 496
marsh 496
navratri 496
personnel 496
streifen@@ 496
technik 496
zeitgenossisches 496
abstraktem 495
angekommen 495
creativity 495
farmland 495
filetiert 495
hangar 495
heated 495
mikroskop 495
overlooks 495
represents 495
sonntagabend 495
vinyl 495
waiter 495
zeigten 495
alpinen 494
bet@@ 494
chalet 494
feine 494
gowns 494
holzsteg 494
hor@@ 494
jagen 494
operated 494
organ 494
schiebeturen 494
schwer@@ 494
schwingen 494
shoppen 494
ts@@ 494
untere 494
veranstaltet 494
verschwommener 494
voice 494
warmth 494
windrader 494
awaiting 493
bereiche 493
bevolkerung 493
frauenhande 493
giraffen 493
hing 493
monate 493
polizeibeamter 493
splashes 493
stool 493
urbaner 493
verschwommene 493
zogen 493
aufgebaut 492
beistelltisch 492
equal 492
filter 492
fixtures 492
fruhe 492
hochzeit@@ 492
hochzeitsfoto 492
legend 492
lippe 492
luxus@@ 492
nde 492
neighbourhood 492
objekte 492
paddelt 492
plains 492
schilf 492
thermometer 492
warmes 492
zweit@@ 492
anzeigt 491
aussehenden 491
certainly 491
classy 491
copies 491
decken@@ 491
gegen@@ 491
gotischen 491
kennt 491
lighted 491
motorbike 491
netz@@ 491
pun@@ 491
radweg 491
sacred 491
saucer 491
verhindern 491
verpasst 491
verschließen 491
videospielserien 491
borealis 490
boulders 490
buchstabens 490
coolen 490
ehren@@ 490
filmvorfuhrung 490
gend 490
kra@@ 490
ladt 490
lettuce 490
niveau 490
patients 490
rabbits 490
roll@@ 490
wolle 490
abriss 489
childhood 489
elektrischer 489
exotische 489
fied 489
golfball 489
lachelte 489
lat@@ 489
op@@ 489
anschaut 488
bacon 488
banken 488
bericht 488
ble 488
brautpaares 488
fischerdorf 488
freight 488
frohe 488
kanten 488
lebensraum 488
magische 488
nap 488
praxis 488
reparatur 488
selten 488
straucher 488
structures 488
trainingsplatz 488
unternehmer 488
bal@@ 487
buffalo 487
challenges 487
curls 487
election 487
gelb-@@ 487
hintergrunds 487
inspirierten 487
mahdrescher 487
maintenance 487
obersten 487
peoples 487
schreiten 487
tear 487
terrassen@@ 487
vektorabstrakte 487
wutenden 487
auswahlen 486
besessen 486
crack 486
faith 486
fen@@ 486
fps 486
hohepunkt 486
jazzfusionskunstler 486
je@@ 486
kanale 486
mad 486
palastes 486
pfoten 486
schnappen 486
schriften 486
sted 486
teekanne 486
ampel 485
beschrieben 485
corners 485
degree 485
eingangsbereich 485
farbton 485
gestalt 485
girlanden 485
haftes 485
jackets 485
meant 485
nageln 485
nordkuste 485
prevent 485
probiert 485
restauriert 485
schulbus 485
shrimp 485
skirts 485
syringe 485
untertasse 485
verpackt 485
winziges 485
wirkt 485
100th 484
ahornblatter 484
attic 484
core 484
dugout 484
fertige 484
hecheln 484
kegel 484
kronen 484
pointed 484
shelving 484
stell@@ 484
stilisierten 484
tee@@ 484
uberprufen 484
unexpected 484
weidenkorb 484
weiten 484
wellen@@ 484
1940er 483
autorin 483
digging 483
geraden 483
gesichtern 483
grove 483
landen 483
medicine 483
motif 483
oned 483
peach 483
schwarz@@ 483
suv 483
teapot 483
thriller-film 483
urbane 483
welcomed 483
abschlage 482
accompanied 482
branche 482
che@@ 482
extrudiert 482
gummi@@ 482
hangenden 482
lauschen 482
medizinisches 482
modegeschaft 482
northeast 482
protection 482
rocked 482
schnalle 482
trout 482
weihnachtsschmuck 482
zahnen 482
35 481
anywhere 481
contract 481
ehemaliger 481
erfolgreichen 481
ingenieur 481
kombinierte 481
kreativen 481
paths 481
sailboats 481
siding 481
vulkan@@ 481
albums 480
angedockt 480
ansammlung 480
besseres 480
cabbage 480
composed 480
ending 480
firmenzentrale 480
geback 480
glasscheiben 480
homework 480
however 480
nieder 480
partnership 480
pla@@ 480
priester 480
reinigen 480
sauber 480
schafen 480
storey 480
trummer 480
untergehende 480
zehen 480
application 479
diesel 479
fallende 479
ferien 479
gewitter 479
golfturniers 479
inspiziert 479
knees 479
kopien 479
mixture 479
owls 479
pre 479
refrigerator 479
rollladen 479
rosafarbenem 479
scaffolding 479
tiered 479
uberhaupt 479
annaherung 478
ausgestreckten 478
eingangs 478
galloping 478
grunge-hintergrund 478
kreuzen 478
leichter 478
meeresschildkrote 478
pushes 478
represented 478
schulern 478
sections 478
streetstyle 478
turkis 478
collects 477
dual 477
embassy 477
fließen 477
gewidmet 477
gleise 477
los@@ 477
minimalistic 477
sleigh 477
sport-team 477
stei@@ 477
berghang 476
detail@@ 476
errichtung 476
florales 476
formale 476
gebirgszug 476
geln 476
kayaking 476
mittlere 476
nebenan 476
no. 476
pavilion 476
ph@@ 476
schiffs@@ 476
selektiver 476
sleeved 476
stomach 476
truthahn 476
verkehrs 476
zoll 476
arctic 475
auftritts 475
buchstablich 475
combo 475
cornerback 475
erbsen 475
fix 475
hochzeitsfotograf 475
improve 475
manicure 475
nominee 475
protestors 475
slalom 475
zombie 475
23 474
backed 474
blocked 474
blumenschmuck 474
commencement 474
diert 474
expedition 474
herren@@ 474
intimate 474
knospen 474
landwirtschaft 474
leichtes 474
park@@ 474
pping 474
presence 474
ripples 474
sauna 474
spooky 474
stock@@ 474
stranded 474
swingkunstler 474
treadmill 474
understand 474
units 474
van@@ 474
vorwarts 474
ahnliche 473
arti@@ 473
astronomical 473
aufgehangt 473
baden 473
blue@@ 473
botanischen 473
el 473
gluhen 473
handshake 473
nahrungsmittel 473
prachtvollen 473
proper 473
sche@@ 473
schneeflocke 473
thoughts 473
updated 473
ausgestellten 472
einst 472
erender 472
falsch 472
fiktionales 472
getrocknete 472
gluhende 472
heiß 472
landed 472
negative 472
obst- 472
pflanz@@ 472
schattierungen 472
schubladen 472
spielzeuge 472
spulen 472
ssi@@ 472
stet 472
unge@@ 472
wales 472
walker 472
admire 471
besitzen 471
cooling 471
dienen 471
laut 471
moonlight 471
murals 471
ner@@ 471
sitzecke 471
stadtmauern 471
umwelt@@ 471
verstehen 471
aktentasche 470
bleistiftzeichnung 470
boring 470
com@@ 470
gastgeber 470
highlands 470
hofft 470
kostet 470
pepper 470
ruckwarts 470
schlechten 470
stickers 470
tag@@ 470
umrissen 470
zeitschriften 470
accessible 469
animationsfilm 469
aqua 469
chens 469
competitor 469
dienstagabend 469
gemischten 469
gitter 469
hausaufgaben 469
kni@@ 469
lecture 469
leichtem 469
linien@@ 469
ners 469
niemals 469
prozession 469
summertime 469
urlaub@@ 469
verteilt 469
weihnachtsbeleuchtung 469
.000,00 468
bester 468
briefcase 468
dimensional 468
funkeln 468
gelistet 468
hexagonal 468
illegal 468
imageproblem 468
interactive 468
rim 468
scheunen 468
skipisten 468
tons 468
baseball@@ 467
bestimmten 467
cocktail@@ 467
cts 467
erkundet 467
handvoll 467
lichkeit 467
momente 467
peninsula 467
saxophone 467
schließlich 467
schnellen 467
shocked 467
sofas 467
studiert 467
trugen 467
ultimative 467
va@@ 467
vertrau@@ 467
80er 466
camper 466
churches 466
creatures 466
dische 466
fernglas 466
grandparents 466
grundlage 466
kirchen 466
kuchentisch 466
laufband 466
rallye 466
siblings 466
sitzenden 466
six 466
spoke 466
ssen@@ 466
staffel 466
survive 466
swings 466
trained 466
wissenschaft 466
wussten 466
zufallig 466
abgeschlossen 465
ation@@ 465
ations 465
demonstriert 465
entgegen@@ 465
fills 465
gefangnis 465
pflanzung 465
reaktion 465
schnell@@ 465
schwanz@@ 465
sitzungssaal 465
skate 465
sm@@ 465
traditionell 465
yours 465
bake 464
enormous 464
flour 464
gro@@ 464
hochland 464
huhn 464
pavillon 464
pics 464
siert 464
sights 464
umbau 464
verdient 464
veteranen 464
blondine 463
blutenblatter 463
decades 463
geschnitzten 463
getranken 463
goldfish 463
großstadt 463
olivenol 463
pebble 463
promoting 463
schaft 463
schlangen 463
slogans 463
sticht 463
trotzdem 463
wig 463
dert 462
donnerstagabend 462
funf 462
giraffes 462
hip-hop-soul-kunstler 462
mx 462
normalerweise 462
organized 462
pel@@ 462
siedlung 462
stoppt 462
turmen 462
werkzeugen 462
bene 461
compared 461
competitors 461
crescent 461
felsformation 461
funktionieren 461
hinuntergeht 461
irgendwie 461
kunststoff@@ 461
lieferung 461
nussen 461
ors 461
packing 461
rauchen 461
rekord 461
schein@@ 461
seeufer 461
speeding 461
stisches 461
weltweit 461
wortern 461
britische 460
fotografie 460
fotoshooting 460
handzeichnung 460
ised 460
ivory 460
jo@@ 460
lazy 460
leaders 460
meadows 460
midfielder 460
mosaik@@ 460
nahmaschine 460
particular 460
schie@@ 460
upstairs 460
app-symbol 459
baches 459
balancing 459
beating 459
chs 459
coated 459
eisbaren 459
espresso 459
fragt 459
gei@@ 459
gestreiftem 459
großartiges 459
heißt 459
hochzeitsfotografen 459
image@@ 459
manikure 459
markierungen 459
ponds 459
prahlt 459
rauch@@ 459
safely 459
spezielles 459
uberdauert 459
untergehenden 459
wahl@@ 459
winterliche 459
50. 458
beigen 458
bergsee 458
diagonal 458
gefrorene 458
ized 458
partnerschaft 458
pounds 458
rollenden 458
sew 458
strahlenden 458
tasty 458
themen 458
thunderstorm 458
trennt 458
windmuhlen 458
zahlen@@ 458
( 457
-illustration 457
8. 457
aspen 457
bedding 457
chilly 457
doppelter 457
farbener 457
feeds 457
flugzeugfenster 457
frostigen 457
grau@@ 457
italienische 457
ketten 457
linge 457
oz 457
priest 457
prison 457
reißverschluss 457
sommerliche 457
stischer 457
viertes 457
windowsill 457
2.@@ 456
australischer 456
creations 456
elefanten@@ 456
england 456
enthullte 456
eri@@ 456
essay 456
feuert 456
full@@ 456
geha@@ 456
gesunder 456
gleisen 456
glove 456
harvester 456
knit 456
lanes 456
lassig 456
liebevoll 456
meditiert 456
naht 456
none 456
pagoda 456
schritten 456
siebten 456
speck 456
travelers 456
wurfeln 456
chopping 455
dank 455
degrees 455
ermoglichen 455
ermoglicht 455
feeder 455
glases 455
goose 455
herunter@@ 455
igem 455
internationale 455
issues 455
karren 455
kirchturm 455
meme 455
rooftops 455
stems 455
zeichentrick@@ 455
altitude 454
blieb 454
dramatischer 454
elling 454
ereignisse 454
flamingos 454
gap 454
gefesselt 454
hecke 454
rahmens 454
wol@@ 454
9. 453
= 453
barrels 453
buried 453
caravan 453
gh@@ 453
inaugural 453
jellyfish 453
legende 453
newspapers 453
overalls 453
parlamentarische 453
schaf 453
senden 453
verteidigt 453
vorstadt 453
wappen 453
wasserflasche 453
afro 452
arrangements 452
external 452
geh@@ 452
gter 452
guards 452
importance 452
literary 452
pped 452
silberfarbenen 452
theater@@ 452
traveler 452
video@@ 452
wohn- 452
absatzen 451
catcher 451
cigar 451
flussabwarts 451
fy 451
halter 451
iced 451
irgendjemand 451
landscapes 451
medaillen 451
neat 451
parent 451
peonies 451
preschool 451
schlagzeug 451
spielerin 451
stri@@ 451
viertelfinale 451
brise 450
chosen 450
circus 450
claims 450
descending 450
einbaum 450
ell@@ 450
gelb@@ 450
grafischen 450
hirsche 450
korpers 450
kostenloses 450
leidenschaft 450
paying 450
stadien 450
untersuchung 450
viewer 450
autofahren 449
einkaufer 449
fel@@ 449
gestreifte 449
gotteshauses 449
grouping 449
lebensmittel@@ 449
mirrored 449
neunten 449
p-@@ 449
probt 449
richtet 449
tours 449
unkraut 449
wax 449
westseite 449
baseballmutze 448
baus 448
buchen 448
flauschigen 448
fledermaus 448
hei@@ 448
insekt 448
kannst 448
kellner 448
landwirt 448
nadel 448
overlook 448
peaches 448
protein 448
schneller 448
tung 448
veterans 448
vordere 448
academic 447
avatar 447
bahn@@ 447
breiter 447
clover 447
decker 447
dieselbe 447
erbauer 447
evergreen 447
gemeinsame 447
gluhbirnen 447
journalisten 447
linse 447
magie 447
makro@@ 447
melting 447
ottoman 447
pe 447
plunging 447
reportedly 447
russian 447
spezialitaten 447
verschneite 447
wishes 447
caves 446
comedyfilm 446
eichen 446
entwickeln 446
foreign 446
fußball-@@ 446
pyramids 446
reached 446
reprasentieren 446
schweine 446
snowboard 446
stam@@ 446
stilvoller 446
terraces 446
uberfullten 446
ankam 445
bartender 445
bereichs 445
console 445
correct 445
defeating 445
fertig@@ 445
fil@@ 445
fleet 445
heuballen 445
hooded 445
hunt 445
inauguration 445
internal 445
iti@@ 445
joining 445
linen 445
meeres@@ 445
naturlichem 445
schuf 445
softball 445
sor@@ 445
staat@@ 445
zusammensetzung 445
count 444
eclectic 444
gedenk@@ 444
iguana 444
lagerung 444
perucke 444
plush 444
sten@@ 444
studiohintergrund 444
surreal 444
ta 444
towns 444
1080p 443
alt@@ 443
beigem 443
beleuchteten 443
bullet 443
council 443
edelmann 443
fernsehautor 443
kunstlerische 443
live-@@ 443
metallisch 443
ness 443
nt 443
onion 443
schmerzen 443
sech@@ 443
sha@@ 443
ubrig 443
weighing 443
weine 443
zelte 443
45 442
500@@ 442
architekt 442
awarded 442
bezug 442
blurry 442
explode 442
gearbeitet 442
increase 442
mailbox 442
ordinary 442
pope 442
replik 442
salz 442
shy 442
strap 442
sturzen 442
swamp 442
tatowierer 442
teach 442
teammate 442
aufzug 441
blumenmadchen 441
derselben 441
dozen 441
entered 441
enthullen 441
erfolgreiche 441
herzformigen 441
initial 441
lar@@ 441
lt 441
m2 441
makroaufnahme 441
mten 441
nordwesten 441
ostseite 441
personenzug 441
polizeibeamte 441
pommes 441
prominent 441
sounds 441
sprin@@ 441
stacks 441
studioaufnahme 441
unbekannte 441
veroffentlichung 441
worlds 441
writes 441
2016 440
akzenten 440
angebracht 440
angezogen 440
beliebtes 440
browsing 440
drought 440
fridge 440
gedruckt 440
gelegen 440
horn 440
hupft 440
infinity 440
ponytail 440
portfolio 440
riss 440
schlug 440
teppichs 440
vases 440
weinen 440
zucker@@ 440
aussichtsplattform 439
businessanzug 439
classes 439
computer@@ 439
estimated 439
fs 439
launches 439
neben@@ 439
nor@@ 439
opfer 439
pancakes 439
reinigt 439
reist 439
seiden@@ 439
son@@ 439
spe@@ 439
suffering 439
teuerste 439
wohin 439
zierte 439
zierten 439
zuckerguss 439
admiring 438
anpfiff 438
attendees 438
bener 438
cab 438
detailing 438
edelstahl@@ 438
gurken 438
guterzug 438
halbinsel 438
hatched 438
kilometer 438
klassiker 438
marienkafer 438
obergeschoss 438
party@@ 438
profiboxer 438
regenschirmen 438
stirn 438
tausenden 438
trau@@ 438
umhang 438
unfall 438
useful 438
zip 438
centuries 437
dart 437
doubt 437
fastest 437
fliegender 437
freundschaften 437
gerichtet 437
großeltern 437
kokospalmen 437
konigreich 437
konkurrenz 437
kuhnen 437
laufenden 437
m-@@ 437
paprika 437
symptom 437
vorsaisonalen 437
zweimal 437
amphitheater 436
bases 436
beast 436
delivering 436
eiskalte 436
emotion 436
flotte 436
geradeaus 436
heißem 436
lowen@@ 436
magischen 436
plateau 436
potted 436
queue 436
railing 436
separated 436
slo@@ 436
bangs 435
bettwasche 435
boo@@ 435
fedora 435
herab@@ 435
holzschild 435
interessant 435
jahr@@ 435
kites 435
mound 435
municipality 435
pagode 435
pebbles 435
pushed 435
secure 435
showcases 435
stranden 435
turnschuhe 435
undatierten 435
zucchini 435
zwecke 435
21st 434
abendsonne 434
adapted 434
af@@ 434
aufgereiht 434
businesses 434
demand 434
drug 434
ele@@ 434
erkaltung 434
explodiert 434
flachem 434
herrlichen 434
himbeeren 434
jazz@@ 434
lieblich 434
liefer@@ 434
loser 434
observatory 434
powerpoint 434
pyramiden 434
rohr 434
shabby 434
successfully 434
verdienen 434
zing 434
basilica 433
blues-kunstler 433
brass 433
chief 433
cupid 433
dinosaurs 433
endem 433
erfolgreicher 433
geb@@ 433
hintere 433
ler@@ 433
leuchtreklame 433
linker 433
monks 433
ping 433
sierte 433
sprecher 433
stadtlandschaft 433
swimmers 433
technique 433
€ 433
baseball-spieler 432
belebte 432
droplets 432
einzelnes 432
elevator 432
eulen 432
fahigkeiten 432
feinen 432
gain 432
gegenstand 432
grunder 432
hinrunde 432
jubeln 432
kabel 432
kleineren 432
midi 432
neutrale 432
pilgrims 432
schaffung 432
seien 432
tannenzapfen 432
tauschen 432
teilzunehmen 432
trekking 432
2,@@ 431
apply 431
architektur@@ 431
assembly 431
ational 431
australischen 431
backstein@@ 431
departure 431
fußball-teammanager 431
geschmuckte 431
knocked 431
mache 431
piloten 431
ruf 431
sideline 431
steinhaus 431
stylisch 431
ure 431
waldboden 431
windkraftanlage 431
besuchern 430
dehnt 430
dresser 430
erfahren 430
finest 430
jacken 430
krauter 430
lilien 430
peppers 430
schlanke 430
sonst 430
ssing 430
thinks 430
tv-sitcom 430
uni@@ 430
verheiratet 430
weich 430
alter@@ 429
atelier 429
atrium 429
baumwoll@@ 429
comfy 429
crushed 429
endrunde 429
festungen 429
fußballmannschaften 429
kalligraphen 429
lei@@ 429
lockigem 429
millions 429
paar@@ 429
pflugt 429
schnitt@@ 429
spare 429
transformation 429
uberfliegen 429
vorgeschlagenen 429
ziffern 429
-kunstler 428
bereichen 428
besichtigung 428
ch-@@ 428
crashed 428
demonstrant 428
favoriten 428
fixture 428
gekocht 428
grungy 428
installing 428
korallen@@ 428
kreisverkehr 428
makro 428
modeled 428
musst 428
privatschule 428
soaring 428
stattfindet 428
thread 428
upset 428
verstreut 428
wischt 428
antennen@@ 427
automesse 427
cken@@ 427
closely 427
controlled 427
dirigiert 427
eventually 427
exchange 427
failed 427
falschen 427
farbschema 427
fuhle 427
gebiete 427
gedacht 427
gruseligen 427
guitars 427
hopes 427
kniet 427
kommerzielle 427
komplexes 427
monk 427
monochromen 427
needles 427
patrouillieren 427
researchers 427
roboters 427
rustikales 427
scratch 427
sie@@ 427
underway 427
handed 426
hardrockkunstler 426
hohenkarte 426
jpeg 426
klapp@@ 426
klares 426
kleides 426
lager@@ 426
linked 426
narzissen 426
pork 426
preises 426
zug@@ 426
11th 425
anschluss 425
balanced 425
basketballtrainer 425
capturing 425
cricket@@ 425
dripping 425
endangered 425
gated 425
humpback 425
otherwise 425
privatem 425
pt 425
rie@@ 425
stole 425
taglich 425
zer 425
zerstorten 425
charakters 424
connection 424
curry 424
ecken 424
ergebnis 424
football-team 424
funkelnden 424
gange 424
hauptplatz 424
innerhalb 424
konzeptkunst 424
korbe 424
optionen 424
rod 424
rodeo 424
sonnige 424
steigung 424
stru@@ 424
submerged 424
trumpet 424
versand 424
weicher 424
automobil 423
besen 423
dying 423
install 423
instant 423
ja@@ 423
joggen 423
kombinieren 423
lean 423
platzen 423
sharks 423
trummern 423
vollem 423
vorzubereiten 423
weisen 423
apparently 422
behinderte 422
birken 422
dekoratives 422
diges 422
entsprechend 422
fairway 422
fernsehprogramms 422
grandson 422
kaffee@@ 422
minus 422
rostigen 422
schildern 422
slums 422
society 422
speziell 422
stal@@ 422
stan@@ 422
strandhaus 422
stunned 422
teilten 422
tying 422
ubernommen 422
uberzogen 422
verjungungskur 422
2015 421
assistant 421
bathing 421
editorial 421
eintritt 421
farbpalette 421
freizeitpark 421
header 421
leafs 421
malerin 421
passe 421
pferdeschwanz 421
pottery 421
providing 421
schematische 421
sticky 421
tonne 421
adopted 420
authentic 420
baseballspieler-pitches 420
basilika 420
dly 420
entwerfen 420
festspielen 420
gesichts@@ 420
linebacker 420
malte 420
motorradern 420
neo-soul-kunstler 420
policeman 420
respect 420
schachbrett 420
schlu@@ 420
seals 420
segment 420
steile 420
stellten 420
surroundings 420
tractors 420
wines 420
wirkung 420
ws 420
ationen 419
attraktionen 419
baumeister 419
boxers 419
chemische 419
commissioned 419
divided 419
erstellt 419
ex 419
farbenes 419
flattern 419
footwear 419
hedgehog 419
moral 419
nebel@@ 419
ortes 419
platinum 419
prize 419
traumt 419
9b 418
alphabets 418
begeistert 418
chopped 418
conducted 418
cube 418
embankment 418
fuel 418
participates 418
pinkfarbenen 418
schuh@@ 418
sparkle 418
staatsmann 418
stapeln 418
steten 418
surgeon 418
wanduhr 418
wowed 418
-team 417
anonymous 417
auditorium 417
collie 417
friedensaktivist 417
gesperrt 417
himmelshintergrund 417
hummer 417
imp@@ 417
intense 417
interested 417
jets 417
kol@@ 417
musikvideokunstler 417
pfeile 417
pol@@ 417
powerpoint-vorlage 417
schaf@@ 417
setup 417
slot 417
steady 417
stylische 417
wallpapers 417
ac@@ 416
apfelbaum 416
apps 416
await 416
drag 416
dunkles 416
fett 416
gr@@ 416
innenarchitekten 416
kleinste 416
komm@@ 416
pockets 416
shouting 416
triumph 416
versammlung 416
affair 415
aluminum 415
apron 415
calculator 415
crafted 415
dreiecke 415
dutch 415
einhorn 415
elch 415
erend 415
frauenhand 415
fußballspielern 415
garbage 415
großartiger 415
malermeister 415
mess 415
nis 415
preliminary 415
teter 415
uberblick 415
uhrturm 415
zigaretten 415
ably 414
barbie 414
beutel 414
farbtonen 414
formula 414
geparden 414
gluckwunsch 414
high-@@ 414
jumpsuit 414
kunstzeit 414
maul 414
mittel 414
plastik 414
rehearsals 414
strauch 414
tulpe 414
antennenvideo 413
atem 413
beruhmtesten 413
bisher 413
epoche 413
fackel 413
gener@@ 413
gondola 413
hoffen 413
jungste 413
lektion 413
litter 413
moderator 413
observation 413
personlichkeit 413
premierenvorfuhrung 413
restaurierung 413
rotation 413
roundabout 413
strandpromenade 413
wandering 413
windshield 413
winterpark 413
zirkus 413
zusehen 413
amc 412
beschadigten 412
blues-@@ 412
claimed 412
corrugated 412
divers 412
finishes 412
hartholzboden 412
ils 412
konzentriert 412
kopierabstand 412
landwirtschaftlichen 412
lawyer 412
leaps 412
mediterranean 412
meerwasser 412
regenbogen@@ 412
religionsfuhrer 412
stamme 412
verruckten 412
wheelbarrow 412
appartements 411
aussehende 411
baumzweige 411
blumentopf 411
danksagung 411
fetten 411
gassen 411
geld@@ 411
kopfen 411
krippe 411
ma 411
mannigfaltige 411
meist 411
niedrigem 411
ori@@ 411
sternbild 411
zarte 411
21. 410
35@@ 410
amidst 410
armellosen 410
autonomous 410
blin@@ 410
contrasting 410
entwirft 410
far@@ 410
fore@@ 410
form@@ 410
gardening 410
koalas 410
kreationen 410
kreativ 410
meter@@ 410
moderiert 410
portratsession 410
quad 410
sedan 410
shaded 410
smashed 410
tageslicht 410
tetes 410
18k 409
abschlag 409
dun@@ 409
fluglinie 409
gefullten 409
gerin 409
gesaumt 409
grundschule 409
igel 409
logo-symbol 409
medi@@ 409
off@@ 409
pigeon 409
planung 409
plaster 409
reben 409
speisekarte 409
stammen 409
stande 409
thoughtful 409
vereint 409
wechseln 409
african 408
attendance 408
backlit 408
braunbar 408
bruch 408
claim 408
einfachem 408
elaborate 408
fixed 408
ing@@ 408
krebs 408
lon@@ 408
mausoleum 408
orchids 408
partners 408
polizist 408
prices 408
printmaking 408
scientific 408
skizzenstil 408
stadtischen 408
stitch 408
supporter 408
vektorsatz 408
verkauf@@ 408
volks@@ 408
ausbildung 407
donuts 407
drifting 407
gegenwart 407
grapefruit 407
keramik 407
liked 407
pan@@ 407
portable 407
schubkarre 407
seide 407
ser 407
sonnt 407
sportliga-meisterschaft 407
standorte 407
symbolic 407
30th 406
90s 406
adventures 406
beanie 406
bearbeitet 406
circuit 406
depicted 406
glittering 406
kamm 406
koniglich 406
offshore 406
renovierten 406
rosafarbenes 406
smog 406
starb 406
wat@@ 406
wen 406
ß@@ 406
99 405
aufschrift 405
bartigen 405
daffodils 405
distinctive 405
dragonfly 405
feast 405
fer 405
firmen@@ 405
fru@@ 405
gipfels 405
herbstpark 405
insel@@ 405
italienischen 405
kleinstadt 405
knopfen 405
meereskuste 405
metallic@@ 405
mountainbiker 405
nachtliche 405
pferdekutsche 405
piled 405
pilger 405
preis@@ 405
significant 405
stischen 405
trips 405
veranderungen 405
3.@@ 404
adlers 404
barem 404
beers 404
danach 404
knoblauch 404
lacrosse 404
linkshander 404
nassen 404
quadrate 404
rounds 404
schrei@@ 404
stopp 404
stroh 404
wider@@ 404
wil@@ 404
barkeeper 403
bling 403
ct@@ 403
dasselbe 403
dutzend 403
evidence 403
exact 403
geschafft 403
knie@@ 403
kuchendesign 403
lamb 403
liedermacher 403
lover 403
mail 403
mer 403
merkmal 403
schachteln 403
tals 403
verlassener 403
wohnzimmerdesigns 403
zeitalter 403
1920x1080 402
600 402
anstrich 402
antiquitaten@@ 402
begleiter 402
beschreibung 402
bettes 402
fertigstellung 402
glazed 402
granit@@ 402
holzernes 402
hues 402
kangaroo 402
kohl 402
nagellack 402
reported 402
select 402
teens 402
teppiche 402
uberblickt 402
violett 402
abschlusszeremonie 401
aquarell-illustration 401
bewolktem 401
brighten 401
defenceman 401
diaper 401
eichen@@ 401
endet 401
ergebnisse 401
ernahrt 401
fahrrads 401
gel 401
gendes 401
ginger 401
handflache 401
hase 401
liebes@@ 401
mexican 401
portemonnaie 401
radi@@ 401
rank 401
remodel 401
sailor 401
secrets 401
simplicity 401
stamm@@ 401
supply 401
akzent 400
bil@@ 400
eaten 400
ernsthaft 400
furry 400
geschaft@@ 400
influence 400
konferenzraum 400
krabbe 400
misst 400
orchestra 400
satellitenkarte 400
slam 400
smokey 400
viertel@@ 400
zoomen 400
auftritte 399
bastelt 399
countdown 399
einfluss 399
einkaufszentrums 399
erei 399
foderale 399
footbridge 399
gospel 399
heeled 399
kingdom 399
lauscht 399
lers 399
massen@@ 399
seh@@ 399
stoppschild 399
stylist 399
tidal 399
trager 399
yawning 399
aller@@ 398
clients 398
dreamy 398
eingefuhrt 398
fegt 398
folding 398
gal@@ 398
geformten 398
geliefert 398
nennen 398
racket 398
rv 398
schaum 398
sonnenblumenfeld 398
stromung 398
sudlich 398
torjubel 398
trikots 398
95 397
answers 397
eingangstur 397
erst 397
familienportrat 397
hauptplakat 397
hy@@ 397
kaukasischen 397
klinik 397
kuhle 397
mixer 397
rinder 397
slogan 397
spa@@ 397
zeitungen 397
anzieht 396
bikers 396
butter@@ 396
char@@ 396
chin 396
dash 396
disco 396
dy 396
gesamt@@ 396
grunge-@@ 396
handout 396
mannequin 396
moody 396
parfum 396
saddle 396
schutzt 396
sommerurlaub 396
till 396
vegetarian 396
zarten 396
ability 395
antikes 395
beleuchtete 395
boschung 395
chtet 395
cigarettes 395
darker 395
din@@ 395
entkommen 395
favorit 395
finde 395
founded 395
gelernt 395
glocken 395
holzboot 395
kajakfahren 395
marchen@@ 395
nationales 395
operatic 395
prefer 395
prophet 395
pump 395
reisfelder 395
riverside 395
sanddune 395
schu@@ 395
sekret 395
specific 395
straßenlaterne 395
tatort 395
teichs 395
tolle 395
touristen@@ 395
trennen 395
uberfluteten 395
ul@@ 395
abhebt 394
ars 394
basketballplatz 394
bouquets 394
cs 394
exotischen 394
fringe 394
gesammelt 394
geschmuckter 394
hangende 394
instruments 394
kippen 394
letting 394
monarchin 394
motiv 394
nordseite 394
orchideen 394
pflanzt 394
prove 394
puppe 394
rauer 394
schlaf 394
seltener 394
tierheim 394
wirbel@@ 394
wise 394
anwendung 393
bestand 393
cowboyhut 393
eng@@ 393
experten 393
fabrics 393
fotografierte 393
fototag 393
geblieben 393
granddaughter 393
hahns 393
hispanic 393
kleinsten 393
lid 393
rentier 393
sanctuary 393
schaufel 393
secluded 393
sonntagnachmittag 393
statten 393
stoppen 393
tastes 393
temperatur 393
unterseite 393
wetteifert 393
zeigefinger 393
besichtigen 392
deck@@ 392
diger 392
eagles 392
enkelin 392
fehl@@ 392
fol@@ 392
fußballfans 392
goaltender 392
gtes 392
hindurch 392
kameramann 392
kaukasischer 392
kern@@ 392
mitgliedsorganisation 392
origami 392
pomegranate 392
reste 392
schlanken 392
shut 392
ubergangs@@ 392
vertrag 392
vineyards 392
ansehen 391
blocken 391
clo@@ 391
dokument 391
erheben 391
erungen 391
fantasie 391
fiktionaler 391
kiefern@@ 391
nagelkunst 391
nte 391
reichweite 391
stacheldraht 391
torhuter 391
traube 391
y-@@ 391
apfel@@ 390
baumkronen 390
bri@@ 390
decide 390
dozens 390
gebirgs@@ 390
hauskatze 390
helikopter 390
kunstausstellung 390
lockigen 390
nutz@@ 390
panoramische 390
quar@@ 390
ragen 390
raspberries 390
schlepper 390
skylight 390
trockenes 390
vorfall 390
90@@ 389
anfangen 389
causing 389
detes 389
eigenschaft 389
flagpole 389
gemalden 389
imagegewinn 389
kaffeebecher 389
ky 389
nationalparks 389
nobody 389
noten 389
party-@@ 389
por@@ 389
retaining 389
rustikalem 389
schlafenden 389
shovel 389
stromleitungen 389
teetasse 389
unitary 389
weinflaschen 389
arabic 388
beitrag 388
brennpunkt 388
business-team 388
gste 388
handful 388
lavish 388
quellen 388
rebe 388
retreat 388
schnur 388
seltenen 388
sparschwein 388
territorium 388
trockener 388
ubersat 388
vorsichtig 388
web@@ 388
wrench 388
air@@ 387
algae 387
anische 387
ausruhen 387
besitzt 387
bracelets 387
cappuccino 387
cosplay 387
dramafilm 387
fame 387
flea 387
helicopters 387
kontrollieren 387
lichtstrahlen 387
particularly 387
ppe 387
presenter 387
projektes 387
tortoise 387
ubernimmt 387
zuruckzu@@ 387
zweck 387
33 386
airy 386
bestandteil 386
bier@@ 386
bin@@ 386
blut@@ 386
dachterrasse 386
dekorationsideen 386
deliver 386
einheiten 386
electronics 386
entweder 386
fasten 386
foderalen 386
fruhmorgendlicher 386
game@@ 386
gleichzeitig 386
herzustellen 386
isches 386
kleiderbugel 386
root 386
schmetterlings@@ 386
seitlich 386
upgrade 386
vorstellen 386
welchem 386
wishing 386
architects 385
bade@@ 385
beilage 385
beruhmter 385
bespoke 385
besuchten 385
dicker 385
doppelten 385
engels 385
excellent 385
fach@@ 385
faser 385
foto-sharing 385
geschaftige 385
gratuliert 385
hlen 385
klassen@@ 385
kohle 385
mane 385
mat 385
metre 385
ruin 385
touchdown-pass 385
unterstutzern 385
vet 385
zeu@@ 385
bandage 384
bbq 384
biking 384
breast 384
cowgirl 384
donkeys 384
eingebaut 384
etched 384
haufig 384
klang 384
lobster 384
metallkunstler 384
mystery 384
nung 384
profil@@ 384
queensize-bett 384
reeds 384
required 384
seltsam 384
sprach 384
strauchern 384
stuhls 384
teilnahme 384
trafen 384
traktoren 384
volkskunstler 384
attitude 383
backwards 383
chter 383
dunkelblauem 383
enkel 383
fern@@ 383
freestyle 383
gebackene 383
gers 383
grabt 383
homerun 383
hr 383
kugel@@ 383
mmen 383
paarungen 383
pylon 383
stechen 383
sudseite 383
taglichen 383
urlaubs@@ 383
vermietung 383
wichtiger 383
zifferblatt 383
birne 382
cardinal 382
challenged 382
darbietungen 382
grizzlybar 382
harter 382
ladens 382
leinwande 382
pleated 382
reverse 382
schieberegler 382
schlage 382
smoked 382
tennisball 382
umlaufbahn 382
antlers 381
designing 381
gewurzen 381
kalt 381
kreisformigen 381
mahne 381
mayor 381
moglicherweise 381
mossy 381
motorradliste 381
offnete 381
pfeffer 381
schraffierte 381
smo@@ 381
stor@@ 381
streichelt 381
technical 381
vektorset 381
2017 380
aufwachen 380
beliebten 380
breites 380
dazzling 380
exemplar 380
fertiggestellt 380
fitness@@ 380
floraler 380
großartigen 380
kel@@ 380
krautern 380
mangrove 380
mohnblumen 380
morgenstunden 380
nadel@@ 380
nordosten 380
nut 380
packen 380
ranked 380
rechtsaußen 380
sleeveless 380
spo@@ 380
ssene 380
treasure 380
waking 380
wildes 380
airplanes 379
ansieht 379
ativen 379
duvet 379
eishockey 379
entertaining 379
ernten 379
god 379
identify 379
ily 379
jenseits 379
ladybug 379
manor 379
nicely 379
potter 379
preserved 379
quadrat@@ 379
sturmen 379
toller 379
tonnen 379
topfen 379
uralte 379
wahrungen 379
zapfen 379
aside 378
bells 378
beloved 378
beschadigte 378
bolt 378
completion 378
doubles 378
funk 378
innenseite 378
interagieren 378
konflikts 378
lichsten 378
nachte 378
romanze 378
schen@@ 378
shady 378
slider 378
sorry 378
spat 378
tend 378
weißwein 378
woll@@ 378
aufhangen 377
auflistung 377
auslosen 377
cricketspiel 377
faded 377
fokussiert 377
goldmunzen 377
herbstes 377
herbstlaub 377
judges 377
obsessed 377
rails 377
runter 377
schaufensterpuppe 377
schrauben 377
shingle 377
stammes@@ 377
stati@@ 377
verruckte 377
youngster 377
28@@ 376
50s 376
artikeln 376
auszeit 376
flamingo 376
fruhes 376
getotet 376
gewahlt 376
glamourose 376
handedruck 376
handgefertigte 376
hoffe 376
illustrative 376
keksen 376
langsamen 376
luxu@@ 376
rein 376
schte 376
screened 376
sommerzeit 376
tagliche 376
uberraschung 376
a-yard 375
baumwolle 375
bewaffneten 375
cellar 375
ck-@@ 375
debate 375
forested 375
frosted 375
futuristische 375
gegrundet 375
gemischter 375
goldfische 375
hauchdunnen 375
hohes 375
kratzt 375
kuchenschranke 375
lass 375
martini 375
monsters 375
pilzen 375
planks 375
pudding 375
regi@@ 375
rockt 375
silent 375
spaniel 375
taschenuhr 375
vektoren 375
vorbeifahrt 375
attire 374
braided 374
cables 374
erer 374
et 374
fahigkeit 374
henna 374
idyllic 374
impossible 374
kopfuber 374
marken 374
nowhere 374
operationssaal 374
pfote 374
rohe 374
roo@@ 374
sanierung 374
segel@@ 374
spreading 374
survey 374
trust 374
uberdachte 374
versammelte 374
verursacht 374
viewpoint 374
ants 373
auftrag 373
bezahlen 373
bs 373
ceremonies 373
damals 373
damask 373
digitalem 373
gestromte 373
lilie 373
lucke 373
matador 373
nachdenken 373
packaging 373
reminiscent 373
reparieren 373
secondary 373
seltsamen 373
sh 373
silly 373
soße 373
sprachen 373
stricken 373
tenen 373
tot 373
welchen 373
welcomes 373
zylinder 373
acting 372
applaudiert 372
attraktion 372
casts 372
causes 372
citrus 372
curb 372
dandelions 372
dischen 372
dvd 372
grußen 372
herab 372
hergestellt 372
herrlich 372
independent 372
interviewt 372
karneval 372
kt@@ 372
kunstlichen 372
motiven 372
odd 372
olympischer 372
ostrich 372
rate 372
reli@@ 372
seaweed 372
shift 372
taucher 372
transportieren 372
vanilla 372
weeds 372
western@@ 372
wolkenbruch 372
zahl@@ 372
14k 371
agriculture 371
audienz 371
bel 371
depression 371
elegantes 371
erkundung 371
fluge 371
gleichgewicht 371
gri@@ 371
halbmond 371
kucheninsel 371
militarparade 371
objekten 371
packt 371
solarpaneele 371
tropft 371
ultra 371
wahlte 371
websitekategorie 371
basking 370
charges 370
cola 370
courthouse 370
elled 370
familienfotos 370
gegenstande 370
gegessen 370
hosting 370
kapit@@ 370
kin@@ 370
kleidungsstucken 370
minze 370
neighbors 370
partie 370
pens 370
rocken 370
washes 370
wimpern 370
wirken 370
zugen 370
^ 369
appropriate 369
austern 369
beweisen 369
bulle 369
cker 369
erected 369
faulen 369
fig 369
galaxien 369
gewebe 369
hochzeitseinladung 369
hofes 369
kahlen 369
kti@@ 369
ligaspiels 369
prachtvolle 369
putts 369
regenschirme 369
sachen 369
steppdecke 369
symbol@@ 369
wahrung 369
wickets 369
zitronen@@ 369
11. 368
benefizkonzert 368
bet 368
beweis 368
blogs 368
charmanten 368
delicious 368
durchfuhrt 368
echter 368
erhobenen 368
fels@@ 368
flussen 368
gespendet 368
gestapelt 368
holzernem 368
hren 368
krank 368
kun@@ 368
lifetime 368
lkws 368
marchen 368
mountainous 368
offentliches 368
schlammigen 368
seifenblasen 368
status 368
stressed 368
turm@@ 368
whipped 368
wintersturm 368
bikini 367
discovery 367
ernst 367
geo@@ 367
geparkten 367
helden 367
heraldic 367
kommende 367
lokal 367
mental 367
migranten 367
paarung 367
padlock 367
pillars 367
stille 367
stran@@ 367
tanzenden 367
teenagermadchens 367
tierten 367
tollen 367
tupfen 367
vibe 367
wollten 367
zweiter 367
4x@@ 366
befindlichen 366
biografischen 366
ehering 366
foil 366
friedlichen 366
gorge 366
hinterlassen 366
immediately 366
kariertem 366
knopfe 366
kommunikation 366
moderni@@ 366
oceans 366
optik 366
polygonal 366
seltenes 366
spraying 366
uberspannt 366
chor 365
dyed 365
geduldig 365
hipster-@@ 365
kanadische 365
krankenhausbett 365
niedrig 365
normally 365
peanut 365
pillen 365
pulver 365
raining 365
siegtor 365
stadtsilhouette 365
stretched 365
threw 365
topper 365
trolley 365
wunderbaren 365
aufsteigen 364
bilderrahmen 364
buntstifte 364
chocolates 364
discusses 364
encyclopedia 364
eroffnungsveranstaltung 364
experts 364
generations 364
isometrische 364
leoparden 364
mic 364
mobilen 364
neujahr@@ 364
picknicktisch 364
piles 364
posts 364
professionelle 364
rotates 364
saßen 364
sources 364
subfamily 364
usa 364
youngest 364
ziger 364
city@@ 363
ehemaliges 363
geladen 363
geographischer 363
gezwungen 363
investment 363
kinos 363
markte 363
ment 363
modellen 363
permanent 363
printable 363
repairing 363
savanna 363
schurze 363
sehenswurdigkeiten 363
snakes 363
stete 363
torte 363
tow 363
transporter 363
umher 363
volunteer 363
vorbereitungen 363
zumindest 363
bautatigkeit 362
blinds 362
engineers 362
extensive 362
firework 362
formerly 362
getonten 362
grassland 362
klassischem 362
krane 362
kranken 362
lesung 362
live-konzert 362
mobil@@ 362
philosoph 362
refurbished 362
signalisiert 362
sonntagmorgen 362
sparks 362
trag@@ 362
wolfes 362
afraid 361
barte 361
begannen 361
bestellen 361
clocks 361
cry 361
description 361
developer 361
diskussion 361
drucke 361
endzone 361
entstehen 361
erhobenem 361
ferns 361
framing 361
gleitet 361
introduction 361
marktgemeinde 361
medien@@ 361
outback 361
platzieren 361
quarters 361
rid 361
scuba 361
solitary 361
supported 361
timbered 361
verteidigung 361
warrior 361
wohnzimmer@@ 361
acts 360
ately 360
beetle 360
bengal 360
berichten 360
betrieben 360
boots@@ 360
chipmunk 360
components 360
cucumber 360
curled 360
eiswurfel 360
ern@@ 360
foothills 360
fw15 360
glowed 360
heil@@ 360
herauszufinden 360
ill 360
istanbul 360
ktion 360
ously 360
pfingstrose 360
practices 360
premieren@@ 360
prix 360
rasenmaher 360
redet 360
schaute 360
schten 360
segelschiff 360
silberfarben 360
sonnen 360
striker 360
stroller 360
tennisturnier 360
toasting 360
verletzungen 360
wireless 360
zwillinge 360
abhangen 359
akti@@ 359
attrappe 359
business-@@ 359
cello 359
diamantring 359
elektroauto 359
expansion 359
fass 359
fliesenboden 359
ganzes 359
geschaftsviertel 359
hautengen 359
icing 359
kinn 359
kontur 359
lenkt 359
mohren 359
papst 359
praline 359
reißt 359
rouge 359
schaften 359
stripped 359
trenchcoat 359
ums 359
verfallenen 359
verwirrt 359
weihnachtsk@@ 359
wert@@ 359
wickeln 359
wildtiere 359
wodurch 359
woke 359
basketballspitzengarde 358
bronzeskulptur 358
chende 358
chewing 358
cousin 358
delight 358
fahrten 358
franzosischen 358
headboard 358
herbstfarbung 358
holle 358
hook 358
klassisch 358
ledge 358
lieren 358
migrants 358
plakatwand 358
prayers 358
psycho@@ 358
schablone 358
sneak 358
torch 358
trocken 358
whimsical 358
windkraftanlagen 358
zeitpunkt 358
-ikone 357
acker 357
arer 357
bewegungs@@ 357
bildhauer 357
birke 357
candidate 357
charakter@@ 357
deutlich 357
entladen 357
fashions 357
gefahrlich 357
gefuhle 357
generationen 357
gorillas 357
hausgemachte 357
jalousien 357
leser 357
libelle 357
nahtlosem 357
orangefarbenen 357
oysters 357
pears 357
posten 357
rasen@@ 357
rea@@ 357
schokoladenkuchen 357
screenwriter 357
user 357
weizen@@ 357
wochen@@ 357
abbildungen 356
auffallend 356
awareness 356
beide 356
bekannte 356
beliebt 356
boiled 356
dank@@ 356
dump 356
ernde 356
flyer 356
gkeit 356
grasland 356
heißes 356
juvenile 356
kakteen 356
klammert 356
leafy 356
lebendig 356
lotsen 356
necessary 356
plated 356
ritual 356
scheinwerfer 356
seil@@ 356
sheets 356
sparkly 356
stau@@ 356
steuern 356
struggling 356
stupa 356
tv-netzwerk 356
affordable 355
basin 355
betonwand 355
blocking 355
blumenbeet 355
cedar 355
cells 355
economic 355
eitelkeit 355
ensure 355
freezing 355
geschutzten 355
hawk 355
herbstlich 355
ii 355
jug 355
koffern 355
proposal 355
recht@@ 355
reinigung 355
robe 355
stiel 355
straßenkunst 355
tablet-pc 355
tal@@ 355
umwelt 355
wirbeln 355
ausschnittspfad 354
batter 354
bodens 354
cartoonist 354
coa@@ 354
collapsed 354
directs 354
echtes 354
erendes 354
filmautor 354
geformter 354
golfers 354
grillen 354
joyful 354
kissed 354
landkreis 354
layup 354
longboard 354
modest 354
ohr@@ 354
ordered 354
quadraten 354
reports 354
rustikaler 354
schat@@ 354
schleifen 354
schnellste 354
staatsflagge 354
torneo 354
viert 354
4.@@ 353
abstellgleis 353
andrang 353
bes 353
boar 353
caterpillar 353
cob 353
digitally 353
dokumentationen 353
entdeckung 353
farbenfrohes 353
flagship 353
forehead 353
fußballfeld 353
gepaart 353
hur@@ 353
kings 353
mittwochs 353
mod 353
mount 353
nachher 353
poem 353
rotfuchs 353
rudel 353
sekunde 353
spro@@ 353
tens 353
teste 353
trampoline 353
uberdachten 353
verpassen 353
25th 352
angel@@ 352
bestimmen 352
chats 352
chemischen 352
drills 352
gru@@ 352
haube 352
kleider@@ 352
landschafts@@ 352
langzeitbelichtung 352
lehr@@ 352
mannliches 352
royals 352
schlagzeugers 352
severe 352
signatur 352
soccer@@ 352
staffelei 352
straßenecke 352
stur@@ 352
sturmt 352
trainings@@ 352
alle@@ 351
auftaucht 351
box@@ 351
cleans 351
cushions 351
einkaufsstraße 351
false 351
fertigen 351
flankiert 351
flew 351
flugzeug@@ 351
flute 351
fußballplatz 351
gele@@ 351
grafschaft 351
grußkarten 351
hauptdarsteller 351
husky 351
indicating 351
interessantes 351
lichtung 351
medizinischer 351
ortliche 351
religiosem 351
respekt 351
sattel 351
sunken 351
wiederkehrende 351
60s 350
apotheke 350
applauds 350
broom 350
comp@@ 350
departing 350
deter 350
drohnenaufnahmen 350
ette 350
fein 350
forderung 350
glad 350
grasslands 350
kohle@@ 350
kustenstadt 350
launch-party 350
maht 350
messing 350
metallschild 350
nen@@ 350
partly 350
principal 350
redwood 350
signals 350
straßenkunstler 350
stute 350
sustainable 350
theaterstuck 350
vektorkarte 350
believes 349
blase 349
calories 349
comeback 349
familienmitglied 349
folkrock-kunstler 349
gehause 349
gestein 349
getan 349
glei@@ 349
glue 349
handeschutteln 349
kolle@@ 349
kreisformige 349
motors 349
mugs 349
struggle 349
zentrums 349
beinhaltet 348
defence 348
dienstags 348
dumbbells 348
fahnenschwenken 348
hedge 348
heiliger 348
instrumental 348
introduce 348
koch@@ 348
kreativitat 348
monche 348
penny 348
ple@@ 348
rentiere 348
riecht 348
schlosser 348
schnitzereien 348
shattered 348
towels 348
weights 348
26@@ 347
aggressive 347
awaits 347
axe 347
blondes 347
castles 347
cemetery 347
chunky 347
decade 347
determine 347
eucalyptus 347
gewickelt 347
kilt 347
kit@@ 347
moglichen 347
nar@@ 347
oase 347
pfirsiche 347
stabil@@ 347
ungefahr 347
vorhangen 347
wohl@@ 347
workplace 347
zeich@@ 347
31 346
adaptation 346
archaeological 346
braid 346
cosmetics 346
down@@ 346
extra@@ 346
fischerbooten 346
gekennzeichnetes 346
geoffneter 346
gluck@@ 346
karikaturen 346
kolonial@@ 346
linksaußen 346
markt@@ 346
nations 346
nuss 346
pad 346
reproduction 346
saftige 346
sauberes 346
sill 346
slender 346
streichen 346
waisted 346
windpark 346
zeichens 346
ckter 345
denkst 345
diploma 345
dominiert 345
enga@@ 345
fahrers 345
firma 345
gefragt 345
handge@@ 345
handgezeichnet 345
haut@@ 345
info 345
invited 345
kader 345
klub 345
kuhen 345
luxusimmobilien 345
nahrungssuche 345
photographic 345
qualifikationsspiels 345
schließung 345
stiegen 345
submarine 345
tacos 345
watercolour 345
wohl 345
zufahrt 345
animator 344
behauptet 344
beziehungen 344
blade 344
ble@@ 344
charts 344
continents 344
dachshund 344
dekollete 344
eleganter 344
feuerwehr@@ 344
forbidden 344
geschutzter 344
jaw 344
klammern 344
mitarbeitern 344
modified 344
motorists 344
nickerchen 344
reiterin 344
ritter 344
schenkel 344
shing 344
stare 344
taught 344
tauscht 344
weihnachtskugel 344
000 343
abenteuer@@ 343
alike 343
angetrieben 343
attract 343
braun@@ 343
buggy 343
charmante 343
cleared 343
convention 343
crib 343
defenders 343
earned 343
elektronikkunstler 343
eli@@ 343
erfordert 343
forgotten 343
kayaks 343
ladendiebe 343
lichter@@ 343
lie@@ 343
liebe@@ 343
noodles 343
nook 343
oscars 343
pistole 343
poli@@ 343
putter 343
rohre 343
steppe 343
untersuchen 343
vasen 343
verschwindet 343
wandkunst 343
ahornblatt 342
beagle 342
bewegte 342
blumenfeld 342
devil 342
expressions 342
farbtone 342
filmortung 342
flanked 342
frosting 342
fundament 342
generalprobe 342
glacial 342
horizontalen 342
hummingbird 342
jun@@ 342
killer 342
mineral 342
mobiles 342
moderatorin 342
nahr@@ 342
naval 342
pals 342
pantry 342
protester 342
raupe 342
rule 342
schublade 342
spinnennetz 342
team@@ 342
tech 342
therapy 342
turkish 342
typisch 342
umkreisen 342
zugehorigkeit 342
advertisement 341
anti@@ 341
awkward 341
barley 341
blickend 341
brucken@@ 341
closes 341
electronica 341
gener 341
hauschen 341
herbstmorgen 341
heroes 341
housed 341
ished 341
kopfschuss 341
lea@@ 341
leans 341
leg@@ 341
locher 341
mans 341
marsches 341
matched 341
mechanischen 341
regenbogens 341
respond 341
rights 341
schwan@@ 341
sechs 341
stab 341
wustenlandschaft 341
70er 340
ade 340
animationsfilms 340
announce 340
baldachin 340
chairman 340
cheek 340
funkelnde 340
gebirgsbach 340
gitarristen 340
gluhenden 340
kna@@ 340
komodie 340
konigs 340
meeresfruchte 340
ment@@ 340
ponies 340
ratte 340
regelmaßig 340
schickes 340
schmale 340
schwanger 340
seascape 340
sparkles 340
spicy 340
suited 340
triathlon 340
turkisfarbenen 340
ukulele 340
uring 340
ventilator 340
weibliches 340
wunscht 340
abgestellt 339
aufsteigt 339
ausflugs 339
barreled 339
baumstammen 339
bent 339
beschreibt 339
billed 339
diente 339
festivities 339
gadgets 339
headache 339
jung 339
knochel 339
kreuzes 339
linienzeichnung 339
lten 339
orchester 339
pfeil@@ 339
pfosten 339
psychedelic-rock-kunstler 339
raccoon 339
realistischen 339
rundem 339
samt 339
sands 339
schaferhund 339
schmerz 339
senioren@@ 339
szen@@ 339
task 339
unabhangigkeitstag 339
ungewohnlich 339
unveils 339
vertrauen 339
warm@@ 339
2018 338
absatz 338
bambus 338
bargeld 338
benes 338
biting 338
blumengarten 338
boiling 338
bursting 338
colony 338
doktors 338
einweihung 338
embedded 338
fantastische 338
fixing 338
globale 338
hardrock-kunstlers 338
injuries 338
joghurt 338
krallen 338
laufs 338
melted 338
motorboot 338
motto 338
offentlicher 338
perfektes 338
professioneller 338
realitat 338
scheinbar 338
sichern 338
strecken 338
sunsets 338
toothbrush 338
waterhole 338
brunnens 337
chilling 337
chteten 337
costs 337
dont 337
established 337
extensions 337
gib 337
gitarren 337
hochhaus 337
jacuzzi 337
kontakt 337
kriegs@@ 337
kurvenreiche 337
mann@@ 337
misses 337
montagmorgen 337
oatmeal 337
peanuts 337
periodical 337
premierenvorstellung 337
pristine 337
produ@@ 337
pul@@ 337
regenwaldes 337
rostige 337
ruine 337
sommerlicher 337
souvenirladen 337
topfe 337
trainingslager 337
tulle 337
u-bahn-@@ 337
umkleidekabine 337
ured 337
zombies 337
bergrucken 336
blattert 336
bootstour 336
driftwood 336
flieder 336
kehren 336
leckerbissen 336
pflegt 336
quiz 336
reicher 336
representation 336
robuste 336
saal 336
schmelzen 336
sectional 336
sicht@@ 336
soda 336
sterns 336
tailored 336
tierbilder 336
tierfotos 336
upfront 336
wandelt 336
wreaths 336
armored 335
asphaltstraße 335
bastel@@ 335
cooles 335
deciduous 335
deines 335
entdeckte 335
figurine 335
holzofen 335
impress 335
krie@@ 335
leerraum 335
militar 335
mobiliar 335
nachmittags 335
pines 335
rindfleisch 335
scheduled 335
singers 335
souk 335
unfinished 335
water@@ 335
womens 335
zusammenarbeit 335
allowing 334
angestellter 334
begging 334
belichtung 334
berechtigt 334
bible 334
chiseled 334
col@@ 334
deckt 334
dest 334
draht@@ 334
explodieren 334
fullung 334
gebrochenem 334
genes 334
gleiten 334
glittery 334
grast 334
humor 334
insbesondere 334
martialische 334
methode 334
orthodox 334
portratsitzung 334
recorded 334
saf@@ 334
schlafzimmer@@ 334
schwamm 334
sportwagens 334
squ@@ 334
statur 334
taschenrechner 334
transporting 334
trimmed 334
tum@@ 334
unglaublichen 334
wegesrand 334
anwesens 333
anzuge 333
ausgerichtet 333
bung 333
coconuts 333
decked 333
developing 333
eiserne 333
erkennt 333
erlebnis 333
gehoben 333
modell@@ 333
moor 333
oasis 333
romanesque 333
shrub 333
sogar 333
sprechblase 333
squash 333
terrier 333
versionen 333
zahnburste 333
altersgruppen 332
arbeitern 332
commemorate 332
deckung 332
em@@ 332
fragrance 332
ftet 332
gedicht 332
gepflasterten 332
gospelkunstler 332
interessanten 332
krankheiten 332
languages 332
laser 332
moge 332
mohn@@ 332
monch 332
morgendlicher 332
oberflachen 332
recreation 332
satin-finish-looping-flaggenanimation 332
shuttle 332
tit@@ 332
wahr 332
weihnachtsfeier 332
29@@ 331
adorn 331
ambiente 331
batting 331
boarded 331
buchs 331
draft 331
dunner 331
entlassen 331
familienmitglieder 331
galeriewand 331
gewin@@ 331
ien@@ 331
kontinents 331
logi@@ 331
nachttisch 331
pflanzen@@ 331
physician 331
ropes 331
schusse 331
serien-premiere 331
spice 331
spinach 331
stairway 331
texturierten 331
topic 331
trek 331
typically 331
with@@ 331
wutender 331
zwischen@@ 331
32 330
behinderter 330
citizens 330
endete 330
ess@@ 330
gans 330
kreisformiges 330
laurel 330
mannschaftstrainings 330
mechanische 330
motivational 330
mul@@ 330
petrol 330
plaque 330
rampenlicht 330
rec@@ 330
regenwolken 330
reisepass 330
strait 330
truben 330
waited 330
wichtigen 330
yarn 330
assault 329
ators 329
bedruckten 329
blaze 329
creature 329
develop 329
dichte 329
familienfoto 329
funeral 329
gekreuzten 329
geliebt 329
gerahmte 329
karat 329
landgut 329
patrouille 329
sicherheits@@ 329
sla@@ 329
tomate 329
touren 329
tzte 329
ubersehen 329
vorgeschmack 329
1990s 328
alli@@ 328
beißt 328
belongs 328
british 328
cin@@ 328
confirmed 328
cypress 328
einkaufstasche 328
elnden 328
engines 328
erinnen 328
filmkostumdesigner 328
fruheren 328
gruselige 328
hybrid@@ 328
imageergebnis 328
inklusive 328
interacting 328
irgendeinem 328
metal@@ 328
mold 328
offensichtlich 328
pallet 328
parolen 328
puffy 328
puppen@@ 328
quilts 328
ribs 328
richten 328
romanautor 328
scha@@ 328
schein 328
schlag@@ 328
speisekammer 328
spektakulare 328
spends 328
struggles 328
toes 328
ungewohnlichen 328
vororten 328
wachsende 328
communication 327
country-@@ 327
crate 327
dutzende 327
elfe 327
eroffnungsvorstellung 327
feierten 327
geheimnisse 327
glows 327
grooming 327
haufigsten 327
haupthaus 327
hazy 327
hind 327
hubschraubers 327
komplette 327
laps 327
maß@@ 327
orchidee 327
response 327
sandigen 327
screens 327
spikes 327
stiehlt 327
stromten 327
trampolin 327
trophies 327
ubergang 327
verdeckt 327
verhalten 327
vorhangeschloss 327
wetter@@ 327
28 326
bequemen 326
blatter@@ 326
bookshelf 326
broccoli 326
bucher@@ 326
buyers 326
elektronische 326
ently 326
ergießt 326
eroffnungstag 326
fackeln 326
fixiert 326
gere@@ 326
groceries 326
heiligen@@ 326
incredibly 326
komplexen 326
kopfschmerzen 326
maintain 326
major@@ 326
offensive 326
pooltisch 326
promi-@@ 326
rechteckiger 326
repairs 326
spanning 326
stadtplatz 326
stieg 326
str@@ 326
teilnahmen 326
texturiertem 326
touring 326
ut@@ 326
wochenmarkt 326
3,@@ 325
alert 325
balkonen 325
bande 325
drawer 325
dunkelblauen 325
erhohter 325
explains 325
filmcharaktere 325
gefullte 325
gerendertes 325
großter 325
lachend 325
lebensmittelladen 325
medina 325
off-@@ 325
packung 325
pipeline 325
scottish 325
streitet 325
studies 325
trockenem 325
trophaen 325
wallflower 325
wintergarten 325
zuge@@ 325
90er 324
besch@@ 324
bond 324
britischen 324
cement 324
dat@@ 324
elles 324
feelings 324
glasflasche 324
granatapfel 324
kandidaten 324
lung 324
musikvideoprogramm 324
samstagmorgen 324
schlei@@ 324
stadtzentrums 324
stehende 324
sturzte 324
tene 324
vaulted 324
wraps 324
absolute 323
akzente 323
behalt 323
bullenelch 323
cooker 323
fallender 323
finalrunde 323
gurdwara 323
head@@ 323
hearing 323
heimat@@ 323
kam@@ 323
kostenloser 323
legendary 323
massage 323
meereslandschaft 323
mittag 323
nisse 323
praktisch 323
regel 323
stutzen 323
stylen 323
team-prasentation 323
videospiele 323
wanting 323
150 322
aktivisten 322
announcement 322
ausgesetzt 322
baseballteam 322
bern 322
beziehen 322
bugs 322
crowns 322
darf 322
don@@ 322
einfangen 322
elfenbein 322
familienspaziergang 322
fascinating 322
frucht@@ 322
fußgangern 322
helmets 322
informelle 322
jogger 322
kauf@@ 322
klosters 322
langste 322
marines 322
pongal 322
posierten 322
programms 322
schnellsten 322
schnur@@ 322
scrap 322
streams 322
verbrennen 322
vows 322
wohnzimmerdesign 322
zundet 322
30. 321
54 321
ahnlichen 321
allgemeinen 321
anmutig 321
ato@@ 321
aufmerksam 321
besonderes 321
blau- 321
bookcase 321
charged 321
dor@@ 321
eigenheime 321
entstanden 321
entsteht 321
feier@@ 321
frogs 321
gulls 321
hoffentlich 321
karate 321
konzentrieren 321
liert 321
noticed 321
proteste 321
radio@@ 321
reduce 321
roman@@ 321
sang 321
schickt 321
sleepy 321
strom@@ 321
thesen 321
trompete 321
weihnachtsgeschenk 321
altarraum 320
anmutigen 320
armbanduhr 320
auflage 320
ballerinas 320
bauernhauses 320
bekampfen 320
destroyer 320
dig@@ 320
ere@@ 320
favorites 320
feuerwehr 320
fron@@ 320
geheimnisvollen 320
gelegenen 320
griffen 320
hunderasse 320
inhalt 320
kalorien 320
malenden 320
mill 320
ming 320
musikalischen 320
netze 320
nordlich 320
rains 320
reiterhofe 320
riverbank 320
rothirsch 320
schatzen 320
sportfreunde 320
stoffen 320
ther@@ 320
triangular 320
turkisfarbenem 320
vans 320
zelle 320
zende 320
atlas 319
bahnen 319
expansive 319
halbem 319
karotten 319
kicken 319
knowledge 319
kolonie 319
kreaturen 319
kurzes 319
liegestuhle 319
mittelalter 319
notiz 319
notwendigkeit 319
parachute 319
perch 319
pool@@ 319
roast 319
schreien 319
schwa@@ 319
slate 319
stigen 319
transfer 319
uner@@ 319
verdeckte 319
weihnachtsmarkt 319
winziger 319
boulder 318
chirurgen 318
deco 318
determined 318
direktor 318
ensuite 318
glaciers 318
graveyard 318
ham 318
initials 318
junior 318
kupfer@@ 318
lightweight 318
martialischer 318
merkmalen 318
mme 318
nachdenklich 318
oma 318
para@@ 318
restaurant@@ 318
schnees 318
smokes 318
stich 318
suß@@ 318
tert 318
traditions 318
transition 318
uralten 318
worldwide 318
yogurt 318
aging 317
assortment 317
besatzungen 317
bissen 317
cascading 317
cinematographer 317
einzigartiger 317
einzufangen 317
fahrbahn 317
fairytale 317
faster 317
fencing 317
filmset 317
graser 317
graticule 317
grundlegende 317
huhnern 317
i-@@ 317
jugendlichen 317
kraft@@ 317
leucht@@ 317
lichste 317
megaphon 317
railings 317
runen 317
schopfung 317
strei@@ 317
tab@@ 317
vacant 317
valleys 317
vie 317
achieve 316
arrested 316
cinnamon 316
clausura 316
crowned 316
dienstagmorgen 316
drauf 316
entspannung 316
filmmusik-kunstler 316
glasschussel 316
herein@@ 316
herrliche 316
iled 316
imagination 316
kneeling 316
knowing 316
mauerwerk 316
pedestal 316
sammlungen 316
she@@ 316
statische 316
steinigen 316
surrounds 316
tattooed 316
treibholz 316
upholstered 316
verwandelte 316
wahr@@ 316
weiterhin 316
aufrecht 315
bedeckter 315
bizarre 315
contours 315
cosmetic 315
discarded 315
dominosteine 315
embraces 315
gekochte 315
gerechtigkeit 315
gleis 315
goddess 315
goldfarbe 315
heap 315
hochzeitsringe 315
ht 315
index 315
indoor-@@ 315
innings 315
jaguar 315
kopftuch 315
kuhl@@ 315
kutschen 315
observe 315
ore 315
schmaler 315
skarte 315
surgical 315
vektorzeichnung 315
versions 315
wachter 315
wartete 315
weihnachtslichtern 315
600x600 314
ambassador 314
beachten 314
bezirks 314
binden 314
blickte 314
blumenladen 314
brullt 314
clippingpfad 314
daneben 314
dear 314
drahte 314
eisernen 314
fantastischen 314
flote 314
funf@@ 314
gekennzeichnet 314
generic 314
gepostet 314
goodbye 314
jahrestages 314
konzeptuelles 314
launching 314
leitung 314
lessons 314
magnetic 314
mare 314
milky 314
mogliche 314
muslim 314
rucksitz 314
rusted 314
schei@@ 314
schirm 314
skis 314
spektakularen 314
spielzimmer 314
stylt 314
tende 314
trink@@ 314
unterirdischen 314
verschonern 314
abschied 313
al-@@ 313
ara 313
baumwurzeln 313
beet 313
dete@@ 313
donut 313
encounter 313
fonts 313
getrockneten 313
grumpy 313
gummistempel 313
herb 313
initialen 313
linearen 313
mower 313
musikkunstlers 313
papiertute 313
pastry 313
rubble 313
sculpted 313
sonnenuntergange 313
strokes 313
talented 313
taler 313
29 312
80@@ 312
abstieg 312
angebaut 312
aufenthalt 312
aufweist 312
berufsverkehr 312
brennender 312
diver@@ 312
equation 312
fototages 312
freiwilligen 312
gebietes 312
groomsmen 312
heiratete 312
hollow 312
hul@@ 312
inselgruppe 312
introducing 312
lookout 312
needle 312
occasions 312
ohrringen 312
produkts 312
proved 312
schachfiguren 312
shimmering 312
showcasing 312
sle@@ 312
st-@@ 312
stork 312
sweaters 312
symbolisiert 312
ubersteht 312
ares 311
bett@@ 311
bot 311
caribbean 311
chooses 311
coyote 311
dge 311
dienst@@ 311
einfachheit 311
explain 311
gangen 311
gefahr@@ 311
gipfeln 311
gottin 311
hauptgebaude 311
hochzeitsgaste 311
krei@@ 311
laptop-computer 311
mmer@@ 311
pralinen@@ 311
pressed 311
standard@@ 311
strips 311
suffered 311
wohngebiet 311
ach@@ 310
anatomical 310
ausblicken 310
chases 310
cove 310
fehler 310
freizeit@@ 310
frustrated 310
ganzkorperportrat 310
gepflegt 310
gleichung 310
grad 310
interpreten 310
interviewed 310
laptop-tastatur 310
naherer 310
planter 310
platzchen 310
polizeibeamten 310
practical 310
sele@@ 310
sponge 310
storms 310
symmetrical 310
tug 310
wesens 310
wetlands 310
38@@ 309
assembled 309
begraben 309
bewahren 309
bildunterschrift 309
commemorating 309
consists 309
dorm 309
edgy 309
eigentums 309
escorted 309
experienced 309
gebiets 309
gerissen 309
hourglass 309
lamm 309
lb 309
liebesfilm 309
loads 309
modisch 309
nern 309
november@@ 309
portal 309
producing 309
rades 309
radiomoderator 309
schmutzigen 309
settings 309
spult 309
swirls 309
test@@ 309
tigsten 309
tive 309
tranquil 309
traveled 309
villas 309
wading 309
wohnwagen 309
wun@@ 309
zun@@ 309
300 308
alem 308
alpen 308
aufstellen 308
barrier 308
belong 308
benefizveranstaltung 308
bierflaschen 308
bl@@ 308
bundle 308
daddy 308
dreadlocks 308
drugs 308
dye 308
erlebt 308
frisbee 308
goldrahmen 308
grasshopper 308
halte 308
haltend 308
indische 308
kajaks 308
krabben 308
militarkommandant 308
okay 308
pracht 308
recognized 308
sam@@ 308
shaus 308
staatliche 308
tly 308
tran@@ 308
traumhaus 308
-hintergrund 307
aktiv 307
all-@@ 307
armaturenbrett 307
armbander 307
blass@@ 307
bosen 307
c. 307
cartoon@@ 307
communities 307
devices 307
farbenem 307
gebacken 307
geformtes 307
gerust 307
glorious 307
gruß 307
hinein@@ 307
juwel 307
kiwi 307
linsen 307
manual 307
marken@@ 307
objektliste 307
papageien 307
prasentierte 307
presse 307
provinces 307
radfahren 307
reflektierenden 307
refugees 307
ruhiges 307
sapphire 307
schopfer 307
sneaker 307
textbereich 307
textiles 307
verschluss 307
arbeiters 306
bahngleise 306
botschaften 306
bumper 306
cabinetry 306
capacity 306
charakteren 306
ebenso 306
elite 306
erholung 306
erleuchten 306
fails 306
fischer@@ 306
inspirational 306
kat@@ 306
kaut 306
kopfteil 306
leaping 306
limonade 306
nachdenkt 306
neon@@ 306
passform 306
privathaus 306
restaurierte 306
rhythmus 306
roadtrip 306
saisonale 306
schmeckt 306
sm 306
spate 306
spire 306
sprang 306
stattfinden 306
streunende 306
sunlit 306
tatsache 306
tierisches 306
toddlers 306
verhullt 306
vervollstandigen 306
vogelhaus 306
wirbelt 306
400 305
anten 305
bearing 305
bindung 305
chinesische 305
ckige 305
completing 305
ed@@ 305
ernden 305
erstmals 305
faule 305
fond 305
gebrochenen 305
kaltem 305
keen 305
konkurrent 305
krankenhauses 305
lastkahn 305
leben@@ 305
lunar 305
mende 305
minikleid 305
passagieren 305
provinzen 305
python 305
schwierigkeiten 305
seidenfahne 305
sicheren 305
transport@@ 305
uberfuhrung 305
zo@@ 305
aufblasbaren 304
beantwortet 304
bezahlt 304
broad 304
brushed 304
chainsaw 304
computerbildschirm 304
computergeneriertes 304
computertastatur 304
emerged 304
freuen 304
fuhrenden 304
geplant 304
geri@@ 304
hafter 304
illuminate 304
inspects 304
klo@@ 304
landschaft@@ 304
lebhaften 304
mondlicht 304
originellen 304
pal 304
perle 304
platter 304
retirement 304
sandstone 304
schickte 304
silbernem 304
stencil 304
stoßt 304
unable 304
verarbeitung 304
affected 303
anzugen 303
bestes 303
bewolkter 303
burostuhl 303
caramel 303
demonstrates 303
diat 303
digt 303
einbruch 303
erinnere 303
fahrerlager 303
fiance 303
fugte 303
grafischer 303
herzformige 303
hunderten 303
hupf@@ 303
kasse 303
kn@@ 303
konzerten 303
nanny 303
obst@@ 303
oktopus 303
pajamas 303
playoffspiels 303
porcelain 303
querschnitt 303
rennwagenfahrer 303
schmutz 303
sends 303
spielzeugauto 303
timeless 303
tv-seifenoper 303
vektorlogo-symbol 303
vektorskizze 303
weiß-@@ 303
zimmern 303
40th 302
ads 302
ankunfte 302
bestellung 302
brieftasche 302
brushing 302
ctions 302
ease 302
farbig 302
gebieten 302
gedreht 302
gestartet 302
glamourosen 302
gutem 302
haie 302
hasslichen 302
hun@@ 302
individu@@ 302
meanwhile 302
mmt 302
mte 302
non@@ 302
nten 302
organisieren 302
piraten 302
platschert 302
profi 302
promise 302
remind 302
rudern 302
schlauch 302
schnitte 302
stoß@@ 302
thermal 302
transported 302
veranderung 302
akt 301
badezimmer@@ 301
beugt 301
brushes 301
cleaned 301
daylight 301
fes 301
flog 301
flops 301
fußabdrucke 301
gecko 301
gemobbt 301
hain 301
handtaschen 301
heiligenschein 301
intensive 301
kalter 301
katalog 301
kieselstrand 301
kunsthandwerk 301
limestone 301
mandalas 301
meerenge 301
microwave 301
moti@@ 301
nische 301
recycelten 301
schals 301
segelbootes 301
sinn@@ 301
sq 301
supercar 301
towed 301
verkaufs@@ 301
wechselt 301
zaune 301
zwan@@ 301
45@@ 300
abendlicher 300
boost 300
browser 300
buchserien 300
buck 300
bun@@ 300
coaching 300
computerhardwaregeschaft 300
getranke@@ 300
gezogene 300
grundlagen 300
hellblauem 300
heuschrecke 300
inclusive 300
inform@@ 300
ischem 300
jerseys 300
marry 300
missile 300
mobbed 300
mp 300
multiplayer 300
navigating 300
oats 300
popping 300
qualifikationsspiel 300
relativ 300
runningback 300
schar@@ 300
schleppen 300
schwanken 300
seek 300
spanish 300
sportliche 300
tele@@ 300
viaduct 300
wendeltreppe 300
wildpferde 300
wutende 300
aluminium@@ 299
associated 299
beitragen 299
bekannten 299
ca. 299
distrikt 299
ehe@@ 299
gestorben 299
gloomy 299
inen 299
kuchendesigns 299
kupfer 299
loaf 299
min 299
nahme 299
offizier 299
platz@@ 299
plotzlich 299
produces 299
saisonalen 299
satten 299
sinks 299
speakers 299
spins 299
stair 299
statt@@ 299
toren 299
tv-personalitat 299
uberstehen 299
verwitterten 299
weich@@ 299
werbeportrat 299
wohnblock 299
zerstorte 299
zeug 299
ßen 299
200m 298
ame 298
ate@@ 298
athletische 298
charityveranstaltung 298
comedyfilms 298
croissant 298
ction 298
explaining 298
falke 298
feiertags@@ 298
forth 298
fußball-bundesliga 298
geruch 298
geschaftstreffen 298
goggles 298
graceful 298
gun@@ 298
heutige 298
iting 298
malern 298
maritime 298
mason 298
mun@@ 298
pays 298
ratsel 298
records 298
rickshaw 298
romantik 298
saftigen 298
scratching 298
sondervorfuhrung 298
specsavers 298
suitcases 298
ultra@@ 298
upwards 298
vektorgrafiken 298
wahlkampf 298
37@@ 297
cheeseburger 297
cleaner 297
desperate 297
dress@@ 297
ear@@ 297
excitement 297
funken 297
gasmaske 297
gekurt 297
gleichmaßig 297
grafisches 297
heron 297
highways 297
hintergrund@@ 297
hire 297
hochzeitsstrauß 297
hummel 297
issued 297
kaum 297
konsumguter 297
kreieren 297
leguan 297
liebevolle 297
mais@@ 297
mars 297
meinung 297
mented 297
mull@@ 297
netzwerk 297
rassen 297
reifen@@ 297
spor@@ 297
straps 297
warn@@ 297
watet 297
wit@@ 297
zenden 297
auswahlt 296
außenfassade 296
bten 296
concepts 296
coolest 296
depot 296
dramatisch 296
entfernten 296
gsten 296
hirten 296
hovering 296
ies 296
inspiring 296
lehrerin 296
liegestuhl 296
makeshift 296
marschiert 296
observer 296
opponent 296
organised 296
passagier 296
petting 296
quirky 296
realen 296
sensory 296
shes 296
slight 296
steh@@ 296
tetem 296
untergrund 296
verbindungen 296
verfall 296
verschwinden 296
weapons 296
wehendem 296
weinflasche 296
wolkenverhangenem 296
zusieht 296
alps 295
baseballspielers 295
bettelt 295
beweglichen 295
eiskalten 295
feiner 295
fußgangeruberweg 295
geburtstagskarte 295
gehabt 295
gemalte 295
gucken 295
hinterher 295
konstru@@ 295
legged 295
marmelade 295
moth 295
organisations@@ 295
patches 295
pelz 295
reisender 295
ritters 295
rocke 295
seestern 295
spell 295
stiefeletten 295
symbolisieren 295
tagesausflug 295
tischplatte 295
trinkwasser 295
trocknet 295
tz@@ 295
variation 295
videoaufnahmen 295
vigil 295
welligen 295
zehn@@ 295
ziele 295
abstand 294
acht 294
acryl@@ 294
concerts 294
confession 294
counties 294
dezember@@ 294
durchfuhren 294
eroffnung@@ 294
ff 294
fundraiser 294
fußganger@@ 294
gaben 294
ganz@@ 294
gelo@@ 294
inspect 294
lassigen 294
locally 294
magnolia 294
neugierig 294
neuschnee 294
overtime 294
radiosender 294
reißen 294
sieren 294
smoky 294
tater 294
verlieben 294
wendung 294
wohnraum 294
26 293
400@@ 293
aesthetic 293
angezeigt 293
aquarell@@ 293
careful 293
congratulates 293
conservatory 293
delfin 293
flugdeck 293
flugzeugtrager 293
gedichtband 293
gesetz@@ 293
gestalteten 293
hospitality 293
hunderassen 293
inn@@ 293
iten 293
kindheit 293
kleinkinder 293
olivenbaum 293
pillar 293
positions 293
reisfeldern 293
schlauchboot 293
sieb@@ 293
surprising 293
twigs 293
vorsaison 293
weiches 293
wickel@@ 293
aka 292
badezimmerdesign 292
ballroom 292
bauwerke 292
bon@@ 292
cafeteria 292
digem 292
eher 292
eingeladen 292
elnde 292
geschuttet 292
greater 292
hurt 292
kalligrafie 292
konsumprodukt 292
kuhlt 292
mallard 292
orders 292
ringt 292
schnitzerei 292
spinnen 292
sportlerin 292
teenie-@@ 292
tellern 292
tends 292
wuch@@ 292
zellen 292
approved 291
argues 291
attacks 291
beeindruckende 291
bookstore 291
campingplatz 291
elektronischer 291
erweckungsstruktur 291
exist 291
fers 291
ford 291
halbfinalspiels 291
hnen 291
holzmaserung 291
jugendlicher 291
kampfer 291
keeper 291
kettensage 291
klar@@ 291
klarer 291
kuppeln 291
moat 291
musikerin 291
perfor@@ 291
piercing 291
raspberry 291
rebuilt 291
rehearsing 291
spazierte 291
stunt 291
volumen 291
wondering 291
zuganglich 291
-jahr-feier 290
42 290
49@@ 290
advance 290
choir 290
derte 290
diplom 290
fahnen@@ 290
flaming 290
fluges 290
forearm 290
fuhlte 290
gela@@ 290
gesetz 290
hange 290
hochwertigen 290
kro@@ 290
plantage 290
reviews 290
rippled 290
sive 290
stilts 290
straßenschilder 290
streitkrafte 290
studienfeld 290
sturmische 290
tagebuch 290
verein@@ 290
verlauft 290
verzierten 290
werken 290
wintermodenschau 290
zauber@@ 290
activists 289
apfels 289
beherbergen 289
camouflage 289
closest 289
containern 289
entspannten 289
extraordinary 289
gendem 289
globalen 289
grape 289
grundstucks 289
hofe 289
hotel@@ 289
improvement 289
kamins 289
kniestiefeln 289
kreiert 289
line-@@ 289
motorrads 289
offizielles 289
popularen 289
preparations 289
protopunk 289
publikums 289
schedule 289
seg@@ 289
settlement 289
teenager@@ 289
vektorillustrationen 289
verbrachten 289
waschbar 289
werbebotschaft 289
winterwunderland 289
wortes 289
27@@ 288
automobil-@@ 288
auß@@ 288
bauch@@ 288
circling 288
ehrlich 288
engineering 288
etappe 288
fußball-liga 288
geerntet 288
geschutzt 288
holzerner 288
holzgrund 288
hupfen 288
identical 288
irgendeine 288
krickente 288
kuhl 288
kurses 288
liebsten 288
miss@@ 288
mussels 288
nachthimmels 288
nd 288
poodle 288
pumpen 288
reminder 288
risiko 288
schokoladen@@ 288
seconds 288
showers 288
simulation 288
stored 288
strafstoß 288
strickjacke 288
stube 288
teilnahm 288
terms 288
testspiels 288
ubernehmen 288
verbotsschild 288
vinta@@ 288
volk@@ 288
warmem 288
wasserkorper 288
wrecked 288
zuruckkehrt 288
amphibious 287
ausgehen 287
banking 287
bul@@ 287
capsule 287
climbed 287
downstairs 287
enes 287
ergeben 287
feinsten 287
fernsehpersonlichkeit 287
frosches 287
happening 287
hobbie 287
hohensicht 287
honigbiene 287
identifizieren 287
integrated 287
kirschbaum 287
lambs 287
lioness 287
mechaniker 287
pharmacy 287
pod 287
projected 287
pumpt 287
runder 287
seminar 287
shootings 287
sommertagen 287
ssenen 287
sternwarte 287
streift 287
umher@@ 287
upward 287
vintagehintergrund 287
wh@@ 287
wildfire 287
winternacht 287
zeremoniellen 287
acknowledges 286
bepflanzung 286
bleistifte 286
bomb 286
brillen 286
clipboard 286
dramatisches 286
ero@@ 286
falsche 286
fierce 286
flora 286
gebirgszuge 286
gruppenspiels 286
handbags 286
harry 286
hibiskusbluten 286
illuminates 286
introduces 286
killing 286
konturen 286
live-performance 286
pfirsich 286
raten 286
sch-@@ 286
schattigen 286
schauplatz 286
stately 286
urlaubssaison 286
23@@ 285
acht@@ 285
ample 285
angefahren 285
archipelago 285
bougainvillea 285
chenden 285
climbers 285
commonly 285
commuter 285
considering 285
districts 285
domes 285
eigenschaften 285
erklaren 285
fahrer@@ 285
flan@@ 285
gebrochen 285
gefolgt 285
gelesen 285
glitzernde 285
gran@@ 285
halften 285
handel 285
handing 285
hauptquartiers 285
haustieren 285
headband 285
herausgefordert 285
hochzeitskleidern 285
ishing 285
jewish 285
nirgendwo 285
pickup-truck 285
plug 285
postage 285
[...]
